#version: 0.2
Ġ t
Ġ a
i n
Ġ Ġ
h e
e r
o n
r e
e n
a t
Ġ s
Ġt he
Ċ Ċ
o r
e s
Ġ c
ä ¸
a n
Ġ o
i s
i t
Ġ p
Ġ w
a l
Ġ d
e d
Ġ f
ï ¼
a r
in g
n d
ĠĠ ĠĠ
Ġ b
Ġ m
o u
Ġo f
Ġ in
i on
i c
ã Ģ
ç ļ
â Ģ
çļ Ħ
l e
ï¼ Į
Ġt o
Ġa nd
a s
r o
ä º
en t
Ġ h
c t
Ġ e
Ġ n
Ġ l
Ġt h
o m
e l
s t
e t
ãĢ Ĥ
i l
Ġ re
ä »
å ı
æ ľ
à ¸
Ġ S
i m
i d
Ġ T
o l
Ġ Ð
u t
Ġ A
å ħ
Ġ g
r a
å ¤
. ĊĊ
i v
at ion
Ġ I
Ġ (
Ġ is
Ġ C
u r
o t
c h
u s
i g
è ¿
å Ī
c e
æ ĺ
Ð ¾
a m
ä ½
å ®
o w
a d
ĠĠ Ġ
Ġf or
u l
å Ĳ
å ľ
Ġb e
l y
Ð µ
Ġ |
Ġs t
u n
# #
Ġ M
Ġ v
ä ¹
o s
Ġ on
ä¸ Ģ
Ð °
Ġ P
e m
ç Ķ
Ġ y
æ Ī
ĠĠĠĠ ĠĠĠĠ
a y
er s
i r
æĺ ¯
à ¦
Ø §
Ġd e
Ð ¸
i f
u m
Ġth at
2 0
å °
Ġc on
it h
o d
t er
q u
ç »
å Ĭ
Ġ B
Ñ Ĥ
è ¯
a g
ãĢ ģ
Ġa n
Ġa s
Ġp ro
he r
ã ģ
es t
æ ĸ
Ġw ith
Ð ½
Ġ D
å Ń
ä¸ į
Ġa l
å Ľ
a b
. .
v e
âĢ ľ
äº Ĩ
âĢ Ŀ
æ Ĺ
v er
Ġ R
at e
is t
Ġ it
Ġ H
Ġ =
a c
Ġy ou
æ Ŀ
âĢ Ļ
re s
Ñ ģ
åľ ¨
Ġ E
Ġ F
Ġ W
es s
æľ ī
è ®
Ñ Ģ
å į
e ct
ĠT he
p p
ä ¼
an d
Ġw h
r i
æ ī
Ġ L
t h
å ¹
Ġc om
Ð¾ Ð
s e
Ġ he
Ġ or
äº º
Ġ N
Ġe x
Ġ k
å ¾
il l
o p
Ġa re
ãĢĤ ĊĊ
an t
a k
it y
or t
å ·
o c
é ĩ
å ĩ
å ¼
Ġs e
Ġ G
m ent
h t
o re
è Ģ
Ġ r
Ù Ħ
ro m
å º
Ġs u
a in
i e
è ¡
æ ķ
é Ģ
0 0
iv e
å Ĩ
å ¸
Ġ Ø
Ġa t
; Ċ
1 9
å ¯
Ġb y
l d
Ġw as
å ¥
i es
ĥ ½
u d
o g
ar t
Ġn e
en d
æ Ģ
ä¸ Ń
ç Ľ
å Ĵ
ĠĠĠĠ ĠĠĠ
p t
è §
æĪ ĳ
Ġ le
n t
u re
Ġh a
i al
Ġc h
Ġf rom
Ġ Ċ
p l
Ġ O
å Į
æ ł
Ġ Ù
ä¸ º
å ¿
å¤ §
åĴ Į
Ġ u
Ġ us
ou r
Ġ J
1 0
Ġn ot
an g
è¿ Ļ
æ Ĭ
ä¸ ª
p e
in e
è ¦
è µ
æ Ń
ig ht
Ġ -
Ġth is
p er
Ġs h
ç İ
å İ
i z
ä¸ Ĭ
ç §
el l
Ð »
Ġ en
ct ion
al l
Ġw e
ä» ¥
b er
Ġ "
u st
ç ľ
æ °
é Ĺ
è ĩ
Ġc an
è¦ ģ
å ±
a re
t e
ar d
é Ŀ
ic al
å ½
Ġ j
æ Ķ
æ ³
è ´
i a
o st
. Ċ
u b
ç ī
ou t
ul t
à ¹
æ ²
- -
Ġha ve
Ġ un
çĶ Ł
u e
ag e
ic h
f f
å ĳ
Ã ©
r ou
åĪ °
æ ĥ
Ø ±
as s
æĹ ¶
ä» ĸ
é Ļ
Ġ U
æ ŀ
a p
ou ld
i p
o k
an s
i k
Ù Ĩ
æĿ ¥
at ed
Ġa b
or m
Ġ im
çĶ ¨
20 1
æ İ
Ġ qu
Ġp l
Ġw or
as t
Ñ ĥ
in t
a ct
é ģ
åı ¯
åĩ º
in d
ç º
Ġ K
Ð º
è ĥ½
ĠI n
om e
åŃ ¦
Ġ âĢ
d u
ã Ĥ
* *
Ġc l
Ġa d
Ġ ×
c l
T he
å° ±
ä¼ ļ
Ġ Ø§
Ġcom p
Ġre s
en ce
Ġm e
ab le
Ġ {
id e
) Ċ
ä ¿
ou s
ion s
i b
i re
Ġin t
æ µ
he n
am e
c c
å¯ ¹
ä½ ľ
å¹ ´
Ġd o
Ù Ĭ
p ort
ar y
on g
æ Ħ
t her
æ ¯
é ¢
g e
ation s
e ar
ç Ń
è ¾
Ġal l
å ¦
Ġcon t
ä¸ ĭ
ac k
à §
Ġp er
er e
åľ °
è¡ Į
ç Ĳ
Ġ V
ic e
im e
a v
f er
as e
r u
ä¹ Ł
c on
an ce
æ Į
å ī
Ð ²
' s
ä» ¬
1 2
åĽ ½
Ñ ı
à ¤
åı ĳ
æ ĭ
Ð ¼
æĪ Ĳ
r y
Ù ħ
ä ¾
Ù Ī
èĩ ª
ent s
å ĵ
åĪ Ĩ
å Ģ
ig n
) ,
e p
a ch
o v
l ic
Ġw ill
åŃ Ĳ
æĸ ¹
.. ..
or d
Ġ [
Ñ ĭ
äº İ
en s
ï¼ ļ
Ġh as
ç «
ĠT h
g h
è ½
ĠS t
ĠĠĠĠĠĠĠĠ ĠĠĠ
åĲ İ
é ĺ
Ġwh ich
1 1
ç Ĥ
res s
Ġyou r
Ø ª
Ġp r
Ġa r
Ġthe ir
Ġd is
ç ¬
ç Ŀ
Ġb ut
on e
20 0
Ġh is
f orm
## #
è¿ ĩ
) .
Ġo ut
å¤ ļ
ä¹ ĭ
Û Į
Ġa pp
n e
ä½ ł
a ce
i le
Ġg o
or s
ç ®
it ion
Ġ âĢľ
å· ¥
k s
u al
Ù ĩ
Ø ¯
å® ¶
Ġ <
çĲ Ĩ
é Ĥ
s o
å Ł
Ġt e
æ³ ķ
ĠØ§ ÙĦ
Ġs a
è Ĥ
Ð ´
x t
åĬ ¨
Ġ à¦
Ġs o
) ;Ċ
Ġon e
/ /
Ġm an
Ġ }
ä¸ ļ
Ñģ ÑĤ
æ ¬
Ġt r
å® ļ
æ ±
å° ı
it e
ĠÐ ¿
Ġl a
_ _
ur n
Ġm ore
Ġthe y
Ġp re
å¥ ½
o ok
Ġ if
1 5
éĿ ¢
v el
å¾ Ĺ
æ ´
ç Ł
l l
os e
1 8
ç Ħ
p h
èĢ Į
) ĊĊ
or y
ou nt
å ģ
è¯ ´
é ¡
Ġ \
Ġ{ Ċ
ãĢĤ Ċ
ak e
Ġs p
a il
å¿ ĥ
Ġw ere
é ĥ½
å¦ Ĥ
ç ¨
æ ¸
Ñ Į
è ·
çİ °
é «
Ġu p
el y
Ġp art
Ġn um
Ġ Y
c i
éģ ĵ
c es
æī Ģ
ĠC h
è¿ Ľ
at h
çĿ Ģ
å® ŀ
Ġd es
Ġ '
re e
1 3
er v
at er
åĬ Ľ
é ĥ
ã ĥ
åĲ Į
é ķ
Ġo ther
Ġin ter
æľ ¬
at a
é Ľ
Ġ ro
Ñ ĩ
y s
æ Ľ
o b
ç» ı
1 6
Ġe v
d e
1 4
æ Ļ
Ðµ Ð½
Ġu nd
ä½ ĵ
y st
ä¸ »
Ġh ad
é« ĺ
çľ ĭ
20 2
Ġ +
ç ½
å¼ Ģ
Ġab out
Ġ _
æ ı
æĢ §
ä¸ İ
âĢĿ ĊĊ
n ow
åħ ¶
è °
ou nd
ç ¤
å¤ ©
çŃ ī
çĦ ¶
Ġ $
e w
äº ĭ
Ġa g
Ġ z
p le
ĠR e
j ect
âĢ Ķ
ra m
ol l
c om
Ġ her
åĮ ĸ
w e
r ic
Ã ¡
åī į
il d
i an
c re
æĸ ĩ
: ĊĊ
Ġe m
r ing
Ġ *
ĠI t
åħ ¨
çĤ ¹
if ic
åĲ Ī
åħ ¬
, Ċ
Ġal so
é ļ
n g
éĤ £
is h
Ġwh o
æķ °
er t
ĉ ĉ
c k
ĠÐ ²
éĥ ¨
1 7
er m
Ġ ĊĊ
ol og
× Ļ
a us
Ġ i
Ġit s
Ġ ì
ä¹ Ī
re at
ar k
Ġt ime
w o
ay s
Ġne w
> Ċ
è¿ ĺ
ÑĢ Ð°
f t
Ġt ra
å §
Ġcom m
Ġ Ñģ
Ġm y
èĢ ħ
r it
åº ¦
Ġa m
Ġthe re
ĠĠĠĠĠĠĠĠ ĠĠĠĠĠĠĠĠ
Ã Ń
c he
ar i
he re
å Ŀ
æ į
on t
ik e
å »
. ,
æĸ °
le ct
ing s
ç Ļ
Ġbe en
; ĊĊ
æĥ ħ
yst em
Ġ &
éĹ ´
ç ¾
on s
Ġint o
ç¬ ¬
ä¸Ģ ä¸ª
× ķ
3 0
Ġo ver
ir st
åħ ³
åİ »
è ī
pe c
Ġthe m
Ġ Ã
el f
2 5
ie w
é £
ro w
éĩ Į
at es
Ð¾Ð ²
äº §
è ¶
èµ ·
Ø ³
æĹ ¥
éĩ į
Ġw hen
è ģ
ç ©
æ Ł
Ġa cc
ç§ į
à¸ ²
et h
Ġd if
Ð ·
åº Ķ
Ġs ome
Ġre t
s s
ç ķ
ri b
Ġp e
Ġth an
æĦ ı
al ly
è Ĭ
æľ Ģ
cl ud
Ġst ud
Ġb et
åĬ ł
æ² ¡
Ã ³
on d
u nd
ub lic
ç ³
Ġw ould
c ess
Ġwor k
Ġan y
ç ´
Ġn o
Ġcon s
éĩ ı
éķ ¿
ĠÙ ħ
I n
Ġo b
Ġin d
âĢ ĵ
Ġas s
ol d
ĠÐ ¸
ä¸ ī
Ġo ur
g et
æĥ ³
Ġre l
à ®
: Ċ
o od
åĽ ł
å½ ĵ
Ġy ear
Ġm ay
in k
éĢ ļ
Ø ¨
è¡ ¨
æľ º
ï¼ Ł
p s
çĽ ¸
is s
Ñ ħ
Ġk now
l es
-- --
em ent
re d
åĪ ¶
Ġp o
ç Ī
Ġv al
ĠTh is
Ġ ra
ow n
a h
ĠH e
Ġnum ber
å¾ Ī
äº Ľ
æĺ İ
æ ģ
æ° ´
2 4
à¸² à¸
ï¼ ģ
åĨ ħ
å ¢
Ġg et
Ġfor m
ç ¥
en er
ul ar
Ø ¹
od e
h at
ĠÐ ½
c ed
n ing
t y
ä½ į
åħ ¥
Ġh ow
ic k
ig h
å¸ Ĥ
çī ©
Ġp os
æ ¶
i ed
i o
Ġb l
Ġund er
Ġ Â
Ġ .
Ġwh at
Ġex p
ä½ Ĩ
Ġf l
it ies
é ľ
è ĭ
er y
æī ĭ
Ġa ct
å ķ
è º
at ing
Ġc o
ic s
ç ł
æı Ĳ
è Ī
è ¢
à¦ ¾
Ġs he
is e
ï¼ ī
æķ Ļ
Ġe l
Ð ¿
Ġe t
ĠÐ ¾
Ġf e
Ġt wo
il ity
æŀ ľ
ï¼ Ī
e f
c y
? ĊĊ
Ġsu b
f ter
Ġpro v
å¤ ĸ
å» º
at ive
Ġ Î
âĢ ¦
×ķ ×
Ġre g
ç¨ ĭ
å £
p r
çŁ ¥
ä» İ
ĠâĢ ĵ
Ġf irst
Ġad d
ra ct
o y
åı Ĭ
Ø ©
åı¯ ä»¥
é¢ ĺ
æĹ ł
æľ Ī
Ġm od
å¥ ¹
u g
Ġre c
Ġbe c
ang e
ation al
æŃ ¤
å° Ĩ
Ġin v
Ġl ike
Ġc ol
çĶ µ
ĠC om
= "
b le
rou gh
è Ħ
ad e
i ent
æŃ £
å· ±
e x
al s
å± ķ
ç³ »
æ¬ ¡
ĠU n
æł ·
è Ĳ
p ro
Ġd i
åı ª
æĪĳ ä»¬
æľ Ł
2 2
it s
äº Į
Ġthe se
Ġe ff
×Ļ ×
aus e
Ġne ed
ment s
en g
Ġcl ass
Ġ :
ter n
çĽ ®
æĪ ĸ
ĠP ro
æ¯ Ķ
Ġp h
00 0
ç® ¡
è ĥ
æ ·
èº «
a x
è® ¾
Ġ â
5 0
é ħ
èĩª å·±
Ġtr ans
ut ion
é Ķ
ä½ ¿
è§ £
m er
Ġs c
ãĢ ĭ
ç ±
ç ¡
Ġs et
ãĢ Ĭ
æ ¡
ow er
Ġsu ch
Ġdif fer
Ġus e
æ° ĳ
2 3
ĠW e
Ġde f
å¹ ³
Ġon ly
Ġret urn
oc k
å¼ ı
19 9
ç ģ
Ġsa id
æ´ »
ç Ĺ
å¸ ¸
op le
_ {
ä¿ Ŀ
e c
à ¥
åĵ ģ
åĮ º
o ve
ĠÙ Ī
ĠØ ¨
rou nd
i er
Ġof f
å ĸ
ce pt
à¸ Ļ
ç ¼
å¹ ¶
as ed
re n
Ġp ar
Ð½ Ð¸
ç ĸ
è® ¡
iz e
it t
Ġin clud
èµ Ħ
å® ī
Ġpro du
( )
ot h
æĽ ´
Ġa c
ĠÐ º
ÑĢ Ðµ
u res
S t
ç ²
ç ĥ
Ð ±
Ġf un
Ġat t
ver y
Ġth rough
p ut
åĬ ¡
ç» ĵ
e g
ä¸ ¤
éĹ ®
æİ ¥
è¢ «
vel op
ĠA n
ä¿ ¡
Ã ¤
Ġ est
we en
ul l
i x
t en
u p
.... ....
åĲ ĳ
ä» £
ib le
Ġp res
e y
Ġs ur
é »
i el
ic t
åĪ ©
æĦ Ł
Ġj ust
é Ĵ
Ġh im
= =
à¦ °
Ð ¹
u ch
ĠĠĠĠ Ġ
ou gh
u es
or k
2 8
2 6
Ġres p
Ġd et
çī ¹
åĽ ŀ
id ent
Ġre m
1 00
o ol
iv ers
åģ ļ
w n
he d
åľ º
} \
e k
è į
Ġp ol
åĳ ĺ
Ġbet ween
Ġ ent
åį ģ
å·¥ ä½ľ
Ġm ost
Ġp ers
åŁ º
è £
2 7
is m
Ġw here
y m
å· ²
Ġpe ople
s p
4 0
Ġs pec
f ore
Ġs ystem
ì Ŀ
ĠÐ ´
Ð ³
ä» ¶
Ġ /
if e
Ġc ould
t o
Ðµ ÑĤ
u c
Ġsu pp
Ġd ata
èĢ ģ
ar ch
ur ing
åĲ į
oll ow
Ġus ed
Ġhe l
ĠĠĠĠĠĠĠĠ ĠĠĠĠĠĠĠ
g an
in s
éĩ ĳ
con d
Ġ\ (
æĶ ¿
d er
é ª
çĶ ±
ç ¦
f ul
à§ ĩ
Ġs ign
a z
Ġ end
Ð¾Ð »
é ¦
Ġ ë
Ġqu e
Ġ x
Ġp ublic
Ġres ult
æ²¡ æľī
Ġsh ould
åİ Ł
ç¾ İ
in al
ect ion
## ##
Ġ ,
er g
Ġthe n
Ù ģ
Ñ Ī
åı ĺ
Ġd el
ĠA r
å½ ¢
Ġin st
æ° Ķ
è Ļ
à§ į
Ġm in
æ º
t t
æ »
Ġ} Ċ
æĬ Ĭ
ä» Ģ
2 9
ÑĢ Ð¸
Ġb ack
i ous
Ġa fter
al th
Ù Ĥ
å¤ ´
åĲ Ħ
Ġs im
Ġs m
à¹ Ī
ru ct
è ¨
Ð¾Ð ´
ag es
åı £
Ġt y
i qu
ãģ ®
Ġf act
Ġre qu
it ed
form ation
Ñ Ĩ
ĠA l
ĠS e
çľ Ł
Ġw ell
il y
a j
æ ¨
p os
al e
c ent
an n
ic es
i en
ch n
æ ®
çĽ ´
à¸ £
ction s
Ġcon st
v ent
2 1
à¸ Ń
Ġex per
Ġf ollow
Ġl ong
å ŀ
ç» Ħ
æ Ĥ
l ed
Ø§ Ø
èī ²
.. .
ur al
v en
æį ®
un g
at ure
r an
åĽ ¾
ç» Ļ
t ic
Ġman y
Ġv ari
w ard
æĮ ĩ
Ġde velop
Â ²
è· ¯
Ġe qu
an y
Ġd ist
Ġc ur
Ġc or
Ġm ake
T h
ä» »
id er
Ġc he
Ġ ed
ç¤ ¾
Ġde c
Ġp at
åį ķ
æ± Ĥ
Ġ Q
E R
t s
a w
Ġ es
å¤ Ħ
Ð½ Ñĭ
Ġ Z
å° ĳ
é ©
in es
Ð½ Ð°
oc i
è¯ Ŀ
Ġe ach
ç« ĭ
Ġim port
Ġs ol
' t
ut h
Ġc ar
Ð½ Ð¾
f l
Ġh igh
å¼ º
3 3
ot her
åħ ĥ
h ip
ĠD e
er n
olog y
Ñ İ
Ġch ar
åı Ī
é ĵ
à¸ ģ
6 0
æµ ģ
Ġm ed
__ __
Ġd id
Ġdiffer ent
Ġb u
ak ing
Ġst r
c o
Ġex t
Ġhel p
im es
Ġg ener
et s
( "
Ġpro cess
è® ©
æł ĩ
æī ĵ
è´ ¨
Ð¾Ð ¼
Ù ĥ
Ġm em
ÑĤ Ðµ
Ġex am
ant s
ä»Ģ ä¹Ī
äº ¤
Ø§ ÙĦ
el s
éľ Ģ
- s
t ing
è ¥
< /
n ess
Ġo p
e ver
Ġw ay
à¹ Ģ
è§ ģ
åĪ «
æĶ ¶
Ġb el
çº ¿
æĶ ¾
ĠH ow
Ð» Ð¸
iel d
Ġre ad
Ġm on
åħ Ī
d ay
Ġyear s
å°± æĺ¯
åı ¸
ç¤ º
at or
è§ Ħ
s w
v ed
ç» Ł
åı Ĺ
Ġl ook
Ġr ight
Ġev en
Ġe very
a u
Ġpo int
Î ±
Ġbec ause
ç¥ ŀ
à¦¾ à¦
æľ ¯
Ġg ra
åĨ į
" ,
- b
Ġse e
eth od
v iew
ĠE x
iz ed
å¸ Ī
éĹ ¨
iv es
ÐµÐ½ Ð¸
ĠÐ ¼
è¥ ¿
ri pt
å® Į
le t
ç§ ĳ
è½ ¦
} Ċ
a ir
' ,
Ġm at
ut e
Ġf ind
å¯ ¼
y n
åĽ Ľ
æī į
Ġeff ect
p ar
Ð¾Ð ³
ĠC on
è ±
ä¹ ¦
à¦ ¿
re ad
ion al
o id
æ £
Ø§ ÙĨ
re nt
Ġsh ow
Ġs erv
æľ į
Ġa v
t he
Ï Ħ
m s
in ed
19 8
3 5
Ġm et
Ġus ing
Ġin cre
æĮ ģ
à§į à¦
g ram
å¥ ³
à¹ ī
Ġs er
Ġag ain
é£ İ
s c
Ġ #
è¿Ľ è¡Į
å Ħ
n er
a pp
éĢ ī
v ers
æĬ Ģ
l and
è Į
æ¯ ı
ç® Ĺ
a ve
l ine
åħ ī
Ġst at
] ĊĊ
Ġm ain
iv id
ro l
Ġ er
as h
Â ·
é¡ ¹
ï¼ Ľ
èĢ ĥ
Ġl oc
å± ±
æł ¼
Ġpart ic
ä¼ ł
c ul
Ġv ery
Ġpers on
ĠÐ½ Ð°
Ġapp ro
us s
æĢ »
ĠØ§ÙĦ Ø
å ĭ
è° ĥ
e b
ç± »
Î ¿
r on
èĩ ³
å Ļ
æĢ Ŀ
ou n
3 6
ent ial
ra y
ical ly
o x
å® ĥ
iz ation
v al
æµ ·
Ġs k
çĻ ½
4 5
ĠF or
Ġc ent
Ð¾ ÑĢ
åħ ·
Ġch ild
Ú ©
ĠA nd
Ġs l
8 0
Ġh and
Ġgo od
Ġc ount
ar m
im port
ar g
Ġg u
Ġ )
Ġwh ile
Ġbe ing
ç ĭ
Ġst art
è¿ Ĳ
è® ¤
ch ool
ĠA d
ä»ĸ ä»¬
Ġd own
it al
ire ct
æķ ´
Ġc re
Ġ //
åı ĸ
å½ ±
Ġdo es
å® ¹
åı į
ç¡ ®
I N
æĿ ¡
ĠA s
et y
Ġc all
æ¸ ħ
Ġn ow
at her
m in
åŀ ĭ
Ñģ Ðº
ar s
b ers
rou p
Ġbe fore
ar n
ç Ĭ
è® º
Ġg l
Ð ¶
3 7
ä¹ ī
ç ı
æ² »
Ġpl ay
are d
Ġth ose
Ġm uch
Ġt est
Ġin formation
Ġb oth
å ĥ
æķ Ī
Ġ >
Ġo wn
Ġse cond
åıĳ å±ķ
è¿Ļ ä¸ª
Ġm ade
éĻ ¢
ro ss
à¸ ±
O N
çł Ķ
è İ
è® °
ä¸ ľ
is ion
Ġw ant
ÑĤ Ð°
ç ħ
Ġex pl
ä½ ķ
Ġs ame
he s
9 9
å ²
à¸ ĩ
, âĢĿ
an k
ä» ·
é Ł
ä¸ ĸ
r al
as es
æĬ ¥
Ġl ife
o ad
Ġval ue
è ĳ
å Ķ
Ġin s
èµ °
æŃ ¥
çľ ¼
in ce
Ġre p
ĠW hat
è¯ ¥
iv en
Ķ ×
od y
Ġwor d
st and
Ġf ound
ect ed
) .ĊĊ
ĠS h
ĠN ew
t on
3 4
Ġf am
an c
in ess
em ber
á ĥ
í ķ
Ġfun ction
o h
^ {
åĢ ¼
g g
åŃ Ĺ
à ¯
ĠØ ª
éĿ ŀ
ĠC l
çº §
am p
ire d
åĪ Ļ
ĠL e
Ġcon f
æ ¼
èĤ ²
Ġcomm un
Ġth ree
ä¼ ģ
åĩ ł
Ġre al
ĠY ou
åĦ ¿
è ħ
èĬ Ĥ
g ht
i j
E S
ate g
å¸ ¦
ç½ ĳ
ĠI f
æĶ ¹
{ Ċ
éĢ ł
éĹ® é¢ĺ
Ġqu est
Ġwor ld
Ġt em
Ġan al
Ã ¶
æ ¢
A T
è ª
o le
åķ Ĩ
te xt
Ġf in
ä¸Ń åĽ½
Ġle ad
ĠI nd
Ġe le
åĻ ¨
Ġde p
åħ ±
å¢ ŀ
w ay
ä¹ ł
Ð» ÑĮ
3 8
å¤ ª
è½ ¬
m e
ç© º
Ġs om
åħ¬ åı¸
åŁ İ
à¸ ¡
éĽ Ĩ
Ġd on
in a
Ġd er
ur s
æģ ¯
Ð¾Ð ¹
ĠâĢ ĺ
æŁ ¥
Ġ Ñ
ä¸į æĺ¯
ŀ ×
re t
æ ħ
æł ¹
u k
- >
Î ¹
I t
çĹ ħ
è¯ ģ
am es
3 2
Ġt erm
---- ----
Ġte chn
ä¸ ĩ
3 9
al k
Ġth ink
ual ly
æ ¥
Ġm ark
7 0
Ġsupp ort
Ġk e
ç² ¾
åĩ Ĩ
ĠR es
v ing
i or
æĹ¶ éĹ´
Ġd em
Ġc our
ist s
Ã ¼
ãĢĤ âĢĿ
ĠâĢ Ķ
Ġ X
ar ly
æ³ ¨
åĢ Ļ
åŃ ĺ
Ġm ethod
ĠĠ Ċ
è¯ Ĩ
Ġprov id
Ġpos s
Ð² Ð°
. "
æº Ĳ
en ces
Ġim p
ver n
äº Ķ
o f
Ġhe re
ç ª
ä» Ĭ
çİ ĭ
Ġg r
m an
s elf
Â ł
å¿ «
as on
Ø ´
ãĢĤ âĢĿĊĊ
R e
æĪ ĺ
åĮ ħ
4 8
Ġ à¤
åį Ĺ
Ġd ay
Ġh um
ra ph
r ation
è¾ ĥ
ab ility
à¸ µ
å¿ ħ
3 1
act er
ĠØ ¯
Ġd uring
Ġpro ble
åį ³
en se
Ġt ake
æł ¡
â Ī
æŀ Ħ
Ġle vel
. com
ĠÙ ģ
Ġhe alth
if y
ç½ ®
l i
Ð» Ð°
æ· ±
\ )
è§ Ĥ
oc ial
å¦Ĥ æŀľ
ir on
âĢĶ âĢĶ
Ġact iv
åĪ Ľ
ä¾ ¿
Å Ĥ
mer ic
Ø Ń
æİ ¨
èĬ ±
is hed
ä¸ ĵ
æ ĳ
å£ °
à¹Ģ à¸
è¾ ¹
Ø§ Ø±
Ġor gan
Î ½
åĨ ³
9 0
Ø ²
å¤ ĩ
è¾ ¾
ä¼ģ ä¸ļ
à ²
Ġm ust
à °
è¯ Ń
çķ Į
æĸ Ļ
Ġpres ent
Ġw ater
a i
Ġimport ant
4 4
æĿ ĥ
ĠT e
å¤ į
Ġl os
o ot
ãģ Ħ
i ence
e e
å§ ĭ
å ł
f or
Ġ Ñĥ
Ġc ell
19 7
Ġcons ider
æĶ ¯
ç© ¶
m a
Ġcont in
t ain
Ġm ult
Ø ¬
Ġd r
çļĦ äºº
. [
ç®¡ çĲĨ
è¿ ĳ
ĠS p
åĬ Ł
Ðµ ÑĢ
A R
: //
æ¡ Ī
Ġf il
ĠB ut
c ript
Ù ī
d ition
Ġo per
Ġs elf
Ġp ass
ĠW h
/ s
ï¼ļ âĢľ
× ¨
Ġstud y
le x
it ive
ĠP h
äºĨ ä¸Ģ
im al
( '
Ġc al
åı Ĥ
çİ ĩ
] Ċ
Ġ ê
ãģ «
åĥ ı
èģ Ķ
ivers ity
åĳ ¨
Ġb us
b e
Ġpro gram
Ġpro f
. âĢĿ
ÑĤ Ð¸
åħ ļ
Ġl ist
æ¨ ¡
Ġc are
at t
ot e
5 5
u ro
z e
it ions
our ce
Ã³ n
ÑĤ ÑĮ
ou se
ĠÐ ±
ĠP l
Ġper form
åĳ ½
i um
× ľ
Ġn ame
è§ ī
iv ing
Ġv is
Ġp ower
Ġg row
cc ess
Ġl ast
Th is
éļ ¾
Ġb ook
i ents
Ã §
Ġc ap
l ish
è¨ Ģ
du ct
v es
sw er
æ¶ Ī
. s
al ity
Ġw rit
Ġc ase
å¼ ł
o int
ĠI s
w w
ak es
en e
ĠThe y
å ¨
åĨ µ
Ġre f
é¢ Ĩ
- t
} ĊĊ
: :
in ing
Ġo pt
ä¸ Ķ
å¹ ²
æ ļ
4 6
Ġm ov
ĠE ng
Ġb re
Ġ} ĊĊ
ç¤¾ ä¼ļ
çİ ¯
r id
iv er
um ent
b s
Ġp ot
à¸ §
et er
éľĢ è¦ģ
å¼ ķ
é ĸ
E N
Ġ @
iv ely
ĠÐ ·
ç´ ł
y l
Ġsm all
. S
ĠâĢ ¢
åĮ Ĺ
if ied
Ġc le
è¯ ķ
7 5
pl oy
ver t
Ġg reat
Ġdis c
at ic
Ġn on
à¦¿ à¦
- f
Ġp ost
é ¥
Ġst ill
åĬ ŀ
çĪ ±
ä½ ı
- d
Ñ ī
iv ed
Ġm en
è± ¡
ĠÐ ³
n al
éĢ Ļ
C h
åı °
è§ Ĩ
s on
ĠA meric
Ġdes ign
åı¯ èĥ½
æĺ ĵ
ul ation
Ã £
éĺ ²
Ġpro t
Ø Į
k e
in ation
æĢ ģ
Ġad v
ä¾ ĭ
Ġpro per
æĸ ½
Ġpl ace
Ġre port
ĠØ ¹
Ġa round
åı ·
or n
å¸ ĥ
l ess
S T
ĠThe re
Ġb est
è´ ¹
ÑĤ Ð¾
ç ¢
r ight
Ġe lect
ĠE n
ä¾ Ľ
ad a
Ġd ie
v iron
Ġst and
ä½ İ
** **
ir c
Ġre se
at ch
Ġin f
æ ĵ
Ġh ist
Ñģ Ñı
uth or
Ġl ess
éª Į
ãĤ ĭ
åĨ Ľ
con om
Ġp op
ĠO n
æ® µ
éĺ Ł
Ġm il
ç« ł
Ġ ident
Ġbe h
éĢļ è¿ĩ
4 7
r or
ou ght
æµ İ
ãģ ¨
Ġor der
P ro
Ðµ Ð¼
Ġprodu ct
ater ial
Ġst ate
Ġfollow ing
Ġwith out
m ed
4 9
res ent
Ġs ay
O R
ç¦ »
è ı
Ġexam ple
d iv
Ġle t
å¢ ĥ
æĸ Ń
çŁ¥ éģĵ
am ent
I D
æĬ ķ
Î µ
end s
æ Ĵ
ir d
åĽł ä¸º
Ðº Ð°
Ġop en
åĮ »
à¸ ¥
éĢ Ł
om en
ĠCom m
è¶ Ĭ
st r
Ġall ow
Ã£ o
g en
å± Ģ
Ġv ol
ãģ §
åĳ Ĭ
ä½¿ çĶ¨
) )
ä¸Ń çļĦ
æŀ Ĺ
ang u
Ġp ract
iqu e
Ġs pe
Ġwith in
è¡ Ģ
A N
ĠT r
à¸ ¢
âĢ¦ âĢ¦
è£ ħ
æľ ª
Ġt ri
ag n
ç Į
çī ĩ
an e
Ġl ine
. âĢĿĊĊ
è® ®
Ġinter est
ĠS he
Ġ× Ķ×
t a
é º
A L
r ist
Ġunder stand
Ġcur rent
6 6
éĻ ¤
........ ........
æŀ ģ
Ġhe ad
åŃ¦ çĶŁ
Ġinv est
W e
ar ge
ÑĨ Ð¸
a pt
iss ion
und red
p or
æĹ¶ åĢĻ
ra c
Ġb as
Ġre st
Ġde v
ãģ Ĺ
ert ain
Ġs um
! ĊĊ
7 8
çĥ Ń
g er
ĠT o
å Ĥ
Ġis s
çłĶ ç©¶
Ġstud ents
) :
Ġ= =
Ġm ill
æİ §
é© ¬
ent ion
Ø§ Øª
á Ģ
Ġty pe
Â °
Ġr is
0 1
ys is
åŃ ©
Ġ **
æĢ İ
æĪ ¿
Ġinclud ing
ÑĢ Ð¾
Ġd irect
å§ Ķ
Ġa ff
w ays
y d
èĲ ¥
eng th
Ġb o
Ġr un
Ġo cc
it er
æĮ ī
æīĢ ä»¥
ivid ual
r is
Ġme as
ain s
- m
0 5
å·² ç»ı
ig ure
Ġmod el
Ġd iv
Ġre du
éħ į
Ï ģ
çħ §
äºº çļĦ
are nt
at ely
ç¬ ĳ
] .
Ġto p
å¹ ¿
Ġan other
à¸ ´
æľ Ľ
å¤ ±
Ġs chool
æ Ĳ
æĺ ¾
à¸ Ķ
Ã ¨
Ġa ut
am b
Ġo pp
åĲ ĥ
è¿ ŀ
ĠĠĠĠĠĠĠĠ ĠĠĠĠĠĠĠĠĠĠĠ
ra d
Ġ ide
itt le
um ber
A n
Ġ Ã©
æµ ĭ
Ġh ome
æĬ ¤
Ġ ÙĦ
æĸ ¯
è¿Ļ æł·
èĲ ½
ro ll
pl es
çļĦ ä¸Ģ
Ġf our
ro p
ç» Ń
Ġman ag
åĪ ĩ
Ġch ang
é£ Ł
Ġsign ific
å¾ Ģ
ĠP r
f ace
E x
" Ċ
åĲ ¬
Ġcont rol
c ur
Ġ= >
ãģ ¦
åĵ į
ç»ı æµİ
ĠO r
g o
çĬ ¶
åĪ Ĺ
im ent
ë ĭ
é ¾
Ġme an
åİ ĭ
Ġm us
ress ion
n a
åħ ĭ
19 6
çĻ ¾
å ¡
ot t
A S
Ġto o
Ġ< /
åĬ ©
æĪ ·
/ m
erg y
éĻ ħ
Ġt imes
un e
ç§ ¯
C om
6 5
w ork
Ġg roup
æ» ¡
ard s
d en
éŁ ³
( );Ċ
i od
ãĤ Ĵ
ç» Ĩ
æĿ ĳ
it u
ĠB l
ä¼ ĺ
Ġc ost
Ġun t
? Ċ
æķĻ èĤ²
Ġch ange
ra w
Ġh undred
at s
l ing
u le
ãģ Ļ
Ġapp lic
Ġagain st
æ¸ ¸
Ġf ew
× Ķ
in c
ä¿ ®
Ġst ruct
Ġl im
å¾ ·
æİ Ĵ
Ġpro ject
Ġ ÑĢÐ°
Ġpr int
Ġen g
ï ¿
è® ¸
Ï ĥ
æĥħ åĨµ
Ġar t
æ£ Ģ
çľ ģ
Ġm ight
éļ ı
è¯ ·
ĠØ £
Ġle g
viron ment
çİ° åľ¨
é¦ ĸ
åĪ° äºĨ
Ġv er
è¶ ³
a f
åħ »
Ġs ocial
- l
æŃ »
== ==
ä½Ĩ æĺ¯
Ä Ļ
Ġp ur
Ġâ Ĩ
ad o
ï¿ ½
ÑģÑĤ Ð°
Ä ħ
Ġind ividual
åĨ ľ
åĽ ¢
Ġg re
çĶŁ æ´»
b y
à¸ Ĺ
Ġbus iness
er c
Ġ Ñĩ
æĸ¹ æ³ķ
Ġcom e
æĬĢ æľ¯
ĠA pp
Ð¾ ÑĤ
Ġmon th
å± Ĥ
Ð¾Ð³ Ð¾
p on
Ġre ce
Ġpl an
çĲ ĥ
æľį åĬ¡
Ġdet erm
er ing
Ġse ver
re qu
fer ence
ne w
Ġl es
ãģ ¯
Ġgo vern
éĩ ĩ
åį ´
Ġchild ren
- c
Ø µ
I C
eth ing
ord ing
8 8
n ame
ĠQ u
our s
Ġim pro
çº ¢
or g
ç§ °
Ġt urn
éĿ Ĵ
c rib
æ´» åĬ¨
ĠÃ Ĺ
Ġp a
ial ly
ĠB e
å® ¢
he m
n ot
ĠC ol
Ġin c
èģ Į
Ġob ject
ĠS ch
9 5
è´ £
è§ Ĵ
å¾ ®
ç¬¬ ä¸Ģ
Ġv iew
ub l
èĩ ´
Ġhum an
w are
a it
ific ation
Ġgo ing
iv ate
Ġto t
æ ¹
å ĺ
6 4
, ĊĊ
Ġne xt
Ġc ult
éĻ Ĳ
ä¸» è¦ģ
Ġe as
ĠA ll
Ġl ight
åį İ
m ath
ur ther
çģ «
èĳ Ĺ
Ġbu ild
I S
Ð´ Ð°
og raph
Ġg iven
ä¹ Ĳ
Ġl og
}\ )
en cy
Ġof ten
ä¸į èĥ½
Ġd en
Ġs ince
C on
è¿Ļ äºĽ
Ġt reat
èĩªå·± çļĦ
ĠS ystem
Ġth ings
à¸ °
ä¼ Ĺ
ç ¿
n y
Ġfe el
Ġb en
Ġed uc
c er
s er
Ġdevelop ment
åĨ Ļ
ãģ Į
Ġd u
Ġha pp
ri es
Ġty p
Ð» Ñı
ãģ ª
Ġcon n
ol ution
Ġd a
åĢ ĭ
a ut
is ter
ä¾ Ĩ
Ġla w
Ġb ased
à¸ ª
Ġcomm on
Ø ·
our ces
em s
ic ro
Ġrese arch
ç µ
ou th
Ġl ittle
Ø³ Øª
as k
ent ly
ur y
pl ic
u f
Ġte am
re am
èĮ ĥ
ç³» ç»Ł
æī ¾
6 8
åİ Ĩ
æ± Ł
æķ ħ
ĠW or
çŁ ³
y pe
éĢ Ĥ
Ġar tic
è· Ł
ust om
Ġwor ks
æĿ İ
op e
is ed
Ð¾Ð ±
åı ĭ
che s
A s
I T
Ġbet ter
Ġf ield
Ġor ig
åĲ §
Ġas k
ĠG od
v ious
ĠÐ½ Ðµ
Ġle ft
Ġch o
æĺ¯ ä¸Ģ
ĠUn iversity
åį ĩ
Ġel se
ä¸į åĲĮ
ar ning
ut es
Ġs al
ĠN o
Ġadd ition
ç» ´
] [
ra p
ĠS o
ĠØ§ÙĦ Ùħ
A C
0 8
åĪ Ĵ
çº ¦
Ġm aterial
ĠI m
è Ń
ÑĢ Ñĥ
pl ay
Ġf ac
åŃ¦ ä¹ł
or ies
åĽ½ å®¶
] ,
olog ical
á »
ĠÃ ł
i Ã³n
éĩį è¦ģ
s h
a im
) ;ĊĊ
Ð» Ðµ
um e
ĳ ×
åı ²
Ġpro m
7 7
ä¾ Ŀ
Ġt ry
è¯ Ħ
å£ «
t r
Ġte xt
Ġprov ide
Ġchar acter
T o
y le
Ġ Ú©
ç» ĩ
ail able
Ġan t
ãģ Ł
Ġsom ething
ĠM an
o ver
ãĢ Į
Ġp ut
Ġs ing
ç« Ļ
p ect
} {
è¿ĺ æĺ¯
ì Ĺ
Ġo ld
ãĢ į
th ing
à¸ ķ
ĠU S
Ġk ey
Ġare a
å¾ ĭ
Ġf ree
å± ŀ
æĭ ī
Ġresult s
åľ Ł
W hat
à¸ ļ
Ø ®
an ces
ĠA b
us h
ÙĬ Ø©
r m
èĪ ¬
y p
- p
Ġfam ily
ra in
pr int
è¦ģ æ±Ĥ
g a
angu age
Ġbel ie
us e
Ġ %
è¯ ¾
le ase
Ġsh ort
.. .ĊĊ
ĠThe se
èĤ ¡
Ï Ģ
ç¾ ¤
å ©
id ence
çļĦ æĺ¯
en c
à¦ ¨
åĪ Ŀ
Ġn a
Ð¼ Ð¸
ç± ³
ĠM ar
Ġg en
äº ²
Ġv e
Ġin te
ff ic
ð Ŀ
èį ¯
0 9
å¸Ĥ åľº
Ġst ep
æ¸ ©
ci ence
r ite
ĠÐ¿ Ð¾
Ġd ays
æŀ Ĳ
éĥ½ æĺ¯
åº ķ
Ùĩ Ø§
æĹ ©
å· ®
Ġke ep
Ä Ľ
Ġre ally
é¢ Ħ
è¿ ľ
à¯ į
Ġn et
Ġb ro
Ġs i
ot s
è¯ »
Ġl and
åŃ© åŃĲ
Ġl ow
H e
åĳ ¢
åį Ĭ
ÑģÑĤ Ð²
A d
ä¸Ĭ çļĦ
éĺ ³
Ġal ways
[ i
ĠA m
Ġsignific ant
og n
ä¹Ł æĺ¯
) ;
f ic
Ġt re
ra g
5 8
Ġin fl
Ġs w
åĸ ľ
Ġk m
4 2
id es
ĠÙ ĩ
Ġt er
, "
è¶ ħ
6 7
Ġbe g
ab ly
Ġme ans
è½ »
Ġpartic ular
Õ ¡
å¤ Ł
Ġmark et
end ed
ä»ĸ çļĦ
Ġb ody
a ction
oc us
Ð¾Ð² Ð°
Ġv ers
æĸ¹ éĿ¢
å° Ķ
at ural
Ġs qu
le ction
å· ŀ
ab les
ĠÐ °
ĠA ss
ĠHow ever
Ġinv ol
åº ľ
Ġne ver
ill s
ãĢ Ĳ
Ġexper ience
èĭ ±
åĬ ¿
ãĢ ĳ
Ã ł
ç Ĩ
Ġw he
æĻ Ĥ
. p
Ġl arge
id s
u ra
Ġh ig
ĠÐ· Ð°
ĠÙ Ĩ
é Ń
åº ı
che d
os p
it le
Ġ ÑĤ
ĠM ed
A r
N ame
Ġth ought
Ġb i
çŃ Ķ
Ġsu ccess
ĠW hen
à¸ Ħ
åİ ¿
re g
æ¬ ¾
aj or
Ġd ig
Ġcall ed
it or
Ġâ Ī
E C
ĠA t
å¼Ģ å§ĭ
å®ī åħ¨
6 9
å¿ Ĺ
end ing
a pe
oh n
ab or
åĽ ´
åķ Ĭ
Ñĩ Ðµ
éĻ ©
u x
æĿ Ĳ
Ġe conom
l er
y ch
Ġf ore
Ġra d
é ł
Ġloc al
Ġacc ess
è¿Ļ ç§į
ĠS u
Ġle arn
Ġ ess
Ġpot ential
s et
Ġper iod
4 1
Ġan swer
ãģ ¾
\ (
æĻ ¯
Ġr ange
Ġtr ue
Ġrep resent
å¿ µ
Ġproble m
à¥ į
Ġv an
19 5
Ï Ĥ
çĽ Ĭ
op h
or th
ä¿¡ æģ¯
Ġass oci
" .
Ġem ploy
Ġcon d
Ĳ ×
ic a
æĭ ©
ĠØ ³
+ +
à¸ «
. l
0 7
E D
Ġs ide
5 9
Ã© s
" >
cl us
å»º è®¾
èİ ·
åı ¤
çŃ ĸ
æĺ Ł
ad d
Ø§ Ùħ
åŁ Ł
Ġl o
qu e
k a
Ġp ress
Ġpat ients
\ .
led ge
os ed
Ġposs ible
ri e
ar get
Ġan g
Ġen ergy
éĥ¨ åĪĨ
Ġf ood
Ġword s
C l
ç» Ī
åı Į
ci ent
à¤ ¾
5 7
o or
Ġp ay
4 3
ç»Ħ ç»ĩ
as ter
å¤§ çļĦ
Ġm ot
ĠI nt
åħ ħ
ĠÂ ·
" :
Ġcom b
Ġf ri
em b
çĶŁ äº§
Ġm ar
æ ¿
Å ¼
à ´
Ġph ys
I d
z a
æķ° æį®
Ġh ard
Ð¾ Ð½
åħ Ń
çĶ ·
il ar
ro du
ĠC ont
Ġar g
it her
com m
æĿ ¿
Ġp ort
ow s
u ed
al se
( )Ċ
æĢİ ä¹Ī
ĠĠĠĠĠĠĠĠ Ġ
an a
Ġinclud e
) :Ċ
Ġle ast
Ġcor re
0 6
ort un
Ġrel ations
ĠG o
E T
Ðº Ð¸
Ġ ut
e xt
ar l
ous and
on es
äº ī
ut ions
çī Ī
å½± åĵį
æī ¿
èµ· æĿ¥
æĸĩ åĮĸ
Ġper cent
Ġquest ion
Ġst ring
ver age
. m
il i
Î »
Ġf r
ear ch
0 2
if t
ä¸ĸ çķĮ
ĠM e
le y
ÑģÑĤ Ð¸
Ġen vironment
I I
en n
æ² ¹
é» Ħ
ĠCh rist
åĲĮ æĹ¶
Ġen s
Ġen c
ä» ħ
c ol
åħ¶ ä»ĸ
çª ģ
ar a
Ġcont ent
i et
Ġin it
æł ¸
ç® Ģ
ure d
åĿ ĩ
Ġtot al
Ñ Ħ
à¹ ģ
Ġpr im
äº ĳ
ľ ×
Ġs am
Ġknow n
ĠM ay
éĢī æĭ©
à¥į à¤
è ŀ
19 4
de f
çķ Ļ
åĲ Ĺ
Ġc rit
Ġwe ek
ut ure
ap s
y t
a ult
le te
Ġg ive
Y ou
Ġof fer
Î º
ç¼ ĸ
Ġc ertain
è¿ °
Ġdes crib
å® ¤
Ï ħ
æĹ ı
è® ²
is c
ä¸Ģ å®ļ
it es
Ġm aking
åĩ »
ä¸ ¥
Ġ il
ä» ½
Ġab le
é» ĳ
æŁ Ĳ
s erv
Ġanal ysis
é¡¹ çĽ®
Ġe y
Ġdisc uss
ric t
Ġd ue
âĢ ĺ
Ġrequ ire
er ed
âĢ ¢
A l
Ġav ailable
Î ·
Ġind ust
Ġacc ount
Ġunt il
ä»¥ åıĬ
æ¯ į
Ġ\( \
Ġl ove
Ġs ym
åħ³ ç³»
Ġpro b
Ġar r
è¿ĩ ç¨ĭ
St ring
Ġa ir
Ä į
om et
Ġind ic
Ġben ef
Ġf ull
è´ Ł
è ©
. C
æ ¦
ip le
L ist
r and
our nal
Ġcal cul
a is
b o
èĥ½ åĬĽ
Ġa way
Ġh tt
Ġpol it
Ġl ik
i ol
p re
Ġspec ific
con t
Ġcre ate
ĠP ol
ĠD es
Ġab ove
b ack
Ð¼ Ð°
Ġg ot
Ú ¯
s el
ĠÙħ ÙĨ
×Ļ× Ŀ
et t
åį ĥ
Ġc irc
9 8
Ġc r
n o
Ġf ocus
im ate
ar r
ore d
ar ing
Ġc reat
ð Ł
I f
Ġk ind
æ¼ Ķ
iv al
I ON
ob al
iv ity
ib ility
Ġpar a
Ġcour se
è¾ ĵ
Ġsever al
h o
. g
ĠÑ į
Ġg e
ĠS c
ä½ľ ä¸º
ĠÐ¾ Ð±
âĢĿ ,
ic y
et ic
åĪ »
ÐµÐ½Ð¸ Ñı
æīĢ æľī
0 3
åħ «
av a
in ter
ĠC ent
Ġcol or
æĸ¹ å¼ı
Ġle arning
Ġ `
Ġpos ition
é ¸
Ġam ong
å® ³
äº§ åĵģ
ht t
Ġro le
z y
ist ic
Ġp ath
ç ¯
in ary
____ ____
çĽ ĳ
ect or
Ġvari ous
/ h
ab el
å¤§ å®¶
Ġother s
è Ĺ
ä¼ ¼
Ġm ajor
ĠÂ «
ĠØ ±
Å ¾
Ġgovern ment
åĲ ¦
å± ħ
Ġha ving
è¿Ļ ä¸Ģ
Ð¾Ð ¶
äºº æ°ĳ
ak en
åĵ ª
Ġbec ome
Ġsu re
Ġmill ion
æ¬ ¢
å¥½ çļĦ
Ġ í
åį ı
ĠE uro
al f
at ors
c le
æł¹ æį®
å¯ Ĩ
éĢ ģ
à ª
ain ed
å¯¹ äºİ
5 6
le ment
0 4
ĉĉ ĉĉ
get her
Ð¾Ð º
Ġs ent
å® Ŀ
Ġp ast
st it
à§ĩ à¦
Ġto gether
Ġex ist
R O
pp ed
Ġrec ord
çı Ń
Ġresp ect
ĠP er
Ġan n
ĠC al
_ t
Ġimp act
æŃ ¢
ud e
ĠÐ¿ ÑĢÐ¸
Ġfact ors
Ġ um
Ġp or
one y
k t
o ber
at o
le v
éĻ į
Ġd oc
i ans
é¡ »
L L
st e
Ġs ize
ĠUn ited
ä» ¤
Ġs ens
Ġc aus
Ġf ar
ĠAmeric an
ar th
R es
ĠW ith
Ġr ate
5 00
b r
ĠE m
ĠB y
åı ¥
Ġth ousand
ĠF l
Ġm om
ight s
ĠC an
èĭ ¥
å¾Ī å¤ļ
© ×
Ġa uthor
os s
il ities
æĪĳ çļĦ
Ġpr ivate
. _
ĠG u
Ġd om
o res
Ġb ig
æ² ³
cript ion
Ġnum bers
op y
at ory
çĶ »
Ð´ Ðµ
Ġne g
le g
æ ĩ
ä¸Ģ äºĽ
ä½ľ çĶ¨
ĠG e
her s
Ġ ;
å® ĺ
ĠSt ud
as ing
ĠC o
åĳ ³
Ø§ Ø¯
Ġadd ress
{ \
Ġal ong
Ġresp ons
ail s
ìĿ ´
è ²
Ġsu gg
×ķ× ª
æį ¢
çļĦ æĹ¶åĢĻ
cl ass
à¸²à¸ £
ÙĪ Ø±
Ġsa f
Å Ľ
Ġam ount
Ġf und
è®¾ è®¡
åĩ ı
Ġme et
Ġsu per
b l
th is
Ġf urther
ĠÙ Ĭ
Ġdis e
Ġartic le
Õ¡ Õ
Ġval ues
om s
ĠÙģ ÙĬ
ĠĠĠĠĠĠĠĠĠĠĠĠĠĠĠĠ ĠĠĠĠĠĠĠĠĠĠĠĠĠĠĠĠ
ne y
ic ation
åħ ´
Ġne cess
read y
N A
å° ½
æıĲ ä¾Ľ
Ġsugg est
um p
Ġa p
éĶ Ļ
ä¹Ł ä¸į
é Ĩ
åĪĨ æŀĲ
èµ Ľ
el t
åģ ¥
Â »
Ġe arly
pt ion
Ġgener al
Ġb ase
re m
od el
a e
Ġv oid
" >Ċ
Ġcomp any
Ġf ive
äºº åĳĺ
Ġ- -
ë Ĭ
Ñĩ Ð¸
ac es
äº ¬
Ġs at
çĸ Ĺ
R E
Ġstr ong
Ġn orm
cept ion
} }
åŁ ¹
çł ´
æľ ĥ
ä¸Ģ èĪ¬
b re
: âĢľ
å¾ ħ
ç´ §
ĠS te
ĠTh at
èĻ ½
Ġw omen
Ġd at
. d
he ad
ap ter
åĿ ļ
at ures
ur ch
Ġris k
Ġch all
Ġt w
ç¬¬ äºĮ
èī º
ell ing
ä¹ °
ĠA ct
Ġl ater
em ents
Ġp ain
Ġre view
Ġsub ject
åĪ ļ
U S
é¾ Ļ
ĠÐ ¡
éĶ Ģ
t ies
F or
a ff
), Ċ
in o
ëĭ ¤
Ġstr ateg
Ġst re
æ ¤
ä¸¤ ä¸ª
i h
ĠJ ohn
Ġac ross
ĠÐ »
åĽ Ń
er o
19 3
Ø§ ÛĮ
Ġem b
ĠÐ Ł
åı ¦
æĿ¥ çļĦ
Ġj e
ess age
ï¼Į âĢľ
Ġpre d
ward s
åĸ Ħ
ĠIn tern
Ġcon c
w ord
og le
C ont
ĠM in
æĭ ¬
Ġprof ess
éĴ ±
ep end
éĿŀ å¸¸
Ġex c
ĠE l
åĲ «
Ġde g
ul y
( n
æĻ ®
å¤ «
ret urn
Ġg ame
è Ĩ
Ġun a
Ġwhe ther
ple ment
ĠR et
éħ Ĵ
Ġcount ry
çİ¯ å¢ĥ
ac y
ch ie
Ġm ind
Ġl ot
è´ ¢
th ough
l oad
Ġc ustom
æ¿ Ģ
Ġm or
Î ¼
at ter
å¯ Ł
Ġwh y
Ġcont rib
Ġab s
åĢ ĳ
åº ·
Ġcomp ut
äº Ĵ
Ġwork ing
ĠEng lish
ĠÐ¾ ÑĤ
con st
å¸ ®
u ck
çĤ º
Ġspec ial
Å ¡
" ,Ċ
ä¸ ¾
m l
ä¸ ĥ
Ġh old
ĠC O
er al
ï¼ģ ĊĊ
Ã ¥
. org
ers on
id d
Ġus er
ä¸º äºĨ
Ġinte g
um n
ĠN e
Ã ª
A P
åıĳ çĶŁ
åĨħ å®¹
is on
Ġsystem s
p ublic
Ġm ax
Ġhist ory
7 9
( s
ä¼ ¤
Ġcl aim
ĠØ ´
Ġre ason
Ġsp ace
Ġf uture
Ġd one
Ġtem per
ch an
un t
Å Ļ
om an
ĠâĨ ĳ
éĤ£ ä¹Ī
Ġl ay
Ġrelations hip
Ġterm s
A D
. c
Ġdid n
åĩº çİ°
é¦ Ļ
Ġd ou
Ġal ready
åıĳ çİ°
Ġserv ice
åĽł æŃ¤
ord er
Ġcell s
ÙĪ ÙĨ
ĠJ an
s ide
f rac
d o
è Ľ
Ġev ent
åı «
Ġp ri
ç ¶
Ġcommun ity
âĪ Ĵ
æŃ ¦
è¿ĺ æľī
Ġob serv
ÙĬ ÙĨ
al es
æĪĸ èĢħ
Ð² Ð¸
Ġsing le
Ġsim ilar
Ġse lect
Ġl arg
å¼ Ĥ
çĽ´ æİ¥
çļ ®
Ð¾Ð» ÑĮ
Ġ ur
æĺ ¥
ç¦ ı
( x
å½ ķ
ï¼ İ
ãĥ ¼
at al
Ġyou ng
ê ³
i am
Ġ !
ä¹ Ŀ
Ġbeh av
Ġs on
Ġ ?
è¯ į
s k
Ġl as
æĶ¿ åºľ
h a
ru ction
c ing
ri ed
Ġl anguage
Ġinter n
ëĬ Ķ
Ð´ Ð¸
Ġapp ear
åĨ ·
Âł Âł
m ost
å® ¡
Ġrequ ired
ib r
åħ į
al u
à¸ Ī
Ġhig her
åĲ ¸
us ing
} ^{
Ġs itu
Ġhe art
é£ ŀ
_ d
Ġche ck
Ġneed s
Ġf inal
é ¼
O n
Ġappro ach
i os
æ ½
Ġst ory
å¸ Į
Ġn atural
Ġgrow th
Ã§ Ã£o
Ø ¶
Ġ id
Q u
ç« ¯
æĻ ļ
ä» ĭ
Ġs ix
Ġto ol
ĠSt ates
åŁº æľ¬
à¸ Ľ
Ġa ge
è Ĵ
iz ing
çķ ¥
å¯ Į
ĠO ne
æĭ ¿
Ġ× ŀ×
H ow
ìĿ ĺ
ç§ »
m y
Ġst e
èī ¯
Ġchang es
en ing
Ġj ob
pp er
Ġc ame
Ġen ough
Ð¾ Ñģ
A M
ict ion
Ġcond itions
à¹ ĥ
Ġknow ledge
Ġtreat ment
Ð½ Ðµ
on se
Ġincre ase
u ff
çĪ ¶
ro s
is ing
èŀ į
_ ,
à§ ģ
B ut
ĠD o
ì ł
V iew
er a
ÙĪ ÙĦ
ç ĵ
åħ· æľī
h old
éĿ ©
å· ¦
5 2
ĠÐº Ð°
Ġv ir
Ġ ill
Ġdist rib
åŃĺ åľ¨
çĭ ¬
å¦ Ī
ĠN ot
end er
Ġbel ow
Ġ× ľ×
ä½ Ļ
Ġbeg in
ul a
èª ª
å¾ ģ
ĠEuro pe
Ġoff ic
ĠL a
Ġpartic ip
ion e
g es
Ã º
Ġc ode
æıĲ é«ĺ
Ġserv ices
Ġt able
art ment
çģ µ
ç» §
æī §
Ġbre ak
Ġcomp lex
ä¹ İ
Ġ à®
é ²
erv ice
A nd
ãģ ĭ
Ġperform ance
ip s
ì Ħ
Ġh ouse
ound s
u it
op t
Ġth ough
pl ace
ĠI N
ĠM y
èĦ ¸
à¹ Ħ
anc ial
è¡¨ ç¤º
Ġim m
Ġw ind
f ect
19 2
Ġt arget
-------- --------
Ġquest ions
Ġf ace
ãĤ Į
fic ult
Ġp arent
Ġ Õ
åı ¶
èĢĮ ä¸Ķ
. get
Ġmanag ement
ĠP ar
æ³ ¢
Ġs ays
âĢĿ ï¼Į
ç» Ŀ
. ;
ĠRe g
à¤¾ à¤
rou ps
un ction
èĭ ı
æľ ¨
åı ³
i res
éĵ ¶
Ð½Ñĭ Ñħ
Ġest ab
Ġf ile
The re
he l
h ib
ul es
åĮħ æĭ¬
è ³
ä¹ĭ åĲİ
/ Ċ
l ist
åĿ Ĳ
Ġresp onse
Ñĩ Ð°
Ù İ
s ych
i ber
Ġinfl u
du c
Ġl ower
Ġ× ĳ×
ç ĩ
Ã ½
à¸ ·
i i
p o
æ¯Ķ è¾ĥ
Ġa ction
çĦ¶ åĲİ
Ġm ass
] ;Ċ
ĠP art
ĠN ov
Ð½ Ð¾Ð²
ĠA f
ä¸Ń å¿ĥ
if f
ru g
ol ar
Ġc ou
Ð¾Ð ·
Ġc e
w h
5 1
ach ing
åį ¡
it ing
W h
Ġy ang
çº ª
ĠØ¯ Ø±
g ed
æĢ ¥
ubl ished
ens ion
æĭ ħ
clud e
D e
æĦ ¿
Ġd an
em pt
ä¹ĭ éĹ´
- g
7 6
Ã ¢
Ġpr ime
Ġto ok
éģ İ
Ġmem bers
ÑģÐº Ð¸
3 00
im um
Ġto day
ic o
æİ§ åĪ¶
ar c
éĻ Ī
Ġcon vert
ç¨ İ
Ġperson al
ÙĨ Ø¯
Ġes pec
Ġse en
çŁ Ń
æľ Ŀ
åĿ Ĺ
å¿ħ é¡»
." ĊĊ
Ġre d
Ġin de
è§Ħ å®ļ
ĠCom p
ar b
Ġpos itive
Ġe ither
è®¡ ç®Ĺ
è´ §
ï¿½ ï¿½
Ġeduc ation
Ġh ours
æł ĳ
ist ics
Ġin put
Ġa chie
Ġopp ortun
ìĹ Ĳ
åįķ ä½į
é¢ Ŀ
åģ ľ
ain ing
å®ŀ çİ°
ç £
è¡ ¥
Î ¯
èĥ Į
ĠÐ µ
è® Ń
à¥ ¤
8 9
èĥ½ å¤Ł
5 4
Ġpoint s
Ġp age
d ate
Ġth ing
H E
il t
en ed
è¿Ļ æĺ¯
nd er
S e
çľĭ åĪ°
åį °
èĩª çĦ¶
E n
Ġb ring
Ð½ Ð¾Ð¹
å¤§ åŃ¦
å¦Ĥ ä½ķ
æī ¹
à¦¾ à¦°
çĽ¸ åħ³
æĻ º
Ġon ce
Ġph ot
çĶ± äºİ
éķ ĩ
ith m
L E
å¾ Į
. t
ac iÃ³n
ĠA g
Ġcomp et
å¤Ħ çĲĨ
å® £
åº Ĺ
Ġdif ficult
Ġcomp on
ad es
ĠY ork
ĠÐ Ĵ
æĪĲ ä¸º
è¿Ļ éĩĮ
an ced
ir m
Ġà¦ ķ
g round
Ġpre vious
å·¥ ç¨ĭ
5 3
ç¡ Ģ
Ð² Ð¾
åıª æĺ¯
æĵ į
re l
ra ft
u j
am m
Ġde b
ä¸» ä¹ī
åºĶ è¯¥
ĠSt ate
ä¸ª äºº
Ġ ÏĦ
åŃ¦ æł¡
Ð¾Ð´ Ð¸
ç²¾ ç¥ŀ
Ġf requ
Ġsur face
ĠØ Ń
åŁº ç¡Ģ
Ñģ Ð¸
U n
itt ed
æĽ ¾
Ġe in
et ers
Ġf ail
Ġbl ood
ÐµÐ½Ð¸ Ðµ
Ġwho le
ä» ĺ
Ġmonth s
g ress
Ġt alk
ou d
è¯ ī
ç ŀ
at us
Ġproble ms
ç½ Ĺ
Ġstruct ure
ĠH is
it ation
Ð· Ð°
10 1
se qu
Ġd ire
st ring
ĠA ng
Ġup on
ĠO ct
äº ļ
Ġpa per
æĬ Ĺ
19 1
ĠP a
Ġmeas ure
Ġv o
Ġqu ality
Ġs em
Ġsh own
åľ° æĸ¹
ä¹ ħ
éĺ ¶
ĠL et
å¥ ĩ
æĤ ¨
åī ¯
N o
Ġcomp let
Ġob tain
éĺ ¿
- h
**** ****
k en
Ġm akes
æĬķ èµĦ
I P
Ġt ax
ĠWor ld
Ġprovid ed
ï¼Ł ĊĊ
ç»ĵ æŀľ
Ġhow ever
Ġso ft
Ġare as
Ġon line
ä¹ ¡
éĿ Ļ
oci ety
A B
å¤ ľ
Ġco ver
Ġacc ording
Ä ĩ
Ġass ess
ä¸Ģ èµ·
çĸ «
Ġpl ant
Ġassoci ated
med i
on y
çĶ ļ
çŁ¥ è¯Ĩ
åĢ Ĵ
Ġcle ar
es e
Ġc oll
Ġrel ated
it ch
U R
ĠR ep
Ø °
Ġdiv is
æ¶ ²
ÛĮ ÙĨ
D ata
? âĢĿ
ä¸į è¿ĩ
p ose
åĬ ³
ell a
è®¤ ä¸º
çļĦ äºĭ
Ġsh all
Ġe ver
ÙĦ Ùī
à¯į à®
å· ´
ĠN ational
B y
Ġeff ic
åį «
ãģ ĵ
ĠT ra
è ĸ
b ol
ãĤ Ĭ
} _{
ä¸į ä¼ļ
Ġse em
/ (
l a
Ġw ar
ĠE d
Ñ ĺ
Ġr ather
Ġlevel s
ĉĉ ĉ
m it
à¸Ń à¸ĩ
íķ ĺ
ç´ ¢
åħ¶ ä¸Ń
Ġstud ies
' m
ç»ĵ æŀĦ
åĪ ¤
ä¸ ´
Ġt ell
- st
Ġactiv ity
Ġpar am
ist ance
b b
Ø «
Ġc y
as c
. A
ill ed
- w
Ġcons um
Ġ ...
le ft
il s
ãģ Ĩ
è´ Ń
Ġc ity
åģ ĩ
T ype
ç¬ ¦
ä½ł çļĦ
ê °
Ġc ases
Ġre fer
Ġm oney
åıª æľī
ĠSt ring
åĽ º
Ġm icro
Ġprodu ction
ce m
Ġf all
Ġim age
7 2
ty pe
av or
åĨ ²
S h
Ġs y
at ur
V al
æłĩ åĩĨ
Ġc ut
ĠN umber
èĻ½ çĦ¶
èį ī
d a
ie f
Ġdef in
z en
Ġv ar
ed s
Ġfl ow
Ġsol ution
æľī äºĽ
Ġorig inal
ç» ĥ
æ¯ Ĵ
sel ves
æĢ ķ
Ġfact or
Ġpro te
ĠA ug
Ġd am
Ġde ath
æĹ ħ
min ist
ç« Ł
à¸ ¸
Ġpract ice
Ġunderstand ing
ĠA pr
ĠM on
id a
Ġexp ress
p ri
Ġiss ues
Ġsim ple
ĠÐ² Ñĭ
æħ ¢
Ġrec ogn
. f
E L
ë ¡
Ġw ent
ãĤ Ĥ
ï¼Ł âĢĿĊĊ
Ġcon vers
( t
Ġn ight
i us
éħ ¸
Ġb it
× ª
Ġy et
çİ ©
è½ ½
æĿ¡ ä»¶
ra ction
o ff
çī Į
Ġim plement
ut ed
Ġeffect s
Ġcon duct
Ġg round
åº §
çĹ Ľ
å° į
ĠÐ¸ Ð·
O S
Ġs ource
Ġw ays
A t
Ġg roups
is es
è¡ £
ĠĠĠĠ ĠĠ
à¸µ à¹Ī
al t
> ĊĊ
Ġm o
am a
èĦ ĳ
ĠP re
in n
æĽ ²
com es
. M
åĩº æĿ¥
" ĊĊ
id th
pp ing
r t
Ġk g
Ġmom ent
U T
Ġd est
å®Į æĪĲ
k an
ent al
ä¸Ģ æł·
ÑģÑĤ ÑĮ
å ³
Ġlos s
u el
èŃ ¦
ĠG l
ag ing
æĤ £
Ø§ Ø¨
an o
yn am
I G
_ s
Ð¾Ð ¿
èĤ ī
Ġo d
Ġlook ing
ĠTr ans
Ġt aken
Ġcon cept
6 1
é ½
ç§ĳ åŃ¦
åħ µ
æ¦ Ĥ
Ġ× ķ
Ġdise ase
co ver
Ġh alf
ĠP M
Ġev alu
' re
iqu es
ĠV al
ĠC or
æ³¨ æĦı
æľĢ åĲİ
ĠI S
' ,Ċ
Ġb ar
op s
ĠÙ ĥ
Ġun it
Ġapplic ation
ÑĤÐµ Ð»ÑĮ
ĠÐ¿ ÑĢÐ¾
Ġexp ect
Ġinvest ig
- in
Ġactiv ities
Ġse par
è´¨ éĩı
ww w
Ġro om
æķ £
6 3
row n
Ġc ause
ĠD is
ide o
w here
è ĵ
cre t
Ġprovid es
Ġà¦ ¸
ĠØ ¬
à¦ ¤
Ġmin utes
Ġqu ick
al ing
y a
é ¤
ĠD ep
Ã Ĺ
åĬŁ èĥ½
ly ing
u ary
I nt
ant e
Ġro ot
M M
Ġcan not
å° Ħ
T r
, \
Ġme chan
os is
h ing
Ġtechn ology
Ġint rodu
Ġpro pos
è§ī å¾Ĺ
p en
à¦ ķ
Ġcorre ct
n ÃŃ
Ġtyp es
C ol
ÙĪ Ø¯
Ð½ Ð¾Ð³Ð¾
Ġpre vent
ĠIn ter
ic ht
èĭ ¦
W hen
Ġth ird
ãĥ »
Ġl iter
Ġte ac
èı ľ
Ġconc ern
op er
ç¾İ åĽ½
ç¼ º
ĠÙ Ĥ
i ation
b ook
Ġmethod s
ĠC ar
ĠÑ Ħ
k i
Ã¡ s
éģ ĩ
ĠHe alth
Ġdo ing
Ġneed ed
ðĿ ĳ
E M
Ġreg ard
ot al
Ġshow s
å² ģ
Ġne ar
à¸ Ĥ
av es
Ġnet work
è¡Į ä¸º
ì ŀ
åį ł
6 2
ç¨ ³
å® Ī
Ġespec ially
it a
Ġsh are
ad em
ĠD r
Ġwrit ten
é¡ ¾
Ġs ection
Ġask ed
1 20
ĠS outh
éĢ Ģ
Ð½Ñĭ Ðµ
Ġa ud
l og
Ġ ÑĢÐµ
ä¸Ģ æŃ¥
ĠF ran
æŁ ĵ
Ġs ense
æľ ĭ
è° ¢
ĠĠĠĠĠĠĠĠĠĠĠĠĠĠĠĠ ĠĠĠĠĠĠĠ
Ġexper ien
Ġele ment
é¡ º
éĵ ģ
Ġlik ely
å½¢ æĪĲ
-b ased
çł ģ
Ġl ength
um b
O T
ĠM ore
åĶ ®
ĠP e
éĥ¨ éĹ¨
å®ŀ éĻħ
åĵ ¥
v is
Ġà¦ ª
ir l
Ġac cept
ìĿ Ħ
Ġs us
æ¥ ¼
p ond
Ġocc ur
I s
Ġstat ic
Ġl ink
" );Ċ
- S
ä¸Ģ ä¸ĭ
ä¸į è¦ģ
Ġh ab
oun ter
ãĥ ³
idd le
st er
Ġf ram
Ġser ies
Ġm i
m et
ç© ¿
æĭ Ľ
N D
ä»£ è¡¨
Ġess ential
Ġcl os
ï¼ģ âĢĿĊĊ
Ġev idence
m en
Ġpress ure
Ġn ature
ç» ľ
æķĻ åŃ¦
Ġequ al
Ġdoc ument
_ c
c ome
æį Ł
Ġe ight
Ġ ãĢģ
Ġin form
åĩº äºĨ
ç ĳ
éļ ľ
ect s
IN G
éĤ Ħ
åĪ© çĶ¨
Ï Į
åŃ £
Ġà¦ ¬
è¿Ļ ä¹Ī
ä¸ĵ ä¸ļ
ĠS im
à¸ ¹
Ġw alk
Ġto ld
Ġsk ills
ãģ £
ers hip
u ild
è¯ Ĺ
æİ ¢
ac ed
ãĤ ī
Ġc amp
éĽ ¨
çĽ ĺ
ack age
Ġal most
ä¸Ģ çĽ´
æŃ Į
Ñ ĸ
l o
15 0
in i
Ðµ Ð¹
ĠB o
oc al
Ġwrit ing
it ude
. e
åŁİ å¸Ĥ
k ey
Ġmult iple
Ġ\ \
ä¸Ģ ç§į
Ñİ ÑĤ
rie ved
Ġl ive
Ġh om
Ġmain tain
è§£ åĨ³
âĢĿ ãĢĤ
à ¨
å Ĺ
Ġm ove
åĵ Ī
Ġa verage
ì §
á º
and o
èĢģ å¸Ī
p ly
Ġcl ose
Ġb al
Ġì Ŀ
-- -
Ġeff ort
est ion
u i
il es
Ġm it
L e
Ø £
ĠB rit
or ing
dition al
Ġfin ancial
ĠØ¨ Ùĩ
Ġtra ining
ĠØ ®
è° Ī
Ġse ason
Ġpat tern
äº «
pt ember
Ġnecess ary
ĠE r
Ġf a
Ġmat ter
Ġs ite
åĪ ĺ
Ġproduct s
ri x
r im
Ġhtt ps
Ĥ ¬
re f
Ġd ate
Ġc ross
( int
æ± ī
ur ation
å¼Ģ å±ķ
j oy
à¸ģ à¸²à¸£
ix ed
ur g
C O
Ġindust ry
ĠA fter
é¢ ĳ
Ġqu ant
å§ Ĳ
Ġse g
Ġf alse
il le
ĠAf ric
ain t
ĠA ust
éª ¨
ĠC ons
um ents
ĠW ill
[ ]
åº Ń
çİ ī
æ² Ĵ
ä¸Ģ æ¬¡
Ġres ources
ĠM arch
çĽ® æłĩ
Ġm er
Ġsqu are
Ġread ing
æĿ Ģ
Ġconsider ed
Ġag o
Ġw rite
Ġchall eng
C H
m on
Ġe p
Ġide a
æ¯ Ľ
ç¥ ¨
äº§ çĶŁ
==== ====
Ġcom es
c al
Ġdem and
id ed
. j
Ġn ull
ĠM ark
ĠM r
Ġstand ard
æľĭ åıĭ
æĪ ı
9 7
çº ³
ĠA c
å¸Į æľĽ
. #
ct or
Ġ< <
EN T
æĿ ¾
Ġpri or
à¦ ²
Ġey es
Ġrequ est
Ã ±
çĽ® åīį
å ª
n es
( f
O r
äºĨ è§£
4 00
ĠE duc
le ge
è¿ ½
åºĶ çĶ¨
Ġphys ical
ĠF eb
å¢ŀ åĬł
j ust
å¸ Ŀ
. )
éĿ ł
å¤ ı
Ġr at
Ġd raw
cur ity
ful ly
à¸ ŀ
Ġadd ed
Ġin n
Ġmus ic
Ġt en
Ġcon text
åħ³ äºİ
ä½ł ä»¬
19 0
Ġs il
cem ber
j a
Ġhe t
Ġn ov
Ġmil es
m od
Ġbl ack
ast ic
Ġfr ont
I m
åİĨ åı²
Ġm a
_ id
ĠM c
Ġincre ased
g or
Ġtemper ature
éĴ Ī
r as
Ġspec ies
×¨ ×
æ ©
f o
Ð³ Ð¾
Ġt aking
ĠØ ¢
åį ļ
## ###
Ġreg ion
Ġcol lect
ĠS ome
Ġcons ist
Ġpop ulation
l ied
æĹ ¢
G o
ï¼ļ ĊĊ
äº ®
ĠĠĠĠ Ċ
çĶ ³
v a
Ġp ie
à¹ ĩ
. h
val ue
8 7
à§į à¦°
- y
èµĦ æºĲ
Ñģ Ð¿
) )Ċ
ag ement
à¦ ¬
Ðº Ð¾
u a
Ø§ Ø¹
çļĦ å¤§
ĠJ une
in clude
Ġde ep
æ¥ ļ
Ġn ational
ĠG erm
æ² ī
Ġgl obal
Ġpolit ical
ĠG ener
Ġpr ice
Ġent ire
åī §
) {Ċ
_ p
" )Ċ
ens ive
Ġdec ision
m ar
à ±
` `
Ġits elf
ce ed
i at
1 10
åł Ĥ
è´£ ä»»
ä»Ĭ å¤©
Ġout put
çı ¾
à ³
v ar
Ġpol icy
æĢĿ æĥ³
Ġindividual s
ĠP ost
ac hed
ÙĬ Ø±
r ast
. D
Ġse qu
P h
/ c
I M
æĶ »
yd ro
æĸ Ĺ
éĸ ĵ
od es
m ary
Ġinclud es
Ġens ure
æľī åħ³
d ata
ĠN orth
us er
çļ ĩ
Ġì ŀ
an ks
Ġche m
' ve
Ġstart ed
C T
ac c
st ract
æ´ ¾
ÑĢÐµ Ð´
ĠC ount
Ġworks he
åĸľ æ¬¢
ĠP ress
Ġmean ing
Ö Ģ
ov ed
ä¸į æĸŃ
ĠRet rieved
Ġ* /Ċ
i ra
Ġwe ight
å¾Ĺ åĪ°
ĠF in
Ġdev ice
Ġus ually
ä»» ä½ķ
çľŁ çļĦ
ç ·
l ight
e ks
Ġre comm
Ġv on
Ġact ually
æĿ Ĥ
æ°´ å¹³
ä¿ ĥ
Ġab ility
Ġs cre
ĠA cc
Ġdem on
à¸ ³
Ġ ãĢĤ
Ġcont act
éĸ ĭ
m ing
ag er
I nd
I V
Ġun e
port s
Ġj ud
çļĦ è¯Ŀ
ĠS ub
Ġp our
éĩ Ĭ
av ing
çĹ ĩ
åħ ¸
é¢Ĩ å¯¼
æ¹ ĸ
S o
- M
Ġre v
re ed
çĸ ĳ
t d
ĠH er
Ġdiffer ence
ĠU s
ve y
ograph y
b ject
ĠC our
h r
ig en
æĴ Ń
ĠÐ ļ
Ġbuild ing
ap an
Ġstud ent
ect ions
................ ................
clus ion
Ġse arch
è° ģ
éĶ ®
Ġdoes n
a ctions
f rom
é¡ µ
åį ·
ë¡ ľ
l in
8 5
ĠRes earch
Ġmod els
= {
å¥ Ĺ
ł ×
** ĊĊ
åĭ ķ
m ission
ĠS chool
a res
åĲĦ ç§į
æĭ į
Ġnorm al
ĠY our
èĹ ı
Ġcomp an
and om
Ġeffect ive
Ġmed ia
Ġfe atures
åĽ °
ĠApr il
å½ Ĵ
ĠH ist
åĪ¶ åº¦
à§ĩ à¦°
èģ ļ
Ġeconom ic
Ġb ill
è®¡ åĪĴ
Ġst yle
Ġde cl
çĶļ èĩ³
htt ps
ë ¥
åĽ½ éĻħ
ĠÐ ľ
S ub
Ġd Ã©
Ġex ec
æĺ¯ åĲ¦
Ġwh ite
am ple
Ġe en
ok e
Ġcount ries
ç¬ Ķ
ï¼Ł âĢĿ
l im
ir it
éľ ²
l n
åħ °
Ġh or
u z
Ġd ivid
Ġeas y
ess ion
ĠâĪ Ĵ
Ã¼ r
åıĺ åĮĸ
Ġhist or
Ġreg ul
ĠI I
g ing
ĠC he
( $
Ġbelie ve
e ch
æİ Į
ĠP at
çī¹ åĪ«
Ġst ay
ĠØ§ÙĦ Øª
ÐµÑĤ ÑģÑı
äº§ ä¸ļ
p x
c z
h am
Ð° Ð½
æĿĲ æĸĻ
ĠS m
( m
éĻ Ħ
Ġfri ends
ult s
Ġcontin ue
il it
ç¬¬ ä¸ī
> <
Ġiss ue
ĠRe ad
åĳ ¼
W ith
her n
- e
è ¼
u pp
itt ing
æĮ ¥
sw ers
Ġun ique
æ¯ ķ
Ġen joy
Ġeng ine
å®Į åħ¨
ä¸ľ è¥¿
å»º ç«ĭ
Ġproper ties
Ġfl u
ä» į
æ³ķ å¾ĭ
Ġc ard
ĠØ ¥
Ġcour t
Ġp en
Ġfor ce
Ġm iss
A ll
b all
Ġpre c
k o
os ition
Ġfil m
Ġele ments
â ĸ
å® Ĺ
è ¸
åľ ĭ
Ġs ch
çĶ ²
" ;Ċ
par am
ĠS er
ÑģÑĤ Ð¾
. P
Ġstre ng
Ġget ting
å¼ Ł
ĠØ§ÙĦØ £
ç½ ª
åģ¥ åº·
à¸ Ĭ
Ġst ress
èĦ ļ
le ep
Ġinde x
Ġcon cent
ĠÙĪ Ø§ÙĦ
èĮ ¶
ĠL ist
ĠJan uary
Ġdis play
éĴ Ł
Ġev ents
éĹ »
Ñī Ð¸
ist ry
l ation
Ġset t
¯ à¦
in ate
Ġsome one
ol es
Ġm ach
æķ ĳ
äº ¿
ent y
Ġl iving
Ñģ Ðµ
ĠâĢ ¦
çĨ Ł
ÃŃ a
ĠH ar
ron ic
éĽ ª
Ġproper ty
Ġf oot
ĠS cience
ĠÐ¿ ÑĢ
çĶ °
Ġ× Ĳ×
l ig
Ġ ÑģÑĤÐ°
ug ht
à¹ Į
ĠAug ust
çĻ ¼
ri al
ä¿Ŀ æĬ¤
ĠTe chn
Ġcomp lete
Ġar ray
ç½ĳ ç»ľ
Ġqu al
å® ģ
åľ° åĮº
Ġwe bs
= \
Ġm agn
ĉ return
Î ¬
C C
Ġ ÑĤÐµ
Ġv ia
d ing
et a
Ġp an
ĠG ra
res pond
Ġcre ated
Ġbeh ind
è¯ ¯
ĠWe b
Ġd rug
d om
è½ ¯
× ĳ
ro y
å¹´ çļĦ
Ġpl us
Ï ī
çĻ »
ä½į ç½®
Ð» Ð¾
ä¸ Ŀ
Ġc red
å° ģ
Ġj o
Î ³
ĠH ere
Ġse c
Ġrec ent
æĶ¿ çŃĸ
Ġen h
Ġse curity
_ f
ä»· åĢ¼
in ical
Ð¼ ÐµÐ½
ĠW ar
Ġbl ock
Ġexp ected
ĠP res
Ġg as
Ġhe ld
è »
Ġsub st
Ġer ror
- n
åº ĵ
Ġar ch
Ġv iol
h ic
åİŁ åĽł
c ial
Ġ q
Ġhim self
Ġd as
ä¹ĭ åīį
ĠJ uly
åĢ Ł
og en
ĠIntern ational
ĠF r
uc le
b a
ĠD ec
epend ent
ĠÙħ ÛĮ
ï¼ģ Ċ
è¿Ĳ åĬ¨
íķ ľ
s ub
j e
Ġmem ber
ro om
ch ange
æ£Ģ æŁ¥
åľ Ĩ
Ġm other
Ġright s
Ġc ru
Ġw in
Ġw on
ar ies
çī Ľ
åº Ĭ
æĬ ĵ
ĠD ata
å½ ©
æ° ¸
Ġdescrib ed
Ġet c
Ġp od
Ġany thing
å© ļ
è· ĳ
æľī æķĪ
çŃ ĳ
Ġd im
x im
Ġcon dition
Ġmult i
Ġdivis ors
æĵį ä½ľ
éĢ Ĳ
Ġc m
o e
Ġatt ention
¸ °
ĠO f
s um
Ġevery thing
æĸ° çļĦ
( Ċ
éĩĩ çĶ¨
Ġnum er
ç¯ ĩ
æĥ Ĭ
Ġatt ack
è½ ®
æľº æŀĦ
à¤ ¿
Ġqu ite
à¦ ®
Ġo s
à¸Ĺ à¸µà¹Ī
Ġpro ced
ĠÐ ¶
S C
Ð³ Ð°
åį ±
hen s
ï¼ģ âĢĿ
æĦŁ è§ī
ail y
ÑĪ Ðµ
Î¿ Ïħ
k y
Ġpr inc
ou l
Ġcontin u
r ated
Ġs ound
ĠA nt
ç§¯ æŀģ
Ġl oad
rap y
Ġvis it
b an
à§ ĭ
åİ Ĥ
ĠThe n
åħ¶ å®ŀ
P l
L et
ç»§ ç»Ń
Ġbehav ior
æī ĺ
is f
æĢ Ģ
Ġcomp ared
ç² ī
ĠJ ournal
Ġp p
vers e
æ² Ļ
Ġrece ived
ĠR el
Ġper fect
ĉ if
å¨ ģ
ef ul
ffic ient
A pp
Ñĥ Ñİ
ä»¥ ä¸Ĭ
ãģ ı
è· Ŀ
æı ¡
A G
Ġthem selves
g l
ç§ Ģ
r ong
or ks
} (
Ġbec ame
Ġz u
Ð ¡
Ġo x
Ġas pect
ç ¹
Ġst ates
at ively
Ġcap ac
Ġacc om
Ġnot hing
ç» ¼
æĸ ¼
Ġb ad
æ· ·
ateg ory
Ġ ir
Ġincre asing
Ġreport ed
10 2
- C
èİ· å¾Ĺ
) .Ċ
ĠSe ptember
éģ ¿
' ;Ċ
æĢ§ çļĦ
tern al
ab ase
Ġb r
hem at
ĠD av
Ġf em
è´ µ
Ġident ify
Ġcult ure
Ġd ans
n i
å¥ ĸ
Ġav oid
p ace
æĸĩ ä»¶
æŀ ¶
Ġexp ression
ĠCh ina
ĠF rom
) (
æ¤ į
Ġgre ater
ĠV ol
y th
m p
éĤ£ äºĽ
Ġs ort
Ġbe aut
on al
Ġp ublished
Ġc apt
u h
\ n
æĿ Ł
ens ity
èĻ ĳ
ac hes
Ø§ Ø³
Ġs che
è¿Ľ åħ¥
7 3
æľī ä¸Ģ
) \
ä»· æł¼
p art
11 1
Ġdo or
Ġt ou
âĢ ²
Â ³
Ġlong er
Ġpat ient
Ġwant ed
äº Ī
Ġimpro ve
' Ċ
Ġinclud ed
ru ary
éĢ ı
Ġreg ular
ĠInd ia
f ig
åį Ī
N ew
æĿ¥ è¯´
æĶ¿ æ²»
è¡¨ çİ°
8 4
at form
Õ ¸
Ġsa w
Ð² Ðµ
b t
ĠR uss
air s
æĶ¯ æĮģ
Ġhe av
Ġout side
ç ĺ
Ġinst it
ĠOct ober
Ġf ul
çĿ £
é ±
or a
rid ge
7 1
_ m
Ġfe ed
** Ċ
ĠB i
I L
è® ¨
å½¢ å¼ı
- B
n et
Ġdevelop ed
Ġp ict
æľī çļĦ
ub e
ç» ¿
p an
ï ½
Ġsim ply
æ´ Ĺ
Ġin sp
e ad
æ¢ ¦
Ġpop ular
ç¤ ¼
b ut
æķ ¢
çľĭ çĿĢ
Ð Ł
in ks
æĪĳ åĽ½
éĿ¢ çļĦ
Ġut il
18 0
O L
Ġpre p
- se
ĠDe cember
Ġse x
Ġtra vel
Ġf ire
. T
M ed
qu est
~ ~
is ions
Ġh ost
Ġmaterial s
åı¯ æĺ¯
ãģ¾ ãģĻ
Ġex erc
iv il
uf act
Ġs cient
g y
æķĻ å¸Ī
f ort
åĨ³ å®ļ
d f
Ġh y
' ll
Ġest im
sc ript
" )
8 6
S S
Ġal tern
8 1
ĠS pec
Ġmed ical
ĠÑĢÐ° Ð·
åĲĪ ä½ľ
Ġappro pri
r at
9 6
ĠW est
ì ĭ
Ġcan cer
äºº ä»¬
ond on
ĠC ity
.âĢĿ Ċ
å ´
em pl
w a
ãģ Ĥ
ĠV er
Ġpart s
Ġem erg
ä½ Ľ
oc ation
å «
å¹ ¸
Ġcom o
Ġan im
> >
Ġtry ing
Ġem ot
çĲĨ è®º
åĩĨ å¤ĩ
à§įà¦ ¯
so le
Ġ× ©
Ġa im
Ø º
ĠÐ Ŀ
çļĦ å°ı
Ġw ond
Ġmod ern
æİ ī
Ġrel ig
N ode
Ġaddition al
v est
p i
ad os
ĠF irst
ä»¥ ä¸ĭ
_ n
è «
c os
ang er
Ġinvol ved
Ġorgan iz
e qu
ĠS w
éĺ µ
\( {
un ch
Ġf igure
ĠAmeric a
e es
é± ¼
ien cy
Ġpre fer
ĠNov ember
åħ· ä½ĵ
Ġdemon str
b it
ĠWh ile
m m
Ġde cre
Ġp sych
- to
Ġbe gan
åī Ĥ
Ġapp e
Ġp ick
ĠO F
à¥ ĩ
pon se
Ġvers ion
ÑĪ Ð¸
ç¡® å®ļ
ĠD ef
Ð½Ñĭ Ð¹
in put
sp an
é¡ ¶
è¡Į ä¸ļ
ì ľ
ĠÂ µ
O D
Ġh ot
Ġt akes
åŃ ¸
Ġcar b
Ġs un
z i
om in
æĪĲ åĬŁ
Ġk new
è®¾ å¤ĩ
å¿ Ļ
( a
f ord
èĥ ľ
çĬ ¯
ÙĦ ÙĬ
Ġatt empt
Ġdou ble
ä¼ļ è®®
ĠN et
ĠM at
lic k
d is
7 4
Ã© e
ĠØ§ Ø³Øª
rou ght
ç» į
æ²» çĸĹ
ä¸ °
ak er
ĠÎ ±
ign ed
Ġfor ward
Ġl at
p at
è¡ Ĺ
ew ork
æĺ¯ åľ¨
ç¨ĭ åºı
o ch
Ġ ÑģÑĤ
Ġis t
Ð¼ Ðµ
Ġinit ial
ur t
é¦ Ĩ
Ġw all
Ġgra ph
Ġprim ary
Ġcor respond
id o
å¦Ĥ æŃ¤
8 2
Ġ ÑĤÐ°
ä¾ §
ç¶ ĵ
æĸ¹ åĲĳ
am in
om y
Ġcont ract
Ġh on
Ġc u
b f
[ '
Ġf elt
om a
Ð½Ð¸ Ñı
Ġref lect
ç»ĵ åĲĪ
èĽ ĭ
åĶ Ĳ
Ġbu y
ä¸į å¾Ĺ
Ġhand s
c ast
Ġqu i
Ġcap ital
Ġo il
Ġto wards
Ġ ]
ren ch
Ġcomm and
osp ital
Ġp as
æĿ ¨
O ne
ar ter
Ġ Ä
éĻ Ĩ
D F
çĦ ¡
Ġfri end
ĠĠĠĠĠĠĠĠ ĠĠĠĠĠ
Ġdeterm ine
ph a
ĠF orm
roll er
am ed
éĽ ·
ĠB ook
à¸£ à¸°
åĮĹ äº¬
Ġintern ational
Ġthe ory
ä¸ ½
8 3
i as
å» ¶
ĠØ§ Ø²
w ith
Ã¶ r
Ġcompan ies
Ġb er
O C
ar ily
ì ļ
.. /
éĽ ¶
Ġaut om
T ime
ari o
åĩº çļĦ
ĠAr ch
in ct
it te
é ¹
9 2
ĠCl ass
æĮī çħ§
ãģ į
Ġl ives
Ġn i
åĲ ¯
ed eral
ous ly
æıĲ åįĩ
Ġprob ably
ç§ĳ æĬĢ
Ð¸ Ñģ
ĠÑģ Ð¾
Ġ× ¢
Ġwe eks
Ġl ack
å¥¹ çļĦ
Ġse ven
æ± ½
. E
à¹Ī à¸²à¸
ind ex
ur ance
res h
Ġfun ctions
el le
Ġse ems
B N
à¯ ģ
å®¹ æĺĵ
ik a
çĮ ®
c il
æİ ª
r ate
ir th
ä¸ĭ æĿ¥
æķĪ æŀľ
ibr ary
Ġl ed
Ġnew s
èĦ ±
ĠH igh
A A
æ¸ Ĳ
o z
ect ive
¯à¦ ¼
# include
æİ Ī
M ore
S E
ĠT est
æīį èĥ½
9 1
Ø§ Ùĩ
à¹ Ĥ
è ľ
Ġpro p
Ġhe at
åį ĸ
çĥ Ī
åĬł å¼º
ç§ ĭ
Ġv ideo
Ġl ate
Ġcle an
æĽ´ å¤ļ
æī§ è¡Į
Ðµ ÑĢÐµ
Î¹ Îº
com ing
å· ¨
? âĢĿĊĊ
åħ¨ åĽ½
Ġcom pl
. b
éĩ İ
ä¸į ä»ħ
ç« ŀ
å¼Ģ åıĳ
ĠComm un
Ġpred ict
Ġsu st
g n
Ġm ag
ad er
Ġinst ead
ĠO ther
Ġcont ain
Ġl ines
éĺ ´
Ġconst ant
Ľ ×
ĠR ed
Ġ- >
èĻ ļ
ä»¥ åĲİ
Ġ×ķ ×
Ġredu ce
Ġthere fore
ç¿ »
ĠSu pp
p a
v ement
Ġcommun ication
ĠS T
Ġre ve
at ives
Ġs cience
å® «
ĠG re
ag ed
ĠWor ks
ĠØ§ÙĦ Ø¹
è¶ £
Ġ! =
åĩ ½
Ġdet ail
ĠK ing
Ġlook ed
_{ \
eg in
Ġspe ed
// //
Ġì ł
us ion
ä¸į åı¯
åĬ ª
åıĤ åĬł
ter m
ä¼ ĳ
èĤ ¯
Ġbenef its
G et
um an
Ġcomp ar
I R
æļ Ĺ
Ġf ast
id ad
Ġgr and
é¥ Ń
ãģ ķ
ĠEduc ation
å¾ Ħ
Ġsitu ation
or age
Ġac id
Ġfe et
éĤ£ ä¸ª
Ġm essage
ĠDe velop
l t
Ġst ra
Ã ¸
ri a
ĠJ apan
D es
ĠAn al
ĠS um
ĠÐ¼ Ð°
Ġdire ction
Ġp ack
Ġstat us
Ġb ott
Ġex act
Ġo m
l en
ç©º éĹ´
Ġsign al
d es
ĠAust ral
Ġa w
èĥ ŀ
ĊĊ Ċ
Ġcost s
ç»ı èĲ¥
Ġexper iment
ĠE st
re st
çĬ¶ æĢģ
é ¬
ra b
Ġro ad
9 4
Ã¡ n
Ad d
Ġcomput er
çĿ ¡
N ot
l or
Ġh ope
éº ¼
Ðµ Ðº
ë ¦
åĪĽ æĸ°
Ùħ Ø§
- P
Ġins ide
ĠØ¨ Ø±
Ġcent er
è Ķ
p ite
ol y
et te
Ġc ry
Ġrem ember
Ġw ait
Ġn ames
Ä ±
à® ¿
è®¸ å¤ļ
h i
ĠT HE
Ġp al
Ġf ather
èĮĥ åĽ´
æĬ ĺ
èĪ ª
èº« ä½ĵ
' )Ċ
ç§ ¦
åģ ı
Ġa u
ãģ¦ ãģĦ
o o
Ġdistrib ution
ä¼ °
Ġallow s
Ã³ w
e v
Ã© n
ĠS ol
ĠÐ ŀ
Ġde al
é» ŀ
Ġparent s
6 00
æĹ¥ æľ¬
ro id
Ġbook s
ĠM us
ĠFeb ruary
Ġd og
Ġim medi
å¸® åĬ©
Ġs n
ic on
ÑĤ Ñĥ
Ġm ap
à§ Ģ
Ġval id
Ġd ark
Ġt itle
Ð Ĵ
Ġst op
è¿Ľ ä¸ĢæŃ¥
al a
ï¼ī ĊĊ
es us
| ĊĊ
Ġso on
Ġm ut
Ġm ole
Ġtrans fer
çĤ İ
9 3
ãĤ ¹
Ġb ed
Ġn ut
m at
Ġpur pose
ç¼ ĵ
ĠSch olar
Ġdef ined
Ġin j
â ĳ
Ġm id
18 9
a ur
( c
h aps
éĺ »
Ġdi agn
om b
m ore
Ġparticular ly
çĶ¨ äºİ
Ġad minist
Ġthrough out
è¿ İ
ä¹ ±
P S
å¯ Ĵ
r ig
æ± ĩ
Ġdep end
ä½ľ èĢħ
p ret
Ð ŀ
è¿ĩ åİ»
00 1
now n
al i
å®ŀ æĸ½
F F
Ġsoft ware
Ġlim it
al le
ĠL ear
Ġmem ory
ĠAr t
à µ
% ,
ä¸į çŁ¥éģĵ
ç¡ ¬
Ġsl ow
= '
è· µ
Ġth us
Å ¯
as ons
Ġresp ond
çĽ ĸ
Ġw er
æĹ §
Ġwebs ite
éķ ·
Ġg irl
v oid
F orm
Ġb ox
Ġpro gress
éĵ¶ è¡Į
Ġc a
Ġsu ff
Ġcrit ical
. R
Ġover all
æ¸ ¯
ä¸ļ åĬ¡
Ġf avor
Ġn m
us ed
an i
ivers e
Ġp le
Ġwh ose
å° ļ
Ġn ga
ĠPh ys
Ġe th
ç« ¥
ed ia
æ¨¡ å¼ı
èīº æľ¯
Ġem p
å¼ ±
æī ©
bo ard
pon ent
b ar
ĠO ur
Ġdig ital
Ġt as
çŃ ¾
Ġdist ance
Ġm is
åĨ °
Ñī Ðµ
×ķ× ¨
æĹł æ³ķ
- A
. âĢĻ
' )
ĠA re
iz es
Ġstep s
Ġapplic ations
ä»» åĬ¡
se e
ç» ©
Ġopt ions
Ġleg al
qu are
c ia
Ġcom ing
ht ml
å¼ ¹
Ġlim ited
c a
Ġwe b
Ġ& &
. L
er ve
æ· ¡
Ġequ ation
å° ¼
U LL
Ġa x
É Ļ
Ġsaf ety
Ġb ound
Ġsur v
Ġdesign ed
Ġle ave
are n
éľĢ æ±Ĥ
å® ľ
Ø± ÙĬ
Ġinst all
à¸²à¸ ¡
å¤ ®
Ġd ro
Ġve hic
Ġbas ic
Ġo g
Ä ģ
éĩį çĤ¹
ç®Ģ åįķ
Ġd ynam
ĠSe e
ç»¼ åĲĪ
Ġt al
Ġdirect ly
Ġprocess es
ex p
à¤¿ à¤
o on
ĠN ow
Ġbas is
Ġsp ect
ĠIn stit
vent ion
B C
v o
oc ks
Ġs ociety
åĬª åĬĽ
v ol
Ù ĳ
éļ Ĳ
ord s
Õ «
éĺ ħ
Ġw atch
( i
Ġent er
ç Ĵ
it able
æ ¾
ĠCour t
åĲ Ľ
ĠD el
re w
Ġs in
Ġl ic
ĠF e
Ġal gor
ĠM od
Ġmat ch
act ive
Ġb all
çĲĨ è§£
ok en
è§ ¦
ĠÐ Ĳ
c d
Ġo u
Ġus es
ç§ ģ
ĠD i
Ġw oman
Ġê °
Ġus ers
ell ow
Ġst ru
è¾ ĳ
Ġst age
Ø§Ø ¡
ac he
Go ogle
ĠD et
ash ing
Ġem ail
Ġac qu
çĶ¨ æĪ·
é» ĺ
å¨ ĺ
åĸ Ŀ
Ġl ost
Ġrem ain
Ġlead ing
å± ĭ
k u
Ġdis cover
10 3
Ġvol ume
Ġpre t
Ġadv ant
Ġass um
ĠÐ ł
ä¸º ä»Ģä¹Ī
ä»ĭ ç»į
æ¬ §
i ers
Ġevery one
â Ĩ
çĪ ¸
è¡Į æĶ¿
èĪ ¹
ĠÐ¿ Ð¾Ð»
( self
Ġm m
è´Ł è´£
Ġd os
é¤ Ĳ
Ġr ates
Ġcent ral
ag s
Ġc ook
Ġc it
ì§ Ģ
ĠE arth
è® ¿
d ated
-y ear
land s
ĠÙ ¾
Ġcent ury
Ġon es
Val ue
Ġ× ©×
Ġprofess ional
ĠJ ust
P r
Ġact ive
æĢ ª
ï¼Ł Ċ
ĠL ondon
ir ing
ne xt
åĪ º
ĠDep artment
Ġc as
Ġre lev
g ar
å· Ŀ
æĦı è¯Ĩ
Ġanal y
Ġtool s
p id
Ġprovid ing
Ġst ri
Ġad apt
Ġ Ñħ
ä¿Ŀ æĮģ
Î Ń
Ġext ra
' ]
ĠÑģ Ð°
æĺ¯ ä¸Ģä¸ª
èĦ ī
.... ..
Ġg ave
Ġr andom
åĺ ´
Ġpart y
éĢł æĪĲ
Ġdef ault
ÑĤ Ñĭ
ÙĪ Ùħ
Ġgre en
åĩ Ģ
an cy
E E
éŃ Ķ
Ġm ention
ĠØ¹ ÙĦÙī
Ġm ob
Ġer r
é½ Ĳ
ĠF act
S he
åĬ³ åĬ¨
è¿ĩç¨ĭ ä¸Ń
Ġneg ative
F igure
éĢŁ åº¦
u ge
Ġdet ails
ê³ ł
at i
ĠÙħ Ø¹
Ġsom et
Ġcho ice
æ¶Ī è´¹
ê° Ģ
Ġst aff
åĿ ı
A b
Ġà¦ ı
U ser
ĠG et
Ġn ode
M y
if ul
/ d
Ġb and
ä¼ ´
Ġc os
å¥ ¶
Ðº Ñĥ
Ġse ek
Ī ëĭ¤
Ġim ag
æ´ ²
es tern
è¾¾ åĪ°
Ġb rain
ind er
æŃ£ ç¡®
ĠĠ ĊĊ
m itted
æĪĲ æľ¬
Ġtrans form
( ).
Ġtra ck
Ġor d
Ġprogram s
ĠM or
æľ «
å»º çŃĳ
ĠâĨ Ĵ
ä¸Ģ çĤ¹
Õ ¥
ĠJ e
Ġbo ard
T O
25 0
ag ue
éļı çĿĢ
Ã Ł
is ation
Ġappropri ate
Ġb ur
ĠÐ´ Ð»Ñı
ë ı
s es
Ġapp lied
çĽ® çļĦ
Ġoffic ial
M P
èĪ ĩ
Ġorig in
Ġstat ement
Ġsam ple
åĬĽ éĩı
Ð´ Ñĥ
it em
Ġt our
ol ic
Ġex cept
Î ¸
Ġturn ed
Ġenc ou
ĠRe view
ä¼ł ç»Ł
Ġmechan ism
Ġform s
Ġpl atform
Ġsat isf
ec ause
éº »
åİ ļ
att le
Ġloc ation
åĪĨ åĪ«
oc ol
Ġt im
ang le
ĠD ay
Ð¿ Ð°
åŃ Ķ
ĠÐ± Ñĭ
ro te
Ġent re
al ed
Ġh yp
u y
Ġtrans port
Ġtr ust
ent e
åıª è¦ģ
en a
Ġst d
éĨ Ĵ
. W
èĪ ŀ
Ġinflu ence
ç³ ĸ
Ġt ree
è¿Ļæł· çļĦ
Ġh our
èĢ ³
en ge
18 8
ç´ ¯
Ġc and
å¤ļ å°ĳ
ĠP ublic
Ġpres ence
Ġ ing
it ary
um s
à§ Ł
ber g
è®¤ è¯Ĩ
æĦı ä¹ī
Ġpl ants
Ġb ud
Ġp et
Ġ ult
Ġr ound
St ate
Ġj our
on a
ä¹ĭ ä¸Ģ
Ġpur ch
Ġ ~
8 00
ill ing
Ġprote in
åŃ¦ éĻ¢
æĹ¶ ä»£
Ġquick ly
Ġvari ety
ĠPro gram
Ġthink ing
é² ľ
ë¥ ¼
12 3
Ġman ufact
- D
ç¦ ģ
ç¾¤ ä¼Ĺ
htt p
U N
ĠL aw
Ġf t
ĠO ver
oun cil
ìĦ ľ
ª ×
re ement
! !
ĠJ esus
å¯¼ èĩ´
) =
ÛĮ Ø¯
æĽ´ åĬł
Ġre ference
am s
18 6
ri ef
ĠEurope an
à¦ ¸
r c
w ise
Ġus eful
10 8
m es
Ġstreng th
æĤ£ èĢħ
Ø§Ø ¦
æ §
çĸ ¾
Ġ Ïĥ
O f
æľī äºº
Ġrun ning
ĠS an
h ood
çĥ Ł
ĠP ark
Ġb ank
ag ram
pl it
å¸ Ń
Ġdo i
åĩ ¡
is her
Ġro w
åıª èĥ½
ĠU se
Ġto wn
Ī ĺ
Ġback ground
ĠO ut
ĠGo vern
Ġdeg ree
çĪ ·
Ð» Ñĥ
ÑĢ Ñĭ
Ġ× Ĳ
å½ĵ çĦ¶
æĭ ¥
Ġc am
E m
çİ° ä»£
éł Ń
id ing
åĪ Ģ
éĢ ²
Ġide as
Õ ¶
16 0
b or
× ĵ
E r
éĻ¤ äºĨ
_ ĊĊ
æģ ¶
è¯´ æĺİ
Ġp ow
åĲĮ åŃ¦
( (
ch o
ĠT ime
ĠB ar
. /
ä¸ĭ çļĦ
å°± ä¼ļ
ann el
pos ition
} ,
Ġaff ect
å®¶ åºŃ
10 5
ĠAss oci
ines e
å¢ŀ éķ¿
Ã© t
é£İ éĻ©
ä¸į åĪ°
çº ¸
æĺ¾ ç¤º
Ġwor th
ear s
il os
Ġ+ =
ĠPro f
Ġcom ment
é¡ ¿
Ġopportun ity
Ġprodu ce
Ġlet ter
( b
åįģ åĪĨ
13 0
Ġ ÏĢ
Î ®
æ¯ «
Ġform er
æĬ¥ åĳĬ
f e
Ġwas n
) );Ċ
Ġcomp re
Ġh ydro
å³ °
in it
EC T
Ġr ules
ĉ Ċ
ãĤ Ī
ĠÐ¿ Ð¾Ð´
ç¨ĭ åº¦
Ġoff ice
å¹³ åı°
l ished
ra ck
à®¿ à®
ÑĨÐ¸ Ð¸
per t
Ġhe ight
c hen
éĵ ¾
C E
ĠAd d
åľ Ī
å®ļ çļĦ
éĺ¶ æ®µ
Ġg ives
un k
Ġvir t
Ġw ide
çģ ¯
uth ors
Ġs leep
F rom
ç¼ ©
ra ge
à¦¾à¦ ¨
Ġa ware
Ġs we
for ce
ì ķ
Ð½ Ñı
j i
å·¥ ä¸ļ
Ġspe ak
Ġpo or
æĶ¹ éĿ©
Ġb rought
ĠÑĩ ÑĤÐ¾
Ġoff ers
ĠÐ´ Ð¾
æĹ ģ
Ġconst ruct
æľī éĻĲ
Ġtra ditional
Ġgo al
æķ´ ä¸ª
im ents
j o
Ġfe ature
ĠIn c
un c
Ġobtain ed
er ia
å½ĵ æĹ¶
åĩł ä¸ª
åĿļ æĮģ
Ġh ar
ĠA P
è· ³
å® ĭ
om as
( p
åĩ½ æķ°
åĤ ¨
Ġf ight
Ġsomet imes
å¯ »
Ġa f
Ġmov ement
olog ies
è¦ ĭ
åħ± åĲĮ
Ġlay er
éĴ ¢
Ġk il
ell ig
Ġm ys
æ´ ĭ
Ġph ase
Ġshow ed
è®¾ ç½®
éģ į
cl es
K ey
Ġfam il
ament e
éģ Ĺ
æŃ£ å¸¸
ĠGener al
åħĪ çĶŁ
ĠS ci
è¡ ¡
à¹ģ à¸¥
us iness
åıĹ åĪ°
al am
Ġfollow ed
m o
Ġun its
ĠO ff
as i
Ġcol umn
Ġl abor
Ġg ames
a o
åĽł ç´ł
èģĶ ç³»
Ġw rong
Ġvo ice
. print
Ġchalleng es
å° ¤
æ¥ Ń
æĪĳä»¬ çļĦ
èĥ ¡
Ġsk in
ĠU p
å¿ĥ çĲĨ
ur b
iv o
ĠD em
B e
c ks
Ġnot e
ãĢĤ âĢľ
èĢĥ èĻĳ
ing u
Ġhigh ly
Ġle tt
å¸ ģ
Ġser ious
10 4
( d
Ġexam ples
in y
ĠA M
å¯ ¦
Ġp ages
i ance
ì Ĭ
Ġrequire ments
ĠB en
å®ĥ ä»¬
Ġgener ally
Ġimport ance
Ġbe y
Ġim ages
ĠT able
ìĿ Ģ
ad y
ãĥ Ī
ot es
Ġt end
æĸ¹ æ¡Ī
Ġeas ily
çķ ¶
Ġro t
Ġtechn iques
S P
å¹ ħ
. st
b ody
ĠW ork
Ġorgan ization
èİ «
iv a
ind ing
Ġobserv ed
æ¨ £
18 7
Ġr Ã©
Ġdivid ed
Ġv ict
ç§ ĺ
ç»ı è¿ĩ
12 5
Ġbey ond
arl ier
éĩĮ çļĦ
Ġsym pt
Ġto ward
ĠF rench
ĠM et
Øª Ø±
m i
Ġth reat
ĠBrit ish
çĶŁ åĳ½
ãģĻ ãĤĭ
it o
ĠD ate
Ġs ong
X X
å® ½
Ġfollow s
av ig
n ie
Ġp ull
T hat
Ġt ask
ĠWill iam
T ext
x x
åıį åºĶ
Ġs ources
è¯ ¢
Ġcho ose
O M
ul ated
ä¸Ĭ æµ·
å¹¶ ä¸Ķ
u an
Ġf ra
ãĤ ĵ
Ġill ust
Ð½Ð¾ ÑģÑĤÐ¸
ĠD ist
p ackage
ĠPa ul
ĠCh ar
Ġinn ov
×ľ ×
Ġal though
Ġam b
à¸²à¸ ģ
Ġcompon ents
ĠP ort
åķ ı
è° ĵ
åħ¨ éĿ¢
Ð³ Ð¸
Ġapp ly
åĲĪ åĲĮ
Ù ĭ
Ġsp irit
Ġcult ural
çī Ļ
ĠÃ ¨
Ġà¦ ®
ä¹Ł æľī
Ġcont ains
å®ŀ è·µ
Ġd aily
it ory
ĠM ich
äº ¦
ut ive
it ect
ĠM icro
çĽ Ľ
èµ µ
Ġhtt p
Ġopt ion
Ð½Ð¸ Ðµ
Ġk ids
ar row
ĠV iew
c ular
ĠIt al
æĶ¶ åħ¥
Î ´
Ð¾ÑĤ Ð¾ÑĢ
Ġlarg er
ĠÐ Ķ
R ep
ä½ ³
çļĦ éĹ®é¢ĺ
Ġde ad
ruct ure
z er
_ P
Ø§ Ùģ
ç»Ĩ èĥŀ
èµĦ éĩĳ
Ġrece ive
ab et
Ñģ Ñģ
itte e
çªģ çĦ¶
å¹ ¼
Ġor g
åĢ º
Ġl ab
æĺİ æĺ¾
Ġit ems
or ge
ä» ª
S ervice
ĠP al
enc ies
' );Ċ
Ġp i
è¿ Ŀ
à¸ ¶
math rm
Ġf if
ip al
Ġpol y
Ġdel iver
14 0
Ġm al
est s
æ¶ ¦
10 9
10 6
Ġn ucle
ion es
> </
Ġs old
Ġn ine
. B
os ure
å¯¹ è±¡
æĺ ł
é¦ĸ åħĪ
hes is
he st
ê µ
åıĤ ä¸İ
Ġ ðŁ
Ġsol utions
b ox
çª Ĺ
k l
Ø ¸
Ã ´
è¯´ éģĵ
éĩı çļĦ
Ð» ÐµÐ½
ë ĵ
æģ ©
Ġproject s
ĠU K
èį £
T able
Ġis n
åĩ Ŀ
fer ences
Ġf air
Ð½Ð° Ñı
v i
Ġj ava
ç»ı éªĮ
Ġ: =
Ġsupp ly
Ġf it
æĬ ½
Ġbu ilt
Ġsym bol
anc ing
å° Ĭ
å»º è®®
äºĭ æĥħ
Ġ× Ļ
ar ray
\ \
åł ´
Ġit em
ä½ľ åĵģ
Ġrequ ires
åĮ» éĻ¢
çĸ« æĥħ
ul ations
ult ure
éļ Ķ
Ġf lex
M L
ist a
il ing
åĩº çīĪ
æİ¥ åıĹ
ĠÂ »
æī ¬
Ġyour self
ç¥ ĸ
Ġbegin ning
Ġoper ation
Ġinst ance
S te
ê ¸°
b and
Ġ} ,Ċ
( -
æĬ ±
æı ı
ï¼ī ï¼Į
ÑĨ Ðµ
ĠH ouse
( \
ĠÐ² Ð¸
åħ¨ éĥ¨
Ġal t
a el
Ġmeet ing
Ġh arm
Ġprot ect
Ġë °
ãĥ «
æıĲ åĩº
Ġhe ard
- term
ig e
i ot
ê ²
ĠPres ident
åŃ Ļ
¤ ×
æĿ¥ äºĨ
ä» Ļ
éľ ĩ
Ġb es
ic ine
Ġprodu ced
Ġestab lish
éĢ Ķ
Ġm as
å¦ ĩ
ex port
Ġcol lection
Ġperform ed
Ġcl inical
ir t
ĠS en
ĠÐ¾ Ð´
æ» ĳ
Ġcar ry
w er
å®£ ä¼ł
æĮ ĳ
é¢ ľ
æĶ¹ åıĺ
ĠM al
à¹Ī à¸Ń
re es
Ġd ed
ru pt
ĠG r
Ġmor ning
C D
ä½ĵ ç³»
Ġal one
. out
åħħ åĪĨ
çº ·
åº Ĩ
Ð· Ð¸
a a
ĠBl ack
åŃĲ çļĦ
Ġbl og
Ï Ĩ
Ġcharacter istics
Ġm iddle
' d
Ġad just
Ġg i
ip ment
è´ ¥
\ [
Ġcurrent ly
ĠWh y
çľŁ æŃ£
an ia
å¿ ĺ
Ø¨ Ø±
æļ ´
Ġr ule
Ġdeterm ined
, _
N umber
ĠInd ian
Ġpract ices
h ol
- F
é¼ ĵ
ĠC hem
S c
ĠI d
Ġinc or
åħ³ éĶ®
Ġte aching
âĢ¦ ĊĊ
ru it
Ġvari able
åª Ĵ
ĠÚ© Ùĩ
ag o
It em
æ°ĳ æĹı
æ© Ł
ĠB er
é¥ ®
ï¼ļ Ċ
ĠCent er
ch ar
Ġsol id
ä¿Ŀ è¯ģ
L a
Ġconn ection
Ġhel ps
Ġre le
åľ £
1 12
Ġb ul
Ġf ish
Ġenvironment al
Ġà¦ Ĩ
Ġc at
æł¹ æľ¬
un n
o at
ĠA ut
ot o
ĠD iv
er ation
O bject
stand ing
- re
- up
Ġgrow ing
Ġcompon ent
Ġm ental
ĠA ND
os ite
èµĦ äº§
ä¸įåĲĮ çļĦ
ĠDav id
äº¤ æĺĵ
ÛĮ Ø±
Ġre ach
d s
å±ŀ äºİ
ĠC ur
ì ĸ
ĠW ik
Ġa uf
ak an
Ġcarb on
ĠB ro
æİª æĸ½
Ġsignificant ly
é¢Ĩ åŁŁ
Ġoper ations
Ġ Ñı
æģ Ĳ
åī ĳ
æĥ³ è¦ģ
M od
Ġst ore
Ð Ŀ
åıĳ å¸ĥ
æĪĲ äºĨ
w orks
Ġre pe
ĠL ife
Ġstrateg ies
Ð½Ð¾Ð² Ð½Ð¸
Ġpresent ed
è°ĥ æķ´
Ġgra de
con s
18 5
Ġcon v
b ra
å®ŀ éªĮ
ç¨ ®
åŁ¹ è®Ń
æĦı æĢĿ
ĠS al
èĢĮ æĺ¯
Ġinter pret
åĬ ±
Ġinc ome
ph as
æķħ äºĭ
çĪ Ĩ
æĥ³ åĪ°
Ġcare er
Ġc opy
á ŀ
ĠNew s
ĠM ill
èĨ ľ
Ġf arm
M an
Ġsc ale
Ġgra du
ĠRe v
à¸± à¸Ļ
ol a
Ġestab lished
è© ±
çŃĶ æ¡Ī
æ¸¸ æĪı
Ð Ĳ
ĠI D
oun ced
Ġtra de
Ġm el
Ġdis s
yn c
Ġsh ape
Ġe arth
æĮģ ç»Ń
æŃ£ åľ¨
Ġs en
oc r
Ġelect ric
Ġ| Ċ
åģļ å¥½
ay er
ĠS k
Ġsur pr
ĠL i
ĠHist ory
Ġgu id
Ġcru cial
ify ing
éĶĢ åĶ®
ä¸Ń å¤®
èı Į
Ġmys elf
ĠÐ ¢
Ġrat io
Ġsur round
R ef
Ġchem ical
éĹ Ń
z o
çĿ Ľ
ĠRe c
Ġk om
äº¤ æµģ
ult ural
lic ation
ĠIn formation
æĹħ æ¸¸
Ġà¦ ¹
Ġsp read
å·¦ åı³
à¤ °
æ¶ ī
ĠAn n
com p
Ġcreat ing
Ġcaus ed
ä¼ Ļ
Ġm ount
Ù ı
Ġsaf e
åŁ¹ åħ»
åı ¬
se c
ra el
Ð» Ð¾Ð²
Ġce le
au gh
ur ity
Ġh op
R A
Ġread y
ĠS ocial
â Ĺ
ĠÎ ¼
ÑĩÐµ ÑģÐºÐ¸
ĠO pen
æ± ł
Ġinterest ing
Ġro b
Ġan swers
å§Ķ åĳĺ
ĠA I
Ġm ath
el a
Ġbe comes
å°ı æĹ¶
ĠR em
U p
% )
ĠB r
éĥ½ æľī
Ġvis ual
è¯ Ĭ
äº¤ éĢļ
ĠM ath
Ġact ual
å° ĩ
Ġw el
M S
Ġ{ ĊĊ
Ġw arm
Ġrelev ant
Ġpropos ed
Ð ļ
ĠE ast
ĠG roup
Ġe arlier
ĠÑģ Ð¸
å¹¶ ä¸į
l am
åĮº åŁŁ
/ j
è´ ´
à¹Ģà¸ Ľ
p oint
ÑĢ Ð¾Ð²
åĬŀ æ³ķ
Ġbro ad
ĠD on
in ci
Ð½ Ð¾Ð¼
] (
å¼ķ èµ·
Ġco ol
Ġhe ar
m ark
çĶµ è¯Ŀ
ĠK e
Ġes c
Ġpers pect
Ġdiffer ences
s ch
å¦ ¹
_ l
èī² çļĦ
Ġmon itor
åħ³ æ³¨
', '
å¹² éĥ¨
ĉ public
Ġf at
Ġdam age
éĩĳ èŀį
Ġopportun ities
æĮĩ å¯¼
Ġdec imal
Ġcapac ity
Ġcl imate
d ed
um er
he t
S U
æ¡ ¥
sc rib
Ð¾Ð´ Ð°
Ù Ĳ
D ate
è´ ·
re ate
ĠPl an
r ical
ÑĪ ÑĤ
- th
AT ION
æļ ĸ
p m
ÑģÑĤ Ð²Ð°
ĠS am
æĸĩ ç«ł
Ġfrequ ency
10 7
Ġappro xim
ĠTh us
r d
Ġre pl
Ġm g
ĠU nder
- pro
Ġgo als
ĠL ord
è¿ ·
äº ¡
æĿ¥ æºĲ
An swer
Ð¶ Ðµ
ï¼ī Ċ
a Ã§Ã£o
Ġmeas ures
ĠÐ ĺ
èµ ¶
. F
å± Ĭ
ĠS ur
_ .
ab il
Ġad opt
Ġdr ive
O P
Ġh ous
Ú Ĩ
Ġstrateg y
Ġres ource
åıĸ å¾Ĺ
k nown
çĶ³ è¯·
Ä ĥ
d y
act ers
ab ilities
è¯Ń è¨Ģ
æ° ı
12 8
ĠØ£ ÙĨ
.. .Ċ
Ð½Ð¾ Ðµ
Ġallow ed
Ġplay ers
éķ ľ
Ġloc ated
Ã µ
Ġso il
ĠâĢ ŀ
ÙĬ Ø¯
Ġdev ices
åİŁ åĪĻ
ab y
es ter
æ¯ı ä¸ª
ç® ±
ĠD irect
re ci
O ver
Ġ __
Ġfield s
Ġ× Ķ
Ġl if
è® ¢
åĲİ çļĦ
ãģĹ ãģŁ
â Ķ
æľº ä¼ļ
Ġmem b
ä¿Ŀ éļľ
æ´ Ľ
å¹ ķ
åĲ ī
è¿ Ķ
Ġm arg
Ġres id
Ġpol ic
Ġconn ect
åĨ ¬
Ġplan ning
Ġt a
åĨ ł
Ġsuccess ful
Ġselect ed
à§įà¦ ¤
Ġw at
Ġgo es
æ¯Ķ å¦Ĥ
èĵ Ŀ
pt y
à¸²à¸ Ļ
B l
b al
Ġset ting
ĠGo ogle
Ġsy nt
ĠCh inese
Ġpl aces
ri er
çĥ §
Ġsust ain
ĠG en
Ġth row
Ex ception
åºĶ å½ĵ
Ġro ll
éĽĨ åĽ¢
ir ty
åĽ½ åĨħ
æµ ª
end e
ĠE v
_ name
ĠØ µ
ãĤ ¤
ĠØ§ÙĦ Ø³
Ġwork ed
Ġworkshe ets
à¸± à¸ļ
Ġpl ans
Ġun s
ur l
Ġre lease
Ġany one
d own
Ġal s
Ġne igh
Ġco ord
/ l
ä¿Ŀ éĻ©
è¡Į åĬ¨
Ġrem ains
og ue
ĠWorks he
èµĦ æĸĻ
Ġsi ÄĻ
Ġar m
Ðº Ð¾Ð²
f ield
é« Ķ
Ã¤ r
Ġnov el
Ġk n
m iss
æĮ ¯
ĠM ult
Ġbal ance
Ġw ww
ĠM art
Ġopt im
Ġcommun ic
ĠCount y
Ġre action
I F
ĠS un
ÙĦ Ùħ
Ġanim als
ä¸ī ä¸ª
çļĦ æĥħåĨµ
Ġschool s
- H
Ġchang ed
Å ĳ
t est
/ or
Ġst ock
ĠDevelop ment
äºĮ åįģ
Ġb ond
adem ic
18 4
å½ »
ĠMan agement
q rt
ol id
Ġt iss
éĽ Ħ
ĠÎ µ
ĠM ost
åİ» äºĨ
U L
à¹ĥ à¸Ļ
rid ay
çĶµ åŃĲ
Ġl iqu
åĲ ´
åıĬ æĹ¶
Ġinter nal
ĠĠĠĠĠĠĠĠĠĠĠĠĠĠĠĠ ĠĠĠĠĠĠĠĠĠĠĠ
Ġb irth
ĠSt at
è¯Ŀ é¢ĺ
ra z
el ine
E P
à¸Ķ à¹ī
ĠB as
Ġbeaut iful
ç±» åŀĭ
ill a
à¸²à¸ ¢
æ¢ ģ
ou te
çŁ ¿
ĠS und
Į Ģ
ãģĵ ãģ¨
C R
Ġgu ide
il ed
å¿ ½
éĽ ħ
Ġst ream
ä¹¦ è®°
åĩı å°ĳ
ashing ton
à ¬
Ġsum mer
Ġexp and
ĠØ§ÙĦØ Ń
ĠComp any
Ġop in
st d
ĠE qu
a ign
it ter
ĠÐ¼ Ðµ
å£° éŁ³
- L
c el
Ġf Ã¼r
æĲ Ń
ri p
Ġrec ently
Ġstart ing
¡ ×
Ġconst ruction
P er
Ġp lease
æ° §
çī¹ çĤ¹
è ¹
Ġprocess ing
æ± ¡
Ġchar ge
ä¾ĭ å¦Ĥ
D o
Ġs av
Ġdec ided
åĨ Į
Ġident ified
r ide
ä¹ ĺ
åĪ ĳ
Ġexist ing
Ġr out
- G
Ġcoll abor
åħ ©
Ġw a
ĠÎ º
ä¸¥ éĩį
if orn
Ġc ounter
11 5
Ġ ...ĊĊ
| ---
Ġv s
Ġcom fort
Ġcomplet ely
Ñĭ Ðµ
n ers
Ġmov ing
Ġful ly
and er
% ĊĊ
ĠF ree
i able
é¸ ¡
ĠS ince
ĠW ed
or ial
ĠCh apter
Ġha ir
Ñ į
à¯ģ à®
å¥ ¥
ci ous
ĠAl though
x i
ut il
ve c
z ie
D A
is k
æ® Ĭ
im a
Ġw ood
çĶ¨ çļĦ
Ġinvest ment
U s
du ction
ĠìĿ ´
ãģ Ŀ
åİ ħ
Ġrecomm end
æ²Ĵ æľī
Ġa ctions
Ø§Ø ²
f ile
Ġcon sequ
E d
Ð½Ð¾ ÑģÑĤÑĮ
å® ĩ
æľŁ éĹ´
æľĢ å¤§
iven ess
Ġhealth y
ĠA tt
ÙĬ Ùĩ
æĳ Ħ
Ġm ig
Ġconf lic
Ġw id
} )
ç»Ħ æĪĲ
ä¸ĩ åħĥ
åĢ į
] )
r um
ãĢĭ ,
Ġmach ine
æİ¨ è¿Ľ
Ð¼ Ð¾
Ġì ķ
Ġredu ced
Ġp un
æ±½ è½¦
Î ²
å² Ľ
âĢĶâĢĶ âĢĶâĢĶ
è´ «
em p
Ġcont roll
- T
æ¬ ²
é Į
èĩª çĶ±
ro ph
åĳĬ è¯ī
ĠM ethod
. n
Ġc old
ĠF igure
ĠChrist ian
yth on
ä»ĸä»¬ çļĦ
å¥ ĭ
åĬĽ çļĦ
Ġà¦ ¨
rodu ction
Ġb rand
è¶ħ è¿ĩ
Re ad
çľ¼ çĿĽ
hemat ics
ä¿ĥ è¿Ľ
çº ¯
Ġbill ion
r ont
å· §
Ġto m
! âĢĿ
à¸µ à¸¢
ä½ĵ çļĦ
×Ļ× ª
éĥ½ ä¸į
æĪĳ åĢĳ
Ġmax imum
Ġsay ing
ĠS l
Ġg iving
ĠD an
Ġplay ed
Ġexperien ces
Ġh it
Ġind ependent
ä¼ ¸
Ġey e
åĨľ ä¸ļ
Ï ĩ
ĠB el
un a
at in
ell o
Ġatt rib
c are
ä¸ ¹
Ġmil itary
Ġwond er
ap i
ul ate
N ow
æīĢ ç¤º
Ġf ig
Ġbenef it
' :
.l og
c her
ĠÐº Ð¾ÑĤÐ¾ÑĢ
Ġsequ ence
Ġ ÛĮ
ĠF ig
å¾ Ĳ
Ġf ine
à¹ī à¸Ļ
ĠÐ ĳ
å¿ħ è¦ģ
Ġconvers ion
Ġd ry
à¹ĩ à¸Ļ
Ġform ed
Ġà¦ ¤
Ġre asons
P ost
eng an
ë¦ ¬
Ġinter view
Ġt rou
Ġconf ig
Ġê ²
ÑĢÐ° Ð²
ĠTe xt
ĠE lect
A fter
åĶ ¯
Ġpr iv
ç ¸
Ġass ist
æľº åħ³
Ġw ild
æĽ ¿
ub Med
åĵģ çīĮ
ĠE ven
å¡ ŀ
A cc
Ã© m
Ã¤ n
åĭ ĩ
12 1
Ġteac hers
Ø± Ø¯
Ġstru gg
Ñ Ĭ
Ġdist inct
Ġp hen
Ġparam eters
Ġf irm
è® ĵ
ç¼ ĺ
Ñĭ Ñħ
æĩ Ĥ
å¿ į
Ġtri ed
eg er
Ġch apter
ãģ§ ãģĻ
Ġn ie
ric k
Ö Ĥ
è§Ħ åĪĴ
ĠA S
Ð½ Ñĥ
ĠS et
P ar
do i
C L
Ġtest ing
Ð½Ð¾Ð²Ð½Ð¸ ÑĪÑĤ
A m
ph p
b egin
rom e
ĠSe cond
æ° £
Ġeffic ient
Ġprom ot
æķ° åŃĹ
Ġm ort
Ġv el
ef ore
åĿ Ģ
et e
Ġf resh
******** ********
çĶŁ çī©
Ġ ign
ĠSt re
le ctions
Ġbl ue
Ġwork ers
ĠD ie
ĠÐ¸ Ð½
C M
ÑģÐº Ð°
å®ĥ çļĦ
11 3
ib ly
ĠEng land
I A
Ġfeel ing
Ġtri al
c ode
O W
Ġeffort s
ĠL and
erv ices
ild ren
Ġant i
ĠC ong
Ð° Ðº
Ġs yn
Ø± Ùģ
è´ ¦
g u
Ġrel ative
t ime
ĠAfric a
T S
st ruct
å®ī æİĴ
ven ue
è¯ ĳ
Ġpre par
ĠS ec
Ġst ories
æĺ¯ä¸Ģ ç§į
Ġinst r
ĠA ir
Ġd in
am i
-t ime
b en
al pha
Ġd ella
Ġtr uth
èĤ¯ å®ļ
Ġse a
ĠS ing
E F
Ġtw enty
er r
Ġfamil ies
ond ay
ens es
ä¹ĭéĹ´ çļĦ
. app
çĦ¶ èĢĮ
Ã© r
- le
æł· çļĦ
Ġdevelop ing
erv ation
Ġsl ight
Ġg ain
Ġcontin ued
ÑĢÐ° Ð·
ĠN ULL
Ð½Ð¾Ð²Ð½Ð¸ÑĪÑĤ Ð²Ð¾
Ġra pid
ran e
ĠEng ine
Ġrespons ible
Ġch ance
Ġrespect ively
Ġpret ty
ĠØ ²
Ġfa ith
iforn ia
S ystem
ãĢģ âĢľ
Ġfin ally
Ġe arn
C P
m as
tic le
çİ° åľº
ĠØ Į
Ġlaw s
èĤ Į
S et
ĠC H
os ing
Ġm es
Ġz ero
f s
Ġcred it
çļĦäºĭ æĥħ
Ġm ess
Ġemploy ees
. w
Ġform ula
Ġw rote
ĠM ac
æĻ® éĢļ
11 6
ĠR ober
çľĭ çľĭ
è¯ ¦
#### ####
Ð° ÑĢ
ç¤¾ åĮº
o i
Ġvari ables
it ar
Ġw idth
Ġst orage
ãģĹ ãģ¦
å¡ Ķ
ĠJ ames
ot a
Ġcou ple
ar ithm
Ġp oll
C ount
Ġtre nd
à¤ ¤
P re
ĠÐº Ð¾
erv ed
In ter
ĠThere fore
Ġpass ed
à¹ģà¸¥ à¸°
Ġp ul
od ies
Ġsal es
an ation
Ġconn ected
Ġobject s
em a
ik an
Ġcl ient
Ġabs ol
èĲ½ å®ŀ
s i
g ra
ment e
Ġthe rapy
ĠÐ¾ Ñģ
äºİ æĺ¯
Ġsympt oms
Ġcand id
M odel
or row
éĿ¢ ç§¯
Ġmat rix
b i
Ġchar acters
Ġ// /
z t
è°ĥ æŁ¥
æ£ ®
å¢ Ļ
å®¢ æĪ·
Ġsa ve
Ġ à²
Ġser ve
ä¸į å°ĳ
æķ ı
ĠIs rael
ç¨³ å®ļ
app ing
Ġplay er
Ġexpl ain
wo od
Ġsc ore
Ġcompre hens
The y
Ï į
Ġdat abase
æĥ ¯
Ġc ivil
Ġfore ign
Ar ray
Ġs end
é¬ ¼
æľª æĿ¥
æ® ĭ
ï¼Į ĊĊ
æµ ĵ
N S
ä¸Ģ åĪĩ
æ² Ī
ĠÂ °
18 3
r s
ĠMark et
ä»İ èĢĮ
Ġg old
Ġ âĢĿ
Ġexpl ore
èģĮ ä¸ļ
Ġtest s
Ġy ield
à ¶
ic i
ap ers
å° ¾
Ġprot ection
éĺħ è¯»
ĠCol lege
. add
Ġexerc ise
Ġpr on
Ġ Ú¯
æķ Į
t ers
çµ ¦
çļĦ åıĳå±ķ
ĠE nd
() ;ĊĊ
Ã¡ l
12 2
so ft
Ġpie ce
çĦ ¦
, âĢľ
V ID
æĳ ĩ
ij n
åĶ ±
Ð¸ Ð·
å¾ ª
Ġconst it
Ġpol ice
ç³» åĪĹ
C A
y ing
Ð ĺ
Ġeconom y
å¦Ī å¦Ī
ard en
åĳ Ī
Ġcommun ities
Ġachie ve
è± Ĩ
æĭ Ł
ress ed
ç§ Ł
Re quest
ĠÐ¾ Ð¿
orm al
æīĭ æľº
Ġstra ight
Ġh ospital
æ¯ı å¤©
æ¡ £
Ġem phas
- R
Ġdec isions
ĠEx pl
èµĦ æľ¬
ĠI P
Ġan imal
Ġrelationship s
èĴ Ļ
æľĢ ç»Ī
M A
am ily
ograph ic
! Ċ
Ġv ector
çĭ Ĺ
æķ° åŃ¦
Ġtou ch
Ġjour ney
Ġcomp ris
çī¹ å¾ģ
à¸· à¸Ń
åķĨ åĵģ
Ġsmall er
ĠÐºÐ° Ðº
çĽ¸ ä¿¡
çĤ ¼
Ġassess ment
cur rent
åħ Ħ
Ġà¦ķ à¦°
ES T
Ġ à°
E l
or b
Ġn ation
Ġh ref
èĢħ çļĦ
k er
Ġ< =
11 4
ĠM a
ĠØ± Ø§
el d
åı¦ ä¸Ģ
Ġmov ed
Ġtyp ically
in ated
ĠÐ´ Ðµ
t able
h al
Ġe at
ĠI T
æľ ±
ĠL og
èĪ Ĵ
11 8
Ġdi et
.print ln
Ġse cret
è½ ´
è£ ¡
ad i
Ñģ Ð°
st yle
Ġcustom er
å·¥ åħ·
éĢ Ĵ
Ġequ ipment
æĩ ī
R I
Ġb ra
Ġpe ace
æĺ¯ ä¸į
Ġpict ure
Ġd oll
Ġro ck
è£ Ĥ
id en
çļĦ éĩįè¦ģ
ä¼¼ ä¹İ
åº Ħ
å¼ ĥ
r ations
Ġch urch
Ġcirc uit
ĠGerm an
c m
ĠCan ada
re me
Ã ²
Ø§ ÙĤ
ĠC ouncil
ĠM any
æ¹ ¿
åıĳ æĮ¥
æ»¡ è¶³
Ġsur g
éĽ »
ber t
è¾ Ĩ
E G
ĠJ os
Ġport ion
æĹ¶ æľŁ
.l ength
ç«ŀ äºī
ĠD NA
Ð ł
ind ows
é ŀ
è¯ ¸
Ġbott om
Ġwind ow
Ġc ore
à «
AS A
Ġcirc um
c imal
æĺİ ç¡®
âĨ Ĵ
ä¸ ģ
èĤ ¥
ä»Ĭ å¹´
Ġplay ing
l ike
Ġst im
Ġaspect s
Ġcomb ination
ĠØ§ ÛĮÙĨ
è¯ ļ
åı¦ å¤ĸ
od ing
por ary
à¹Ī à¸ĩ
æ² ¿
un ic
ĠInstit ute
å¡ «
Ġ× ĳ
æ´ ģ
Ġclass es
ĠJ ew
Ġph one
B A
ĠEx p
ĠÐ» Ð¸
f unction
or ation
ĠW ashington
è§Ħ èĮĥ
k in
è° ·
T est
à¸ ĸ
äºº ç±»
å¾ ŀ
à ·
Ġbehav i
Ġlog arithm
à¥ Ģ
Ġl abel
Ġcont rast
11 7
Ġcaus es
Ġass ert
æĳ Ĩ
ac ing
ãģ ĳ
Ġ .ĊĊ
ci pl
çĽ¸ å¯¹
ĠÐ¼ Ð¾Ð¶
æ´ ŀ
Ġpl aced
u v
Ġdif f
ilos oph
Ġsus p
Ġc ast
Ġmet al
Ġim pos
ç¹ ģ
Ġcustom ers
è¿Ĳ è¡Į
Ġexper t
Ġhig hest
ÑĤÐ¸ Ð²
Ġst o
Ġseem ed
ran ch
æ¡ Ĩ
Ġt um
æ Ĩ
if ier
Ġpres ident
z ym
Ġ á
æı Ĵ
Ġfor ces
om ic
tr ans
ĠR ich
ung en
Ġv ert
ĠF ore
ĠFr ance
Ġteac her
ĠA D
å§ ĵ
Ġc atch
å¯¹ æĸ¹
é ī
ç¬¦ åĲĪ
è£ ģ
ĠI l
________ ________
Ġre place
per ty
Ġreport s
angu ages
as ion
éĹ ľ
Ġlook s
17 0
ĠF riday
{ {
ival ent
ER T
æ·± åħ¥
Ãµ es
Ġcom ments
Ġform at
ĠS ection
ĠOr gan
èº« ä¸Ĭ
æľī äºĨ
Ġne arly
Ø§Ø Ń
× ©
z ed
Ġpre m
ĠPro ject
Ġc ert
ĠA v
åĨľ æĿĳ
âĢĿ .
æ³ ½
ĠÄ ĳ
è´ ¸
Ġpattern s
emb ly
Ġnot ice
w ell
Ġper haps
Ġbro ther
å² Ĺ
? ?
t es
æ³ Ľ
ĠS ervice
åİĭ åĬĽ
B ase
Ġimmedi ately
Ġv it
ĠT wo
n ic
n ames
æķ ¬
çļĦ å·¥ä½ľ
ĠChe ck
Ġ( Ċ
Ind ex
à¸ ľ
Ġf ear
ĠE ach
ĠM ain
æ¢ ħ
ĠH el
ree k
99 9
T P
ĠCal ifornia
Ġdes cription
Ġlearn ed
ĠT w
T H
Ã ¹
æ¨¡ åŀĭ
Ġstruct ures
æ¸ħ æ¥ļ
it is
Ġhapp y
ĠF urther
wh ile
od ay
ĠSte p
Ġchall enge
Ġcould n
Ġp ÅĻ
Õ¸ ÖĤ
Ġstand ards
ĠP ower
Ġcl ick
g est
Ã¨ re
Ġres istance
æ¶ ¨
å¹³ åĿĩ
y e
å¢ ¨
æ¨ ª
] #
ing er
ãģ ł
Ġ ^
12 7
inci ples
åį« çĶŁ
çĩ ĥ
ä¼ Ĭ
ä¹ Ļ
Ġp urs
è¿ ħ
ÑģÑĤÐ² ÐµÐ½
è¯Ħ ä»·
æĿ ¯
a ft
Ġd ies
Ġm ode
åĪĨ éĴŁ
æ² Ł
Ġg ene
æĬ µ
ĠC D
ol ve
ĠÐ¿ ÑĢÐµÐ´
áĥ Ĳ
Ġsc en
is a
ÑĤ Ð¾Ð¼
Ġum a
Ġa st
as ure
Ġvol t
ç¦» å¼Ģ
Ġsh ared
math bf
. :
ram s
Ġ( )
è ļ
ĠE conom
ĠSund ay
plic ations
- on
az ione
ĠB usiness
Ġadvant age
Ġm ais
ers ion
ĠT er
è®° å½ķ
ens ions
å®¶ çļĦ
Ð² ÐµÑĤ
ĠCom put
Ġà¦ ¦
^{ \
Ñģ ÑĮ
est ic
åľŁ åľ°
Ġs ites
ĠCal cul
è¿ĩ æĿ¥
Ġcomm it
) /
æº ¶
Ġ| |
dition ally
ang ing
éĿ© åĳ½
Ġà¦ ħ
Ġk in
v ille
18 1
Ð½Ñĭ Ð¼
å¿ĥ éĩĮ
( String
ãģ ¤
ìľ ¼
Ġliter ature
Ġun f
Ġcle arly
G B
è ¬
æĮ Ĥ
Ġa uthors
çĪ¶ æ¯į
Ġsw itch
Ġr ich
åĲĪ çĲĨ
o om
åģ ¿
h an
Ġpower ful
Ġacc ur
18 2
Ġsu d
Ġ* Ċ
éĻį ä½İ
Ġv ent
Ġt ro
Ġexc ell
ãģ Ī
own load
g al
ĠT ype
ä¸» ä»»
ĠCh urch
è¡¨ è¾¾
åĮĸ çļĦ
ãģ ©
Ġfail ure
å¦Ĥ åĽ¾
è¾ĵ åħ¥
Ġinter face
s l
Ġl ov
éŁ ©
Ġmot ion
ÂłÂł ÂłÂł
Ġdown load
Ġp m
u er
it Ã©
.s et
ë Ĥ
ĠÐ¸ Ð»Ð¸
ç į
ĠÑģ Ð¿
. G
7 00
çĶŁ çļĦ
Ġrest rict
Ø± Ø¨
Er ror
res ult
ant ic
Ġview s
Ġun ivers
Ġs ich
12 4
ang ed
it ors
os ph
ç» ª
Ùĩ Ùħ
os en
æī¾ åĪ°
æŁ Ķ
Ġcons ult
æİ¨ åĬ¨
åĪ ¸
ä¾ µ
Ġd ra
íķ ´
Ð¶ Ð°
E X
Ġcar ried
Ġn in
æľº åĪ¶
Ġke pt
Ġd engan
Ġbel ong
ç» ķ
é«ĺ çļĦ
çĶŁ æĢģ
åĪĽ éĢł
on ic
ol f
ĠF ind
ĠF ound
æĪĲ ç«ĭ
L ine
ĠZ e
ç»Ł ä¸Ģ
Ġregard ing
ä¼ ¯
Ġv ill
æĿ¥ è¶Ĭ
Ġexact ly
con n
m ax
è§Ħ æ¨¡
13 1
ĠØ§ ÙĨ
Ġst ar
ĠD ig
å½ĵ åīį
ë ł
Ġelect ro
ro ot
Ġv ot
Ġfind ing
Ġr ise
O ST
ÑĢ Ð¾Ð²Ð°
Ġeffic iency
ĠB ank
à¹Ģ à¸£
èĢ Ĳ
áĥ ĺ
ign ment
è§£ éĩĬ
Ġp air
Ġw ife
è´ ¯
ĠC ap
yp es
æī ¶
ĠK ey
ri an
Ġorganiz ations
Ġf raction
ĠH uman
Ġl en
ĠAfric an
Ġth r
ä¸į å¥½
æĳ ©
ĠAl so
çı ł
Ø§Ø ´
Ġin hib
if ically
åĽŀ çŃĶ
éĩįè¦ģ çļĦ
è¶Ĭ æĿ¥è¶Ĭ
Ð ¢
à¤ ¨
ink ing
Ġform ation
Ġim pl
æĸ½ å·¥
èħ ¹
Ġt u
Ġcl osed
ÑĦ Ð¸
im b
Ġo z
] .ĊĊ
Ã© d
13 5
à¹Ģà¸Ľ à¹ĩà¸Ļ
Ġo k
it ud
Ġenh ance
çģ Ń
Ġrel atively
ĠS ociety
æ¼ «
Ġdefin ition
Ġs ector
Ġpa id
èĩª èº«
Ġle aves
ÙĩØ§ ÛĮ
Ġs z
T e
T C
rel ated
Ġocc up
1 19
äºĨ ä¸Ģä¸ª
ĠComm ission
M e
äºº æīį
Ġinte ger
atur day
ĠAssoci ation
å° º
Ġcomm erc
çļĦ åľ°æĸ¹
ues day
æł¸ å¿ĥ
n s
os a
nes day
Ġp ray
è§Ĥ å¯Ł
Ġb ird
20 3
à¦ ª
ä¸° å¯Į
ä¸» é¢ĺ
Ġrem ove
Ġ ÑĤÐ¾
Ġlarg est
åĪ© çĽĬ
. J
12 6
ç´ «
ĠGovern ment
å°¤ åħ¶
m u
iz er
åŁº éĩĳ
Ġdiscuss ion
ĠSt and
å°± åľ¨
Ġe ine
ÙĬ Ùħ
ĠU N
éĢļ å¸¸
cy cl
amb da
---------------- ----------------
ç»ĵ æĿŁ
Cl ass
Ġins urance
Ġf ol
Ġm aster
Ġ ÑĪ
èĢĥ è¯ķ
Ġex hib
ĠL eg
_ b
ĠIt s
èĤ º
çī¹ æ®Ĭ
Ġsp ent
24 0
è¿ ¹
ãĢĤâĢĿ Ċ
Ġext rem
èĻ İ
a an
ili ar
is che
O ut
Å Ħ
Ġwe ak
ãĤ Ħ
ĠE very
å¦ »
Ġa us
å¿ Ĩ
Ġd ream
9 78
t re
Tr ans
Ġset s
Ġì Ĺ
it z
éģ¿ åħį
ĠIn s
le m
ĠĠĠĠĠĠĠĠ ĠĠĠĠ
çİ° è±¡
ĠGre en
çľ ī
ak s
Ġsepar ate
Ð¾Ð» Ðµ
ĠM onday
Ġgl ass
ĠS y
ÙĬ ÙĦ
S p
ar ia
Ġcy cle
ĠDes ign
ìĸ ´
ç£ ¨
éķ¿ æľŁ
å£ ģ
he nt
æĪ ª
Ġc ir
Ġinterest ed
Ġaltern ative
Ġthe rm
$ $
Ġappear s
id den
Ġis ol
Õ¡Õ ¶
l ies
augh ter
Ġemb od
Ġp ark
Ġfund ament
ĠÐ³ Ð¾Ð´Ð¸
Ġì ĭ
on ym
13 3
Ġtra in
åħ¨ çĲĥ
ad or
ĠØ¨ Ø§ÙĦ
Ġincor por
Ð¾Ð³ Ð¸
Ġresult ing
Ġcor por
P L
ëı Ħ
urs day
å°± åı¯ä»¥
Ġlett ers
Ġj ournal
16 3
ĠL ong
el se
Ġrese arc
ä¸Ģ åĢĭ
å¦Ĥ ä¸ĭ
Ġm ix
Ġsur vey
f all
ĠM ag
g i
ĠUs ing
et ric
ĠH ome
ĠC reat
Ġc ris
ä»ĸ åĢĳ
F ile
åħ §
ul f
Ġget s
Ġmed ium
ak o
Ġb orn
à¸¡ à¸µ
g in
ãĥ ª
' ĊĊ
Ġpro port
as y
ĠM em
Ġbud get
us es
åĪ« äºº
çī© è´¨
ÅĽ ci
çī© çļĦ
Ġp ra
Ġn om
è ķ
Ġf ixed
Ġn amed
ä»¥ ä¸º
ä¹Ł åı¯ä»¥
13 2
æĽ ¸
Ġn or
æ³ķ éĻ¢
æĸĩ æĺİ
Ġc op
ä¼ Ł
Ġcamp aign
ĠÐ ĵ
Ġreg ister
Ġfl oor
ãĤ ģ
éĥ½ ä¼ļ
æĹ ĭ
æĿ¥ èĩª
ĠP an
ang es
cont ent
ĠG reat
è¯ģ æĺİ
Ġvehic le
ä» ¿
çĽĳ çĿ£
c an
Ġatt ract
èµ ŀ
Ġdep th
th at
em ic
ĠAustral ia
è¯ º
Ġpolic ies
Ġth ick
reed om
çļĦ é«ĺ
pr ime
and a
Ġtrans l
Ġincre ases
Ġprep ared
art ic
- \
ĠO b
Ġcalcul ate
Ġgener ation
Ġval u
he tic
Ġscient ific
h ow
ÏĦ Î±
Ġre ached
å¥³ äºº
ĠAn swer
Ġwas te
re ct
Ġfore st
Ġhapp en
ĠÙĦ ÙĦ
ĠØ§ÙĦ ÙĨ
T ER
à¦ ¦
æ½ ®
ÙĬ Ø§
w ater
çļĦ æĹ¶éĹ´
Ġgr ant
ĠRep ublic
åĨħ éĥ¨
è·Ŀ ç¦»
ord ers
Ġman ner
Ġra ce
P M
éĽĨ ä¸Ń
éŃ Ĥ
èĤ ¤
out hern
Øª Ùħ
æ¯Ķ èµĽ
Ġhapp ened
Ġ )ĊĊ
Ġex ternal
/ p
Ġsh ap
ä¹ĭ ä¸Ń
å®ļ ä¹ī
st ate
ĠT op
ĠN a
ĠÐ´ Ð°
ĠIS BN
Ġrele ased
or ia
ä»¥ æĿ¥
Ġold er
ç °
Ġfil es
Ð Ķ
åıĳå±ķ çļĦ
iv ery
Ġpercent age
ot ic
Ġt ut
çĽ¸ åĲĮ
é¾ Ħ
æĹł è®º
Ġcon ver
æĺ¯ ä»Ģä¹Ī
t i
Ġag reement
y r
Ġv oor
Ġscre en
D P
ig ma
ish ing
ĠS a
if orm
res ents
Ġsh ift
ë ³
æĪĺ çķ¥
ĠLear ning
or i
ell s
éĿ¢ å¯¹
Ġm eng
ç»ı å¸¸
Ã¨ s
Ġsim pl
éĢ ĥ
. H
èĸ Ħ
çģ °
é² ģ
æ¶Ī æģ¯
Ð± Ð¾
éĩĩ åıĸ
èĢ Ĺ
å² ©
Ġed ge
Ġfil ter
13 4
+ \
Ġcorrespond ing
ĠÑĤÐ° Ðº
ĠQu est
åĬł åħ¥
Ġliqu id
Ġf ederal
æŃ¤ æĹ¶
end o
Ñĺ Ðµ
é¥ °
ï¼Į Ċ
ĠB re
ific ations
Ġst ation
é¡ Į
Wh ile
Ġj oint
Ġm ist
Ġprofess ion
ĠWh ite
plic ation
oy al
Ġmention ed
Ġcl oud
() );Ċ
åħļ åĳĺ
Ġprevious ly
Ġm Ã¡s
æİĮ æı¡
Ø± ÙĪ
æĦı è§ģ
ä»¥ åīį
è¯¾ ç¨ĭ
äºĭ ä¸ļ
Ġsol ve
Ð¶ Ð¸
25 5
o oth
Ġb order
çĶ ĺ
Ġb acter
æ£Ģ æµĭ
Ġhand le
çĽ Ĳ
Ġra re
ĠAcc ording
Ġapp reci
Ġ×© ×ľ
æĶ¾ åľ¨
Ġup date
æ¸© åº¦
ĠE ff
ed er
el ta
ë §
. )ĊĊ
Ġu pper
i em
è¿ŀ æİ¥
ĠR ob
ĠJ ack
ä¸į çŁ¥
ung s
ĠPro v
Ġarg ument
èĤ ¿
à® ¾
pro duct
Ġd ied
L og
l ink
æģ ¢
çĽ Ł
èĻ «
Ġ ri
alle l
i ro
ĠE nt
æĺİ çĻ½
Ġleg is
Ġmin imum
åĳĺ å·¥
æ· »
ĠTechn ology
æ± ¤
T otal
Ġsubst ant
æ³ ¡
scrib e
Ġd anger
/ t
H ere
Ġtrans ition
åħ¬ åħ±
che ck
Ġline ar
Ġ" "
æĢ Ĵ
Ġreg ions
- ĊĊ
. html
æĺ¯ æĮĩ
ĠÐº Ð¾Ð½
Ġl iber
å° ¿
Ġz e
13 7
ĠÑģ Ñĥ
ãĤ ¯
ci Ã³n
il a
Ġparticip ants
Ġext ends
Ġob vious
ä¼ĺ åĬ¿
ä¸Ģä¸ª äºº
ĠM ary
ĠEx per
Ġsam ples
Ġpr ices
Ġl i
æ¦Ĥ å¿µ
Ġnot es
Ġâ ī
ĠC are
C S
} =
èĪ į
Ġse lection
ÙĦ Ùĥ
åº Ł
it ness
ram e
Ð² Ð»Ñı
Ġex change
id ade
è®¤ çľŁ
èį Ĳ
åĽ° éļ¾
çĶµ å½±
ĠJ ul
t hen
n ote
ï½ ŀ
æŁ ±
17 9
æĹ Ĺ
Ġhistor ical
èĥ ¸
w hat
12 9
Ġs ac
Ġw ave
à¸²à¸ ĩ
Ġser ver
ic ed
Ġang le
ÑĩÐµ ÑģÐº
ĠG ood
S um
Ġarch itect
ä¸Ĭ äºĨ
Ġequ als
Ġfact s
ä¹ ³
èĤ Ŀ
Ġn as
q l
\( \
Ġb urn
Ġsp ring
ĠBo ard
AT E
è¿Ļ æ¬¡
èĩª åĬ¨
l abel
Ġdiscuss ed
çģ ¾
Ġint ellig
åĲİ æĿ¥
Ġoper ating
å¤ļ çļĦ
Ġh us
25 6
ĠPe ople
Ġlead ers
Ġident ity
éĻ ·
Ġra in
Ġwh om
Ġg one
ny a
iv ation
l as
âĢ ³
Ġapproxim ately
ĠIn st
ole an
Ġsecond s
åĢ ¾
Ġb atter
Ġve get
æ³ ¥
Ġeduc ational
ate ver
ĠRe port
èģĶ åĲĪ
oc ument
++ )
ĠM odel
2 20
ë ©
ĠA ccess
ç§° ä¸º
ÑĨ Ð°
ä¿¡ åı·
åĪ¶ éĢł
Ġwe ather
ĠØ ·
Ð· Ñĭ
A ct
èģ ²
ĠR oman
Ġon to
Ġd ensity
æµ ®
13 6
Ġconduct ed
Ġsub s
) :ĊĊ
ĠR ad
ĠW ater
Ð»Ðµ Ð´
ÑĤ Ð¾ÑĢ
Ġbre ath
o j
ĠP ract
ãĥ ©
éĩį æĸ°
Ġ$ \
Ġtre es
Ġother wise
m un
\({ }_{
ĠØ§ÙĦ ÙĤ
ĠI II
Ĺ ×
17 5
å¤į æĿĤ
Ġp ush
l ich
go ing
ar p
Ġprot ected
Ġt n
Ġb rief
. **
ĠThe ir
èĭ Ĺ
Ġì Ħ
vers ion
ÙĪ Ø§ÙĨ
ä¹Ł ä¼ļ
Ġencou rag
ä» ģ
il ter
Ġmot or
Ġmeas ured
éĴĪ å¯¹
Ġcit iz
/ *
Ġm ac
Ġme ant
éĩĮ éĿ¢
======== ========
ĠP sych
à¸ ¨
er ror
ur ies
ĠÂµ m
èħ ¿
Ġdescrib e
Ġconcent ration
Ġbusiness es
ĠB ecause
ä¸ĸ çºª
Ġj a
ÐµÐ½ ÑĤ
m osp
è¾ Ľ
Ðº Ðµ
ubl isher
Ġ Å
Ġd ut
Ø¯ Ùĩ
åĮ» çĸĹ
ad as
s en
åħĥ ç´ł
ìĿ ¸
æ¡ Į
Ġheav y
B S
Ġcol lege
Ġv ary
èį ·
éĿĴ å¹´
i pp
æĻ ¶
p ass
Ñ ĳ
Ġnot ed
é© ¾
ort hern
Ð» Ñİ
ÙĦ Ùĩ
æħ §
au x
èĦ Ĥ
åĩº åİ»
Ġreal ity
ol ved
14 4
ç² Ĵ
ĠT H
Ġc up
éŁ³ ä¹Ĳ
ic ks
ä¼ į
A ss
à¸Ĥ à¸Ńà¸ĩ
ç¬¬ åĽĽ
ĠW il
pos es
d d
Ġc ateg
å¿« éĢŁ
åĳ Ģ
ĠM ex
Ġc ov
Ġspe ech
Ġrep resents
åĩ Į
ĠL ou
æĻ ĵ
ä¼ĺ ç§Ģ
Ð¼ Ñĥ
ou ble
u est
el ines
ell ed
ĠI ll
/ ĊĊ
Ġk a
ĠT om
wh ich
æĸ° éĹ»
Ġj u
Ø§Ø ¬
ÑĢ Ñı
ĠUS A
æ½ ľ
ra int
ç¡® ä¿Ŀ
ĠV is
um in
ĠĠĠĠĠĠĠĠ ĠĠ
U M
Ù Ĵ
ĠJ o
æ³ °
. -
ì ĥ
âĢĻ ,
17 8
äºĭ ä»¶
ĠUn ion
è´¹ çĶ¨
çĭ Ĥ
Ste p
ä¼ ¦
ann ed
Ġ ãĢĤĊĊ
E nt
ĠÐ² Ðµ
ĠN ame
art s
æĤ ī
m t
Ġeffect ively
Ġann ual
Ġproced ure
Ġadd ing
Ġgener ated
im eter
g s
è® ¯
å°± ä¸į
Ġfind ings
ç½ ļ
æķ° éĩı
`` `
- a
éī ´
cre te
ĠAnal ysis
åķĨ ä¸ļ
p ath
Ġer a
ê³ ¼
ĠH ol
éĸ Ģ
ç¤¾ä¼ļ ä¸»ä¹ī
ĠTh omas
ç¢ İ
Ġsub t
è¾ ħ
ãĥ ĥ
åĨį æ¬¡
ru ctions
c is
ĠA lex
ĠR iver
] )Ċ
Ãª n
< <
ĠÃ ¤
Ã© es
ĠØ¹ ÙĨ
Ġd ial
è¢ ĭ
s qrt
or gan
k ing
dis play
Â ¢
å± ı
æ¢ °
ç¥ Ŀ
Ġtr ig
ĠAd v
ë °
ab led
E ng
x y
ĠIntern et
t ed
el es
isc hen
à¤ Ĥ
æĲ ŀ
an ish
Ġin ches
ĠE s
ìŀ Ĳ
) -
ĠC ode
Ġcol on
åĵ Ń
ĠM ad
æĸĩ åŃ¦
Con text
Ġpart ies
Ġb oy
Ġsp ot
æľīéĻĲ åħ¬åı¸
Ġaff ected
Ġcommerc ial
un s
ĠB ase
à¹ĥ à¸«
Ġmob ile
è¨ Ī
14 1
Ġra ised
/ b
æķ ¸
Ġsu fficient
9 00
ä¸» åĬ¨
Ġcele br
- of
Ġout comes
Ġtechn ique
ant a
l ong
çļĦ æĸ¹æ³ķ
ãģ Ĭ
ch t
n ce
, '
Ġmajor ity
C ode
å¥½ äºĨ
Ġg ro
os c
ĠCol or
çĶ· äºº
op en
ĠN one
. util
- r
ĉ for
èĤ ł
Cont roller
å¸¦ çĿĢ
P ubMed
Ġrel ation
und er
à®¾ à®
Ġimplement ation
æī İ
Ġadv anced
Ġteam s
Ġdef end
çĭ¬ ç«ĭ
åĪĨ ä¸º
ĠĠĠĠĠĠĠĠ Ċ
Ġexpress ed
ëĭ Īëĭ¤
ĠSu per
ĠD en
ce an
A re
å¾ Ĵ
Ġt on
ĠM er
ic ial
à¦ ¯à¦¼
ä¿ Ĺ
Ġrelig ious
ĠP o
Ġn an
ŀ ×ķ×
è¯´ çļĦ
Ġb ow
F ig
ç¾İ åħĥ
Ø ¦
æīĵ å¼Ģ
è¿ «
å© Ĩ
æĻº èĥ½
ĠM iss
æī «
Ġdom ain
Ġworkshe et
åĪ ·
ÑĢÐ° Ð½
æĪĲ ç»©
Ġunt uk
Ġh at
Ġk ing
am ing
ram ework
ĠO per
R eg
éĹ ª
ĠQ ue
Ġs ed
en ced
ust er
à¸± à¸ĩ
in st
Ġtas ks
ðĿ Ĳ
r ition
p ost
Ġtechn ical
ĠH am
è¶ ĭ
at an
ãĢį ĊĊ
n en
Ġcont aining
cre ate
Ġ àª
or ld
M at
Y our
ell er
è´ Ŀ
Ġe gg
2 10
ĠU ser
Ġfem ale
Ġdis app
å¥½ åĥı
Ġb ag
i y
Ð° Ð»ÑĮ
al d
Ġinvol ves
Ġchang ing
Ġg ar
Ġv ision
ĠØ¨ Ø§
åĬŀ åħ¬
è®¨ è®º
ä¸į è¶³
Ø¯ Ø±
åĪĨ äº«
Ġadv ance
ĠT uesday
åĪ ¥
ĠS aturday
Ġw ants
Ġn icht
ä¸Ģ å¹´
å§ ĳ
ut ing
n um
â ī
f ol
ä¸į äºĨ
ĠWed nesday
Ø ¥
éĶĻ è¯¯
l ast
Ġele v
15 2
Ġt it
E qu
Ġclaim s
Ġcover ed
Ġconcern s
å®ī è£ħ
yt es
15 5
Ġhelp ed
Ġopen ing
åĩł ä¹İ
P age
te en
Ġrecord s
az ing
Ġrem ov
Ġqu arter
Ġse vent
15 1
çĸ¾ çĹħ
åĪ¤ æĸŃ
16 4
ĠStud y
Ġintrodu ced
æĥ ł
ĠC le
ç½ ²
çĸ ¼
à¦ Ł
Ġimpro ved
èĥ ĥ
çŀ ¬
ĠP erson
fl ow
.app end
Ġredu ction
æ¯ķ ä¸ļ
S A
æĳ ¸
Ġc ub
å¢ŀ å¼º
ãģĭ ãĤī
å·¥ä½ľ çļĦ
æĪ ´
ak a
ĠGl obal
j et
à ½
Ġocc urs
çµ Ĳ
P P
Øª Ùĩ
åĪ° åºķ
è§ Ī
å¿ĥ çļĦ
in er
ap h
ig er
ç» ĺ
Ġag ric
ĠH en
R ec
à¸Ħ à¸§
The se
C ross
Ġd w
Ġh uge
ĠV ir
anc er
Ġperspect ive
Ġtalk ing
ub b
· ¸
è³ ĩ
× Ŀ
äº ķ
Ġf ib
Ġ )Ċ
åķ ¦
ĠÙħ ÙĪ
Ġs oci
ë ¬
Ġcomplet ed
åħļ çļĦ
Ġtop ic
Ġalgor ithm
æĹ ¦
ĠMich ael
æľī çĤ¹
ĠGe orge
Ġlat est
Ġc ards
Ġsupport ed
Ġë §
å¹¸ ç¦ı
Ġà¤ ķ
17 7
opy right
è®Ń ç»ĥ
Ġf ont
) ãĢĤ
Ġsent ence
æĭ¥ æľī
", "
ĠJ ud
åıĬ åħ¶
Ġhab it
Ġman age
ĠCO VID
15 3
èĩª æĪĳ
Ġd ram
14 5
ãģª ãģĦ
ä¸ĭ åİ»
çı į
ck now
ĠTh ursday
ĠM o
14 2
ãĤ ¢
ĠN O
at ically
ÑģÑĤÐ² Ð¾
am eter
ç£ ģ
Ġpract ical
ĠSm ith
Ġtre ated
Ġf ill
ì Ľ
Ġapp oint
Ġm ission
\ ),
im g
ä¸Ģå®ļ è¦ģ
Ġs ides
h av
t itle
ock et
ig an
P ath
çİ° å®ŀ
ĠSt r
- k
ĠM ass
Com ponent
ĠÐ² Ð¾Ð·
D ef
P A
Ġcontin ues
M ap
Ġoffer ed
âĢĿ ãĢģâĢľ
Ġallow ing
ri age
ãĥ¼ ãĥ
à¸ ĵ
Col or
Ġpl ate
ik i
å§Ķåĳĺ ä¼ļ
Ġf re
ay a
çļĦ å¿ĥ
à¦¿à¦ ķ
Y es
Ġun c
æİ¨ èįĲ
ĠG old
åĭ ¤
çĶ ľ
Ġs el
çĥ ¦
åģļ åĪ°
i ate
èģ Ĭ
æµĭ è¯ķ
ĠCent ral
im age
à¹Ħ à¸Ķà¹ī
èĳ £
æľ Ĺ
Ŀ ¼
aw a
M E
Ġf uel
ĠÑģ Ðµ
Ġmin or
à¥ ĭ
è¿ĺ è¦ģ
ĠT V
Ġmult ip
Ġel im
ĠP et
Ġthe ore
Ġshow ing
å®Į åĸĦ
ĠD uring
S ize
Ġreturn ed
- N
. \
æĪĲ éķ¿
rit ing
èĦ ı
æĮ º
h ouse
åĽº å®ļ
å¤§ å¤ļ
ab s
w ide
} }\
å¦Ĥ ä»Ĭ
Ġm ur
i ant
ĠT O
å¹´ è½»
Ġ/ >Ċ
å° ĸ
ä¹ł æĥ¯
% ï¼Į
Ġauthor ity
pt ions
è§Ĩ é¢ĳ
Ġhus band
Ġa head
ç»Ł è®¡
Ġide al
Ġfram ework
Ġev olution
åĪ¶ ä½ľ
/ min
ES S
Ġre b
çļĦ å½±åĵį
ĠA st
H T
ren ce
Ġdes pite
åģ ¶
Ġw ish
ĠH all
Ġmin ute
F irst
æķ´ ä½ĵ
ĠØ§ÙĦ Ø¨
éĢļ çŁ¥
ĠGerm any
col or
val u
ob ject
åī ©
ĠH and
èµ ı
' '
è½¯ ä»¶
Ð ľ
ĠT ur
co hol
13 9
éĿ¢ åīį
å¼ ·
Ġn avig
h and
F ield
Ġreturn s
is p
Ġpur poses
eth yl
ic it
æĿ ±
Ġch annel
Ġb aby
Ġl inks
ĠW ord
\({ }^{
Ð¿ Ð¸
ä¸ĭ éĿ¢
C al
it ative
Ġartic les
ra v
ĠÐ¿ ÑĢÐµ
oth ing
ian a
ĠS ervices
èħ °
æģ¢ å¤į
13 8
ĠOff ice
ost er
Ġv acc
Ġserv ed
ĠY ear
åĪĽ å»º
Ġtiss ue
ep h
Ġp el
åĪ¶ å®ļ
ä¸į ä½ı
Qu estion
stit ution
æĿ Ĩ
ul s
çĽ¸ äºĴ
E O
Ġcertain ly
- de
ten ance
ĠP eter
ri end
- con
è¨ ĺ
du le
iction ary
ÃŃ n
ĠL u
Ġcontrib ute
Ùħ Ø±
Ð» ÐµÐ½Ð¸Ñı
åĨħ çļĦ
Ġaud ience
Ġfunction al
S upp
ĠM ont
Ġwhere in
Ġlead s
Ġac ademic
ĠN on
Ġcl ub
ï ¸
Å¼ e
à³ į
ä¸Ń åįİ
ĠF ood
16 1
Ġfram e
ĠB et
è¿Ľè¡Į äºĨ
( )ĊĊ
ent h
Ġ áĥ
ann er
y les
â Ħ
og y
èĩ £
¨ ×
Ġl oved
äº¿ åħĥ
( [
å¾Ģ å¾Ģ
u gh
Ġp ed
æļ Ĥ
im ens
e z
Ġcircum st
ĠA uthor
Ġs it
Ġ( -
Ġinter action
17 6
Ġsub sequ
Ñĭ Ð¹
æĲ ľ
re nd
æĺ¯ ä¸įæĺ¯
Ġc ro
ĠD O
Ġd iverse
el er
éĢĤ åĲĪ
Ġequ ivalent
Ġlead ership
Ġant ib
Ġent ry
Ġpr inciples
ra f
ĠAb out
ĠÑĩ Ð°
if fer
æľī ä»Ģä¹Ī
el ess
omet ric
Ġinf ection
Ġmark ed
Ġm ale
Ġn orth
ir k
Ġal b
Ġeas ier
ĠS pe
ĠSp ring
åıĳ è¡¨
00 2
æĭ ľ
çľĭ äºĨ
o ir
( ),
16 8
âĶ Ģ
å ļ
S ee
Ġsex ual
il er
æı ´
åºĶ çļĦ
is hes
Ġt id
Ġm outh
ÑĤÑĮ ÑģÑı
ĠT ex
16 5
as a
ë ¶
æĪĲ åĳĺ
éģ Ń
è®© äºº
ER S
ÙĨ Ø§
ĠComm on
ib ilities
ĠRober t
c ount
en u
Ġcomprehens ive
Ġag ree
ä¸¥ æł¼
Ġinv ention
ĠDes cription
Ġland sc
è®° èĢħ
æĬĢ èĥ½
æī £
Ġ/ **Ċ
ed ing
on o
st art
ä¹ Į
ç»ı åİĨ
ub lish
çĶµ è§Ĩ
ad s
Ġ :ĊĊ
Ġevalu ation
Ø¹ Ø¯
enc ia
ĠÐ² ÑģÐµ
Ġc ash
D S
Ġslight ly
Ġflu id
ĠS quare
çķ ª
Ġcomb ined
-b y
Ġext ract
Ġtem p
ĠC atal
è Ŀ
ph one
Ġexp osure
çĪ¶ äº²
è®© æĪĳ
æĿ ľ
æĸĩ åŃĹ
å°ı çļĦ
14 3
å¦ Ļ
ç»Ī äºİ
all ed
æĬ ¬
pl ing
Ġbut ton
ĠS il
Ġf ab
Ġexperien ced
ĠStre et
requ est
Ġl anguages
ĠPro t
Ġl ie
. N
Ġgener ate
ĠComm ittee
Ġs ie
Ġch ain
) *
Q L
-s h
l ock
à¸± à¸ģ
G e
éĢĻ åĢĭ
Ġexcell ent
ura cy
k g
ĠP DF
ien e
Ġinstit utions
Ġappro aches
Ġth irty
ĠCong ress
ĠB a
é£Ł åĵģ
è· ¨
åľ¨ ä¸Ģèµ·
æĦŁ åĪ°
å¸ «
Ġte le
æīĢ è°ĵ
Ñĥ Ð´
Ġopin ion
æľĢ é«ĺ
åľ¨ è¿Ļ
è· Į
i pped
ĠIn vest
14 7
word s
ä¸ ²
ä¹Ł å°±æĺ¯
æŁ ³
at u
Ġrad io
Ġjud g
åıĤ æķ°
Ġne ut
am ma
ul um
Ġ[ Ċ
Ġd rop
ĠP op
Ġins ert
Res ult
iz z
çĽ ¾
Ġemot ional
è¦ Ĩ
Ġt ang
or ter
j s
ĠProf ess
å² ¸
Ġhyp ot
ut o
è» Ĭ
Ġinterest s
ic ated
æĽ °
è¾ĵ åĩº
Ñģ Ð»Ð¸
st ream
Ġre cept
ä¹ ĥ
çļĦ æīĭ
Ġj ed
/c m
Tr ue
Ġa ux
Ġext ent
ij k
æľ¬ èº«
Ġ ice
Ġre act
Ġindust rial
è´Ń ä¹°
Ġdynam ic
P E
èģĮ å·¥
Ġs ont
å¹ ¾
Ð± Ð¸
ĠAn y
15 6
ĠEn vironment
Ã© g
Ġ> >
Ġdr iving
æĢĿ èĢĥ
} ,Ċ
×Ļ× Ķ
çļ Ĩ
Ġdetail ed
åĩ Ń
Ġs and
Ġpl ays
ĠÂ ±
å¼ Ħ
å¯ ¸
ism s
Ġì Īĺ
ĠÐ¿ Ð°
16 2
- ch
Ġex cess
xt ure
ç« ¹
çĽ¸ å½ĵ
ad ow
. in
Ġf ell
à§įà¦ ¬
è ĺ
Ġthought s
Ġr ank
çĳ ŀ
ĠL es
æ³ ī
åıį æĺł
èĥ ¶
çĮ ª
P C
ve ctor
Ġcalcul ated
k ip
Ġres ist
Ġv ac
Ġal ter
Ġ ï¼Į
ç¾ Ĭ
å® ¿
p et
Ġcall s
ĠB ay
S ome
é© ¶
Ġso bre
Ġdeg rees
æĻ ¨
éģĩ åĪ°
ÙĦ ÛĮ
Ã¶ n
éĻ ª
á ½
ĠO bs
Ġin i
Ġn arr
ìĬ ¤
Ġt ak
çī¹ èī²
å°± åĥı
co very
ble m
In put
çļĦ éĤ£
Ġn ice
S er
Ġmet ab
Ġopen ed
A uthor
åħ ¼
æĢ» ç»ĵ
ãģ£ ãģ¦
æķĪ çİĩ
çħ ¤
ste ad
æĮĩ åĩº
ĠW estern
Ġter rit
] ,Ċ
Ġc in
åĦ¿ ç«¥
16 6
çľŁ æĺ¯
Ġtri p
ient o
Ġb le
Ġinj ury
In fo
Ġfac ilit
ĠÎº Î±
Ð¼ ÐµÑĢ
P a
P R
14 9
à¸ ł
I ST
ĠO l
í Ļ
ä¸ĵ å®¶
æľĢ è¿ĳ
3 60
ï¸ ı
åĩ ī
15 4
ãĢĭ ï¼Į
, âĢĻ
Ġjo in
14 6
Ġì §
Ġparam eter
æ¯Ķ ä¾ĭ
ĠN or
Ñħ Ð¾Ð´Ð¸
ect ors
S im
ï ¬
. x
Ġd alam
å¹´ ä»£
Ġdep ending
ä¸ĭ éĻį
ìľ¼ ë¡ľ
åĪĨ å¸ĥ
oun ce
Ġlead er
t imes
ism o
Ġexpl ained
åĬł å·¥
èº« ä»½
Ġindic ate
er en
ĠC a
å°± è¦ģ
Ġfocus ed
ĠInt roduction
ĠØ§ÙĦ Ùĥ
å¾Ī å¿«
Ġmay be
å° Ŀ
áĥĲ áĥ
Ġtechn ologies
ak t
rast ructure
åį³ ä½¿
Ġn one
åįģ äºĮ
æĪĳ æĺ¯
à¸Ń à¸¢
ĠÑį ÑĤÐ¾
}{ \
ç«Ł çĦ¶
ĠØ§ÙĦØ ¬
ian o
Ġv ul
ä¸ ¦
Ġvirt ual
Ġfail ed
ĠP age
Ġdo ctor
Ġc atal
ä¹ ı
ìĭ ľ
æĿ¥ çľĭ
é¢ ¨
i ated
ament o
Ġh o
Ñ ļ
Ġwer den
Ġs outh
ant o
Ġv oc
Ð¾Ð» Ð¸
Ã¤ t
à¸Ľ à¸£à¸°
æ´ ¥
Ġo ch
Ġte ach
Ġc ogn
Ð¾Ðº Ð°
å¿ĥ ä¸Ń
y gen
Ġdise ases
çļĦ ä¸Ģä¸ª
èĥ Ĩ
Ġst ated
Ġsever e
æ¯į äº²
al ah
å¹´ æĿ¥
æ¬ £
åĳ½ ä»¤
åĵ ²
ĠÐ· Ð½Ð°
Ġfeed back
ĠEn ergy
å±ħ æ°ĳ
æĥ ľ
17 1
at en
åħ ģ
ĠE ss
æĢ§ èĥ½
15 7
Ġclass Name
åĺ ī
m ap
ĠÐ¿ ÐµÑĢÐµ
ion i
å¡ ĳ
Ġconcept s
Ġcompar ison
Ã¡ t
ak ers
è¦ º
ow a
Ġm ent
Ġ );Ċ
çŃī çŃī
ï¿½ï¿½ ï¿½ï¿½
Ġv a
B ook
Ġfam iliar
ĠF und
Ġproper ly
ä½ĵ éªĮ
åĲĮ æł·
ĠB ud
åªĴ ä½ĵ
Ġdoc uments
row s
Ġn os
ĠØ§ÙĦØ ¥
am ples
é¢ Ĺ
éģĵ è·¯
åıĤ èĢĥ
Ġl ock
äºĭ å®ŀ
ì Ĥ¬
ĠM A
ĠL anguage
old s
Ġad ults
ä¸¤ ç§į
Ġdirect or
Ġsuggest s
Ġ iron
ist an
Ġcommon ly
æĮĩ æłĩ
Ã ¬
but ton
Ġì Ĥ¬
Ġt ip
F oot
s in
åĵ ¡
ag en
Ġproced ures
P oint
Ġsec ure
Ġvolt age
ren cy
Ġdig its
æŀ ª
17 2
Ġ rom
ĠE p
Ġprob ability
. next
se cond
[ "
Ġapp arent
ĠJ un
å¼Ģ æĶ¾
ers e
è¿Ĳ çĶ¨
Ġmov ie
Ġat mosp
f aces
Ġur ban
Ġsh ot
åĨ Ĵ
ĠÃ ¼
ĠVal ue
ĠPh il
å¿ ł
ow e
ĠZ h
ï¼Ľ ĊĊ
Ġ ãĢĬ
åĩº åı£
Ġadminist ration
Ġà¦ª à§įà¦°
Ã ¦
ir med
Ġform al
Ġsuggest ed
è¿ħ éĢŁ
Ġin du
åģ ·
Ġg od
à¦¿à¦ ¤
æ¹ ¾
hip s
Ġsp end
åħ Ĵ
èª ŀ
ĠSp anish
15 9
Ġ ï¼Ī
ä¸Ģ å¤©
names pace
L O
ĠB ur
l s
Îµ Î¹
Ġresearc hers
åıĺ å¾Ĺ
ĠK ore
E vent
Ġle aving
Ġà¦ ľ
ĠMe an
Ġinteg r
Ġê ³
P T
ĠB ill
ĠM ax
Ġfor t
Ġsud den
Ġ ul
åŀ Ĥ
_ S
L ast
ĠC amp
3 50
Ġs ession
Ġbe coming
ĠJapan ese
Ġcon clusion
ĠPro duct
Ġe ll
Ġcour ses
Ġmarket ing
Ġdou bt
def ine
Ġvalu able
éĩį å¤§
Ġe c
ç¬¬ä¸Ģ æ¬¡
ë Ŀ¼
ans ion
H A
Ġag ent
Ġë ĭ
æĦŁ æŁĵ
D et
à¤ ķ
ĠÑ ĺ
ä¿ Ħ
Ġad ult
æ´ ª
éª ¤
Ġnet works
- related
we ight
Ġris ks
Î¯ Î±
ang an
out put
em y
åľ° ä½į
ãģ£ ãģŁ
éĥ½ åľ¨
è¡Į çļĦ
Ġal le
S N
çĵ ¶
ĠK now
Ð ķ
ĉ int
éĶ ģ
èµ° äºĨ
ÙĦ Ø§
f a
Ġtra d
ĠB est
ĠS ign
æĪĲ æŀľ
Ġnumer ous
Ġf rag
Ġwould n
åº¦ çļĦ
åı Ķ
Ġconsist ent
Ġcon sole
Ġdiv ision
l u
L C
ĠI r
éº ¦
Ġdis p
à§ĩ à¦¨
Ġsign s
14 8
ä¼ ı
N e
èº« è¾¹
A tt
ĠS olution
åĲ¬ åĪ°
à¥įà¤ ¯
ĠO h
çĬ¯ ç½ª
ip edia
åŃ ķ
Ù ¾
Ġo t
sp ring
æĭ ¼
ĠÐ¼ Ð¸
$ {
ed y
p es
æľī æīĢ
è®¾ æĸ½
Ð· Ñĥ
Ġimm un
ä»Ģ éº¼
ĠStud ies
Î½ Î±
ç² Ĺ
et ch
æĿ °
Ġor ient
Ġt ables
æĢ» æĺ¯
ĠO bject
ĠDe v
Ġcomp osition
//// ////
Ġ× Ľ×
çļĦ æĸ°
Ġt ail
æĦŁ åıĹ
ff ee
abet es
clud ed
Ġvel oc
if ies
ĠPar is
åĪĨ ç±»
éĻĲ åĪ¶
Ġob lig
æ» ´
ĠW ell
Ġt rib
ĠT or
um bers
Ġdel ivery
ĠA R
×ķ× ľ
åĽ¢ éĺŁ
A g
ĠO R
ric s
Ġfin ished
Ġsal t
Ġ× Ľ
Ġrem oved
ç¨ į
å° ĺ
ĠC ard
in ating
Ġredu cing
éĥ ĳ
Ġrepresent ation
St ud
m ic
ãģĤ ãĤĭ
h line
ĠC oll
æĬ ¢
ÑĨÐ¸ Ñı
Ġfavor ite
ĠOn ce
Ġconflic t
Ġk an
asc ular
Ġan cient
àµ į
ĠWh ich
æĶ¯ ä»ĺ
20 4
ĠCont rol
ith ub
è¨ Ń
ĠÂ £
ÛĮ Ùħ
tt p
T R
ot he
æŃ£ å¼ı
ĠM il
Ġfund s
æĸ¹ ä¾¿
Ġw ire
Ġm ixed
Res ponse
as p
ĠÃ º
éĶ ħ
D E
ÑİÑĤ ÑģÑı
à³į à²
§ ×
âĢĿ ãĢĤĊĊ
èħ Ĳ
Ġd ari
Ġaut o
Ġem pty
ç«Ļ åľ¨
ov a
re c
16 7
ir ation
ĠB ack
åĩº ä¸Ģ
Ġtr uly
å®¶ éķ¿
Ġs ist
ÅĤ a
Ġjob s
åĪ Ĭ
æĥħ ç»ª
ç¼ĸ è¾ĳ
Ġconsum ption
Ġconf idence
åĬ¨ ä½ľ
Ġrefer red
Ġon t
Ġl ibrary
éĹ ²
ĠT im
Ġpre gn
èĥ İ
Ġa uch
C I
ë Ĳ
ç² ®
ĠPro cess
Ġhum ans
à¸ ©
he ther
F e
è´ ¡
Ġhigh light
Ġdi agram
Ġsc ene
( l
Ġk id
ä½ĵ èĤ²
éļ Ĩ
çİ Ħ
Ġf av
Ġmeasure ment
ç»Ŀ å¯¹
ĠĠĠĠĠĠĠĠĠĠĠĠĠĠĠĠ Ġ
ä¸Ĭ è¿°
ĠS i
Ġver b
ĠRuss ian
Ġ Äį
Ġc ities
sum mary
ä¸į ç®¡
æĻļ ä¸Ĭ
or ph
Ġdiscover ed
Ġa vec
Ã «
Ġr h
r ant
Ġappe ared
Ã§ Ãµes
ash ion
Ġinv ent
ce ived
15 8
Ġsol ar
17 4
ĠØ§ÙĦ Ùģ
ä¹Ł æ²¡æľī
ĠGra de
Ġreve aled
Ġrec ip
ä¼ļ è®¡
åĮĸ åŃ¦
an ie
Ġrepresent ed
å½ ¼
Ð° Ð»
Ġs oul
Ġfundament al
Ġrespons ibility
Ġder iv
çº ¹
ä¸º ä¸»
- cent
ÐµÐ½ ÑĮ
D is
è¡¨ éĿ¢
Ġcol ors
ç§ Ĵ
Ġf reedom
ra ce
æĽ´ æĸ°
ĠC ON
æĿĥ åĪ©
Ġprom ote
çĤ ¸
ĠMin ister
ade cimal
Ġf ix
è± ª
Ġan s
ĠØ¥ ÙĦÙī
Ġsu gar
ĠE xt
clus ive
Ġsh o
Ġgood s
[ j
c in
Ġpie ces
Ġvir us
Ġt roy
ĠP R
Ġatt end
Ġf illed
èĤ ©
éĶ ĭ
Ġs an
Ġar ms
Ġsu itable
Ġj est
in ations
ar ian
ĠB oth
éĢĲ æ¸Ĳ
æĤ ²
ÙĪ Ø³
. .ĊĊ
Ġsc ript
ĠSh ow
Ġsm ooth
åı¬ å¼Ģ
L A
Ġsh ip
ĠAr ticle
ste in
å¼º è°ĥ
è¾ °
è¿ ģ
Ġinstit ution
Ġz ijn
å°ı åŃ¦
W eb
æŃ£ æĺ¯
/ **Ċ
Ø§Ø ·
Ġk it
ĠO x
ÃŃ t
éĤ ®
Ġup dated
ĠSt art
ĠMed ical
Ġg ender
C o
Ġ× ľ
2 30
ĠW here
Ġst uff
çĮ Ľ
Ġë ³
Ġdet ection
Ġdef ine
Ġestim ated
Ġswe et
er d
s m
Ġint ended
ic ol
Â ¬
val id
è¯´ è¯Ŀ
ĠA N
Ġspec ifically
åĲ Ĳ
in ity
Ġmin im
ĠFran k
à¥įà¤ °
ĠØ§ÙĦØ ´
çŁ ©
Ġp ure
Ġdrug s
Ġw inter
/ S
ç¥ŀ ç»ı
Ġad j
ĠØ§ÙĦ Ø¯
But ton
we b
gen cy
è¯ķ éªĮ
omet ry
ĠAb stract
os es
Ġher self
- the
ĠP oint
ç¨ ¿
Ġl ived
te x
"> </
ĠN OT
Ġadv ice
Ġthan k
ĠInd ust
ol it
Ø° Ø§
Ġexpl anation
C F
Ġhapp ens
H S
at iv
Ġsm art
n am
Ġwill ing
Ñı ÑĤ
è® Ĭ
Ġsubject s
ç¾ ½
lect ed
ãģ¦ãģĦ ãĤĭ
Ġpart ner
- Ċ
éĢ Ĩ
Im age
åĵª äºĽ
vert is
n Ã©
ä¸į çĶ¨
è§Ĵ åº¦
åŃ ¤
Ġper m
Ñħ Ð¾Ð´
if est
ic he
Ġs ou
Ġgen es
Ġdig it
o is
çļĦ æĸ¹å¼ı
å¹¼ åĦ¿
O ur
Ġp and
Ã ĥ
_ list
d b
åĵĪ åĵĪ
uild ing
å°± èĥ½
æĬ ĳ
à± ģ
Ġal leg
ìł ģ
çĮ «
çĻ Į
Ġstud ied
Ġpro ceed
at abase
Ġhealth care
Ġgu ess
ic ing
å¹¶ æ²¡æľī
Ġne uro
I O
Ġcircumst ances
ag on
å¥ ı
17 3
ol ars
æĭ Ĵ
Ġknow s
æĪĳ æĥ³
ç§» åĬ¨
us hed
B ox
Ã ®
äºº çĶŁ
/ in
é¼ »
Ġmanag er
æĸ¹éĿ¢ çļĦ
èĢĮ è¨Ģ
h ab
å¼ķ å¯¼
Ġinstr ument
ì ĺ
ĠO N
è¿ ª
st ood
tr ue
Ġfrequ ently
è² Į
um a
ĠCon n
Ð¾ Ð½Ð°
Ġun less
Ġre ject
b urg
ĠTr ue
æ¡ ĥ
ç± į
ĠØ¢ ÙĨ
- old
: **
Ġcr im
Ġmonitor ing
Ġra ise
Ġre form
Ð² ÐµÑĢ
çº µ
ĠB ig
ĠEngine ering
Ġrem aining
à¦ ¹
ĠM ot
Ġhelp ful
ÏĦ Î¿
çļĦ ä¸»è¦ģ
æ¯ķ ç«Ł
u ing
act ory
16 9
Ġph ilosoph
w in
ĠA rab
ĠÎ ´
æľī ä¸Ģä¸ª
åĲį åŃĹ
åĩºçīĪ ç¤¾
Ġrecord ed
ĠCon f
ri z
ç¢ °
ç¢ ³
Ġann ounced
åıĮ æĸ¹
Ġoffer ing
æĬķ åħ¥
è¿ŀ ç»Ń
çī ¢
Ġc art
s z
ł ×Ļ
h y
( A
æĭ Ķ
Ġb right
N ext
Ġl b
Ġcre ation
æŃ¤ å¤ĸ
åĴ ±
Ġc oun
ch i
éĺ² æİ§
or al
-b e
Ġin ner
Ġsee ing
æĹ¥ å¸¸
- v
Ġgen etic
çļĦ ä¸į
Ġpar allel
Ġd aughter
Ï İ
Ġn il
æĻĤ éĸĵ
å¼ µ
Ġdes c
æķĻ æİĪ
ĠÐ± Ðµ
ĠS ie
çŃ ¹
æŀ Ŀ
×Ļ× ¨
à¸ ĺ
op ic
Ð¾ Ðµ
ĠT imes
Ġr u
Ġconcern ed
Ġ- --
Ġdel ay
ë ŀ
åı¥ è¯Ŀ
å¤Ħ äºİ
ãĢ Ķ
Ġvict im
å¹ »
ail ed
è¾ Ī
à¸Ħà¸§ à¸²à¸¡
ĠL ic
ym bol
Ġind epend
Ġ×Ķ× ŀ×
è° ĭ
Ġ< -
Ġsecond ary
Ġa ward
æĺ¯ ä¸ª
ĠF il
ĠSec urity
éĤ Ĭ
Ġr ing
Ð¸ Ð½
Ġhor iz
ĠTex as
Ġst ack
ĠÐº Ð¾Ð¼
re ated
Ġelect ron
æĺ ¨
ĠM el
Ġwait ing
ä¸¤ äºº
èĤ ¾
æ® ¿
Ġam pl
ĠAs ia
ĠY es
ĠSpec ial
Ġprinc ipal
Ġre nd
åł Ĩ
ãĤ ı
R et
à¦ Ĺ
ä¸Ģ ä½į
ĠD E
ĠĠĠĠĠĠĠĠĠĠĠĠĠĠĠĠ ĠĠĠĠĠĠĠĠĠĠĠĠĠĠĠ
im ately
Ġ> =
] ]
Ġphen omen
Ġco e
Ġmarg in
Ġap art
ig u
Ġox ygen
V ol
éħį åĲĪ
Ġhold ing
ĠM ount
Ġrespons es
çı¾ åľ¨
à¥ ģ
Ġcontinu ous
å¤§ ä¼ļ
èĻ ķ
ĠÐ ķ
ä¸Ģ è¾¹
Ġc ategory
Ġa z
ç¡® å®ŀ
æĶ¹ åĸĦ
Ġextrem ely
åĢ¼ å¾Ĺ
s u
ç»´ æĬ¤
d i
ĠIn f
C lick
Ġrec o
ìĹĲ ìĦľ
çĵ ¦
Ġw itness
#### ##
ĠD isc
h ost
! âĢĿĊĊ
cul es
Ġn it
clud ing
èĥ½ æºĲ
le ments
Ùħ ÙĪ
un te
gy pt
uk e
ĠN atural
åħ´ è¶£
Ġf ruit
à¦ Ĥ
ab e
ploy ment
z ing
c ase
0 10
ĠD u
ãĢģ ãĢĬ
åĲĮ å¿Ĺ
Ġb inary
Ġfor g
r ich
èª į
ple te
è ¤
/ f
Wh y
ĠC amb
ant ly
our se
åĨľ æ°ĳ
ĠÐ £
Ġr an
Ġb attle
Ġk ill
ÑĪ Ð°
ĠH y
U E
< int
ĠM use
èĭ± åĽ½
Ġequ ations
æĦ Ī
D R
ä¸Ģ æĿ¡
m al
Ġco ast
( new
S ource
Ġdest roy
ĠÐ² Ð°
g reg
n el
ad ing
× ¢
é© ±
à¸¡ à¹Ī
ĠDig ital
Ġachie ved
ĠF ull
Ġìŀ Ī
33 3
Ġorgan ic
ro g
åĿ ¡
ĠO ld
-l ike
å£ ®
Ġdet ect
Ġpay ment
£ ¼
èĩ³ å°ĳ
äºº åı£
fl u
Ġcollect ed
Ġcompet ition
Ġwid ely
em ail
an al
ĠC y
ut a
' ;ĊĊ
ç»Ļ æĪĳ
å½ĵ åľ°
æĭ ĵ
èĽĭ çĻ½
Ġfl at
it i
Ġp u
éģ µ
Ġest e
ĠRe ferences
æĹ¶ çļĦ
Ġbelie ved
Ġmost ly
ĠT R
n ÄĽ
os itory
How ever
éĵ º
Ġpo ol
ÑģÑĤÐ² Ð¸
åį³ åı¯
Ġevent ually
Ġc i
è®¡ç®Ĺ æľº
ãĤ ¿
Ġsqu ared
è¾ ŀ
æĽ´ æĺ¯
æ¶ Ĥ
Ġcitiz ens
20 5
Ġ} );Ċ
w i
Ġdep ends
æĵ ¦
ãĢĤ ï¼Ī
Ġkeep ing
ĠWh o
Ġintern et
Ġwh atever
×ķ× Ł
Ġaccur ate
Ġcris is
Ġrecomm ended
à¦¾à¦ ²
Ġpos itions
Ġviol ence
åĮ» çĶŁ
ĠPr ime
Ġdep artment
ĠÐ³Ð¾Ð´Ð¸ Ð½Ð°
å§ ľ
Ġë Ĥ
Ñī Ð°
Ġv ital
ic ious
åŁº äºİ
Ġseek ing
Ġk on
. ex
ĠÐ½ Ð¸
éĩį è§Ĩ
C he
áĢ º
Ġmark ets
Ġg al
Ġass ets
ĠPr int
Ġr ul
eg o
F l
ãĢ ķ
Ġ à¹Ģà¸
èħ ¾
ä¹ĭ å¤ĸ
Ġe cho
empl ate
ĠÐ Ĺ
em porary
í ĺ
åĭ Ĵ
à± į
ry pt
in ition
ĠðŁ Ķ
Ġext ended
ĠUn ivers
Ġdecre ase
ä¸ª æľĪ
is i
Ġ íķ
åĸ Ĭ
Ġcon ven
ï¼Ľ Ċ
ĠL im
math cal
ĠÐ¿Ð¾ Ñģ
ä¸ĭ äºĨ
çľŁ å®ŀ
éĢ £
Ġtra ffic
; i
ĠStud ents
æĢ§ åĴĮ
Ġm ol
åĽŀ æĿ¥
Ġgreat est
display style
II I
Ġhe aring
_ D
åĵ ¦
et ry
Ġre in
æĦ¿ æĦı
å¹³ è¡¡
? "
Ġdist rict
Ġcard i
Ġhelp ing
Ġarg s
Ġaw ait
å¥ ī
Ùħ ÙĦ
ĠId ent
Ġengine ering
ĠL ook
è§Ħ åĪĻ
Ġfour th
æĢģ åº¦
it as
å½¢ è±¡
èµ· äºĨ
Ġpurch ase
ic ago
hold ers
èģ ĺ
ĠP ers
Ġd f
æ¤į çī©
ìł ķ
Ġdom in
Ġf old
àµį à´
ĠS af
æħ ķ
ĠG al
ran k
Æ °
' .
ĠÐ Ľ
it en
ĠCon st
Ġdeb t
Ùħ ÙĨ
ol i
Ġ ÚĨ
Ġr id
åľ° åĿĢ
vent ional
Ġindic ated
n ov
ĠN ote
ĠF ace
Ġs ounds
c ell
çŁ Ľ
I B
Ġmain ly
åĪĨ åŃĲ
å°ĳ å¹´
æģ Ĵ
Ġper man
Ġph r
Ġre nt
ĠF OR
ĠJ ava
s ize
Ġposs ess
çļĦ åŁºç¡Ģ
Ġan tic
æĪĳ ä¸į
å¤§ éĩı
Ġ ÑĢ
ĠWorkshe ets
åĩ ¤
åī ²
Ġdes ire
à¤ ¸
O K
Ġexist ence
ĠSci ences
åĽŀ åĪ°
ç¢ į
ãģķ ãĤĮ
Ġpl ane
ë ħ
æ® ĸ
ĠC A
æĽ¾ ç»ı
v in
åĲ ¹
æ³ ª
åĦ¿ åŃĲ
æĪĳ å°±
ÙĪ Ø¨
ä½ľ ä¸ļ
Ġsitu ations
ĠRuss ia
èĲ ¨
åħ ½
çĶ ¢
éº ½
ay out
Ġc row
m ann
çĬ¶ åĨµ
ĠRich ard
qu es
ĠCar ol
amp ions
Ġmus cle
Ġd il
Ġs ell
Ġ( $
Ġstat ements
å¿« ä¹Ĳ
s ible
uz z
is ch
enc ing
å¥ Ķ
iss ions
H and
ar an
ĠS uch
ap at
ars h
æ± Ĺ
ac her
Ïģ Î±
Ġn Ã£o
Ð»Ðµ Ðº
Ã½ ch
è¿Ĳ è¾ĵ
ĠFound ation
Ġto x
åł ±
E W
ĠP lease
es is
Ġjust ice
æĢĿ ç»´
æľº æ¢°
ãģ Ľ
åĬ¨ çī©
u ce
ah an
Ġref ers
åįı è®®
Ø§Ø µ
ic ian
Ġcons ists
g t
Ġbre ast
èħ Ķ
Ġn od
ĠÃ© t
Ġcl ients
ä» Ķ
Ġinter actions
Ġens uring
Ġs ind
Ġ ),
èĭ± è¯Ń
Ġa id
Ñĥ ÑĤ
Ġb odies
ĠI V
çĹĩ çĬ¶
Ġpers ons
æŀĦ æĪĲ
ĠM ake
ĠSystem s
ut s
con fig
xi ety
å·² ç¶ĵ
Ġ( (
Ġì ľ
Ġch osen
ist ical
Ġk illed
Ġex ists
é«ĺ åº¦
Ġspec ified
Ġt ick
- W
ual ity
à¦ ĩ
Ġu g
Ġmanag ed
ress ive
çļĦ ä¸»
Ġprinc iple
Ġhous ing
ÙĤ Ø¯
ĠAmeric ans
å¹¿ æ³Ľ
å¤§ å°ı
Ġmil k
Ġfund ing
Ġsurg ery
ĠPol icy
Ġw ie
Ġf er
Ġ Å¾
Ġa an
T A
Ġfor ty
ĠIs land
à¹Ī à¸§
åĬł ä¸Ĭ
qu ery
/ L
Ġm yst
Ġal cohol
Ġmiss ing
i Ã³
åĪĨ éħį
æİ¥ è§¦
\ ,
Ġacc uracy
ĠCon ference
Ġsh oot
à¦ £
è´· æ¬¾
RO M
Ġpr z
form at
èĲ §
Ġc er
Ġseg ment
å°± ç®Ĺ
Ġn urs
èµ ĭ
ĠT otal
Ġo l
Ġprote ins
Ġcontroll ed
Ġprot ocol
à¹ĥà¸« à¹ī
n ership
ig inal
- E
y an
Ġfif ty
åĿ ¦
Ġz one
à® °
Ġpl ot
per ties
el n
uild er
Ġde pos
åĵª éĩĮ
æĪĺ äºī
Ġend ed
Ġsustain able
Ġaccom pl
è¿ Ł
æĢ§ è´¨
ĠG rand
æĴ ĳ
Ġà¦ ¯
é¸ Ł
Foot note
Ġreg ional
Ġemploy ee
Ġrun s
Ġerr ors
Ġmod ule
Ġre pro
éĹ ¹
Ġp ued
è¡£ æľį
im er
æĽ ¼
Ġcomp are
Ġì ĺ
ad ian
æīĢæľī çļĦ
à¹Īà¸²à¸ ĩ
ĠIs lam
Ġelect ronic
Ġreco very
Ġhy per
am os
Ġag reed
b rid
çĭ ł
ĠW H
éħį ç½®
ãĢĳ ĊĊ
è© ²
ĠAd ditionally
}\ ),
ent er
ĠW omen
å± ¥
Ġconsider ing
Ġmain tenance
Û ±
ain e
ĠLe e
Ġpre v
P D
è° ±
Ñĥ Ð½
k ins
urn s
Ġtrans mission
Ġexperiment al
C ur
) ãĢģ
( e
ìĦ ±
ĠJ er
ol or
à¸· à¹Īà¸Ń
æµ ħ
Ġcry st
Ġlo op
p arent
oc hem
à¸ į
Ġtop ics
çĺ ¤
Ġyou th
åŃ¦ ä¼ļ
æģ ĭ
() ;
] );Ċ
å® ı
Ġmechanism s
Ġb one
Ġno ise
ific ial
å¾ª çİ¯
é ³
çº ł
ched ul
ĠL os
Ġcreat ive
æ ª
ĠÐ´ ÑĢÑĥ
ì ²
Cross Ref
è¯¦ ç»Ĩ
Ġtem pl
åľ¨ è¿ĻéĩĮ
Ġmed ic
ĠFran cis
it Ãł
iment o
èģĶ ç½ĳ
ro t
å¾Ī å¥½
æľī çĿĢ
Ġa cknow
ĠðŁĶ Ĭ
Ð¼ Ñĭ
Ġdep art
à¦¿à¦ ¨
az on
Ġimpro vement
Ġ Ã¡
Ġth in
ĠCommun ity
} $
ä»į çĦ¶
æ¼ ı
ĠÐ¸ ÑģÐ¿
Ġdo ct
Ġsett ings
è´¢ æĶ¿
ĠB rown
Ġout come
ĠR os
æł· åŃĲ
åĪ© æ¶¦
å¯ Ħ
a ire
Ġopp osite
Õ¸ÖĤ Õ
Ġhom es
ä¸ĭ åĪĹ
Ġr oute
ĠIm p
ãģ ¿
Ø³ Ùħ
éķ¿ çļĦ
Ġcrit eria
Ġcomp ens
éģĵ å¾·
Ġanal ys
Ġfl oat
ing ly
Ġim per
Ġrecogn ition
Ġgirl s
Ġ ÑĨ
éĽ £
ĠAd minist
erm an
() )Ċ
æĤ Ł
el lect
Ġê µ
C an
æħ¢ æħ¢
×ķ× ĵ
v as
èī ¾
æīĭ æ®µ
Ġlink ed
ĠC am
Ġb ool
Î¼ Î±
âĢ Ĳ
æ¢ ¯
Ġam azing
Ġprom pt
ĠDirect or
Ġco oper
éģ ¸
ä¸ĭ åįĪ
åĪĽ ä¸ļ
AR T
ĠNet work
Ġder ived
ot ed
Ġre ct
Ġstand ing
Ġt ill
Ġcl ar
Ġ×Ĳ× ª
ind u
Ġcon j
ot ype
Ð¾Ð»ÑĮ ÐºÐ¾
é£Ł çī©
çĬ ¹
ĠA ff
Con fig
çĤ¹ çļĦ
Pro duct
Ġ à¨
à¯įà® ķ
âĢ¦âĢ¦ âĢ¦âĢ¦
Ġs oc
æ¶ī åıĬ
ĠH T
Ġcrit ic
å¦ ĸ
Ùĥ ÙĨ
ä½ĵ çİ°
ä¾Ŀ æį®
L oad
p ons
åĬ¨ åĬĽ
ocr atic
åľ¨ åľ°
Ġless on
ph i
Ġsh aring
ĠC r
ortun ately
2 11
cl ose
æŃ¥ éª¤
ro gen
Ġ( !
2 12
g ent
Ġsignific ance
St atus
å¯ ¿
Ġz a
Ġfig ures
Ġst ood
Ġr iver
Ġch ief
ic ians
åĭ Ļ
pl ed
pr ivate
ĠÐĿ Ð°
ĠD er
Î· ÏĤ
Ġappear ance
äºº éĥ½
Ġl atter
è´¸ æĺĵ
å¸ ¶
ĠL ine
g r
æįŁ å¤±
åİŁ æĿ¥
åľ¨ äºİ
in en
Ġunc ertain
åĲĦ é¡¹
w idth
Ġacc ord
åĲ ¨
è« ĸ
ĠCon vert
Ġres olution
ĠP ass
Ch ar
åĲ¸ å¼ķ
re y
Ġw y
éĢĤ åºĶ
ĠDist rict
D B
ĠR E
ç©º æ°Ķ
ï¼ į
å¤ ¹
ĠChrist mas
æ¡Ī ä»¶
IN E
Ġdes ired
Ġrece iving
Ġca ught
å¿Ĺ æĦ¿
em e
ll a
ĠB al
k et
éĤ£ éĩĮ
S earch
Ġaccount s
ä½į äºİ
Â «
h as
æĺ Į
Ġinvestig ation
ĠP ot
Ġpr ison
æ° Ľ
Ġdefin it
Ġdis cipl
22 2
äºĨä¸Ģ ä¸ĭ
å°½ ç®¡
ÑģÑĤÐ¾ Ñı
ëĵ ¤
p y
r ons
ÑĢÐµ Ð´Ðµ
Ġare n
Ġrest aur
Õ¥ Õ
ĠI ss
ĠChar les
æī¿ æĭħ
O h
Ġdis pos
ĠC R
Ġaccept ed
Ġprof ile
Ġmor al
Ġins ights
str ong
æĿ¥ åĪ°
if ts
æĪĳ ä¹Ł
Ġunder stood
çļĦ æľĢ
åĸ ·
Ġqu iet
ag raph
å®ŀ è¡Į
Ġthousand s
Ġl ip
åĬ ²
ir ms
ä¸į éĶĻ
Ġst ability
ĠÐ¿ ÑĢÐ°
Ã© l
ĠF un
Ġcommit ment
Ġch ronic
Ġlist en
M essage
åĩº æĿ¥çļĦ
ĠRe qu
Ġstart s
ĠT em
a per
æ°ĳ ä¸»
ãĢĤ (
ĠE th
Ġpro sp
å¹¿ åĳĬ
Ġs ports
i ology
å§ Ĩ
an z
r ative
ãģ ¡
åį± éĻ©
Ġt or
Ġrel ax
re en
à ©
Ġdiagn osis
ï¼ Ŀ
O H
ĠM ach
ĠĠĠĠĠĠĠĠ ĠĠĠĠĠĠ
or ough
Ã§ a
Ġc z
Ġoccur red
Ġsign als
P lease
Ġpre ced
Ġreg ist
å¾ ¡
Ġs rc
Ġc out
cl aim
Ġprof it
as te
Ġc ab
xt y
Ġemploy ment
) \)
Ġelect rical
Ġv en
ge bra
pec ific
Ðµ ÑĢÐ°
åİ ī
k m
æĸ ľ
Ġs now
å· ¡
- K
ur er
åħĪ è¿Ľ
00 3
ĠMicro soft
Man ager
Ġofficial s
k ov
ĠSe cret
Ġstre et
ĠLe ague
uj e
æĪ °
ĠC ath
Ġvul ner
Ġt ips
Ġbu ff
ĠA p
o a
Ġprim arily
t Ã³
è¯Ħ ä¼°
èĥĮ æĻ¯
åĮħ åĲ«
Ġwe alth
Con n
Ġfor ced
çļĦ ä½ľçĶ¨
à¤ ®
Ġloc ations
ĠFl or
F A
D r
Ġrepe ated
ä¸į åĨį
æĺ¯ æĪĳ
çĲĨ æĥ³
l ook
ä¼ģä¸ļ çļĦ
Ġen able
×Ļ× Ł
åı ¹
à² ¿
et ing
ä¸Ĭ éĿ¢
Ġdom estic
( g
æİ¢ ç´¢
ĠComm ons
Ġdraw ing
åħ¬åı¸ çļĦ
çĩ ķ
all s
Ġinde ed
ï »
ĠOn line
ĠPl ay
M ay
ĠL ike
Ġlim its
s is
à±į à°
- and
Ġà¦ ¶
Ġcor ner
Ġt ight
å±ķ ç¤º
å¸¦ æĿ¥
Ġl ose
ĠTh rough
ç«ĭ åį³
Ġg est
Ñĥ Ñĩ
Ġgu ar
Ġst ars
.s ize
ĠMart in
Ġtyp ical
çĵ ľ
ĠC irc
im m
Ġconvers ation
Ġl it
Ġf Ã¶r
å¥³ æĢ§
ĠC ost
Ġevalu ate
Ġj ump
ç»ı çĲĨ
ĠRead ing
C ons
Ġmagn etic
|--- |---
Ġo der
× ŀ×
Ð¾Ð¼ Ð°
Ġread ers
éª ĳ
æĺ¯ æľī
æķ° çļĦ
Ġv ast
Ġg arden
Ġsupport ing
Ġe ating
Ġbeg ins
Ġod d
E lement
Ġst able
Ġst ored
nd rome
ĠOn ly
G R
Ġaff ord
ass ert
Ġn erv
un ning
Ġro les
Ġnucle ar
ä» ĵ
Ġh al
ĠRe f
èµ ĸ
áĥ Ķ
Ġass istance
ĠC arl
Ġdist ingu
i u
o ose
Ġà¤ ¸
Ġth read
æµĭ éĩı
ĠÙħ ØŃ
Ġal ign
ä¸Ģ èĩ´
å°ı è¯´
ĠC ast
Ġv ote
. de
ä½ı äºĨ
è¡¨ æĺİ
ë ²
Ġexper iments
U B
Ġpl ural
èį ¡
Ġa qu
f unc
ra pe
Ġposs ibility
å¤ º
Ġhouse hold
Ġregul ations
âĢĿ Ċ
Ġindic ates
ĠÐ¶ Ðµ
ĠM en
Ġrem ained
ä¾Ľ åºĶ
åĳ¼ åĲ¸
ĠSc ott
Ġco verage
å°± ä¸ļ
æĭ ĸ
éĥ½ è¦ģ
-s c
ob e
Ñ Ľ
Ġpartic les
Ð½ ÑĥÑİ
è· ĥ
Ġfac ilities
" "
ç³ Ĭ
et ime
G ener
ëĤ ĺ
ÐµÐ½Ð¸ Ð¸
ĠL ast
Ġcam era
-le vel
ç½ĳ ç«Ļ
æĴ ŀ
l ines
Sub scribe
Ġp ada
åī ĩ
ĠÐ¾Ð± ÑĢÐ°Ð·
éĻ ¶
Ġassoci ation
p ed
åĨ³ çŃĸ
Ġh ier
Acc ording
IN S
ä¸´ åºĬ
ĠF ederal
ä¼ļ æľī
Ġag ency
æĦŁ æĥħ
Ġinform ed
) [
Ġsk ill
ÙĪ ÛĮ
ĠL ess
st on
å¾Ī å¤§
çº ¤
èĩ³ äºİ
_ T
ĠC ell
Ġdec ades
ant i
Ñħ Ð°
Ġsk y
Ġs v
éļ¾ ä»¥
i pping
Ġgu ard
çļ® èĤ¤
3 20
æŃ» äº¡
äºº åľ¨
æ¯ı æ¬¡
ĠMore over
ì Īĺ
Ġclos er
ĠC reate
Ġing red
Ġp il
ç»Ļ äºĪ
In st
ĠC S
å¤© çļĦ
ĠÙħ Ø§
it ivity
s v
éĢ »
es ch
Ġfam ous
ac iones
Ġent ered
Ġê ·¸
æĦı åĳ³
è§Ħ å¾ĭ
Ġinst ruction
ĠP ri
ĠQu estion
_ in
Ġwe ap
Ġpro of
ĠCh ildren
4 50
ä¸ĭ ä¸Ģ
or ry
Ġ( _
à¦° à§įà¦
v ements
ĠPol it
) +
èģ ½
Ġint ent
ĠW indows
Ġf le
Ġbig gest
çľĭ æĿ¥
Ġknow ing
æ±¡ æŁĵ
ì Ļ
end a
Ġe ar
ĠLou is
Ġwe ar
ens us
Ġthem e
Ġwrit er
è¸ ı
ater al
à¸´ à¸Ķ
} ;Ċ
Ġdistrib uted
å®ŀ åľ¨
/ n
the ta
Ġsc an
Ġn ur
is er
ĠT ri
ĠÐ¡ ÑĤÐ°
ic ate
Ñİ ÑīÐ¸
å®¶ éĩĮ
Ġp ackage
ĠE U
Ġdr iver
çŁĽ çĽ¾
Ġread er
Ġ× Ĺ
ĠO p
Ġd iversity
ĠU r
ĠT reat
} ;ĊĊ
ar se
æıı è¿°
av en
Ġobject ive
Ġend s
Ġass ume
Ġin ject
ĠE gypt
Ġdemonstr ated
Ġinf rastructure
The n
çľĭ è§ģ
åį »
ĠV ari
rib ution
ro ad
åŃ¦çĶŁ çļĦ
à° ¿
æī °
Ġch air
Ġn ative
Ġun iversity
Ġp ou
ient e
Ġphot os
Ab stract
Ġneigh b
2 25
Ġt ab
Ġpro ve
Ġwhere as
y ou
åĴ ¨
. id
Ġmole cular
_d ata
ĠO pt
ak ed
Ġrecogn ized
ä»£ çłģ
éĥ ģ
ä¸Ĭ ä¸Ģ
- day
ĠL iter
Ø³ Ø¨
Ġpl astic
ĠÑĺ Ðµ
å¯ º
Ġinst ructions
ĠÐ´ Ð¸
Ġg ram
ith ms
çĪ ²
Ġp Ã¥
Ġsto pped
åĳ µ
../ ../
Ġco ffee
ĠSupp ort
Ð¼ ÐµÑĤ
åĬŀ çĲĨ
Ġpict ures
ÖĢ Õ
ane ous
è³ ª
å¤ļ äºĨ
ĠW ood
. re
Ġfor th
ĠL ake
ĠP RO
åŁº åľ°
b el
ĠCor por
s a
ĠEx ample
ìļ ©
A V
U D
Ġtra v
Ġele ction
ìł ľ
Ġown er
Ġla ugh
äºĭ æķħ
Ġv i
å¹´ åº¦
å¥¹ ä»¬
å¥ Ī
art en
N ote
Ø ¤
Ġag ents
éĺŁ ä¼į
O ct
Ġwalk ing
Ġconsequ ences
) ãĢĤĊĊ
c or
om es
å¦Ĥæŀľ ä½ł
æł ı
æ°¸ è¿ľ
adem y
ĠV ict
Ġn arrow
est ed
Ġclos ely
ĠÃ¤ r
çĸ ı
ĠM aterial
Ġshe et
arm ac
Ġch rom
Ġg ap
ut or
ĠR oad
Ġt amb
ÅĤ o
èª ī
åĿĲ åľ¨
Ġb at
ĠG reek
Ġcap able
ÐµÐ½Ð¸ Ð¹
çĴ ĥ
eg a
Ġst ret
Ġ× ĵ
Ġhold s
Ġch art
ĠØ º
Ġrem ark
ä¸Ģå®ļ çļĦ
al m
tic a
ĠP en
ĠÎ ³
Î¹ Î±
å·¥ èīº
æĭ ³
B ack
åĤ ³
ĠV an
ĠL ibrary
AN D
Ø§Ø± ÛĮ
æľĢ å¤§çļĦ
åħħ æ»¡
Ġfun c
U r
Ġn u
Ġde i
Ġ( "
Ġt il
ut t
Ġpan el
Ġ[ [
++ )Ċ
Ġà¦ °
âĢĻ ĊĊ
å¤ļ ç§į
Ġr ough
ĠPart y
ĠÎ ²
åĩĨ ç¡®
Ġst ick
ro ke
Ġart ist
Ġintellig ence
à¸´ à¸Ļ
éĹ®é¢ĺ çļĦ
ic ity
Ġse ed
æľ µ
F L
k es
R L
ĠS earch
éĥ Ń
ç· ļ
ĠRes ults
ĠØ£ ÙĪ
æ¼ Ĥ
Ġinter act
ĠGu ide
w s
Ġ ion
Ġd ell
Ġspe aking
Ġmanufact uring
æµ ©
æī© å¤§
ĠÐµ Ð³Ð¾
/ A
m ain
Ġarr ang
Ġp ounds
om er
b sp
å® ¾
ple x
as tern
çĻ» è®°
.p ush
Ġph osph
L ength
ĠL ab
è¾ ī
Ä «
èµ Ķ
Ġy ellow
Ġlandsc ape
ĠN ASA
arb on
Ġc raft
Ġ ÑĢÑĥ
èµ ¤
èµ ¢
æĥ ĳ
Ġclass room
ĠS P
ÃŃ m
res hold
ĠÐ¿ Ðµ
ĠAn other
çī¹åĪ« æĺ¯
ont al
Ġun known
( r
ra cy
æĳ ĺ
Ġpain t
- one
P art
ob ile
ä¹Ł å°±
22 3
å¿ §
Q U
Ġpass ion
ĠG ame
Ġ= ==
ol o
ÑĢÐµ Ð¼
áĥĺ áĥ
Ġeven ing
é¼ ł
à¯ Ī
Ġdec ide
æĢİ æł·
Ġhe m
h op
å¤ª éĺ³
ĠPM ID
æĭ Ĩ
Ã© c
Ġconfig uration
ĠT en
Ġoper ator
Ġf aster
ä½¿ å¾Ĺ
çĶµ è·¯
å¹¶ ä¸įæĺ¯
ä¼ł æĴŃ
Ġnin ety
èį¯ çī©
Ġs ale
Ġb an
æĻĤ åĢĻ
ĠQuest ions
çĹħ æ¯Ĵ
Ġask ing
å®ŀ åĬĽ
è´¢ åĬ¡
çĽ Ī
Ġ×¢ ×ľ
Ġfood s
éŃ ı
l ambda
od a
O ther
ric ulum
åķı é¡Į
MM MM
åį Ģ
å» ī
âĶĢ âĶĢ
åī ª
à¹Ī à¸Ļ
_ st
åĲį çļĦ
ĠC ross
åĳ¨ åĽ´
æ³ķ çļĦ
pr ise
N et
æīĭ æľ¯
Ð¾Ð´ Ñĥ
å¤ļ ä¸ª
. is
Ġad equ
æģ ¨
?âĢĿ Ċ
on i
ä¹Ł è®¸
Ġcur ve
é Ĭ
ind s
è¿½ æ±Ĥ
å¼º åĮĸ
ern ame
åĲĦ ä¸ª
B I
çī §
æ²» çĲĨ
èĲ¥ åħ»
ĠÑģ Ð²Ð¾
Ġl y
Ġro z
éĺ² æŃ¢
åĶ¯ ä¸Ģ
Ġsche me
ym ph
ĠÐ ¤
Ð¶ Ð´
× Ĳ
ult y
ok ing
å®Ŀ å®Ŀ
Ġprint f
éĩĳ å±ŀ
èı ²
çļĦ ä¸ľè¥¿
Ġtas te
Ġv ess
Ġ ãĢĲ
ÑĤÐµ ÑĢÐ¸
Ġet a
n ight
ig ration
ĠM iddle
g roup
ĠMex ico
à§ §
Ġg all
ĠFurther more
ĠInd ex
v y
åįı è°ĥ
è´¡ çĮ®
Ġep is
Ġguid ance
ä» °
Ġt an
ol ving
ÃŃ s
â ĺ
éª Ĺ
çĽ¸ æ¯Ķ
ĠEn ter
pl oad
æĻ ĭ
28 0
å°¤åħ¶ æĺ¯
Ġexp ansion
çĤ¹ å¤´
à¹ī à¸Ń
à¸Ī à¸°
Ġbro ken
id ity
Ġconsum er
Ġsen ior
ĠF our
th rop
ut ter
io x
ra de
Ġcomp ound
è½ ¨
ĠS che
Ð± Ð°
Ġm and
ĠH a
Ġbeaut y
æĽ´ å¥½
ĠÙħ Øª
èħ º
Ġad vent
Ġg ather
ÙĬ Ùĥ
æĶ¶ çĽĬ
Ġlist ed
on ia
R el
plic ated
Ġinnov ation
å¹ ½
Ġnum s
åĽ½ æ°ĳ
Ġk tÃ³
è¿Ķ åĽŀ
Ġgr id
ist ent
ãģ¨ ãģĦ
Ð ĵ
æĽ ¹
ang ular
æľĢ å¥½
ä¾Ŀ çĦ¶
ä¼ĺ åĮĸ
O V
æ¶ µ
Ġsuccess fully
é¦Ļ æ¸¯
f irst
lement ary
h us
ĠObs erv
Ex p
Ġpl as
if er
ĠÑģ Ð²
Ùħ Ø§ÙĨ
D on
or ption
ĠA z
ãĤ ·
Ġconf irmed
Ġfeel ings
En ter
Ġs port
çĽ´ åĪ°
Ġkil omet
Ġaware ness
ra ys
é½ ¿
id ers
Ġest imate
Ġë ¶
âĢĿ âĢľ
Ġcho ices
Ġclass ification
er ies
èĢģ äºº
åħ¬ å¼Ģ
ĠL o
e ur
ny ch
æľŁ çļĦ
ĠP C
Ġen zym
Ġchalleng ing
ir i
Ġ( '
ĠT oday
Ġcare fully
æ» ļ
Ġcirc le
Ġslow ly
åĻ¨ çļĦ
å¼ ¯
Ġsurv ival
ÑĤ Ð¾Ð²
ä¸Ģ æĹ¦
Ġre new
Ø¹ ÙĦ
il ib
re act
h l
ĠÙħ Ø±
åħ± äº§
×Ļ× ľ
Ġimpro ving
Ġrec over
Ġâ ĸ
éĽ ¢
å¹´ åīį
ç»Ħ åĲĪ
Rep ository
ĠP ac
aint iff
èĲ ¬
Ġappe al
ç¬¬ åįģ
çī© çĲĨ
é Ħ
Å Ł
ä»¤ äºº
Ġmat ters
çļĦ å¥½
Ġdef ense
ant es
Ġeng age
Ġt ub
ĠS and
Ġfor get
å¸¸ è§ģ
èĴ ¸
Ġw et
St art
åĴ¨ è¯¢
add ing
Ġr ig
ãĤĪ ãģĨ
en z
ul ating
# define
at ial
à¹Ģ à¸ģ
Ġdescrib es
ru ck
ä¸Ń éĹ´
Ġinteg ration
Ġdr ink
Ġsupp osed
b in
form ance
w an
Ġopt imal
ĊĊ ĊĊ
Ġiss ued
äºº çī©
åĽ½ çļĦ
b ag
Ġneg ot
è» į
Ġour selves
j u
ĠCons ider
æ¸ ¡
sub script
Ġbe ar
Ġemerg ency
æīĵ éĢł
èĥ½ éĩı
Ġhe ro
ab ul
cd ot
M T
èİ ±
ri o
Ġcon ference
ustom er
ĠS S
Ïģ Î¿
ÙĬ Ø³
Ġë ĮĢ
n ia
æº ª
Ñĥ ÑĢ
çŃĸ çķ¥
Ġj ur
é¢ľ èī²
å·¥ èµĦ
Ġs es
id ae
in ates
ĠS em
ä¸Ĭ åİ»
èª ¿
Ġrev olution
Ġspirit ual
................................ ................................
Ġë ª
At om
Ġun iform
å¥³ åĦ¿
ÙĬ Ùģ
lev ision
ĠC lick
ĠMed icine
. net
æĻº æħ§
Ġtest ed
Ġacc um
Ġá ¼
çªģ çł´
Ġmi xture
çĪ¸ çĪ¸
ĠMed ia
Ġresid ents
å®Į æķ´
Ġre venue
r ance
æľī åĪ©
ç»Ļ ä½ł
Ġì ĥ
Ġd ivers
out s
ä¾¿ æĺ¯
a ud
Ġdef ic
Ø± ÛĮ
any a
æģ °
Ġpotential ly
çļĦä¸Ģ ç§į
Ġha ven
ool s
éĵ ľ
Ġ âĢĻ
b eta
Ġintrodu ction
ì ¹
Ġcr ime
" .ĊĊ
Ġsub str
Ø¹ Ø©
0 11
Ġwatch ing
ĠFin ally
é» İ
âĹ ı
ĠN av
Ġprep are
í ĸ
Ġen viron
éŀ ĭ
d c
% Ċ
ar ks
ĠÂ ©
Ġsh ock
il arly
20 7
ĠÂ §
çĽ® åħī
ë© ´
æµģ ç¨ĭ
F C
ĠL ocal
è¿Ļ æĹ¶
Com p
Ġdemonstr ate
t il
ĠTe am
Ġprofession als
ident ial
force ment
ĠDiv ision
ĠA B
ĠL in
2 14
Ġenc ounter
ç¢ º
Ġl iv
Ġr ational
Ð» ÐµÐ½Ð¸Ðµ
ar on
ou ter
çĲ ´
ç¬¬ äºĶ
ä¿® æĶ¹
èį Ĵ
Ġmeasure ments
åĬł å¿«
AC T
ÙĪ Ø§
Ġes p
æ°§ åĮĸ
Ġdoll ars
×Ļ× ł
> (
S u
ç¼ ´
Ġ× Ĵ
Ð± Ð¾ÑĤ
åĤ ħ
_ M
ä¸ī åįģ
Ġamount s
æĹ¢ çĦ¶
- J
æĮ ĸ
Ġveloc ity
Ġmar riage
ĠTh ree
20 6
ĠStr ateg
Ġcl in
æŁĲ äºĽ
Ġfin ish
iffer ent
Ġthan ks
em ia
ic an
æ²Ł éĢļ
here d
um es
è§Ĥ çĤ¹
20 8
am il
çļĦ åŁºæľ¬
ann els
ĠCom ments
ä»ĸ åľ¨
ĠÑģÑĤÐ° Ð½Ð¾Ð²Ð½Ð¸ÑĪÑĤÐ²Ð¾
ĠF IG
è¡ °
rib ute
ost ic
ri j
omet imes
åĲ¯ åĬ¨
A I
ep s
imens ional
33 9
Ġs itting
S O
éĽĨ ä½ĵ
** ,
D ec
Ġsp ending
az ine
ä¸Ģ å£°
- res
Ġp y
Ġg ift
å·® å¼Ĥ
Ġact s
Ñĺ Ð°
ĠRe al
èŀ º
Ġexper ts
h u
Ġmet ers
Ġan xiety
Ġpresent ation
Ġincreasing ly
å¤§ éĥ¨åĪĨ
v an
¡ °
az e
Ġdefinit ely
IP T
åĲį ç§°
Ġaut hent
- qu
å¤© ä¸ĭ
Ġinfl amm
Ġplan et
Ġd ress
F in
} =\
åĪļ åĪļ
un ci
çµ Ħ
ĠH ill
ĠIn stead
W ell
ak i
æİ¥ çĿĢ
æĥħåĨµ ä¸ĭ
Ġmod er
åıĺ æĪĲ
26 0
Ġf ashion
\[ \
ĠA L
ĠF ile
Int eger
çŀ¬ éĹ´
D O
Ġf est
Ġsp aces
ail ability
Ġro ots
åľ¨ æŃ¤
éĥ İ
im p
æ¸ ł
ĠRel ated
rit er
ek t
qu ir
ì Ĩ
ä»¶ äºĭ
Ġwalk ed
åĪ° çļĦ
ĠCh icago
/ w
Ġs ight
- V
Ġentire ly
ĠÐ Ń
Ġsu c
ĠC ase
27 0
( {
é© »
o pp
ĠApp lication
cre en
en za
åħ¨ ä½ĵ
Ø§Ø ¶
Å¼ y
åįı ä¼ļ
Ġn ach
Ġneigh bor
èī¯ å¥½çļĦ
ÅĤ y
ĠF re
e per
é¦ ¬
ĠT erm
Ġimpos sible
Ġqu ery
ĠR ights
à¸« à¸Ļ
ĠO ffic
Ġm ir
âĪ ļ
S pec
ç¨ Ģ
Ġstruct ural
Ġf ert
onal d
è¶ĭ åĬ¿
ãĥ Ń
éģ ĭ
Ġrelig ion
Ġto ler
å½ ¹
Ġadv oc
æīĢ è¿°
l ik
as et
up y
Ġrem ote
id os
Ġemploy ed
Ġjudg ment
Ġdiv ide
et ies
2 24
2 13
id ents
( k
Ġy a
i ar
ë Ł
Ġj oy
ĠM ov
n ormal
/ M
Ġocc asion
åŁº å±Ĥ
re al
Ġcontrol s
æķ´ çĲĨ
Ġabs ence
pl ant
ä¸Ĭ ä¸ĭ
Ġwall s
are st
Ġst ages
ĠC P
ĠAn swers
æĪĳ åľ¨
è®º æĸĩ
åı¯ è§ģ
. y
C N
Ġtal ent
aj Äħ
à¸¹ à¹ī
in u
æ¾ ³
ä¹Ł è¦ģ
H z
Ġvill age
Ġsum mary
æµ Ļ
ĠVir gin
èĩ Ĥ
èĤ¡ ç¥¨
Ġmed icine
Ġcy cl
b ur
Ġsc ope
è½¦ è¾Ĩ
æīį æĺ¯
Ġful f
ent a
ĠW al
Ġar rest
Ġwonder ful
Ġinter vention
Ġbehavi our
ĠF amily
Ġst ake
(" %
s hip
Ġsurround ing
ah r
Ġmaintain ing
-f ree
ick en
Ġw ird
ĠM ur
åŃ Ł
row ser
on om
Ġh ur
Ġtra dition
à¦¾à¦ ®
Ġcogn itive
åĽĽ ä¸ª
åı¯èĥ½ ä¼ļ
è£ħ ç½®
çŃ ĭ
Ġreview s
Ġcomp ounds
ĠÂ ł
ĠJohn son
Ġunder lying
Ġf an
An other
o in
ä¸»è¦ģ æĺ¯
Ġarr ived
è¿ĩ çļĦ
22 1
ĠDo es
ç´ł è´¨
è¡ ĵ
am an
ĠJ ac
ri ers
æ¬¢ è¿İ
ĠE X
Ġreason able
og raf
Ġg ran
Ġsh ares
om eter
ĠGe org
Ġturn s
ĠCh ange
app ed
æ³¨ åĨĮ
Ġconf irm
cos ystem
Ġfab ric
- cont
Ġsens or
" ]
Pro v
am ber
Ġs ections
og ene
ÑĤ ÑģÑı
çķ ħ
Ġst one
AL L
z n
Ġdog s
Ð¾Ð± Ñĭ
Ġcateg ories
æĬ¥ éģĵ
ãģ§ ãģ¯
áĥĶ áĥ
âĢ¦âĢ¦ ĊĊ
çĲĨ å¿µ
Ġf asc
åħ¬ å®ī
çĽĳ ç®¡
e le
Ġb rown
pt r
Ġ[ '
ent es
hemat ical
ĠR ock
f it
å§ ¿
Ġn y
Ġinter val
æĥ³ æ³ķ
ê² Į
ĠL ink
Ġguid elines
ä¸į æķ¢
li ament
ĠÃ¼ ber
è½ ī
åĲ¸ æĶ¶
ĠSo ft
ç»¿ èī²
Ð½Ñĭ Ð¼Ð¸
Ġcomp osite
Ġcomm itted
Ġj un
c s
ĠCreat ive
Ġtw ice
ë ª
ä¸ Ī
ĠHen ry
Ġbuild ings
Ġatmosp here
åĬ¨ æľº
ĠÐ± Ð¾Ð»ÑĮ
ä¸Ģ æĺ¯
Ñĩ ÐµÑĤ
Ġp ump
iv ated
ç³»ç»Ł çļĦ
Ġstand s
ĠL abor
Ġb inding
Cont ent
ä¹ Ķ
Ø³ ÛĮ
Ġf ant
Ġad alah
ib li
Ġjo ined
å® ħ
å¤§ æ¦Ĥ
Ġh un
2 16
ĠW ay
åħĦ å¼Ł
åħģ è®¸
ç¾İ çļĦ
å²Ĺ ä½į
Ġn am
ĠFace book
ãĢĭ ãĢĬ
Ġfoot ball
å± Ī
Ġta ught
Cl ient
qu ad
A Y
____ __
Ġvert ical
ĠCl ub
Ġ ?ĊĊ
Ġmar ried
è´¯ å½»
++ ;Ċ
åħ¬ å¼ı
ĠF ollow
Ġgra v
R em
Ġtemper atures
è§£ æŀĲ
æ·» åĬł
ĠL atin
Ġdisc rim
éĤ Ģ
å§ĭ ç»Ī
éĶ ¦
ĠÙĩ Ø§ÛĮ
ĠC hen
Ġsu it
Ġvehic les
ĠFlor ida
Ġto d
Ð½Ð¸ ÐºÐ°
Ð½Ð¸ Ðº
ĠF ort
Ġt ur
ĠÙģ Ùī
M C
Ġoffic er
éĢ ¼
c ie
ut ch
Ġed itor
ĠT ax
Ġhe x
å°ı ç»Ħ
el en
ĠEm p
uck y
Ġrad iation
æľº åĻ¨
æĸ¹ ç¨ĭ
Ġvari ation
Ø§ Ùĭ
Ã¡ r
Ġent ertain
Ġpolit ics
ĠP rom
è¨ ±
çİ¯ èĬĤ
ĠItal ian
Ġman ifest
æ¯ı ä¸Ģ
Ġax is
ap a
è®© ä»ĸ
ĠW ords
å¹¿ å¤§
/ g
Ġs pl
Ġlarg ely
Se lect
P e
ut ely
vent ions
åĸ ®
ÙĪ Ø¬
çİ »
æĹ¥ åŃĲ
N O
ci pe
çĤ ī
* x
ag a
Øª Ø¨
Ġpick ed
ĠWik ipedia
çī µ
Ch apter
Ġencou rage
E nd
à¸ ĭ
Ġcaus ing
2 15
ĠMuse um
Ġsp in
R S
Ġen erg
ĠS up
Ġf ro
h ist
ĠM S
à¦ ľ
se lect
ri um
or o
ĠS ar
é¡ ŀ
è´§ å¸ģ
Ġs ister
ĠAnn ual
ĠFact or
S ince
ä¸ī è§Ĵ
Ð¾Ð» Ð¾Ð³Ð¸
im eters
Ġn el
ip her
ter y
ĉĉĉĉ ĉ
åģļ äºĨ
ĠÏĦ Î¿Ïħ
çĤ ®
u ps
ç© ·
ĠOx ford
Ġl ies
Ġdis order
çľ¼ åīį
20 9
Ġ' ./
Ġsi xty
% ãĢĤ
rape ut
çĨŁ æĤī
Ġy e
ĠOr der
ir us
ï¼ī ãĢģ
K E
æĸ ¤
ro d
ĠAt l
Ġarchitect ure
Ġstrateg ic
r ary
Ġill ness
Ġimm une
Ex pl
vertis ement
Ġà¦ Ĺ
Ġex ception
t ical
ĠR om
èĢĮ ä¸į
åĽŀ å®¶
ç¼ Ŀ
Ġfl ood
and e
< ?
Ġlic ens
çļĦ çĶŁæ´»
éĻĦ è¿ĳ
ci as
ä¸Ĭ å¸Ĥ
åħļ å§Ķ
ul in
- ex
è® ¼
ĠLe vel
å´ ĩ
Ġhon est
åľ¨ ä¸Ģ
åĹ İ
part ial
Ġincre d
J ournal
íķĺ ëĬĶ
. ##
Ġm ic
ed e
Ġbatter y
Ġis land
ed ge
ĠÐ» Ðµ
çļĦ åīį
Ġposs ibly
éĤ ª
om al
æĦ Ľ
. </
Ġkind s
ä¸į æĥ³
Ġsign ed
Ġtell s
âĢ¦âĢ¦ âĢĿĊĊ
z z
ĠØ§ÙĦØ µ
ari os
Â» .
ĠAustral ian
Ġre verse
Ïģ Î¹
ĠT ake
ç±» ä¼¼
ort ed
ĠÐ¿ Ð¾Ð²
Ġass igned
Ġproport ion
ĠÐ½ Ð¾
ire ction
éĢ» è¾ĳ
() )
éĺ¶ çº§
Ġh orm
ul i
Ġm ine
ÛĮ Øª
å¥½ å¥½
ä¸» ä½ĵ
ĠPost s
Ġprogram ming
Ġb ah
V I
Ġtid ak
( S
çĭ ¼
Ġgr ass
Ġconsider ation
Ø§ÙĦ Ùħ
ĠAr ray
Ġint ellect
m id
Ġd ar
Ġs ad
ä¸» å¸Ń
b u
Ġcont ro
è¿Ľ æŃ¥
Ġsche dule
ĠØ§ÙĦ Ø±
Ġsens itive
å¹´ é¾Ħ
Or der
Ġn p
r ates
ins on
pl ot
Ġfe els
Ð ĳ
éĤ »
Ġdi abetes
23 1
Ġd raft
Ð½Ð¸ Ð¼Ð°
Ġh all
Ġh an
åİŁ çĲĨ
Ġsm ile
Ð» ÐµÐ¼
ĠT re
éĤ ¦
Ġcent re
ĠE N
Over ride
Ġr ural
Ġconsum ers
Ġm ere
âĢ ķ
Ġra w
pon ents
p age
åŃ¦ ç§ĳ
end ar
ĠØª ØŃ
éĥ½ æ²¡æľī
Ġembod iment
ĠD a
Ġpass age
Ã ·
Ġme at
Ġapp ar
Ġpres ents
ĠÃ© s
Ġvis ible
Ġtrans formation
Ġtrend s
Ġë ¬
æŃ¤ æ¬¡
æ¶Ī å¤±
æĦŁ è°¢
è¿ĺ åľ¨
Ġrecogn ize
Ġtum or
e ed
at re
om ial
åĺ Ľ
( C
Ġwor ry
Ġnut ri
s up
Ġacc ident
Ġ× ł×
Ġcall ing
el ing
ĠEx ec
uk an
éĥ½ èĥ½
Ġus ual
ut en
äºĴ èģĶç½ĳ
Ðº Ð¾Ð½
Ġalb um
AL U
ãĥ³ ãĥ
ĠJew ish
ist ed
Ġabsol ute
å®ŀéĻħ ä¸Ĭ
h m
Ġinteg rated
Ġreg ulation
ĠU k
Ġcrim inal
a uthor
cient ific
Ð £
et her
ĠWe ek
Ġne ither
\ ).
, -
Ġappro ved
ï¼ī ãĢĤ
åģļ çļĦ
og a
IT Y
è®° å¾Ĺ
çħ§ çīĩ
. The
çĶŁ æĪĲ
è¿ĩ äºĨ
Ġn atur
ĠPl ant
à¸Ħ à¸£
è¿Ļ å°±æĺ¯
Ġlay ers
çĶµ åİĭ
Ġphot o
ä¹ī åĬ¡
( T
Ġf ans
im o
ĠÑĩ Ðµ
ç¿ ¼
ath y
ĠS on
Ġlog ic
è¦ģ æĺ¯
ä¼ĳ æģ¯
Ġinvol ving
Ġse at
ĠA T
Ġperiod s
Ġdra wn
è¾ ©
ĠÑĦ Ð¾ÑĢ
è·¯ ä¸Ĭ
Ġmet er
c irc
æĽ´å¤ļ çļĦ
or ical
ĠP ay
ublish ing
æĶ¹ éĢł
å¾Ī éļ¾
p g
ÅĽ Äĩ
à¹ī à¸ĩ
åĽŀ åİ»
èİ· åıĸ
ç¾ ©
Ġ× ĸ
è° Ĳ
ç¸ ½
Ġauthor ities
Ġit al
ĠÐ¿ ÐµÑĢ
ĠArch ived
Ġp ip
Ġl ib
çľ ł
ä¾Ŀ æ³ķ
×ķ× Ĳ
. ),
ÏĢ Î¿
Ġab und
å¨ ľ
math bb
çªģ åĩº
Ġad m
ä» ²
ĠF ield
itud es
_ C
ä¹Ł æ²¡
Ġ à´
R ed
_ F
av ed
Ġs plit
æıĲ åīį
Ġpop ulations
ĠM aster
) ]
Ġn ob
id ation
à¦¾à¦ ¤
ç»ĥ ä¹ł
ä»İ äºĭ
ĠItal y
Ġbi ological
it ure
Ġrel ief
ud o
ins ert
Ġbring s
." Ċ
å±ŀ æĢ§
å¹³ æĸ¹
Ġext ension
é¸ £
Ġfil ms
ä¸ī å¹´
B D
ĠS at
Ġmemb rane
ter ior
Ġdis orders
Ġcomfort able
æĪĺ æĸĹ
æĭħ å¿ĥ
Ġcorre l
et al
Ã¥ n
à° ¾
Ġun iverse
t ab
Ġgra d
Ġmess ages
Ġup d
è¯¾ åłĤ
A c
Ġconst raint
l ife
í Ĭ
Ġbacter ia
ĠCamb ridge
åľ° çļĦ
am ine
é£İ æł¼
ĠAcc ount
Ġprepar ation
Ġm u
ĠSp ace
å±ħ çĦ¶
ĠL ight
æį ķ
Ġass ign
cer ning
ìŀ ¥
st ra
Ġcompet itive
ìĿ ¼
çĤ Ĵ
Ġres erv
Ġdep ression
Ġste el
à¦¾à¦ ķ
it age
æľ¬ æ¬¡
il on
ĠÙħ Øµ
Ġden omin
Ġimplement ed
Ġt ag
Ġob ser
Ġcomm ission
Ġsubsequ ent
ĠĠĠ Ċ
ai res
Ġst em
æīĢ åľ¨
ï¬ ģ
Ġext ensive
æĤ ł
Ġpass ing
Ġconvert ion
åĽł çĤº
Ġexpl o
èĤ¡ ä»½
( B
è®° å¿Ĩ
è´¢ äº§
à¹Ħ à¸¡à¹Ī
æį ·
é¼ĵ åĬ±
Ġreal ized
å° İ
Des cription
ë ĮĢ
Ġturn ing
Ġk ne
ĠØ °
. Get
se arch
d raw
Ġexp osed
Ġfl ight
Ð¾Ð³ ÑĢÐ°
Ġcir cul
t n
Ġv ous
Ġopt ical
ĠN ode
Ġcar s
èĬ ³
Ð± Ðµ
Ġput ting
n umber
. ).
ĠInt eg
ä¾ ¯
Ġfl ag
Ġd it
ĠD C
st en
Ġcub ic
P ublic
clus ions
y o
% .
. to
Ġscient ists
ĠP ages
Ġgrow n
ul o
ok es
le ts
Î» Î¿
Ġded icated
æĮ ¡
æĦı çļĦ
å¤ĸ çļĦ
ner o
ĠC ivil
Ġmole cules
ĠMus ic
Ġoffic ers
ĠYou ng
g un
ãĢĭ ãĢģãĢĬ
P s
Ġw ine
ĠAss ess
}^{ \
æ» ¤
Ġadopt ed
ç¼º ä¹ı
ĠJ ob
ä¸ ¢
ĠY et
Ġwor se
Ġbe i
Ġimmedi ate
Ġcon ventional
ac ional
Ġtem por
Ġpand emic
Ġà¤ ª
çµ ±
ĠÐ¿ Ð¾Ð¼
ç¾İ ä¸½
Ġh idden
od o
Ġattack s
Ġc ort
è¦ ª
} +
åįķ åħĥ
ĠH or
Ġle ct
U I
å§ĳ å¨ĺ
Î½ Î¿
Ġbird s
åĴ ¬
w as
Ġre actions
ĠB ra
åħ¬ éĩĮ
ĠF ire
Ġfound ation
ĠD id
ide os
Ġsch olars
æľī æĹ¶
ĠSe a
G C
çĮ ľ
J ohn
Ù Ģ
äº« åıĹ
Ġshe ll
Ġatt ached
C or
çļĦ åħ³ç³»
ĠK ind
Ġsupport s
Ġmom ents
ç¬¬ ä¸Ģä¸ª
Ġy es
00 4
æľ¬ æĿ¥
Ġserv es
23 4
Ġemot ions
Ġconn ections
Ġcoun sel
ĠKing dom
3 30
æ¯ı å¹´
re ll
ä¸į å¦Ĥ
Ġê° Ģ
23 2
" I
Ġbo olean
Ġs ick
Ġident ification
Ġinc ident
ĠPract ice
Ġd uration
ch ing
A F
è¯ī è®¼
ig in
ĠF unction
j son
Ġbo ys
raz il
ot ation
æĺ¯ åĽłä¸º
f ast
Ġn odes
' ),Ċ
Ġl ots
éĻ µ
con tain
ĠRe act
ÑĢÐ¾ Ñģ
here nt
ĠN ext
id ades
ãĥ ¬
Ġne ur
åĳ Ĩ
Ġcontrib ution
ĠE ll
Ġsc ores
æħ °
Ġb io
åĽ¾ ä¹¦
qu is
H el
m and
ĠB ible
Ġâ Ħ
Ġpart nership
ĠH aw
ĠIN TO
ĠÑĢÐ° Ñģ
r ans
.d ata
Ġh yd
ac er
av el
Ġlo an
Ïĥ ÏĦ
Ġdynam ics
ĠInd ones
Ġê ¸°
Ġra il
çļĦ åİŁåĽł
ÙĦ Ùģ
åĲ¦ åĪĻ
åĮ ¹
Ġst rict
åĽ¾ çīĩ
I X
Ġb ranch
)ĊĊ Ċ
åĪº æ¿Ģ
Ġmass ive
. spring
è¯ģ åĪ¸
åĮ Ģ
Ø§Ø ®
ä½ ©
O pen
Ġcont ained
po on
ĠW all
Ġne ck
Ùĩ Ø±
ä¸į èµ·
Ġl ig
éĹ® éģĵ
æ¶Īè´¹ èĢħ
Ġpart ners
Ġso le
è¡Ģ ç®¡
ä»Ĭ æĹ¥
çĲĨ çĶ±
è¾ ¨
æ£Ģ éªĮ
å®¶ äºº
Ġpart e
Ġp H
Ġst orm
èĢ Ģ
èĩ ī
ĠMr s
Ġshe l
æĶ» åĩ»
ab a
ĠJos eph
_ B
Ġein er
ĠA C
çĪ± çļĦ
åĽ¾ åĥı
] ;
= (
ĠH ospital
ç² ĺ
åĬŀåħ¬ å®¤
åģļ åĩº
Ġpos it
Ġcons cious
ĠÏĦ Î¿
ess ions
ĠBook s
ĠF alse
ç¿ Ĵ
Ġb read
çĶŁ éķ¿
arg s
Ġpow ers
æĹ¥ æľŁ
Ġcomp osed
åĪĽ ä½ľ
in h
Â ±
Ġsp oke
p erson
Î¼ Î¿
à¤ ²
de v
ĠSpec ies
rou d
Ġon going
çĶµ æµģ
åŃ¦ æľ¯
Ġobserv ations
c ies
< T
s im
ost on
Ø¨ ÙĬ
Ġcol le
åĬ¨ æĢģ
è½¬ ç§»
og ram
( N
ĠW ang
à§įà¦ Ł
ĠÐ½Ð° Ð¿
ĠR en
Ġ/ >
Ġg un
ĠÐ¾ ÑĢ
Mod ule
upy ter
×Ļ× ĵ
Ġcandid ate
Ġm ga
Ġpost s
Ġus age
ä»ĸ è¯´
åľ¨ äºĨ
2 17
éĴ »
t an
Ġim plications
Ġh olid
che m
ik o
25 2
ĠK en
ER E
ĠBrit ain
æµģ åĬ¨
R NA
ĠStand ard
hold er
Ġrapid ly
çļĦ æĥħ
Ġvol unte
ĠW hether
ay lor
åĲĮ ä¸Ģ
Ġord ers
åĤ ¬
ĠÐ² Ð¾
åıĺ éĩı
Ġsevent y
ĠC ancer
Ġson o
ver e
Ġmechan ical
ãģ °
ìĥ ģ
Ġb anks
ĠLear n
3 10
ĠLic ense
L ink
Ġweek end
åĿ Ľ
O U
Ġc yt
ĠF ac
Ġmur der
ĠH im
ĠR est
Ġass embly
éĢī é¡¹
æľ¬ æĸĩ
ud i
Ġdanger ous
éĴ ®
èĦ ¾
æĪ Ĵ
å¥³ åŃ©
olog ist
igh ter
et ics
ĠCur rent
éĨ ī
ell en
Ġflow ers
éģ Ķ
Ġpull ed
Ð» Ñĭ
y er
Ġfra ctions
à¦ ¶
æĢ ¨
Ġquant ity
Ġinvest ors
ĠWorkshe et
Ġinterpret ation
ãĢĤ #
Ġmod ified
\ in
b ase
è°ĥ èĬĤ
ĠV e
w ar
Ġv or
Ġmov es
åĩ ¯
ess e
ch ron
cond s
Ġdirect ed
éĢĻ æ¨£
Ð· Ð¾Ð²Ð°
çĤ¹ åĩ»
çļĦ åĨħå®¹
ĠS ep
ĠSer ies
( v
Ġt all
. '
å±Ĥ æ¬¡
exp ected
Ġa o
em os
r ine
æ¯ ģ
ĠComput er
l ib
< j
æ·± åĪ»
M any
Ġexp ensive
ĠT ree
Ġun able
Ġdeterm ining
Ġg ate
Ġprefer red
u id
Ġf ault
ĠH ot
Ġcharacter ized
ĠN S
ĠUn it
æ» ĭ
rop ical
G A
ow ing
´ Ģ
ĠÑģ Ð»Ñĥ
à¦¾à¦ ¬
Ġbl ess
IS BN
æĸ¹ çļĦ
èĩª ä¸»
Ġb ij
åĮº åĪ«
éħĴ åºĹ
à¹ī à¸Ńà¸ĩ
g ithub
Ġcollabor ation
Ġb on
Ġexpect ations
æ·· åĲĪ
Ġcut ting
ï¼ ĳ
ens or
ĠAc ademy
Ġdis cl
ĠDan iel
w ing
Ġdel le
Ùĭ Ø§
éľ į
m g
è½¬ æį¢
ĠStud ent
M in
æĮĩ æķ°
è®© æĪĳä»¬
Ġhydro gen
s igma
ad v
é¡º åĪ©
Ġpart ial
s he
Ġ icon
à³ ģ
ĠL at
w est
Ġmetab ol
abul ary
ĠÐ¡ÑĤÐ° Ð½Ð¾Ð²Ð½Ð¸ÑĪÑĤÐ²Ð¾
Ġd ose
ĠL td
ĠM D
Ġparticip ation
Ġp apers
f ramework
Ġtrou ble
h ar
ap ed
Ġbo ost
à® ¤
Ġaim s
F T
Ġman ip
Ø± Ùĩ
Ġrel iable
ìķ Ħ
âĢĿ .ĊĊ
ĠBl ue
De lete
Ġaccord ance
ĠÐ¼Ð¾Ð¶ ÐµÑĤ
Ġte eth
Ġpol ar
íķ Ļ
Ġu it
ili pp
èµĦ æł¼
J ust
Ġob st
Ð Ĺ
ĠSp irit
Ġco ach
Ġb is
ĠHe ad
Ġd ur
Ġult imately
çĽ Ĩ
m ond
Ġenjoy ed
Ġjud ge
] =
Ġpass word
Ġvers us
23 5
ĠN ature
Ġed ition
Ġg el
Ġreport ing
æĴ ¤
è¿ĺ èĥ½
ĠG i
opt ion
Ġless ons
è¼ ķ
ra k
ih an
Ġb ien
Ġeng agement
ä¸Ģ æ®µ
âĢĻ .
ĠO s
ĠÐŁ Ð¾
rad es
meric an
- off
" ;ĊĊ
/ C
( input
± ä¹Ĳ
æ¡ Ĥ
Ġf ran
å¾Ī æľī
åĤ Ļ
ÙĤ Ø§ÙĦ
as ar
ĠB efore
Ġhe ter
Ð½Ðµ Ð¹
å¤§å¤ļ æķ°
ãĢĤ ãĢĬ
od er
Ġform a
30 1
im ary
è¿Ļ ä½į
U se
r if
ä¸į åľ¨
he ight
Ġbl ocks
.s ub
Ġtrans lation
å¼Ĥ å¸¸
ad t
Ġor al
ĠØ§ÙĦØª ÙĬ
row th
Ġpi Ã¹
Ġdepend ent
Ġint ensity
Ġp in
Ġdef e
åħ¸ åŀĭ
æ± º
Ġarg uments
-f ive
Ġf ly
T oken
Ġantic ip
ĠI ran
Ġà¦ ī
Ġcomp os
éļı åĲİ
em on
Ġserv ing
ä¿ Ĭ
à¦¿à¦ ²
2 19
.âĢĻ ĊĊ
æĪ¿ éĹ´
ĠL ove
ore m
f in
ĠØ¨Ø± Ø§ÛĮ
E A
ãĤ ³
çģ Į
Ġa th
è§Ĵ èī²
ld er
Ġtrig ger
ĠG all
y nt
éĤ£ æł·
Ġaud io
ĠL ow
Øª ÛĮ
Ġê² ĥ
G en
? "ĊĊ
r ating
ç¥ ¥
ALU ES
ĠJ im
è¡Ĺ éģĵ
çĨ Ĭ
Ġb ath
ĠH u
é¢Ħ éĺ²
à¦¾à¦ ¦
/m etric
Ġc el
Ġnut rition
Ġcorpor ate
à¯įà® ¤
Ġqu ad
M on
ĠR h
Ġbut ter
T wo
ç½ ¢
Ġcapt ure
æĪĳ è¯´
} }{
à²¿ à²
F ind
T itle
ãĢĤ ãĢĤ
Ġsy ndrome
Ġd ass
. (
b les
24 5
ç«ĭ åĪ»
åĲİ éĿ¢
Ġstrugg le
áĢº áĢ
Ïī Î½
In tern
def ault
Ġad min
ä¸į å¤ļ
Ġ ram
ĠC all
00 5
è¾ ĸ
aw s
è¯Ħ è®º
ind ow
ä¿¡ çĶ¨
d et
INS ERT
Ġs ought
Ġth reshold
no on
èĢĥ æł¸
Ġapplic able
ĠIm age
èľ ľ
ĠCh ild
Ġhor se
è¦ ĸ
ä¸Ń åŃ¦
èĢĮ å·²
23 3
Ġparticip ate
Ġdut y
çº¢ èī²
oc racy
çĸ«æĥħ éĺ²æİ§
or ney
Ġpe ak
Ġcontain er
} ,\
Ġp s
Ġg ru
ÑģÑĤ Ñĥ
èŃ ĺ
×ķ× ĳ
åŃĹ ç¬¦
Ġla unch
Ġgre w
Ġlow est
æĪĸ è®¸
ĠC rit
ĠMethod s
Ġreal ize
ãģĤ ãĤĬ
æĤ ¬
oc c
åŃĺ åĤ¨
Ġtherm al
b ig
Ġdeb ate
, y
Ġaccom mod
est e
ĠT our
çº¿ çļĦ
ĠÎ »
ĠD ownload
èĤ ĥ
G E
Ġd ys
è§Ĥ å¿µ
ik k
Ġexc ited
æī Ń
Ġmov ements
and on
åĲĮåŃ¦ ä»¬
Ġinf o
Ġd urch
Ġenviron ments
Ġag encies
G l
-be ing
å®ļ ä½į
/ T
ist ant
ĠâĪ Ī
ä½ł æĺ¯
ĠP ath
eng er
æĮĳ æĪĺ
Ġf i
çĪ ¬
Ġm ater
Al though
åħ· å¤ĩ
Ġt elling
äºĮ æĺ¯
à¸ģ à¸£
"> <
Ġsubst ance
Ġext reme
ott om
b ro
åŃ©åŃĲ ä»¬
G roup
Ġl iver
è´Łè´£ äºº
ch arge
çİ» çĴĥ
Ġnecess arily
äº ı
æĤ ¦
å¯¹ è¯Ŀ
Ġt out
Ġab stract
Ġ ...Ċ
ä¸ĵ éĹ¨
Ġf ing
_ to
Ð¾ÑĢ Ð¾
æĪĲ çĨŁ
Ġl ang
ĠSt ar
7 50
ĠS aint
C ategory
. K
è¿Ĳ èĲ¥
ä¹¡ æĿĳ
Ġg ent
ä¸Ĭ åįĩ
Ġw est
ĠÎ ¿
n is
åĵ² åŃ¦
Ġw aves
Ġexam ine
Ġf urn
id i
Ġcl ot
. pro
) /(
medi ate
Ġë ı
à¸ķ à¸£
çŃī äºİ
çļĦæĥħåĨµ ä¸ĭ
und o
pre ne
ãĤ ¸
A ng
ĠÐ´ Ð¾Ð»
Ġg eb
ä»¿ ä½Ľ
Ġart ists
b ed
Ġte a
Ġsuper ior
éĥ¨ ç½²
æĹ ¨
.j s
_ type
æĹ¶ åĪ»
( y
ĠP ak
az z
Ġe cosystem
Ġche st
ĠB ell
Ġs ul
ÙĦ Ø§Ùħ
Ġth orough
å·ŀ å¸Ĥ
( {Ċ
è¡¥ åħħ
æıĲ ç¤º
Ġown ers
Ġp es
iat ric
é¥ ±
Ġ× §
Ġur l
Ġsp r
é¢Ħ æµĭ
å±± ä¸ľ
åĩº åıĳ
èŀį åĲĪ
Ġt ent
Ġdeliver ed
ÙĦ Ø©
un it
ä¸Ģ åĲį
E st
ĠC up
ĠE t
Ġcreat es
-t wo
D ep
ah l
Ġsent ences
Ġb are
Ġl ift
ĠA k
è¯´ æĺ¯
Ġh ung
Ġl ung
è·Ł çĿĢ
å¯» æī¾
ãģ¨ãģĦ ãģĨ
ĠS ource
Ġâ Ĺ
éĽ ¾
Ġstrong ly
ĠP L
èĳ ī
<j upyter
24 1
ĠI re
ä¹ĭ ä¸ĭ
Ġa er
od ium
è¢ Ń
Ð´ Ñĭ
ä¹ ¾
Ġfac ing
Ġadvant ages
ĠAr my
Ġm ice
( this
c ers
Che ck
åı¯èĥ½ æĺ¯
c ard
Ġappar atus
Â µ
St ream
×ķ× ł
Ð¾Ð³ Ð´Ð°
ĠÐ¶ Ð¸
v ision
Ġr ub
u ct
- al
ĠE in
çĶµ èĦĳ
.C ol
å° ¸
ä¸» æĮģ
l ie
æĶ¯ éĥ¨
ĠE arly
å¼Ģ äºĨ
èĬĤ çĤ¹
æ¬§ æ´²
P at
ĠRes ources
Ġreplace ment
ĠÐ² ÑĢÐµÐ¼
ĠEx amples
ÐµÐ½ Ð°
è¾ £
. name
Ġj ug
å¥³ åŃĲ
ĠSum mary
ĠF ar
æĻ® éģį
ĠMan ager
à¤ µ
miss ions
ĠÐ¸ÑģÐ¿ Ð¾Ð»ÑĮ
- com
Ġj ak
ent i
Ġfind s
er k
ï» ¿
åĳ¨ æľŁ
è¡¨ æĥħ
å« Į
ĠP ython
ĠCan adian
çł´ åĿı
ag ues
å¼º çļĦ
è« ĭ
Ġsim ult
ĠK im
Ġmat hematics
èĦ¸ ä¸Ĭ
æĬ ¹
Ġn iet
Ġeng aging
ÑģÐº Ð¾Ð¹
Ð¾ ÑĢÐ¸
Ġund ert
Ġf u
ĠB ul
à¦¿ à¦°
Ġeight y
å¿ħ çĦ¶
æĥ³ è±¡
re p
åķ ¥
ĠÎ ¸
u en
Ġexpl icit
Ð· Ð½Ð°
ĠS ov
èİ ²
å¥ ĳ
Ġcompris ing
çĶ¨ æĿ¥
h n
Ø¯ Ø©
Ó Ļ
Ġar my
Ġrep air
Ġsubstant ial
g ers
Ġcompl iance
ä¸¾ åĬŀ
Ġs chedul
Ġre vers
Ġcons erv
em ble
ĠR oyal
ĠCom ment
p ie
åľ ĸ
Ġab use
éĢĤ å½ĵ
Ġco al
åŀ ĥ
æĬ ¼
à¸§ à¸´
-f our
ÙĪ Ø¹
Ġvis ited
Ġdin ner
ĠH ave
à¹Ī à¸²
ra ctions
äºº å®¶
ÙĪ Ø²
Ġorder ed
åİŁ æľ¬
l ights
é©¾ é©¶
ul us
ä¸¾ è¡Į
ĠA ge
ore n
åľ ¾
res ponse
ĠPl ace
u its
æĲ ¬
ç´ Ħ
ë¶ Ģ
Ġconf igure
ĠÐ» Ñİ
. Add
èĲ¥ éĶĢ
Ġexec utive
Ġfore cast
æľŁ å¾ħ
Ġall a
à¸« à¸£
ap se
Ġest ate
ploy ee
ly mp
æĺ¯ çĶ±
íĬ ¸
Ġkit chen
æŁ¥ çľĭ
ov en
ĠCh ief
AS E
Ġest Ã¡
UR L
e ff
æ£ Ĵ
Ã± os
Ġcon crete
ĠW rite
äºĨ èµ·æĿ¥
Ġpar agraph
Ar t
ä¸Ģ çľ¼
ĠPr ice
èĢģ æĿ¿
åŀĥ åľ¾
åĽ Ĭ
Ġchar ged
â ģ
ĉĉ Ċ
æĪĳ è¦ģ
^{ -
2 18
ëħ Ħ
ĠCom par
Ġorgan ized
n on
ĠC ond
irc raft
W here
ĠH ard
Ðº Ð¾Ð¼
Ġeffect iveness
ç½ ©
O G
Ġas p
Ġcomm ittee
Ġmill ions
Ġsh op
Ġ :Ċ
Ð½Ð¸ Ð¸
Ġdeterm ination
B uilder
Ġchar ges
ĠTr ump
Ġb ug
st one
Ġautom atically
ynam ic
Ġp ag
Ñĩ Ð½Ð¾
ĠJ ones
Â» ,
Ð² Ñĭ
Ġres on
æĶ¾ å¼ĥ
in ar
è¿ĺ åı¯ä»¥
L ocation
Ġac ute
Ġcontrib utions
ĠNe uro
æĪĲ åĪĨ
H P
Ġobject ives
Ġter ror
ĠÐ¸ Ñħ
Ġ/ *
or ic
åľ¨ è¿Ļä¸ª
ear ing
êµ ¬
.spring framework
( M
Ġcorre lation
ãģ« ãģª
æıĲä¾Ľ äºĨ
Ð½Ð¸ Ð¹
Ġplatform s
ĠP ed
Ġlegis l
C ase
F R
Ġcon cerning
é£ ĺ
æł¡ åĽŃ
Ġexam ination
Ġz ur
Ġspect rum
æĮĩ æĮ¥
Ġob j
F alse
Ð»Ðµ Ð¹
ç´§ å¼ł
è© ¦
è¦ ı
ĠC L
Ġmer ely
Ġmen u
åĪ ł
æ§ ½
Ġn oun
Ph one
ĠÛĮ Ú©
à¸µ à¹ī
30 3
é©¬ åħĭ
å¹¿ ä¸ľ
Ð³ ÑĢÐ°
Ø§ Ø³Øª
é¢ Ī
çļĦ è¦ģæ±Ĥ
åİ ĺ
è¾¹ çļĦ
ĠNot es
ru ption
æ¢ Ŀ
ĠD ar
Ġsome what
ĠÙĩ Ùħ
Ġmanag ing
Ġpl anned
S l
Ġpublic ation
ç® Ń
Ġregular ly
a fter
Wh ich
OR D
40 1
c u
Ġrepl aced
bre ak
ru its
ĠÂµ g
od ed
Ġb a
Ġin fer
àª ¾
U P
c out
ĠProfess or
èĢĮ ä¸įæĺ¯
ĠSt ock
Ġro d
í ĥ
EL ECT
à¸ł à¸²à¸
å½¢ æĢģ
ĠM O
S ON
g ression
Ġf irms
Ð·Ñĭ Ð²Ð°
èī °
ĠCent re
Ġsub stit
Ġbelie f
: (
åı¸ æ³ķ
ĠWilliam s
st atic
è¯» ä¹¦
¤ ĳ
ĠM as
Ġsc r
al and
Ġsu a
Ã± o
ĠN Y
ìĻ Ģ
Ġre put
30 4
Ġinst ruct
Ġs ig
V is
Ġ[ ]
åĽ´ ç»ķ
) )ĊĊ
ç´ ļ
åĲĦ ç±»
Ġh ole
r in
() :Ċ
-st ep
Ġdr iven
22 8
Ġcalcul ation
id get
-n ine
à¸« à¸¥
Ġdw t
ill er
Ġinvol ve
ĠC opyright
å°ı å§Ĳ
n ik
å¼º åº¦
36 5
éĢĲ æŃ¥
SC R
Ø± Ø©
25 1
Ġan c
ĠB ased
B B
Î· Î½
Ġanal yt
Ġp it
ĠB es
æº ĸ
Ġo ct
ĠUnder standing
empt y
Ġlist ening
Ġorigin ally
M ENT
çĥ Ĥ
Ġo cean
Ġstat istics
22 6
ĠPart ic
Ġext end
AN T
åŃĲ éĩĮ
22 7
Ġbring ing
è¯Ĭ æĸŃ
å¤± è´¥
ĠS oc
éľ ¸
ÙĪ ÙĤ
éĽ ķ
æ· ĭ
ãĥ ķ
Ġlimit ations
Ġpoint ed
Ġyoung er
ac ent
ĠÃ ¥
Form at
ĠTr ust
iv ities
éĤĦ æĺ¯
æĮī éĴ®
Ġalgor ithms
Ġcomplex ity
ĠApp ro
èµ «
sk i
Ġbe at
P ass
Ġtempl ate
Ġmulti pl
Ġret ail
ä½ĵ åĪ¶
åı ī
Ġem issions
ãģ§ ãģį
ig o
40 4
ÙĬ Ø§Øª
Ġf ut
Ġun ion
åĶ ĩ
in te
Ġsol o
åī Ľ
Ġin cl
åŁº åĽł
åıĪ æĺ¯
Ġstreng then
ä¸ §
print f
ÑģÐº Ð¾
Qu ery
ĠFact ors
j ud
ĠÚ© ÙĨ
ra ine
er ior
æı Ń
ĠS ym
: "
25 3
ĠÐ²Ð¸ ÑĪÐµ
èĳ£ äºĭ
Ġtra ding
ond er
Ġim aging
F S
Ġcandid ates
Ġch annels
ÑģÑĤ ÐµÐ¼
Ġr ic
Ġw arn
######## ########
Ġgu y
è¼ ĥ
è®© ä½ł
æ¯ı ä¸Ģä¸ª
emb re
ĠCath olic
A ction
çł Ĥ
/ ft
24 3
S m
ft y
çĪ± æĥħ
ep ing
çļĦ ä½įç½®
om atic
Ġapp lying
Ġa k
Ġindust ries
roll ed
èµ· ä¾Ĩ
e en
ç¶ ²
ĠAP I
az a
Ġha z
24 4
ac hel
ast s
ĠW ild
åħ¬ ä¼Ĺ
ire ment
ĠB razil
ĠThe ory
c ar
å°ı å¿ĥ
o ice
ĠI L
) }
con text
æĸ ĳ
ast a
á ¿
×Ļ ×ķ×ª
ch aft
Ġat au
è¯´ äºĨ
ac ci
ĠM ah
Ġevery day
// Ċ
ç¢ Ĺ
af e
ĠA ction
Ġpen al
ä¼ļ åĦ¿
ĠØ§ÙĦØ ·
B O
os h
èĭ± éĽĦ
è Ł
æ» ¿
æħ İ
Ġà¦¬ à¦¿à¦
Ġcl ock
M R
æ¡Ī ä¾ĭ
n ode
H ttp
åıĳ åĩº
æ¦ ľ
r un
Ġn ous
H ist
24 2
à°¾ à°
Ġmus ical
ĠCl in
ĠTh ose
çļĦ çłĶç©¶
à¦¾à¦ ¸
22 9
\ t
.p ng
Ø· ÙĦ
æ³ķ è§Ħ
Ġcov ers
val ues
Ġmo ist
Ġaccess ible
Ġf ur
Ġeng aged
ĠG ar
Ġ .Ċ
Ġneut ral
ĠB ern
ir al
Ġsum mar
ĠJust ice
è¶³ å¤Ł
P ublisher
ä¼° è®¡
åĴ± ä»¬
act or
æĺ¾ çĦ¶
ĠD ise
Ġdet ected
Ġact ing
Ġte levision
ĠR ight
Ñĥ ÑĪ
Ġ' '
ï¼ļ ãĢĮ
Ġcry pt
Ġdi ameter
å¤ļ æ¬¡
ĠF A
ä¸į åĩº
Ġde eper
Ġprom ise
Ġy ards
Ñĩ ÐµÐ½Ð¸Ðµ
ĠAm azon
×ĳ ×¨
ĠÎ ĳ
íĻ Ķ
ĠP ur
ĠS E
Ġimag ine
ha ust
Ġcre am
çļĦ åľ°
Ġch a
Ġ$ {
Ġprov ision
Ġar bit
çħ ®
æµ Ĩ
ä½ľ åĩº
ĠPa per
® à¯į
T ree
Ġcorrect ly
are t
Ġfac ility
Ġess ay
25 4
Ġinvestig ate
éĤ£ ç§į
ra it
AB LE
ç®Ĺ æ³ķ
at ie
æµ ¸
ç¯ ®
Ġrout ine
å¤ļ å¹´
ĠF ather
æĬĬ æı¡
ĠØ¯ Ø§Ø±
_ g
z ione
ä¸į åı¯èĥ½
ĠPac ific
ĠM it
Ġexp enses
ier en
ĠK il
( data
Ġla un
is d
ester day
Ġsong s
ĠC N
ĠBas ic
Ġcult ures
Ġoper ate
ab eth
çļĩ å¸Ŀ
åŁ ĭ
Ġcomm e
ç¡® è®¤
ĠSupp ose
Ġingred ients
çļĦ å£°éŁ³
Ġ ÅĽ
30 2
Ø§Ø¯ Ùĩ
Ġand roid
åŁ ĥ
ĠM ap
ä¹Ł èĥ½
Ġdecre ased
å¹´ çº§
Ġmar ks
ĠN at
Ġrecommend ations
Ð Ľ
Ġint ers
å°± æľī
Ġnorm ally
à¸Ń à¸ģ
Ġris ing
åİ» å¹´
çĿĢ ä¸Ģ
M ethod
èĳ ¡
Ġrad ius
è¸ ª
Ġfac ed
Ġs le
Ġdecl ine
à¹Ħ à¸Ľ
Ġprodu cing
èĥ Ģ
s ection
iz ations
._ ĊĊ
åį´ æĺ¯
ib l
é«ĺ éĢŁ
ĠEconom ic
Ġpre val
- line
Ġcont emporary
ÑģÑĤÐ° Ð²
Ġegg s
oc a
ĠImp act
å¾® ä¿¡
om ain
ĠØ§ÙĦØ ®
ĠT own
ãĥ Ĺ
E ach
çļĦ æ°´
Ġhon or
ĠÑĦ Ð¸
pro cess
ĠEnvironment al
Ġhy brid
fl oat
ĠB on
ne g
23 8
æĤ Ħ
ĠÐ §
ph abet
D elta
V er
çŃī å¾ħ
z es
Ġde aling
en ame
ë į
ä¸į å¤Ł
Ent ity
ĠDes pite
ĠH IV
Ø® Øµ
cc iÃ³n
åľ° è¯´
ac ity
éĺ³ åħī
ÙĬ Øª
Ġre con
à² ¾
èī¯ å¥½
IN T
Ġshap es
ĠA ud
çĪ ½
Ġdis put
S L
Ġout er
ĠFin ancial
Ø ¢
Ġelectric ity
èŃ °
ĠE nero
OR T
Ãªn cia
Ġd ict
Ġnew sp
äºº å·¥
D U
æłĩ å¿Ĺ
Ġfil ed
ĠÃ ī
Ġsudden ly
Ġch lor
Ġper t
Ġwhe el
n u
Ġdes cript
å½» åºķ
å» ·
Vol ume
ãģĿ ãģ®
ĠN ut
à¹Ģà¸ ¥
An y
Ġcharacter istic
ĠØª Ø¹
èĢ ķ
çĶ· åŃĲ
ä»ĸ æĺ¯
ìĬ µ
Ġconstit ution
ĠLe ad
ãĤ °
ãĤ «
à¸± à¸Ķ
Cal cul
ane ously
Ġsh arp
å¾® å¾®
Ġt one
ain er
Ġres erved
ĠĠĠĠĠĠĠĠĠĠĠĠĠĠĠĠ ĠĠĠĠĠĠĠĠĠĠĠĠĠĠĠĠĠĠĠ
24 7
çĽ Ĵ
uff er
è¯· æ±Ĥ
leg al
S cript
çī¹ æĢ§
æĻ °
d r
×Ļ× ĳ
Ġinfl ation
Ġsuc ceed
Ġd ir
ĠF oot
Ġdifficult y
Ġb ridge
ĠÐ¼Ð¾Ð¶ Ð½Ð¾
Ġinnov ative
á» ĳ
Ġassum ed
éķ¿ åº¦
ell es
ĠAr ts
è¦Ĩ çĽĸ
Ġchild hood
èĤ ĸ
und le
iz ar
ãģ¾ ãģĹãģŁ
ä»ĸ äºº
Ġpl ug
at ar
Ġs outhern
M I
Ġfac es
5 12
Ġb ran
Ġag greg
Ġcap abilities
Ġleg s
ç¯ Ģ
èĭ į
pl an
b es
ä¼¤ å®³
ï¼ģ ï¼ģ
èĬ ¯
Ġimpact s
Ġc ra
3 12
Ġsuff ering
æ¨ Ļ
ĠM ol
åĮ» åŃ¦
all a
Ġclaim ed
Ġex ceed
ĠSh ort
Ġex port
Post ed
Ġsp atial
ĠApp le
Ġmax im
Ð¼ Ð¿
Ġde lete
r ants
ÅĻ ÃŃ
M ax
åĳ³ éģĵ
ict ed
Ġfight ing
n ull
th s
ack s
à® ©
4 20
lic hen
å½ĵ äºĭ
à§ ¨
Ð² Ð¾Ð´
up date
Ġacqu is
h igh
Ġpl enty
Ġprovid ers
Ġsh ut
-sc ale
Ġexam ined
ĠSt an
S D
le q
Ġlic ense
åĲĮ æĦı
Ġrob ust
Ġresult ed
ĠT itle
, [
èĥ ĸ
ĠVirgin ia
ĠØ¨ ÙĨ
Ġrec ording
ann a
ĠS ir
} -
z ia
Ġd ia
_ i
ĠM oon
c f
æĶ¯ æĴĳ
å¿ Į
olog ists
å£ ³
ell i
ov Ã¡
Ġin ch
ĉ f
ĠAre a
ri k
Ġent ity
¹ Ħ
Ã¼ n
Ġperman ent
Ġ à¹ģà¸¥à¸°
Ġexc iting
ĠÐº Ñĥ
æľ¬ ä¹¦
ä¸į éģİ
< div
Ġvict ory
Ð´ Ð¾
il ly
S ty
Ñ Ļ
åĪĩ å®ŀ
- or
ÛĮ Ø´
ath an
E very
Ġdisc ount
æİ¥ è¿ĳ
åīį éĿ¢
åľ° äº§
ÑĢÐ° Ð¶
Ġe ast
à¸Ĺ à¸³
ĠMc C
èĩª æ²»
Ġc ere
ci um
ĠW riting
åĭ ¾
S ign
Ġre ward
Ã¡ m
t op
Ġfe es
) ï¼Į
ad en
Ġbl ank
we et
on ly
æıĲ éĨĴ
Ġse eds
. io
æ¡ ĳ
åħ± åĴĮ
Ðµ Ð²
ĠS O
èĽ ĩ
Ġsav ed
çļĦ åĲĮæĹ¶
Ġk ick
fol io
Ġnarr ative
23 9
Ñĥ Ð¶
ĠÐŁ ÑĢÐ¸
å¿½ çĦ¶
Ġr ice
à§įà¦ ·
Ġestim ates
` Ċ
å®¢ è§Ĥ
Ġacc eler
in f
ĠØ§ÙĦØ °
ĠPh ot
ĠR o
Pro perty
Ġhot el
Ùģ Ø±
Ġd ance
Ġmus e
Ġabs orb
Ġanaly ze
Ġlegis lation
ĠP ag
I Z
Ġterm inal
Ġprov ider
¢ ×
ĠW at
Ġderiv ative
Ġhe ll
th rough
ĠJ on
Ġdec or
æµĻ æ±Ł
Ġb ought
, b
ç¥ Ń
Ġdist urb
ĠMus lim
à§ Ĥ
M ost
ĠâĢ¦ ĊĊ
Ġw ur
Ġprogram me
ct u
ig ation
Ġidentify ing
Ġrad ical
ĠÐ¼ ÐµÑĤ
à¹ī à¸²à¸
Ġhous es
Ġn ations
ĠS outhern
Ġà¤ ®
çľ¼ ç¥ŀ
Ġh urt
Ġpro min
å·¥ä½ľ äººåĳĺ
è½¬ åĮĸ
Ġro se
Ġcol our
ott ed
23 7
Ġtri als
og s
Ġ à¸ª
æĺ¯ æľĢ
it an
ig a
Ð³ Ñĥ
à§ ¦
Ġanalys es
Å¡ ÃŃ
çĹħ äºº
æĢ» ä½ĵ
Ex ample
24 8
i ative
-s pecific
ĠVal ley
å·¥ äºº
æĭĴ ç»Ŀ
ä¸Ń æľī
Õ¸ Õ
åĲ ĵ
äºĭ é¡¹
Ġafter noon
Ġbi om
29 0
ĠR ome
Ġ{ \
Ġcommunic ate
ĠÙĪ Øª
l ers
ĠJe ff
Ġà¦ Ń
Ġtheore tical
Ġnot iced
. I
27 5
Ø§Ø± ÙĬ
Q ue
Ġcons ent
å§Ķ ä¼ļ
z Äħ
ik u
Ġà¦ ļ
ĠB oston
ome ga
M D
24 6
ist ence
æĪĲ çļĦ
23 6
à¹Ģà¸ ŀ
Ġobserv ation
Ġpar ad
åį µ
Ðº Ð¾Ð»
Ġal ert
å¢ ĵ
åģľ æŃ¢
ach t
Ġcarry ing
f ix
éĿ¢ ä¸´
( string
Ġ} ;Ċ
æĺŁ æľŁ
3 40
Ġpriv acy
Ġactiv ation
ĠV ALUES
Ġìł ķ
Ġanaly zed
ĠM arg
in ction
.g ov
ir atory
ĠG er
ang ers
åı£ æ°Ķ
Ġexpert ise
ç»Ļ äºĨ
Ë Ī
åįĩ çº§
é«ĺ æł¡
åĪļ æīį
i ÄĻ
åŃ©åŃĲ çļĦ
Ġphilosoph y
ĠR od
ĠH o
Ġf iber
ÑģÐº Ð¾Ð³Ð¾
ë¬ ¸
ĠD ou
éĢļ ä¿¡
Ġv ibr
Ġ' @
SCR IPT
éĿ¢ ä¸Ĭ
é ¨
éļ ¨
à¹Ģ à¸¡
B ar
Ġdec ade
Ġdefend ant
ĠÐ¾Ð¿ ÑĢÐµÐ´Ðµ
Ġinteg ral
oid s
Ġprior ity
Ð» Ð¾Ð¶
Ġle af
æŀĦ å»º
Û ²
" ).
. a
and s
ĠH an
26 4
æĺ¯ å¯¹
Ġconcent rations
ĠS us
Ġdemand s
ÏĦ Îµ
id as
c n
}\ ,
ÑĦ Ð¾ÑĢ
éļ Ĭ
Ġhundred s
Ġprinc ip
Ġpay ments
Ġwel come
it ate
ch a
Ġev il
åģļ æ³ķ
Ġpsych ological
æĺİ çļĦ
Ġad vert
ĠÑģ Ð¾Ð±
å¼Ģ åı£
è®¿ éĹ®
ĠÃ ª
ĠIre land
ÑĤ ÑĢ
Ġp airs
Ð± Ð»Ð¸
Ġregul atory
c ence
ĠB ob
æľĪ ä»½
Ġloss es
æ± ģ
ìĹ ¬
Ġ ich
Ġent hus
ach ment
Ġel ig
et ary
24 9
ç§ĳ çłĶ
aw an
åįģ äºĶ
Ġcare ful
å¥ ´
z k
an ing
Ġp roud
Ġas ync
ow ers
ĠR am
ç© ´
Ġrequire ment
ĠC T
} /
Ð¿ Ð¾Ð»
Ã¤ nd
pl us
/m m
à¸ģ à¸¥
à¸£ à¸´
Ġc rack
Ġv eter
Ġperform ing
clud es
Ġgl uc
ë ¯
ĠÐ¿ÑĢ Ð¾Ð²
Ġpr ze
çĻ¾ å§ĵ
ĠS om
EE E
Ġm l
éª Ĥ
Ġe uro
og ether
Ġdro pped
Ġnames pace
ist e
Ġesc ape
Õ¥ ÖĢ
ä¸Ĭ åįĪ
æ¥ µ
AG E
åĽł èĢĮ
çĸ Ĩ
.t xt
art ers
ĠD am
ile y
çĥĪ çļĦ
ĠT ask
C reate
E ven
Ġall oc
ang o
Ġd ust
åĹ ¯
ÑĤ ÑĢÐ¸
Ġexpl ains
Ġbound ary
Ġcl imb
ĠDet erm
è¯ģ æį®
Ö ¼
éĢ ¸
çĽ ¯
i ert
æĭ ¨
è¿ĺ æ²¡æľī
Ġexp on
Ġmount ain
}( \
åľ¨ æĪĳ
M B
Ġdim ension
he it
ĠSup reme
ot ion
z one
ĠInt eger
ĠMod ern
æīĵ ç®Ĺ
ä»£ çĲĨ
Ġclass ic
ĠE vent
ãģĵ ãģ®
Ġevalu ated
im et
ro oms
-th ree
çĹ ķ
Ġ[ ]Ċ
Ã ī
ĠS elf
Ġme al
æĬ Ľ
el ly
×ķ× Ŀ
èº ²
èĦ Ĩ
i ological
è¿ĺ æ²¡
à¤ ª
d oor
ad ed
Ð° ÑĢÐ°
æİ¨ å¹¿
Ġprov ed
æĺ¾ èĳĹ
Ġsu p
Ã³ g
é«ĺ åħ´
Ġb in
rapeut ic
.W rite
Ġover w
çĽ¸ åºĶçļĦ
ÑĤÐµ ÑĢ
ĠM ic
the less
el ijk
Ġ Ô
D ownload
% %
Ġinit ially
ĠH on
Ġm ask
çĩ ¥
í ļ
å¨ ĥ
Ġart ificial
ast ers
ud a
ound ed
ish ment
ìĽ Ĳ
Ġper mit
Ġintrodu ce
Ø¯ Ùħ
Ġregister ed
éĥ½ åı¯ä»¥
ÑĤÐµÐ»ÑĮ Ð½Ð¾
! "
ĠSc ot
ä¿Ŀ åŃĺ
Ġinst ant
ric a
ĠP resent
èĪ Į
é¾ į
y es
Ġ à¥¤
t ml
Ġstudy ing
ĠCh arl
åĬł å¤§
) $
Ġbus y
æħ Ī
ĠCol umb
ĠÑģ ÑĢÐµÐ´
Ġworld wide
as is
çº¿ ä¸Ĭ
P ublished
ur ers
Ġrem ind
Ġthere by
Ġtreat ments
.f ind
con f
n ament
Ġest a
ra id
ĠTh anks
rit ten
Ġdim ensions
çĸ ²
é©¬ ä¸Ĭ
Ġ rib
. *
åľ ³
Ø§ ÙĪ
30 5
Ġì§ Ģ
bl ock
ab b
å®¡ è®¡
éģ ¥
Ġst rain
A ut
Ġn orthern
": "
Ch ange
Ġgu ys
åĥ ¹
é«ĺ çº§
Ġsurpr ise
æīĢ å¾Ĺ
( R
Ġdis covery
Ġ+ +
ilib rium
Ġprop ag
æĶ¶ éĽĨ
r Ã³
/ yd
Ġtransport ation
ĠS D
Ġintellect ual
æĪĲ å°±
Ġgrant ed
ĠDec imal
Ġhe nce
Ġnot ation
à¦ §
H R
å¾· åĽ½
U RE
ĠK n
æĮĩ å®ļ
ä¹Ł åľ¨
Ġgreat ly
×Ļ× Ĳ
ä¹Ł å¾Ī
Ġaim ed
æĢĿ è·¯
d t
ox y
Ġinvestig ated
On ce
åĤ ²
è§£ æĶ¾
ĠSp ain
Ġb its
í Ħ
è¯ ±
Ġattempt s
Ġpregn ancy
Ġwin ning
æ¶Ī éĺ²
Ġd op
Ġcont ents
Ġtarget s
à§ ĥ
ĠC ook
æĲ º
AC K
Ġr ide
è¥¿ æĸ¹
Ġrecept or
t ion
Ġcur riculum
Ġdire ctions
ĠG raph
26 2
Ġsubstr ate
. ed
æ¶ Į
Ġw is
éģ ł
å½¢ çļĦ
à¸µà¸¢ à¸Ļ
n h
ÃŃ st
ap es
Ġf ellow
ific ate
Ġcontro vers
ĠN umbers
m ult
ĠCorpor ation
Ġf o
ĠF ri
å§ »
0 20
ĠCarol ina
à²¾ à²
w art
Ġrequest s
ĠApp lic
r h
å¤© æ°Ķ
() {Ċ
H D
Ġ iz
æ¬ º
Ġcor on
ãģ« ãģ¯
ĠLe ave
éĹ´ çļĦ
ĠR NA
Ġenh anced
Ġab andon
K e
Ġbi as
em at
ãĢĭ (
Ġfl our
åħ¬ è·¯
rou s
ç¤º èĮĥ
Ġp ig
äºĨä¸Ģ äºĽ
26 5
E s
cl ient
lic he
Ġmaintain ed
el ih
è¿Ŀ æ³ķ
ç»´ æĮģ
is en
ĠV iet
åĩł å¤©
& &
c at
Ġc ette
à¸Ī à¸²à¸ģ
em an
çĥŃ æĥħ
( X
Ġt ube
åŃ Ŀ
Ġsur ve
ÑģÐºÐ° Ñı
ĠN ever
R ight
-d imensional
ont o
ĠÎºÎ± Î¹
ie j
ĠSh are
æĺ¾ å¾Ĺ
4 80
el i
Ġpartic le
b orn
ĠF red
Ã ¯
Ġmor ph
×Ļ× ©
Ġsens itivity
à¦¾à¦ ĩ
ĠSe lect
Ġplas ma
Ġconstant ly
p ol
æ·± åľ³
Ġhad n
ĠJ r
Ø° Ùĩ
f il
à® ķ
Ġstat istical
er as
Ġagric ultural
W ork
/ v
è¾ ¦
åĲĪ éĢĤ
Ġb il
è´ ¤
Ġac ids
æł¼ å¼ı
M r
Î¹Îº ÏĮ
å¤« äºº
ĠSecret ary
ast y
èĲ Ħ
çº· çº·
åĴ ĸ
æĪ¿ å±ĭ
ĠC ub
ÑĢÐµ Ð±
olog ie
å£ ¤
Î± Î½
Ġì ĸ
Õ¡Õ ¯
Î ¾
Ġatt itude
Ġk l
Ġaff ects
Ġtax es
Â ©
ç½Ĺ æĸ¯
at z
ĠR a
Â ®
éĩį å¤į
il ation
ĠÙħØ¹ Ø±Ùģ
æ¸ł éģĵ
Ġst ores
en ÃŃ
Å į
Ġequ ally
ĠAs ian
Th read
head er
åį §
Ġfl o
Ġì ļ
æ£ ī
åĬ¨ çļĦ
Ġc av
ĠAg ric
éĹ¨ åı£
Ġper mission
` ,
Ġsynt hesis
åı¤ ä»£
Ġg ly
è´ º
Ġ"" "Ċ
_P OST
Ġbig ger
Ġch ose
æĬ ļ
it led
èµ ´
ĠL iber
à¸± à¹īà¸ĩ
end ment
å¸ ħ
__ (
åĵģ è´¨
ä¸Ģ å®¶
Ġremov al
r ange
riend ly
Ġadd s
åįķ åĩ»
éļ¾ éģĵ
æĦıåĳ³ çĿĢ
Ġ\ [
Ġabsol utely
è§ Ģ
D uring
Ġev ident
éĽ ĸ
66 6
éĺ Ķ
èī ³
æķĪ çĽĬ
ä¸į çĦ¶
Ġwat ched
Ġn g
Ġmeet ings
å°½ éĩı
h ire
it als
ç»Ļ ä»ĸ
artic le
. v
ĠÑģÐ¸ ÑģÑĤÐµÐ¼
ĠCl inical
Ðµ Ð´
Ġflex ible
æĴ Ĵ
ĠB our
ia h
{ x
ĠB C
) #
çĹĽ èĭ¦
Ġsur faces
åĪ« çļĦ
Ġz um
ĠAg ain
ĠL as
ok ed
Ġme g
ìļ Ķ
Ġexec ution
Ġk ann
Ġprov isions
M ar
ĠC at
å¸¸ å¸¸
Ġ ik
ĠE valu
Ġa le
åī Ĭ
Cur rent
çĸ ¯
U nder
Ġfr ust
EN D
ĠL ew
Ġ" ,
Ġst om
Ġsim ulation
Ġar ts
ne j
ĠAnd rew
ĠA us
k ed
ĠK ar
Ø® Øª
S ur
éĢĻ äºĽ
D ie
ĠAst ron
äº ©
Ġw ra
Ġin equ
27 2
Ġal k
ĠSw ed
Ġrepresent ing
Ġre nder
Ġshould er
Ġacknow led
Ġcur rency
g age
ĠL ittle
ĠL eb
à§ĩà¦ Ľ
ĠÑį ÑĤ
Ġà¦ ĵ
Ġl ists
olog ic
çĶµ æ±ł
Ġs elling
Ġex it
ĠÙħ Ø¬
à¹Ģà¸ Ĥ
Ġbelie fs
ĭ ħ
çĨ ±
it ial
åĤ »
æĻ ´
â Ŀ
Ġdest ination
iment al
3 11
èĳ¡ èĲĦ
Ġd ip
crib ed
å¤§ äºİ
å±¥ è¡Į
Ġhypot hesis
Ġgovern ments
éĿĴ æĺ¥
à¹Ģà¸ «
37 5
H ome
as ant
Ġag es
Û °
Ñħ Ð¸
çī© æµģ
Ġ} }
Col umn
Ġpoly mer
èµ ļ
Ġo le
ur i
ĠĠĠĠĠĠĠĠĠĠĠĠĠĠĠĠĠĠĠĠĠĠĠĠĠĠĠĠĠĠĠĠ ĠĠĠĠĠĠĠĠĠĠĠĠĠĠĠĠĠĠĠĠĠĠĠĠĠĠĠĠĠĠĠĠ
-s ix
l an
çļ ±
Ġo un
ÐµÐ½Ð¸ Ñİ
Ġrespect ive
old er
Ġìĭ ľ
a at
çĶŁ åŃĺ
ĠÃ ¶
ro at
äºĴ çĽ¸
åħ³ å¿ĥ
Ġinf ections
â ľ
r us
ĠH oly
åĵģ ç§į
Ġw al
ci o
à¹Ģà¸ Ĺ
ä¸Ģ çīĩ
ãĢĤ ãĢį
Ġ× ª×
Ġfr Ã¥n
ĠÐ ĸ
Ġ×ľ× Ķ×
Ġanswer ed
ĠCon stitution
çİ Ľ
Ġw ed
ç´ ħ
Ġcalcul ations
L abel
Ġmin ister
og rap
èİ ī
ogen ic
Ġass et
æĽ² çº¿
Ġm s
Ġsil ver
æĬ ĸ
let on
åı ł
Ġwind ows
ÑģÐºÐ¸ Ð¹
ĠPro blem
. V
Ġcomp rom
ĠJe an
Ġwat ers
ĠÐ¾ÑĢ Ð³Ð°
æħ ĭ
Ġfarm ers
è² »
St ack
åħį çĸ«
å°Ŀ è¯ķ
0 12
âĳ ł
èĢģ å¹´
å·¨ å¤§çļĦ
Ġdeterm in
æķ° ç»Ħ
æº¶ æ¶²
Ġisol ated
çļĦ ä¸Ń
Ú¯ Ø±
Th anks
Ġsal ary
B efore
erg arten
çļĦ å¤ĸ
Ġsw im
ĠN orthern
Ãº n
ĠÎ ļ
æ²¡ æĥ³åĪ°
çĥ ¤
âĢĿ ãĢĤĊ
25 8
Ġins ight
Ġdis pl
ĠDO I
é£ Ľ
Ġstrong er
ra ined
æĪ¿ åŃĲ
Ġcont roller
Ġtra ined
æī ĳ
. php
ä¿ ©
aj e
Ġhapp ening
è¾ĥ å¤§
00 6
ĠÐ´ ÐµÑĤ
G u
26 3
Ġm unic
Ġb ol
N um
ĠRes ponse
åĪĻ æĺ¯
L ear
æ¨ Ĥ
Ġ Å¡
ĠO lymp
æĥħ æĦŁ
**************** ****************
Ġorgan is
ĠV en
å¹³ éĿ¢
ĠA ward
Ð¿ ÑĢÐ¸
Ġvisit ors
èĤ ļ
ic ide
æį Ĳ
Ġmat hematical
Ġd al
I l
çłĶ åıĳ
åı¯ä»¥ åľ¨
Ġ× ¤
çľŁæŃ£ çļĦ
-m aking
ac cess
Ġmanag ers
00 7
AS S
å¹³ æĹ¶
å¤§ äºº
Ġprec is
3 15
ĠM agn
Ġwor st
Ġexerc ises
D en
è§Ĥ ä¼Ĺ
éĶ »
Ġconvert ed
27 3
Ġfin ance
ĠP enn
Ġm ail
åĳĪ çİ°
Å «
ĠFor ce
æ¬ ł
ĠÐ ¥
ow ed
æĬĢ å·§
Ġdis h
Ġquant um
æ¸ Ĺ
æĺ ı
Th ank
Ġpro s
n ed
ĠÑı Ð²Ð»Ñı
Ð´Ð° ÑĢ
Ur l
ĠC u
Ġg ained
ĠKore a
T ube
ĠW alk
âĢ¦âĢ¦ âĢĿ
ĠCon clusion
èı ¯
Ð²Ðµ Ð´
Ð¾Ð»Ðµ Ðµ
Ġad oles
ç®Ĺ æĺ¯
- type
ĠIm pro
ãĢ İ
ĠT aylor
igen ous
w ick
Ġcomput ing
Ġaddress ed
ĠBl ood
um ps
D D
ãĢ ı
el ve
éĿ Ī
O ff
Ġìķ Ħ
her lands
ĠE R
hav ior
-e ight
éĨ ĩ
Ġphr ase
or ous
éħ ¶
Ġprofess or
T T
æŃ» äºĨ
Ġtrans action
Ġo vers
çļĦ èĥ½åĬĽ
éļľ ç¢į
Ġvari ations
Ġav ailability
Ġre cipe
.s h
åįļ å£«
ĠPM C
Ġ× ł
Ġcompris es
ĠF uture
æŁ ľ
åĴ ³
25 7
5 50
ĠT urn
æĺ Ĩ
Ġrefer ences
Ġt ough
Equ al
å®¶ æĹı
æ¤ ħ
Ġit er
ĠÑģ Ð¾Ð²
ar ation
æ¸ħ æĻ°
åı Ļ
Ġex haust
Ġt iny
ĠP A
ar o
Ġt ank
aj a
it ems
p u
v als
ä¸» ç®¡
åį ĵ
éł ħ
æĮ ¤
æ·± åº¦
ĠPro perties
ĠCon sole
Ġd rag
åł ¡
Ġdeep ly
i pt
g b
åħ¬ å¸ĥ
ä¸į ä¸Ĭ
on na
åĴĮ è°Ĳ
Ġdisplay ed
åħį è´¹
end en
è¿Ľ åİ»
Ġm ad
à¦ ļ
al o
æ³ Ħ
or ie
Ġd apat
Ãª me
_POST SU
ic os
éĩį çļĦ
¹ æŀľ
ĠW as
lect ric
ĠMult i
Ġinflu enced
ãģª ãģ©
Ġbo at
i est
Ġacqu ired
Ġfrequ ent
äº§åĵģ çļĦ
Îµ Î¯
] :
- (
çĶ± æŃ¤
Ġlif est
yl v
Ö ģ
Ġg ast
åĮº çļĦ
ĠK h
25 9
Ġinstall ed
Ġord inary
Ġfair ly
S kip
à±ģ à°
ĠÙĥ Ø§ÙĨ
åįģ å¹´
Ġperson ality
æ£® æŀĹ
c ap
ç¬ĳ éģĵ
_ L
è°ĥ çłĶ
Ġlog ical
Ġb orrow
- sp
Ġfav our
Ġìŀ Ĳ
Ġla id
Ġbond s
app y
Ġc odes
ĠÙĦ Ø§
ap or
du ate
ĠHel p
Ġr it
27 7
æŁĲ ç§į
28 5
è½» è½»
G ood
ĠSoft ware
Ġpo em
! --
åĲĪ æł¼
è¡¨ æ¼Ķ
å±ķ å¼Ģ
ãģĦ ãģ¦
æĢ§ æł¼
é«ĺ ä¸Ń
ç¬ĳ çĿĢ
Ġ ðĿĳ
Ġd ent
çĽĳ æµĭ
Ġclot hes
ĠD raw
Hand ler
Ġcook ing
Ġpo ver
Ġà¤ ¹
Ġa ircraft
Ġf inger
Ġdesign s
ĠPh ilipp
ĠS C
Are a
éĥ¨ ä½į
Ġw ir
èĢĥ å¯Ł
æĲľ ç´¢
ĠR ain
Ġmultip ly
Ġcons ervation
ĠSov iet
elih ood
å¼ ¥
ic as
Ġal ive
Ø§ÙĨ ÛĮ
3 13
ĉ t
Ġprodu ces
Ġne arest
ĠIndones ia
ĠH um
ain ts
Ùĥ ÙĦ
Ġ ib
ĠM id
Ġappreci ate
éĢļ éģĵ
ĠU t
å¤§ åŀĭ
çº¤ ç»´
èĬ Ĵ
Ġadv is
St r
Ġhoriz ontal
åĽĽ å·Ŀ
ç½ĳ ä¸Ĭ
Ġconsider able
ind a
Ġlabor atory
Ġin her
ĠPort ug
ĠP ut
ĠF ed
ç§į æ¤į
I E
éĺ ģ
ÏĦ Î¹
m b
× ŀ
3 25
Ġman us
Ġpromot ing
Ãº mer
Ġreve al
Ġemb ed
ĠP rem
æ³ ģ
çµ Ĥ
Ġmach ines
èĸ ª
ag ger
Ġadequ ate
ar v
Ġcompens ation
Ġremain der
28 1
åĲĦ èĩª
æī¹ åĩĨ
åĪ© çİĩ
ä¸ĵ åĪ©
åįĬ å¹´
ÑĤÐ¸ Ñı
Ġa ug
iat ives
å¯¹ å¤ĸ
Ġëĭ ¤
äº¤ æį¢
\ u
à¦¨ à§įà¦
con sole
Ġhand ling
åĩ ¶
è¦ģ ç´ł
çº Į
indu ced
èĩª è¡Į
ä¹Ł ä¸įæĺ¯
Ġfl ash
ob j
ĠÙħ Ø´
re a
Ġs ang
Ġí Ļ
åĲ ŀ
Ġfall ing
N ames
ëı Ļ
" );ĊĊ
éĽ ²
Ġ íķľ
ãĥ Ĩ
26 1
æ³¨ éĩį
ĠU RL
èĢ ¶
g el
éĥ¨ éĺŁ
Ġfl ower
28 8
çĶŁæ´» çļĦ
ĠH as
< =
å¯¹ æ¯Ķ
æµģ éĩı
Ġcolumn s
ä¸į è§ģ
r ator
iz abeth
à¸± à¸§
Ġp ix
åľ¨ ä»ĸ
é©¬åħĭ æĢĿ
ĠÎ Ķ
Ġmort ality
ĠZe aland
Ġmo on
Ġcl ust
ãĥ ¡
Ġk Ã¶n
ĠØ «
å°º å¯¸
èĥľ åĪ©
Ġc ada
ĠÑĥ Ñģ
Ġsc atter
æıĲ åĩºäºĨ
3 80
am er
çľĭ åĩº
á ¹
Ġf ract
olog ia
Ġen emy
ust ain
å¦ Ĩ
ater n
æ® º
ĠN eg
Ġas c
ë§ Į
ĠVol ume
are a
æĦ £
par se
Ġbuff er
ĠÙĩ ÙĪ
ble ms
ĠI de
ĠS n
å§Ĳ å§Ĳ
éĸĭ å§ĭ
y al
Ġover come
Ġunivers al
åı¦ ä¸Ģä¸ª
Ġaccount ing
è£ Ŀ
Ġlas er
Ġd ow
Ġv ideos
Ġrepresent ative
Ġ íķĺ
Ġinter ior
é¢Ħ ç®Ĺ
è¿Ľ äºĨ
Ġappro val
Ġprint able
ĠB ox
ç»ı åħ¸
_ h
Ġs ine
us al
Ġk o
Ñĥ Ñģ
ä¿¡ å¿ĥ
J an
- x
? âĢĻ
ĠC EO
ĠPr inc
in cluding
Ġfocus es
H is
æĸĩ çĮ®
O per
ĠS A
Ġas ide
Ø± Ùħ
rib le
ĠK on
Ġ$ $
çĶŁæ´» ä¸Ń
ess o
Ġà® ª
æ»¡ æĦı
çļĦ ç»ĵæŀľ
Ġro of
Ġbound aries
Ġhard ware
Ġep id
Ġphot ograph
Ġneighbor hood
åİ ¨
åĨ »
Ġdr inking
T ra
ĠØ§ÙĦ ÙĦÙĩ
- en
à§ĩà¦ ķ
c ule
Ġbehavi ors
Ġcount y
Ġindic ating
éĥ¨ çļĦ
_s ize
27 1
èµ° åĪ°
Ġpron ounced
ĠB Y
ĠF a
èĨ Ģ
Ġcoe fficient
Ġmin imal
Ġpr zy
V D
ĠCont ent
ĠMay be
åľº æĻ¯
ograph ical
m atic
éļ Ľ
æħ Į
Ġr ating
åĬ Ŀ
30 8
26 8
é¢ĳ çİĩ
Eng lish
Ġform ing
çĽ Ĺ
åį° è±¡
æĪĳ è§īå¾Ĺ
ĠO k
Æ° á»
elf are
Ad vertisement
ä¸Ģ éģĵ
. value
åıį èĢĮ
ç¿» è¯ĳ
Ġp ace
è¿ Ī
è¿ĺ ä¼ļ
Ġìł ľ
ps on
Ġ× ŀ
è° ¨
æ³ķ åĽ½
Ġn av
Ġst roke
Ġt el
Ġfe e
_p ath
n ost
Ġres il
Ġfing ers
or ne
å¦ ĥ
3 21
Ġch icken
à¤ ¦
êµ Ń
37 0
å°Ĩ åħ¶
M ark
ĠL ett
Ġlaun ched
Ġ Å¼e
éł ĺ
ĠTw itter
Ġsold iers
Ġnatur ally
ĠBer lin
ĠÐ° Ðº
Ġpoll ution
Ð° Ð·
ocol ate
ãģ ĺ
Ġcont ra
Ø¨ ÙĦ
çĻ¾ åĪĨ
åĲ Ĭ
çīĪ æľ¬
am as
( D
Ġmet ric
ç´ °
èĲ¥ ä¸ļ
èĬĤ çĽ®
äººæ°ĳ æ³ķéĻ¢
Ġpost ed
å¼ Ĺ
åĨĽ äºĭ
f ront
ĠÐ´ Ð¾Ð¼Ð°
ĠR ay
Ġt ension
R ad
Ġaf raid
å¾ĭ å¸Ī
Ġpl ain
Ã¡ v
Ġemerg ing
åıĳ è¡Į
ä¸ŃåĽ½ çļĦ
Ġfriend ly
éģĵ çĲĨ
ĉ this
è§ģ åĪ°
Ġcalcul ator
æĸĹ äºī
ĠÐ¿ Ð¾ÑĤ
æ£Ģ å¯Ł
Ġpover ty
AR Y
Ġc oc
ĠK irk
åİĺ ç±³
Ġinsp ired
30 6
âĳ ¡
' est
ì £¼
Ġh am
. read
Ġm ood
ĠÐ¿ÑĢÐ¾ Ð¸Ð·
éļ »
å² ³
ed it
ĠAdminist ration
Ġc yl
ĠC ore
_c ode
Ġpro pri
èĵ Ħ
ĠQu ant
IV E
Â· Â·
Ġhead s
ann o
ä¸į èī¯
Ġb ene
åŃ¦ èĢħ
m ail
Ġgra ce
ĠÑĩ Ð¸Ñģ
èº º
Ġbe am
å© ´
ed ly
Ġprevent ion
åķĨ åĬ¡
è£ ı
ĠN ations
uss ion
N a
Ġbenef icial
ĠB uilding
éŁ µ
Ġmeas uring
- out
Ġman ual
ĠCalcul ate
ĠSaf ety
åĵ¥ åĵ¥
çķĻ ä¸ĭ
èĤ¡ ä¸ľ
ĠÎ ł
( G
ithm etic
ÑģÑĤÐ² Ñĥ
ä¸Ģ è·¯
ato es
( P
Ġ{ {
åįģ åħ«
å¹² åĩĢ
Ġd b
crib e
è®¾ ç«ĭ
z h
29 9
O UR
Ġint ention
à¦ Ń
Ġen ables
rol og
ĠL A
Ġon der
åĩº çĶŁ
* b
æĿ Ń
×Ļ× §
Ġí ĺ
L S
Ġproduct ivity
è¿Ľ åı£
Ġl ymph
ç¬¬ åħŃ
×Ļ ×Ļ×Ŀ
éŁ ¿
ĠNet herlands
l ia
Ġfall s
å¿ĥ æĥħ
æİ ĺ
ĠS av
éĤ ĵ
Ð»Ð¸ ÑĩÐ¸
r Ã©
Ġed ges
ç»ĵ è®º
Ġtang ent
åĲ« éĩı
O b
Ñĩ ÐµÐ½Ð¸Ñı
6 50
Ġrow s
ro le
å¤ ķ
Ġgl i
ĠIm port
4 10
ÙĨ Ø¬
A nt
ÑĤ Ð¾Ð±Ñĭ
åĿ ĳ
ant ed
ĠĠĠĠĠĠĠĠĠĠĠĠĠĠĠĠ ĠĠĠĠĠ
å¼ı çļĦ
ç»ĵ å©ļ
åĲ ¾
à°¿ à°
äº§çĶŁ çļĦ
Ġt urb
Ġw estern
ĠAm ong
çªĹ åı£
æ¸© æļĸ
èī² å½©
è± «
Ġupd ates
ä¸ĵ é¡¹
Ġun us
è¢ ģ
-se ven
çİ¯ ä¿Ŀ
um inate
ë³ ´
æķ°æį® åºĵ
Ġs izes
Ġemphas is
l ag
à¯įà® ª
irt ual
Ġstr ange
ĠIn cre
åįģ ä¸Ģ
é¥® é£Ł
Ġthe rap
æł ª
Ġclass ical
âĢĶâĢĶâĢĶâĢĶ âĢĶâĢĶâĢĶâĢĶ
á Ł
ä»Ķ ç»Ĩ
Ġconstruct ed
æľī æľº
à¥įà¤ ¤
Ġt ack
red it
W ill
Ġdis miss
( j
Ġcent ers
ris on
Ã¤ h
Ġpain ting
åħ¬ åĽŃ
f ind
èŃ ·
Ġìł Ħ
Ġsub mitted
æľ¬ è´¨
N ASA
ister ed
Ġdecl ared
ĠÐ¿ Ð»Ð°
åĨħ å¿ĥ
Ġcon vey
Ì ģ
Ġt et
Ġmiss ed
æİ ©
Out put
Ġit u
éĺ Ģ
Ġthe ories
å½ĵ å¹´
Ġpow der
Ã© ri
30 7
Î Ķ
Ø¯ Ø§Ø±
Ġlight s
Ġcl uster
-s ize
au f
ĠK l
Ġinj uries
æĦı å¤ĸ
Ġpay ing
ìł Ħ
ÄĻ d
è½¬ åıĺ
Ġwrit ers
Ġs essions
åħ¨ å¸Ĥ
en v
Ġperfect ly
æľī ä¸ª
Ġstri ke
Ð¸ Ð¼
Ã¢ n
ad el
Ġsuff er
ĠAv ailable
Ġmig ration
26 6
apt ers
æĥ §
ĠE astern
ĠObserv ations
qu er
çĽ¸ ä¼¼
v ens
çľĭ èµ·æĿ¥
Ġto ken
Ġcent uries
æ²³ åįĹ
Ġinstr uments
e a
Ġsc al
ä¸į å¤ª
4 40
Î¹Îº Î®
oper ative
ÙĪ Ùģ
F IG
à¹Ģà¸ Ķ
Ġl ens
qu al
äºº å£«
_ e
à® ²
åĪ° è¾¾
Ġà¦ı à¦ķ
ĠJack son
ÑĤÐ¾ ÑĢÐ°
é¦ Ī
enn is
à¥¤ ĊĊ
Ø¹ Ùĩ
ä»İ æĿ¥
åľ° çĲĥ
åĩº ä¾Ĩ
Ġcom plicated
i ability
ov es
28 3
Ġsatisf action
ĠSm all
ä» ĩ
ĠB ol
D i
Ġsem i
rad o
ĠI C
å¤§ åĪ©
ĠÑģ Ðº
Ġregard less
ce ive
ĠÐ± Ñĥ
00 8
M s
ST R
26 7
ĠTra ining
çľĭ åĲĳ
ĠC it
27 6
èĤ ¢
26 9
Ġsupp lement
cle ar
._ ,
æ¨¡ æĭŁ
ĠÐ¼ Ñĭ
Ġmen j
ĠZh ang
Ġrec ur
æķ ²
Ġessential ly
æĲŃ éħį
ill ion
éĻ ½
åľ° çĤ¹
in ner
Ġattrib utes
Ġm ouse
ĠFrancis co
Ġequ ity
Ġp om
æŁ¥ è¯¢
à¹ĥ à¸Ĭ
ĠTh ank
Ġsepar ated
å¤ ł
Ġre n
33 1
27 4
: ãĢĬ
f ortunately
Ġf ond
å« ģ
29 3
çĦ Ĭ
g ener
Ġmed i
i pe
} )\
ĠF ROM
ĠB rand
Ġplural ity
Ġlos ing
ĠÐ¾ Ð½
ëĵ ľ
èĴ ĭ
Ġpropos al
Ġm aps
ĠChar acter
Ġeth nic
ang el
Ġperson nel
Ġz en
ä¼ Ĳ
m d
g le
Ġemot ion
åºĶ æĢ¥
_ H
å µ
Ġk er
Ġsurpr ising
Ġmus cles
å®ļ æľŁ
ä½ľ æĸĩ
w orth
28 2
T op
Ð´Ð¸ Ð½
s uch
E xt
Ġmag ic
ĠH undred
ĠH al
I ES
ag onal
ÐµÐ½Ð¸ ÐµÐ¼
Ġarg ue
åĸ Ĥ
à Ń
Ġsym met
éĤ£ ä¸Ģ
Ã¡ g
ĠH ence
29 1
Ġl unch
à¸Ń à¸Ļ
ole cular
og rams
( name
çĴ °
38 4
æĪĳ åĴĮ
ĠG iven
à¤¾à¤ °
m os
åħĪ åĲİ
G O
èĪ Ł
D C
å¼Ģ å¿ĥ
å¸ĥ å±Ģ
Ð ¤
3 16
ĠL y
ys ical
Ġnerv ous
Ġa kan
ĠRel ations
å¾ ½
, ,
ç© Ĩ
åħ¨ åĬĽ
éĤ£ å°±
45 6
å¤ĸ éĿ¢
in et
ĠPhys ics
wh ite
3 45
Ġrot ation
V ER
Ġ ),Ċ
åħ¶ æ¬¡
bag ai
on acci
ĠJ oe
act s
Ġnew ly
æĤ Ķ
æľī å¾Īå¤ļ
çİ°åľ¨ çļĦ
Ġover l
æ» ŀ
Ġdi pl
Ùĥ ÙĪÙĨ
ãģ® ãģ§
Ġbuy ing
3 23
ĠD as
ĠAng eles
å¾Ĺ åĪ°äºĨ
ä¾Ŀ æĹ§
åł ª
S ch
Ġexpl oring
Ġgent le
M O
å¤© çĦ¶
Ġs ulf
çĺ ¦
èĪ °
st ud
æĬ «
pr il
ĠFore st
Ġindu ced
u w
è¿Ļ ä¸¤
Ġbl ind
Ġein en
B o
åįĹ äº¬
çŃī çº§
æµ ı
arch y
Ġtrans actions
æľī å¤ļ
åĢĴ æĺ¯
ĠExec utive
ĠAg reement
ãĢĤ ãĢįĊĊ
æ° ¨
Ġsol ving
Ġk ter
ĠS el
App lication
åĩºçİ° äºĨ
ic ular
r ise
Ġbur den
åº Ļ
Ġeth ical
Ġo c
per ature
r ar
Û ģ
Ġte en
ur an
åıį å¯¹
27 9
30 9
Ġab ilities
Ġcour ts
W H
aj o
Ġe ase
ä¼ ª
Ġp eng
ra q
ÑĨÐ¸ Ð¾Ð½
å½¢ åĬ¿
èµ ł
ÙĤ Ø©
ac a
ä¼ł éĢĴ
in ite
ans as
Ġreg ression
æĵ ļ
Ġj s
Ð¾Ð²Ð° Ð½Ð¸Ñı
k om
Ø´ Ø±
ah ren
comm on
Ġpl aintiff
åİ Į
Ġre const
íĦ °
Ġper ception
æŃ¤ åĪ»
r int
ac le
è§Ħå®ļ çļĦ
gress ive
( const
ĠCh all
à¸Ń à¸²à¸
ëĲ ĺ
Ġover view
Ġopp osition
èģ ª
Ġcommunic ations
D T
åįģ ä¸ī
åı° æ¹¾
ĠRev olution
Ġpe ut
Ġdiscuss ions
ION S
Ġsepar ation
çļĦä¸Ģ äºĽ
requ ency
Ġb oot
oc y
[ n
ĠB iol
é¡º åºı
Ġpro hib
ĠSt ory
à¸£ à¸²à¸
ĠÐ¸ Ð¼Ðµ
ä¸Ģ äºº
ĠB ang
åķ ¡
Ġdoll ar
à¹ Ĩ
Ġb rowser
åĲĦ çº§
un es
ç±» çļĦ
st at
ç¬ĳ äºĨ
Ġany where
Ġre aching
ĠS H
Ġcon sec
ĠM P
éĻ ³
ĠH ig
L ike
å¤Ħ çļĦ
æľº çļĦ
ĠU TC
Ġat oms
Ġmagn itude
æľĢ ä½³
åĩł å¹´
Ġbre aking
ĠCh ampions
Ġpray er
à® Ł
Ú¯ ÛĮ
im ages
Ġoper ational
Ġcl im
å¦ ¥
ul as
ç¡ ķ
ÐµÐ½ Ð¾
Ġint ens
ØŃ Ø¯
ä¸Ń åĮ»
ĠØ¹ ÙĦÙĬ
- ph
çİ° éĩĳ
ĠT ry
æ´»åĬ¨ çļĦ
Ġhe aling
Ġs ci
æĭ ¾
ãĢĭ ĊĊ
Ġfocus ing
he ast
Ġl l
é Ĳ
Ġinvol vement
Ð¾Ð¼ Ñĥ
å¸ Ĳ
é¢ ĩ
åħ¶ å®ĥ
çĭ¬ çī¹
Ġmem ories
oc s
Ġocc as
b ell
Ġcollect ive
ä¿ Ĥ
7 20
Ġv ida
ĠØª ÙĤ
Le vel
çº ²
Ġz w
Ġcomp le
å¤ª å¤ļ
Ġke ys
Ø® Ø±
Ġexpress ions
åĬĽ åº¦
Ġb att
å¼ ¦
Ġpriv ile
á ±
ĠÐ¿Ð¾Ð» Ñĥ
pos itory
çī© åĵģ
ĠMin utes
å¦ĩ å¥³
Ġmonth ly
cept ions
ï¼ Ĵ
ĠUp date
Y ear
åĲĥ é¥Ń
ĠâĢ º
Ġdel ight
- O
à¸¡ à¸²à¸
- ass
à¤ ¯
å©ļ å§»
Ġa ber
Ġend ing
ĠÑĢÐ° Ð±Ð¾ÑĤ
à§ °
U G
Ġ\ Ċ
l ate
cl ick
áº £
tab ular
åºĶ å¯¹
Ġë ĵ
Ã¨ me
be it
à¦¤ à§ĩ
åĲ« æľī
Ar ticle
èĴ Ĥ
à¸ģ à¸±à¸ļ
ĠAl tern
æ¨¡ åĿĹ
ĉ private
( L
Ġfl av
è®² è¯Ŀ
ers cript
æĶ¶ åĪ°
æĹ º
Ġre ly
P ort
m odel
ist ing
ĠIss ue
ow ie
Ġrestaur ant
Ö ¸
ab ling
æĺ¯ ä»¥
ÑĩÐµÑģÐºÐ¸ Ñħ
Ġc ul
Ġarg ued
æĺİ å¤©
Ġfl ows
Ġst ir
ÑĢ Ð¾Ð´
i Ã©n
ĠHe art
éĨ «
Ġà¦ª à¦°
ĠO pp
Ġche ese
åįģ ä¹Ŀ
çľĭ åĪ°äºĨ
åį ¢
Ġconst itu
æ¼Ĥ äº®
à¸± à¹īà¸Ļ
et erm
ĠP or
29 2
Ġne ural
è½ ©
Ġnear by
Ġp ap
æĶ¾ å¿ĥ
ug ar
_ w
iss ance
ÑĨ Ñĭ
å¹¶ éĿŀ
æľīåĪ© äºİ
Ġl oud
5 20
3 14
æ¼ ł
Ġsequ ences
Ùģ ØŃ
äºĭ åĬ¡
å¾Ī å¤§çļĦ
ÑĥÐ½ Ðº
ä½¿çĶ¨ çļĦ
æĥ ¨
Ġdifficult ies
isc al
ä½Ĩ åľ¨
Ġvers ions
unci ation
33 8
Ġsurpr ised
ç³» æķ°
Ġ ÏĨ
3 24
Ġnot ion
ç®Ģåįķ çļĦ
he id
{ tabular
XX XX
ä½ł è¦ģ
Up dated
ĠF est
æī ĩ
red ict
åħ± äº«
Ñģ Ñĭ
Ġg ard
æŃ£ç¡® çļĦ
Ġcolle agues
Ġexpl oration
Ġview ed
Ġsupp lies
Ġw arning
à¤ ¹
Ġtot ally
im iento
- induced
ä¸įå¾Ĺ ä¸į
b ury
ä¼Ļ ä¼´
åįģ åĽĽ
çĻ º
Ùħ ÙĥÙĨ
27 8
æŁ ´
Ġs Ã©
æľĢ æĸ°
çĶŁ ç´ł
Ġcontrib uted
å ¬
ĠMin istry
Ġthick ness
ĠC apt
op her
Ġro oms
éĩĩ è´Ń
Ġpe u
op es
Ñģ Ð¾Ð²
Ġp end
ĠMach ine
W ho
Ġmicro sc
ä¸Ģ çľĭ
* (
Ùħ Ø©
Ġinteg ers
Ġbas ket
ĠM att
Ġst yles
çļĦ æ°Ķ
com fort
}\ ).
Ġphenomen on
H er
el eration
èĤ¿ çĺ¤
à¦¿à¦ ¯à¦¼
ĠS anta
W S
Õ µ
at ile
ç¢ ĳ
Ġ] ,Ċ
å°Ĩ ä¼ļ
Ġfacilit ate
Ġst er
å®£ å¸ĥ
aut o
P ol
ÑģÑĤ Ðµ
éĤ£ æĺ¯
Ġp ens
Ġfew er
as se
d el
ĠÚ© Ø±Ø¯
ot ten
Ġc Ã³
èģĮ è´£
M ult
ir ical
Ġlik ed
Ġind irect
Ġoverw hel
ĠS urg
æĹ© å°±
éĩĳ é¢Ŀ
Ġentre prene
Ġcover ing
Ġjur isd
d x
àª¾ àª
< p
ĠSer ver
~ Ċ
æĬĳ åĪ¶
ĠRe cent
Supp ose
Ġmat ches
ism e
k at
èĥ ģ
Ġcho osing
im als
åĲĦ åľ°
èŀį èµĦ
Ġver d
Ġo ok
ĠL uc
gra de
ĠSen ate
Ġsystem atic
Ġgl ad
28 4
çļĦ æĦŁè§ī
3 22
iv i
ĠG ru
ĠÑĤ Ð¾Ð»ÑĮÐºÐ¾
Ġth y
æĪĳä»¬ åı¯ä»¥
æĺ Ń
ĠJew s
ĠAd am
-m ail
Ã¸ r
Ġconf ront
è ł
ĠK om
ĠÑĢÐ° Ð±Ð¾
ĠB arb
ä¸Ģ åıª
å¾Ī å°ĳ
g amma
Ġhar vest
æŀ ļ
ä¼ļ ä¸Ĭ
Ġc es
å°Ĭ éĩį
place ment
ĠVis ual
Ġinvest ments
Ġein em
Ġtext s
ĠPhys ical
çļĦ è¿ĩç¨ĭ
ry st
am eters
b led
Ġben ch
ra ble
ĠS eg
_ output
Õ« Õ
ĠM ajor
äºĨ ä¸ª
ĠE mer
Ð¿ Ñĥ
Ġque ue
ors es
Ð± Ñĭ
Ú ĺ
- per
IT H
æ±Ł èĭı
å® Ļ
æľī æ²¡æľī
Ġcontinu ing
æĿĥ çļĦ
Add ress
åĥı æĺ¯
åĮħ è£ħ
ÄĽ t
C all
å® ´
éĶ Ĳ
ĠÐ¿ Ð¸
ãĢ Ģ
Ġra c
othe rapy
ax is
29 5
äºº å¤§
èĭ¥ æĺ¯
ĠÙģ Ø±
ĠIr ish
Ġent itled
Ġang les
O B
éľ ľ
Ġmeaning ful
Ġass ignment
ĠMaterial s
Ġwe aring
è¢ ĸ
ĠA gency
Ġfif th
Ġcrow d
Ġaccom pan
çİ© å®¶
iss a
" )ĊĊ
in als
Ġdifferent ial
é¡ ¯
ĠC ulture
Ġscen ario
Ġpued e
Ġà¦¸ à¦®
ĠT al
Ġinit iatives
Ġkn ock
ĠT s
Ġweap ons
( arr
Ġc um
it at
Ġte as
èµ° åĲĳ
ac i
Ġinter active
ĠØ³ ÙĨ
G F
ĠHT ML
Ġd ates
40 2
3 17
-c olor
Ġ} )Ċ
ĺ ×
à§ĩà¦ ¶
ĠFr ont
è°¢ è°¢
éĢĤ çĶ¨
am ps
å®¡ æŁ¥
Ġpro l
pe ed
Ġdis k
** :
ap ore
ric es
çĵ ·
ĠM ember
ĠDef inition
æĪĸ æĺ¯
åĽ½å®¶ çļĦ
åĲĦ ä½į
ĠF all
åľ¨ çº¿
Ġdisapp oint
_ re
æ°Ľ åĽ´
çĻ½ èī²
à¸¶ à¹Īà¸ĩ
ãĥ ŀ
ĠHe x
ĠN C
ĠSim ilar
Ġdomin ant
à¹Ģà¸ ª
Ġp uzz
Ġ[ +
å½ĵ ä¸Ń
Ġ ..
æī§ æ³ķ
Ġor th
28 6
} .
' :Ċ
åĬł éĢŁ
Up date
ç¡ «
Ġ= Ċ
ĠÑĤÐ°Ðº Ð¶Ðµ
æµı è§Ī
Ð° Ð»Ð¸
ĠEx change
( &
ĠAssess ment
æĦ ¤
Ġm ud
æĸ° åŀĭ
å¹¿ å·ŀ
cent er
å° Ī
çļĦ ç¾İ
ä¸Ń åħ±
çĽ´ çº¿
Â ´
Ġw arr
Ġveget ables
less ly
ĠQue en
Ġind ivid
çļĦ è§Ħå®ļ
Ġconstraint s
Ġp iv
Ġprot est
å¸¦ æĿ¥çļĦ
èĢĮ åľ¨
ĠâĢĶ âĢĶ
\ right
d elta
Ø¨ Ø¯
em en
Se cond
Ġref lection
conom ic
æĶ¹ è¿Ľ
d at
Ġtem porary
iz a
åŃ¦ çļĦ
Ġobvious ly
ak h
åĿĲ æłĩ
Ġrepe at
æĹħ è¡Į
æĽ´ ä¸º
è¡Ģ æ¶²
ĠS ometimes
duct or
Ġd p
ç° ¡
å®³ æĢķ
Ġdeg rad
Ġprov en
E B
åħ» èĢģ
ii i
æľĢ å¥½çļĦ
à¸Ń à¸ļ
ke it
à¸£ à¸¡
ĠE dition
Ġword en
Ġi h
æŁ ı
çļĦ åıĺåĮĸ
ol s
ĠD rug
b id
Re ader
ĠC M
ç½ĳ åıĭ
ä¸į åıĬ
ĠH un
èĶ ¬
ĠI F
ord an
Ġgener ations
Ġacquis ition
Y PE
è½» æĿ¾
Ġcomb at
Øµ ÙĦ
Ġintegr ity
èŃ ī
Ã¡ z
ty pes
çĤ Ń
çļĦ èĢģ
å® ª
Ġimp ressive
- he
å°Ĩ åĨĽ
r ho
Ġcal m
ĠH ay
ĠV ersion
Ð²Ð° ÑĤÑĮ
ç³ ķ
âĺ ħ
ce eds
Ġg rams
Ġat om
åĨĻ ä½ľ
à§ģ à¦²
Ġy esterday
æĿĳ æ°ĳ
ĠRequ ired
ĠWil son
è¾ ½
29 7
æ¯ ħ
H ex
ĠM ike
Ùĥ Øª
4 30
ĠIS SN
Ġobser ve
ä»ħ ä»ħ
å² Ń
ĠBud d
f ont
29 6
ĠÎ £
Ġst abil
ç§ ©
æŃ ¡
ĠAn imal
Ġredu ces
\ x
åľ ĺ
é«ĺ èĢĥ
ov ers
28 7
29 8
ject s
Ġcou pled
å¤§ åŃ¦çĶŁ
åĽ½ åĬ¡
ĠS her
Ġper f
Ġlifest yle
D iv
Ġr um
Ð¼ Ð¾Ð¶
èĩª è§ī
28 9
IC E
åį° åº¦
ig t
Ġphys ics
yst s
à ¼
Ġsh r
++ ){Ċ
In s
à¦Ł à¦¿
_ x
h or
æĤ¨ çļĦ
Ġ× ¨×
à¦¾à¦ ¹
Ġcon cluded
Ġfl avor
pr ice
Ġj son
Ġadminist rative
ĠMon itor
ĠV ill
åľº æīĢ
. O
å½ĵäºĭ äºº
' ).
ĠB ru
app ro
Ġopp osed
ÙĪ Øª
> ();Ċ
hel p
Ġpred iction
æķħ éļľ
éĽ Ļ
à¹ģ à¸ķ
æĸĩ æľ¬
Ġassess ed
èµĶ åģ¿
Ġle ur
Com mand
Îµ Î½
ĠMe chan
Ġsk e
íļ Į
å¤§ åĬĽ
Ġstre ets
b ul
Ġe j
UT C
åĴĸ åķ¡
å¸Ĥ æ°ĳ
å¤± åİ»
éĵģ è·¯
33 2
am ination
ĠB rad
ĠEx erc
| |
ãĤī ãĤĮ
ad min
se y
×ķ× ŀ×
é»Ħ éĩĳ
\ begin
ant ee
d ir
Ġres c
Ġmed ication
ĠMar ia
è£ħ å¤ĩ
åĽ¾ å½¢
é¢Ħ è®¡
Ġapparent ly
Ġcomp at
ech o
ĠJac ob
Ġex empl
Ġgen u
ç»Ĩ èĬĤ
Ġsurv ive
åĢ ¡
B ecause
äº Ń
ĠÙĨ ÛĮ
ä¼Ĺ äºº
Ġm ile
åľ° ä¸Ĭ
åĨ ¯
Ġm ild
} }\)
éļ Ļ
m itt
ĠPak istan
3 19
C ar
G S
Ð² Ñĥ
à¦ ·
Ġuncertain ty
æŃ¦ åĻ¨
ä¸ Ļ
çļĦ èº«
Ġemp ower
em o
ìĨ Į
åįĥ ä¸ĩ
ĠF air
å¨ ±ä¹Ĳ
Ġmodel ing
à¹Ī à¸Ńà¸ĩ
ĠØ¨ ÙĬÙĨ
at hered
ĠHar ry
Ġclean ing
åĪĨ ç¦»
ãĤ µ
Ġadj acent
å®Ĺ æķĻ
åħ Ķ
Ġpredict ed
ĠÐ¾Ð± ÑĬ
à§ģ à¦°
By Id
b n
ä¸ ¸
29 4
S w
Ġstake holders
Ġ×ľ× Ĳ
Ġremark able
Ġdr ivers
æ£ ĭ
ä¿Ŀ çķĻ
Ġident ical
è´ ¾
ĠCap ital
çŃī æĸ¹éĿ¢
Ö °
ac hers
Ġtri angle
b ial
.Col lections
Ab out
æĪĳ ä¼ļ
ĠM ess
ov ascular
åºĶè¯¥ æĺ¯
N E
åį ¿
quir y
Ġdenomin ator
Ġp itch
T ypes
Ġsub mit
Ġan che
Ġ ÑĨÐµ
Ġl ingu
ä¸ĭ è½½
× Ľ
ï¼ Ĳ
è½ °
33 6
Ġann ounce
/m l
åı ĥ
Ġint ense
~~ ~~
an ol
è¯´ æ³ķ
æ°´ çļĦ
åħ³ èĬĤ
áº ¿
ĠN ig
æ° ¢
Ġprefer ences
åĪł éĻ¤
ĠK ong
å§Ķ æīĺ
if ting
L ook
Û Ĵ
F O
Ġinst ances
ĠRep resent
Ġp adding
Ġkeep s
Ġsh adow
é»ĳ èī²
ĠExper ience
Ġde ux
ĠS ud
-d r
Ã© ho
ä¹Łä¸į ä¼ļ
Ġc ot
æĬķèµĦ èĢħ
à º
44 4
Ġcomplet ion
å¯Ĩ åĪĩ
as m
a uc
çº ½
ĠS yn
éħ ·
ĠÐ±Ðµ Ð·
æĶ¶ èİ·
Ġflex ibility
c r
Ġprof ound
Ð¾Ñģ Ð¾Ð±
Ä Ł
ç©¶ ç«Ł
ĠPer formance
é¡¿ æĹ¶
ado res
ber ry
C ard
l ined
h ad
** *
+ ,
.T ext
Ġbe ach
Ġtalk ed
å®¡ æł¸
Ġterrit ory
ãģ¦ãģĦ ãģ¾ãģĻ
ĠÐ± ÑĥÐ´
Ġown ed
Ġz m
Ġf ruits
Ġcon form
å¯¹ æīĭ
S i
ÙĬ Ø¹
Ġ×ĳ× ŀ×
{ ĊĊ
éĮ ¢
Ġh ay
ert s
T E
ĠÐ´ Ð°Ð½
éĢĶ å¾Ħ
que ue
_ R
éĹ ·
èľ Ĥ
æķĪ åºĶ
ĠKe ep
Ġm amm
ĠÐ¿ Ð¾Ð·
i op
Ġbal anced
ĠInter est
çľ ¸
åĲ ķ
Ġnumer ical
st atus
ĠV ideo
éŃ ħ
is l
ne go
ÙĪ Ø´
ceed ings
ess a
is ons
ĠR og
5 10
åīį çļĦ
åľŁ å£¤
ĠOh io
Ġprec ise
= -
Ġdo ors
Ġliter ary
/ pro
Ġlab our
ĠS W
r z
Ġv ie
Ð¾Ð¼ Ð¸
èĩ³ ä»Ĭ
Id ent
_ text
Ġs orry
ĠChem istry
Ġearn ed
à´ ¿
Ġsam pling
c hers
l ocal
æ°Ķ çļĦ
éĸ ¢
áĥ Ŀ
åį³ å°Ĩ
F actory
rand om
Ġdocument ation
Ùħ Ø¹
Ġz o
ĠSe ver
Ġprec ip
A v
Ġimpro vements
åĭ ¢
Ġtr ick
Ġse es
ĠAr k
( w
Ġë³ ´
Ġillust rated
ä¸Ģ æĬĬ
å® ł
3 18
the w
à¸¶ à¸ĩ
_f ile
å¸¦ é¢Ĩ
Ġindepend ence
ab an
ĠØª Ø±
ap it
ac on
00 9
M ath
ĠG ram
ĠEff ect
50 1
æķĻ æĿĲ
Ġl ag
onym ous
å®¶ ä¼Ļ
Ġconf ident
çĭ ±
Ġn erve
ĠR ub
Ġpo etry
Ġover ride
çķ °
ĠOrgan ization
k k
äºº ä½ĵ
Ġk iss
Ġembod iments
ush ing
Ġcos ine
- class
ĠCour se
Ġdut ies
Ġh osp
ĠAs h
åĬ «
ang ang
Î ¶
39 0
Ġleg it
ç Ģ
åĦ Ĵ
å® Ł
ï»¿ using
ĠÐ´Ð¾Ð» Ð¶
Ġserious ly
Ġel if
at ura
s plit
çĸ¼ çĹĽ
ĠCount ry
adv ant
ä¸ĵ é¢ĺ
h ort
Ġt act
è¿Ļ å°±
Ġconfigure d
åĬŁ çİĩ
Ġlearn ers
ìļ °
es ome
Ġs ab
ish op
Ġrestrict ions
Ġreflect ed
ĠÑĩÐµ Ð»Ð¾Ð²
Ġbro ke
æĿĥ åĬĽ
ç¿ ł
ĠÐ± Ð¸
B P
Ġimplement ing
Ġun w
Ġp up
ĠF inal
å½¼ æŃ¤
ĠH R
æ¢¦ æĥ³
ÐµÐ½ ÑĤÐ°
Ġ ig
Ġbelie ves
an es
äºĨ åĲ§
Ġra pp
ĠPr iv
Ġt ap
à¸¹ à¹Ī
re q
ĠS in
P DF
Ø« Ø±
( h
å¦» åŃĲ
åĲĪ æ³ķ
çĽ´ æĴŃ
Ġscre ening
æĬ¥ åĲį
U C
å¾Īå¤ļ äºº
ĠE C
R ow
ä½ł è¯´
ĠH ong
åĪ¶ çļĦ
Ã¤ st
Ð¾Ð³ Ð°
èģ ¯
çĽ¸åħ³ çļĦ
Ġhe ating
Ġown ership
Ġad s
Ġrel ating
ious ly
th ur
æŀľ çĦ¶
ä¸ ĺ
Ġital ic
og l
33 5
let ter
åĩº çİ°åľ¨
ĠC os
æĿĥ çĽĬ
Ġsustain ability
ort ion
åī µ
Ġâī ¤
Ġut ility
Ġequ ilibrium
éĮ ¯
Ġv Ã½
ĠÎ ķ
ĠÐº Ð¾ÑĢ
Ġthem es
èĻ Ł
æĭħ ä»»
3 28
Ġd ot
æĢİ éº¼
Ġend l
æµ· æ´ĭ
Ã¼ ck
ê ±
ĠE sp
ĠN orm
Ġper ceived
å¤ĸ åĽ½
Ġload ing
Ġheav en
Ã¼ h
¤ ×¨
ĠPerson al
ĠÐĹ Ð°
ĠV i
ett ings
im i
Ġagric ulture
çĽ¸ åıį
çŃ Ĵ
à¹Ĥ à¸Ķ
Ð¾ Ñĩ
Ġ ud
Us ing
çł ĸ
×ķ× ľ×
å¤© åľ°
æ¯« æĹł
è¿Ļä¸Ģ çĤ¹
ĠEl izabeth
à® ³
éģ ©
ft en
Ã »
Ġg ut
Ġsat ell
èĢĥ çĶŁ
ment ation
éĻ Į
Ġholid ay
Ġdevelop ers
ure au
ab out
Ġd rain
ĠE L
Ġs Ã£o
_ back
åĸ »
çļĦåŁºç¡Ģ ä¸Ĭ
I LL
Ġ ________
Ġtom orrow
åĽ½ æľī
eb ut
ä¼ĺ è´¨
Ġn ad
ij a
ĠT a
ind i
à¦¾ à§Ł
Ġpath way
Ġart ik
ï¼ ħ
åīį å¾Ģ
Ġun o
Ġin cent
ĠWith out
æļ ĳ
Ġvictim s
ĠPro p
Ġp ad
åł µ
åıĳ çļĦ
Ġwith draw
Ġf ait
Ùħ Ø¯
Ġv otes
ĠCl oud
ener ation
èĩª ä¿¡
Ġsome where
, n
Ġle ague
Ġvoc abulary
Inst ance
Ġdis rupt
Â· ĊĊ
åĮ Ĩ
Load ing
( _
ä½¿ åĳ½
Ġstom ach
ç· Ĭ
B M
en y
ĠC C
Ġinter ventions
ĠAr m
Un it
æĺ Ĥ
èĬ ½
ĠS ales
Ġreg ime
Ġw ider
r il
ĠU nd
ä½ĵ ä¼ļ
Ø£ ÙĨ
V C
ĠIn put
asar angang
cycl op
åħ±äº§ åħļ
Ġapp lies
ĠG ames
åĴĮ å¹³
å·¨ å¤§
S ection
ĠI raq
ä¸ĸçķĮ ä¸Ĭ
Ġde ploy
Ġh i
al y
Ġto do
ĠÑģÐ»Ñĥ ÑĩÐ°
ĠTh ird
ĠM oh
3 27
Ġthe rapeutic
ĠG a
40 3
ĠPol ice
35 2
ç²¾ å½©
èĶ ¡
Ġgradu ally
N ov
Ġadopt ion
Ġpro sec
å·¥ åİĤ
ib ration
æ¯ı ä¸ªäºº
Ġp ushed
çļĦ æł·åŃĲ
Ġsp an
U t
åĭ ĥ
Ġheav ily
Ġfactor ization
Ġest ud
Ġà® ķ
åľ° ä¸ĭ
ut ors
ro sc
Ġpet ition
åĬł ä»¥
ĠìĿ ¸
ç¢ ±
ĠD aily
é¢ĺ çĽ®
G L
ĠS ong
ä¸Ģ ä½ĵ
for ward
ĠÐºÐ¾ÑĤÐ¾ÑĢ ÑĭÐµ
ell ular
Ð´Ð¸ Ð½Ð°
Ġnavig ate
ĠB inary
AT H
çĽ¸ åºĶ
ĠB ow
ĠÎ ½
Ġsure ly
æĺ¯ è¦ģ
å¿į ä¸įä½ı
Ġal gebra
ĠGeorg ia
ĠQ uality
Ð¾Ð± ÑħÐ¾Ð´Ð¸
å¤§ éĩıçļĦ
åĽ¢ ç»ĵ
äºº æķ°
é¡¾ å®¢
Ġaddress es
He ight
E ff
ĠÐ¼ Ð¾
Ġà¦ ¥
ĠRep ly
ĠC I
èĭ ¹æŀľ
Re view
ìĬµ ëĭĪëĭ¤
Ġens ures
æĺ¨ å¤©
åħ¨ èº«
ĠBl og
å¥ĭ æĸĹ
Ġsp ons
ing le
å°ĳ æķ°
Ġ+ Ċ
Ġ× ¨
æ³ Į
åĶ ¤
ĠSh ould
Ġexpand ed
ĠÐ² Ð¾Ñģ
S R
Ġsymbol s
ĠH ash
æī¿ è®¤
Ã³ s
Ġh ol
å¯¹ æŃ¤
Ġsp oken
ä½ł å°±
åİŁ å§ĭ
ä½İ äºİ
ĠB io
D I
æĸ ·
il ty
ĠCh ris
ĠPal est
)) ;ĊĊ
å¤§ äºĨ
4 15
V A
Ġ} ,
col umn
Ġch amber
Ġlo ans
book s
ĠG ro
ost a
Sh ow
( str
et he
ĠÑĥ Ð¿
rem ove
ge b
atch ing
Ġoff set
æ¡£ æ¡Ī
.ed u
æ¯ı æĹ¥
ä½ł åĢĳ
ub ble
ĠD ocument
è·¯ å¾Ħ
- j
Ġmay or
å¥ĩ æĢª
æĪ¿ åľ°äº§
ĠO d
Ġed it
æĬ¤ çĲĨ
ä¸į éľĢè¦ģ
el come
é¤ Ĭ
ĠCom b
ĠInd eed
in ator
Ġopp on
as ks
ĠG ree
Ġcur s
ĠPer cent
Ġf m
Ġpromin ent
åı¯ éĿł
ag g
íķ ł
áº ¡
ĠTh ousand
å±Ģ éĥ¨
ì Ĥ
Ġmin eral
åıį å¤į
Ġd ual
å¹¶ åľ¨
= >
å¯ ¶
èµ¶ ç´§
Ø§Ø «
od d
he ll
ĠCo ast
ĠBen ef
Ġvulner able
è¿ĳ å¹³
åħ± æľī
Ġìľ Ħ
.j pg
Ġprec ision
Pre vious
äºĨ ä»ĸ
æĵ Ĭ
_ v
Ġmov ies
è¾ħ åĬ©
éĩį åºĨ
l ar
æ¶Ī èĢĹ
Ġfound ed
Ġfore ver
34 4
Ġorient ation
Ĥ à°
we ek
æįŁ å®³
u is
ĠN E
ç§¯ ç´¯
Ġsl ope
ä¸Ĭ æ¶¨
éº» çĥ¦
Ġinstall ation
cy cle
ĠTrans port
êµ Ĳ
c raft
åħ±åĴĮ åĽ½
0 13
ĠD if
= True
ĠS cientific
Ġnom bre
Ġse u
ĠP i
Ġpro c
ad ium
P ER
Ġal g
rad a
Ġint ra
Ġdevelop ments
á» ĩ
Ġsp elling
w en
å¨ ĩ
F ull
Ġepis ode
åľ¨ å¤§
Ġgluc ose
Ġemerg ed
in fty
éħ ¬
34 3
Ġcontract s
l ow
Ġcomput ers
èĲ Į
Ġbran ches
Ġv end
vis or
Ġmot ivation
Ġdeath s
å®ĥ æĺ¯
S H
ĠÐ¿ Ñĥ
Ġp ic
é£ŀ æľº
åĤ ·
å¸ ½
ĠSur vey
åįģ åħŃ
Ġappoint ed
Ġf oss
Ġarr anged
ard o
å²ģ çļĦ
é į
Ġun expected
ke ys
æĢİä¹Ī æł·
Ġm aj
Ġsuff ered
çľ ¾
ĠM om
Ġmem or
åį± æľº
Ġent ering
T oday
( z
Ġst ations
æī ®
éĤĢ è¯·
35 1
ch ain
Ġreve als
ĠU m
ĠEd ward
Ġn ose
éĩĬ æĶ¾
ĠK a
äºĨ åĩł
Î» Î»
ĠÐ·Ð° Ð´Ð°
Ġmatch ing
Ġm apping
âĢĿ (
mer ce
ĠÃª tre
Ġencourag ed
Ġvacc ine
ĠR un
é¥ ¼
Ġwis dom
å±ħ ä½ı
ple ments
Ġtiss ues
P O
us ers
æº ¢
34 2
ĠG rowth
Ġthrow s
Ġad mitted
Ġs oph
ä»¥ ä¸ĬçļĦ
åĲĮ æ¯Ķ
Ġsimult aneously
Ġy ard
. ann
re ements
p ack
ÙĬ Ø«
ĠR ES
ĠC ert
Ġhas h
æľ¬ äºº
â Ĥ¬
t ra
çļĦ æķ°æį®
ĠS QL
35 5
bt n
Ġtarget ed
ãģ« ãĤĪ
il ton
A ccess
33 4
áĢ ¯
è¿ĳ æĹ¥
æµ ´
æīĢ éľĢ
ro v
ĠÐ±Ñĭ ÑĤÑĮ
Ġì Ĩ
Ġaddress ing
al an
t u
ç¬¦ åı·
æ¼ Ĩ
çļĦ ä¿¡æģ¯
à¦¾à¦ ¯à¦¼
mat rix
Ġtra ce
ent ed
_c ount
ĠMich igan
ä¸» äºº
å¸Ĥ å§Ķ
ou ch
Ġsav ings
çļĦ ç¥ŀ
y ll
æµ ĳ
å®ĩ å®Ļ
ä¸į ä¹ħ
60 1
Ch rist
34 1
Ġg er
.p df
ÛĮ Ú©
_ of
. create
ĠN ight
Ġp ok
ic ul
å¯Ĩ åº¦
ĠCl ark
äºĪ ä»¥
Ġfac ulty
Ġvit amin
Ġo v
åĽ½åĬ¡ éĻ¢
/ D
g rad
ĉ System
æ¬ Ĭ
ç»§ æī¿
ç¾¤ ä½ĵ
è¢« åĳĬ
Ġnit rogen
ç» ³
à¥ Ĥ
Ġse in
Ġres olve
È Ľ
ĠU nt
Ġgr at
P ages
ĠÐµ ÑģÐ»Ð¸
Ġnurs ing
Ġb ot
iv os
ĠÃ ĥ
ĠAlex ander
ĠEmp ire
Ġelect ed
Ġconven ient
Ġjust ify
è¯Ĩ åĪ«
Ġb omb
ask a
à¸± à¸¢
//////// ////////
Ġ( âĢľ
éĶ» çĤ¼
5 60
ë £
æ§ ĭ
ast ing
b et
èĬ Ŀ
ãĤ £
ãģŁ ãĤģ
ĠÑį Ðº
5 19
Ġint ake
æĭ Į
ä¸Ģ æĸ¹éĿ¢
() ->
ĠÐ²ÑĢÐµÐ¼ Ñı
æĮĩ ç¤º
gg ed
çĽ® å½ķ
os ion
Ġm eth
ç¤¾ä¼ļ çļĦ
her ic
ĠY ears
l ength
Ġ ;Ċ
ãĤ ¦
çİ ²
he nd
B R
èĪª ç©º
Ġanc est
op ter
ãģĵãģ¨ ãģĮ
Ġposs ibilities
éģ ®
Ġweak ness
æł¡ éķ¿
Ġcell ular
ê³ Ħ
Ġt ort
un ct
ãĤ į
ä¸į è¡Į
Ñĩ ÐµÐ½
p c
Ġsho pping
v et
Ġp df
yn omial
Ġrare ly
Ġà¤ µ
Ġsus pect
Ġprior it
Ġpro d
éĻ ķ
: \
Ġple asure
Ġdoct ors
ì¹ ĺ
æĪĳä»¬ åľ¨
å¤Ħ ç½ļ
Ġra ising
ĠC as
Ġtest im
ä¿Ħ ç½Ĺæĸ¯
Ġg ig
è®¸ åı¯
Ġsa uce
ĠPer haps
ĠI R
33 7
ĠØ ¶
ou st
åħ¬ ä¸»
Ġfin ite
å¯ Ĥ
ĠG ive
Ġl ips
å§ ¨
Ġtro ops
avel ength
z w
ĠK enn
ol n
ac ion
p read
æľ ´
f alse
cont in
ä¸Ģ åı¥
40 5
ĠTh ough
ÑģÑĤÐ° Ð²Ð»Ñı
Ġarrang ement
Ġc rop
Ġcomp aring
èĮĥåĽ´ åĨħ
Ġgl ob
ira ble
çģµ æ´»
Ġs ending
Ġa ver
che ma
ï¼ ĭ
3 26
Ġint r
c ut
ĠD own
ĠMill er
Ġregist ration
Ġfert il
Ġt ons
Ġoptim ization
ĠS ize
N on
4 60
ĠB oy
çļĦ åħī
Ġactiv ely
Ġtra il
is ors
ĠS ports
Ġput s
ĠLew is
Ġtrack ing
æīĵ åį°
æĬĵ ä½ı
Ġcontrib uting
çļĦ è¡Įä¸º
Ġam ino
ar ry
éĽĸ çĦ¶
AT A
ç§ĺ å¯Ĩ
Ġmoder ate
D id
Ġpr Ã©
form ed
Ġreput ation
Ġcapt ured
ĠÙĩ Ø°Ø§
et ts
é«ĺ æķĪ
ä¸ª ä½ĵ
e ah
plic it
ĠCatal ogue
à¸Ļ à¸µà¹ī
è¯» èĢħ
ì ¡°
ĠChem ical
Ġbow l
ĠCheck list
æĽ´ å¥½çļĦ
ut y
Ġsmall est
Rep ly
N one
Ġprint ed
ĠØ® ÙĪØ¯
èŃ¦ å¯Ł
ist ically
æľīæķĪ çļĦ
Ġass emb
6 40
S M
Ġtransfer red
ä¸į åıĺ
ĠAnt on
à¹Ī à¸¡
Ġe igen
é ĳ
æĻ ĥ
ĠK i
H ello
ä¹Ł åı¯
Ġen orm
ĠFactor ization
Ġste ady
O UT
Ð´ Ð¾Ð²
Ġalong side
Ġan ger
p end
å°ı åĮº
art y
ch ant
åĴ ½
æ¤ Ĵ
åĨ² çªģ
è¿Ľ ç¨ĭ
Ġen forcement
Ġ ]ĊĊ
åĢº åĬ¡
D irect
Ġcooper ation
ig ue
ĠPol y
Ġin com
ĠÐ¾Ñģ Ð½Ð¾Ð²
ç§© åºı
ĠP y
Ġc ouncil
Ľ ×ľ
S quare
ino is
ĠTreat ment
ĠØ¨ Ø¯
uss i
ĠR ole
ĠÐºÐ¾ ÑĺÐµ
app er
ĠCons ult
om o
äº§ éĩı
ÙĨ Ø³
ĠJ oh
35 3
oc o
Ġsett lement
è¦º å¾Ĺ
Ġopin ions
åĬ £
Ġreflect s
ace ut
Ġinflamm ation
im en
Ġt orn
å¤ ¸
3 29
Ġmar ine
å·¥ä½ľ ä¸Ń
Ġt ens
arm a
å¤§ å¤§
ĠDet ails
Ġb id
æİ¥ ä¸ĭæĿ¥
Ġc ord
Ġrec all
æ· Ģ
Ġse k
Ġh ang
ĠÑĢÐ° Ð²
Ġcal cium
Ġo sc
ans wer
ä¸Ń åľĭ
ä¸Ī å¤«
Ġmy th
ĠExp ress
ur u
ĠYou Tube
ĠÑģÑĤ ÑĢÐ°
ÑĤÐµ Ð»Ñı
---- --
æŃ¦ æ±ī
_ pro
Ġtod os
ç¢ §
Ùĩ Ø¯
te in
Ġresp iratory
Ġs odium
åĿ Ĭ
Ġcre w
æľĢ ä½İ
Ġà¦ ²
Ġfeed ing
st ack
ĠStat istics
ĠO cean
36 4
U K
er ver
Con st
he et
åĴĮ åħ¶ä»ĸ
æĻ Ĵ
å¼ ĺ
Ġch ances
.G ener
0 21
j en
à¦¾à¦ ľ
ÙĤ Ùĩ
_t ime
Ġcomb ine
Ġo h
mod ule
èĺ ĩ
. Data
the y
ect ing
Ġag ed
y y
Ġal phabet
ĠSt ill
ĠR oot
Ã¤ ng
ÑĢ Ð¾Ð¼
P H
Ġmin ing
Ġcor n
ĠÐ¼ Ð¾Ð³
Ġperspect ives
ĠTe aching
åı¦ä¸Ģ æĸ¹éĿ¢
Ġregard ed
æ¹ĸ åįĹ
Ø¨ Ùĩ
ĠW is
å¦Ĥ åĲĮ
Ġe lder
à¸²à¸ §
ĠÑĢÐ° ÑģÐ¿
r Ã¡
ĠN an
ĠÐ¾ÑĢÐ³Ð° Ð½Ð¸
end ix
âī ¤
Ġl oyal
Ġdat aset
qu estion
Ġm ant
ĠâĢĺ âĢĺ
åĵ ¼
Ġsur ge
ĠInt ellig
Ġhigh lights
Ġc her
Õ¡Õ µ
Ġpil ot
Ġp ill
Ñģ ÑģÐ¸
çĶµ æºĲ
d am
Ġde leg
Ġco at
4 25
ãĤĤ ãģ®
: _
? .
Ġrespons ibilities
end ers
pos ed
Ġcamp us
en ess
ê ¸
æĢİä¹Ī åĬŀ
Ùĥ Ø§ÙĨ
å®ļ äºĨ
Ġtechn ological
Ġpass es
inn ers
ç» µ
Ġcreat ivity
æ¸ ´
| \
le vel
ann y
Ġrob ot
ĠÙħ Ø³
ĠÐ³ ÑĢÑĥ
ÑĩÐµÑģÐºÐ¸ Ðµ
æĢ ĸ
çļĦ ç¤¾ä¼ļ
åŁºæľ¬ ä¸Ĭ
çĪ ¾
Ġh ide
ä¹ł è¿ĳå¹³
ĠS ant
sup erscript
Ġl ibr
ĠR at
æīĭ ä¸Ń
åħ¥ äºĨ
Ġt ong
' un
è¬ Ŀ
ĠÑĢÐ°Ð· Ð²Ð¸
ä½ł åı¯ä»¥
à¹Ģà¸£ à¸µà¸¢à¸Ļ
æ³ µ
ful ness
er os
Ġa i
å¹¼åĦ¿ åĽŃ
åĨĽ éĺŁ
Ġv om
à¹ī à¸§
ĠPar liament
erv ing
Ġsc ored
åĽŀ å¤į
arm aceut
j ar
é«ĺ è´¨éĩı
ĠM es
D L
Ġprepar ing
ct ic
L ong
Ø§ÛĮ ÛĮ
é«ĺ çŃī
Al so
å®ĺ æĸ¹
å¸Ĥåľº çļĦ
ur as
æĪĳ çŁ¥éģĵ
åģĩ è®¾
Ġbu ck
æ° Ĺ
ĠI EEE
ĠE sc
×Ļ ×ķ
Ġg ear
z u
ĠJ ane
rit is
b ow
re tt
Ġcon ce
l ier
à¸ Ł
ĠÏĦ Î·ÏĤ
Ġconsist ing
é¸ ¿
ist ers
oper ator
Ġadvert ising
ä¸ Ľ
ĠM B
ĠCont in
Ġvari ed
Ġinterview s
ĠN az
ĠR out
Ġle b
çĪ ¹
Ġqual ified
è¯´ çĿĢ
- min
36 1
Ġcl othing
Ġt sp
è¡Ģ åİĭ
çŀ §
, t
ä¸į å¯¹
F P
éľ ŀ
Ġaffect ing
script ion
Ġ" \
Ĺ ×¨
it os
ĠÙĪ Ø¬
UL T
4 32
æī¹ è¯Ħ
Ġgr ate
Ġdiagn ostic
Ġwork er
aw ay
Ġmir ror
çĶ» éĿ¢
ĠTh om
id el
å¿ĹæĦ¿ èĢħ
Ġb ab
åŀ «
i ations
ãĤ ĩ
æĶ¯ åĩº
Ġt un
Ġf ost
è¡ į
Ġsil ence
t z
sp ace
éģ Ĭ
Ġrad ians
ĠD ifferent
Ġa y
Ġcontroll ing
Ġbreath ing
ĠM ars
Val id
åį ľ
åıĳ èĤ²
ĠÐ³ Ð¾Ð´Ð°
Ġsuggest ing
åħ¬ å¹³
çĨ Ļ
pt ic
{ d
Ġk ont
á» Ļ
Intern ational
çµ ķ
ĠÎ ·
è¿Ĳ ç®Ĺ
em ed
ÑĩÐµÑģÐº Ð¾Ð¹
Îº Îµ
Ġc oding
ĠĠĠĠĠĠĠĠ ĠĠĠĠĊ
}_{ \
Ġelect rons
æ¸ Ĭ
36 3
è·¯ çº¿
ĠD om
ĠØ¹ ÙĦ
C opyright
ch ild
åĩº æīĭ
èĤ ª
Ġ: :
Ġdefin itions
I AL
è®¤ çŁ¥
ch or
Ġ à¸Ħ
Ġê² ½
ä¿¡ ä»»
ĠReg ion
ä»ª å¼ı
à¸ģ à¸±à¸Ļ
uj Äħ
ĠCh air
ad ata
40 9
Prov ider
çŃī äºº
ãĢĭ ãĢĤ
åĵª ä¸ª
Ġh ip
ut able
Ġdirect ory
Û ³
Ġad verse
v are
åŃĺåľ¨ çļĦ
ides pread
55 5
åıį é¦Ī
Ġch at
ĠAss embly
æıĲ äº¤
l oc
Ð½Ð¸ Ð¼
C ell
ĠR isk
< String
eg u
ä¾Ŀ èµĸ
æ· ĺ
æīį ä¼ļ
çŁ £
ç¬ĳ å®¹
èĳ Ľ
le tt
Ġfem in
å®īåħ¨ çĶŁäº§
Ð¾Ð´ Ðµ
ern el
æĹ© æľŁ
æ¶ Ľ
Ġ ]Ċ
è¾ĥ ä¸º
è² ·
é» ĥ
5 40
Ġ× ª
ĠD ictionary
u ous
æĭį æĳĦ
Ġimpl ies
è¯ ŀ
ä¸į åģľ
Ġmet aph
/ B
ĠÑģÐ° Ð¼
ĠY ang
Ñ Ĵ
OR M
å¡ ĺ
Ġreview ed
Ġbelong s
Ġsubst ances
Ġset up
Ġguar antee
Ġv y
åĽ½ å¤ĸ
ãĥ ĩ
Eng ine
Ġl Ãł
æĳ Ĭ
ĉĉĉĉ ĉĉ
enn ett
Ġgener ating
ä¾ į
it us
Ġg ew
ĠÐ³ Ð¾ÑĢ
i ang
Ġast ron
ĠÃ©t Ã©
ĠGu ard
( id
M ain
ÑģÑĤÐ° Ð½Ð¾Ð²
b on
ĠN umer
ĠkÃ¶n nen
Ġwrit es
ãĤ Ń
Ġinter mediate
Ġf iction
ĠO K
Em ail
Ġv ig
å·² çŁ¥
ers ey
3 99
å¯ ¾
å¾Ĺ äºĨ
ol is
æĶ¶ èĹı
ĠAct ivity
ĠV ert
Ġsurg ical
ĠB ad
Ġun ter
d on
Ġo w
Ð» Ð¾Ñģ
Ġj av
um en
A K
ÐĿ Ð°
d ers
Ġnam ely
èĦĤ èĤª
rol ogy
Ġport folio
Ġox id
88 4
am y
m essage
ĠC orn
ad der
çºª å¿µ
Ġexcess ive
as hed
â ķ
Ġas ks
Ġwhen ever
ic ations
Ġcomp ass
37 1
æ¡ ¶
åľ° éĿ¢
ĠKnow ledge
è´« åĽ°
line ar
æ·· åĩĿ
åĽŀ å¿Ĩ
ĠM s
æķĮ äºº
] ;ĊĊ
Ġspe aker
æł ½
Ġsupp ose
éĥ½ æ²¡
AR S
_n ode
aus es
Ġany way
Ġrep ly
Ġprocess or
ä¼ĺ åħĪ
ĠÙĪ Ùĩ
ch ildren
È Ļ
G G
ĠT rib
ĠB all
Ġmed ian
ogen esis
Ġp ays
ðĿ ľ
æģ Ń
Ġre cycl
.Write Line
å±ķ çİ°
4 16
- I
Ġrh yth
Ġro cks
çĲ ³
æĳĦ å½±
let es
Ġattrib ute
èĪ Ī
ĠC over
Ġin clusion
éģ Ĥ
ä¸į ä½Ĩ
ro b
Ðº Ð»Ñİ
b lic
ie k
ä¸į åĬ¨
Ġreturn ing
ĠC ustom
Ùģ Øª
Ġex ch
èĦ Ĭ
æĥ³ èµ·
æ¿Ģ åĬ±
" The
èģ ŀ
t ons
35 4
ĠSen ior
æķ´ æ²»
ĠCont act
é¹ ¿
åĲ¬ è¯´
sh ow
Ġclass ified
ĠS ix
Ġhe s
å®Į äºĨ
å¤© æ´¥
æĸ ¥
ä¸´ æĹ¶
ĠA h
ĠR ule
ĠT ai
ĠF er
é©± åĬ¨
ä¹ĭ å¤Ħ
éªĮ è¯ģ
ĠFil m
ĠG ene
ÐµÐ½ Ðµ
ëŁ ¬
Ġdream s
0 14
Ïİ Î½
Ġval or
Ġorgan isms
Ġ[+ ]ĊĊ
æĥ³ çĿĢ
Ġhab its
ä¸Ģ ç¬ĳ
Ġtox ic
amp ion
è¯ģ ä¹¦
35 6
Ġd ictionary
è¬ Ľ
ä¸Ģ ä»½
rop ri
ien ces
-qu ality
Ġe g
osp el
Ġgu est
çļĦ æĦıæĢĿ
ĠS z
( u
Ġmet a
ĠÐ² ÐµÑĢ
ç®Ģ çĽ´
ĠDise ase
Ã± a
35 7
PM C
Ġunus ual
ĠBi ology
ĠRem ember
Ġdiscrim ination
å· ¾
ĠBro ok
èĩ Ń
Ġassum ption
äº§ æĿĥ
ĠS M
éļı æĹ¶
Ġle an
40 6
Ġinit iative
est inal
à¸¶ à¸ģ
Ĩ µ
èĦ¸ èī²
p ower
Ð¾Ð´ Ñĭ
Ġp ound
im ation
ä¸ľ æĸ¹
Ġchem istry
O m
çķ ı
æĳĩ å¤´
çļĦä¸Ģ åĪĩ
ib ot
Ġbeh alf
Ġhard ly
d ouble
ĠP S
éĻ ¸
åİŁ æĸĻ
ÙĤ ÙĦ
ĠL oc
ĠDav is
ĠÎ ľ
åįļ çī©
\ left
å¹³ å®ī
é¢Ħ æľŁ
Sty le
æ± ª
op las
37 3
param s
å¤© ç©º
åŃĲ ä¸Ĭ
s f
34 6
Ġ[ "
å½¢ çĬ¶
Ġanal og
ylv ania
Ġinf ant
åħ¨ çľģ
Ð½Ð¾ ÑģÑĤ
èµ° è¿Ľ
Ġbr ill
å°ı ç¼ĸ
Ġref uge
Ġthreat s
Ġdis charge
Ġsp ark
Ġar ise
Ġvis iting
b ool
Ġel abor
ä¾ĭ åŃĲ
Ġok ay
Ð Ń
ĠS ent
Ġto w
. text
Ġt i
Ġult imate
çĮ İ
L es
ort e
åĪĿ æŃ¥
iot ic
ÑĢÐµ Ð¼ÐµÐ½
ĠO S
\ r
Ġco pper
æ» ¨
ĠO cc
Ðº Ð¾Ð¹
ä¸ľ åĮĹ
éĥ ¡
Ġtrad itions
èª ¬
Ġtw elve
_ N
37 7
Ġachie ving
ä¸Ģ å¼ł
ĠProt ection
æĢĢ çĸĳ
w ill
34 8
ĠP ublishing
OR E
el o
Ġg ang
ĠP ier
åıĳçĶŁ äºĨ
go ogle
Ġpurch ased
è¢« äºº
ĠdÃ© c
ł ×Ķ
Ġt ired
ĠTra de
on omy
é¢ ģ
Ġoper ators
old ing
ĠIn nov
èģĮ èĥ½
ĠÑĩ ÑĤÐ¾Ð±Ñĭ
ĠÐ½Ðµ Ð¾Ð±ÑħÐ¾Ð´Ð¸
l Ã©
Ġfra ud
b ug
ä¼ļ åľ¨
Ġv ag
ĠØ§ Ø±
å±ı å¹ķ
æ¬¡ æķ°
Ġv ice
ĠLi u
åĵ Ģ
P N
éĢĤ çĶ¨äºİ
ĠEr ror
oles ter
Ġaccur ately
Ġh ate
ĠSt atus
che ster
éľ² åĩº
F ollow
ĠS U
ĠB it
ĠC ro
ä¸ĩ äºº
ç¼ĸ åĪ¶
äºĨ æĪĳ
Ġep it
çħ§ é¡¾
Ġim plements
áĢ ¬
Ö ·
åĿĩ åĮĢ
Ġdestroy ed
Ãºmer o
ÑĮ Ñİ
z ero
Ùģ Ø³
Ġgradu ate
ä¸Ģ éĺµ
à¹Ĥà¸Ķ à¸¢
ç¬ ¼
Ġtra b
ĉ else
tain ing
ÑĨÐ¸ Ð°Ð»ÑĮ
b c
âĪ ¶
Ġatt ended
çļĦ ç²¾ç¥ŀ
ul ator
åº ŀ
im edia
ĠC ov
ĠÐ³ ÑĢÐ°
Ġby tes
å¯ ĵ
ĠSte ve
8 50
ĠØ¨ Ø§Ø´
ĠA le
ĠUk raine
-f riendly
æ¡Ĩ æŀ¶
ãĤ ¨
æµĵ åº¦
åĬ© äºİ
\) -
ç²® é£Ł
P erson
Ġser ial
Ġtra ct
ot ing
b m
Ð¾ÑĤ Ð¾Ð²
4 11
ç¨ »
à¸«à¸£ à¸·à¸Ń
à¹ī à¸²
* n
äºº ç¾¤
å¾Ĺ å¾Ī
Ġt ears
Ġexec uted
é© Ĺ
Ø§Ø±ÙĬ Ø®
Em pty
ì °
Ġwer en
av irus
Ġprint ing
æĹł äºº
agn etic
am iento
è§£ çŃĶ
ĠN ob
æī ¯
ĠPartic ip
Ġclos ing
åıĮ æīĭ
r ust
è¿ĳ å¹´æĿ¥
ill es
``` ĊĊ
Ġtim ing
ÑģÐ¿ Ðµ
ĠR andom
4 14
ĠPlan ning
, j
çª Ŀ
ĠÐ¿ Ð¾Ð¿
Ã¤ l
H igh
ĠE le
Re port
Ġr anging
Ġsett led
Ġbroad cast
. In
ne um
å¤´ çļĦ
æķ ¦
Ġgi ant
Ġcont rad
itar ian
ĠF ive
ï¼ŁâĢĿ Ċ
Ġjug a
ios ity
Ð¼ Ð¾ÑĤ
åıĪ æľī
Ġhab en
Ġret ro
ĠP ublished
é¢ ¤
Ð» ÐµÑĤ
Ġret irement
an th
at iva
å¥¶ å¥¶
Ġt ruck
_ index
ä»ĸ å°±
0 16
å£ ĵ
0 30
é© ļ
Ġcom plications
åľ¨ ä¸ŃåĽ½
ĠC ru
6 25
æĪĳä»¬ è¦ģ
un i
ä¸Ń å°ı
Pro ject
æ··åĩĿ åľŁ
n n
- known
ĠAn ne
ä»Ģ éº½
ĠS ite
Ġc able
point s
Ġsatisf ied
Ġl ui
ä¹ĭ ä¸Ĭ
_ a
d l
æ² ĥ
æķ´ åĲĪ
ÐºÐ° Ð·Ð°
ul ative
Ġpath s
P osition
Ġì ¤ĳ
à¸§ à¹Īà¸²
Ġde als
æı Ľ
ĠMat hematics
ĠCommun ication
ł ×ķ
y ar
å¼Ģ åĲ¯
æ· ®
æīĵ åĩ»
Y S
è´§ çī©
åı¯ æĥľ
34 7
à¥ Ī
å¤ĸ éĥ¨
Ġvary ing
Ġl ob
reg ular
Ġg ross
T HE
å´ ©
å¹ «
des cription
Ġelectro de
çİ°ä»£ åĮĸ
à® ¯
p op
Ġox ide
be an
ãģ ļ
sh a
Ġground s
ÙĨ Øª
ĠOffic er
B ig
ĠP os
Ġper ipher
ĠRet urn
åıĳ æĺİ
plic ate
Ġgra in
Mat hematics
ĠQ ual
Ġher itage
è£ ½
Ġ} );ĊĊ
Ġhapp iness
B L
Ġ ).
ĠH ans
ĠK al
ĠD atabase
éĥ½ å¾Ī
åĲĥ çļĦ
ach us
è¯į è¯Ń
äºĨ åĲĹ
40 8
ĠC reated
35 8
ĠBe ing
Ġvess els
Ġb ere
Ġs ectors
in os
çľĭ èĳĹ
Ġemploy er
Ġexhib it
Ġapp s
[ x
m box
çŁ³ æ²¹
æĦ ģ
æ¿Ģ åıĳ
_ V
Ġabs orption
Ø§Ùħ ÙĦ
Ġin hab
Ġde cent
æ¶Ī åĮĸ
æķı æĦŁ
à¸Ĺ à¸¢
ĠM u
çĭ Ĳ
ru p
ä¹ĭ å¾Į
Õ« Õ¶
Ġst uck
ÑģÑĤ ÑĢÐ°
/ a
ĠSim on
çĽ ²
T L
[ :
Ġheart s
Ġsm oke
n av
ä¹ĭ æīĢä»¥
Â Ń
× Ķ×
) ).
Ġconnect ing
Ġaccept able
ĠIndust ry
right arrow
Ġmind s
éĢ ¢
P os
Ġpark ing
Ġpal ibot
Ġprom ising
Ġtra its
Ġmultipl ied
Ġas ym
âĢ¦ Ċ
Cont rol
ĠC ir
he im
F ound
Ġre ar
ment al
âĪ Ī
Ġrepl ied
Ġbas ically
èĶ¬ èıľ
ì ¶
ĠE V
Ġsist ema
Ġsubstant ially
- end
pre hens
34 9
Ġdis ag
ĠĠĠĠĠĠĠĠĠĠĠĠĠĠĠĠ ĠĠĠĠ
Pr ice
ä¸Ģ åľº
ä½ł åľ¨
ĠOver view
================ ================
å¨ģ èĥģ
å°ı äºİ
æģ ¼
Î¹Îº Î¬
ãģ¨ ãģĹãģ¦
Ġm erg
åĽ¾ä¹¦ é¦Ĩ
Ġk et
37 6
æŀ «
4 12
à¸ĩ à¸²à¸Ļ
æĸ° æĹ¶ä»£
Ġwh is
ĠStep hen
Ġir re
Ð»Ð¾Ð² Ð¸
ĠĠĠĠĠĠĠĠĠĠĠĠĠĠĠĠĠĠĠĠĠĠĠĠĠĠĠĠĠĠĠĠ ĠĠĠĠĠĠĠ
du ce
ĠK un
æĹĭ è½¬
ik es
åħ¬ æ°ĳ
Ġn ost
50 4
Ġg ikan
ĠE c
èģĶ çĽŁ
Ġmulti plication
ĠF ib
Ġcheck ed
Ġval ve
Ġh ij
ĠìĿ ¼
ÑĥÑİ ÑīÐ¸
ĠAl b
Ġ à¸Ļ
Ġil legal
36 2
Ġbe z
åı¯èĥ½ æĢ§
å¯¹ åºĶ
ĠB u
à¼ ĭ
Ġ ï¼ī
ĠNe ed
Ġnutri ents
èĮ «
ç¨ ±
Ġstring s
eng ers
ĠPsych ology
ÙĪ Ùī
× Ĳ×
ie ve
ĠM ission
ĠÐ¿ÑĢÐ¾ ÑĨÐµ
è´ ª
é¡ §
Ġs aving
åį± å®³
ÙĪ Ùĥ
Ġì °
al er
Ġn em
à³ Ĩ
Ġcirc ular
S ELECT
Ġstud io
Ġfl ux
ou p
ä½ı æĪ¿
ĠÐ´ÑĢÑĥ Ð³Ð¸
åĴĮ ç¤¾ä¼ļ
Ġbreak fast
ĠL ib
Ġestablish ment
ĠG h
ĠWork ing
Ġre ven
é¦ĸ æ¬¡
ot ypes
Ġref used
Ġtal ks
or us
Ġhistor ic
Ð §
æŀĦ éĢł
- ray
ĠÐº ÑĢÐ°
æįŁ ä¼¤
Ġattract ive
ĠÙĩ Ø°Ùĩ
Å º
çļĦ å½¢å¼ı
æģĲ æĢķ
å¼Ł åŃĲ
èĹ ¤
Ġcryst al
à¸²à¸ ª
éĵ¾ æİ¥
ĠScot land
0 15
ĠÂ ¿
æĻ ķ
l ad
j an
æ¸ħ æ´ģ
ä¸Ģ çĻ¾
ç¾ ŀ
Ġw idespread
Ġdest ruction
ĠØ¨ Ø¹
-h and
çĶ¨ äºĨ
à¹ĥà¸Ĭ à¹ī
èªª éģĵ
Ġb old
Ġ áĢ
à¸ķ à¸´
ĠFin ance
åĲĪ å¹¶
éĵ Ń
Ġn aj
AN G
80 2
Ġì £¼
sequ ently
iv ating
rict ion
Ġinput s
Def ault
ê° Ħ
ä¸º ä½ķ
ock er
Ġelig ible
éĢĻ ç¨®
Att ribute
ĠP ra
ĠColumb ia
çŃ¾ è®¢
ĠGr ant
' )ĊĊ
ÃŃ as
Ġl u
Ġdial ogue
" /
ç£ ·
Ø± Ø¶
Ġprocess ed
åĪĳ äºĭ
w hen
Øª Ø§Ø¨
j on
Ġbar riers
36 8
ĠÐ¾ÑĤ Ð½Ð¾
Ġsh ips
Ã¡ d
ç¦ģ æŃ¢
Ġall erg
W orld
ä¸Ń æĸĩ
Ġë Ĳ
Ġconsist ently
Ġh oles
Ġal pha
æİ¥ åı£
ĠA verage
ĠA BC
ĠSing apore
4 13
ĠA bs
Ġschedul ed
å« ©
an ne
Ġdif er
az ioni
f ish
Ġdel icious
ĠEn s
r ific
36 6
ĠM other
åĪĹ è¡¨
mon ary
op l
å¥³ çĶŁ
* a
ĠÐ¼ Ð½
è¿Ļ ä¸¤ä¸ª
åıĳ è¾¾
à¸ľ à¸¹à¹ī
è¿ĺ ä¸į
ÏĦ Î·
ress ing
Ġign ored
Ġinflu ences
4 70
à¥įà¤ µ
Ġcool ing
b our
Ġà¤ ¤
å© ī
Ġdiscipl ine
Ã¨ res
æĪĲ éĥ½
Ġh ub
Ġact ors
ed a
/ P
0 22
èį¯ åĵģ
Ġhard er
ĠT her
omet ers
æĸĩ èīº
40 7
Ġsign aling
St at
st ep
æĿ¡ä»¶ ä¸ĭ
Ġstru ck
Ġz n
Ġd ont
èĳ ¬
Ġni ini
} )Ċ
Ġch ocolate
æĹłè®º æĺ¯
88 8
Ġword t
Ġele ctions
Ġfish ing
il st
èĭ± æĸĩ
çĦ °
ĠEx cel
lik ely
Ġinstitution al
Ð¿ Ðµ
Ġsp o
38 6
Ġà¤ ħ
ĠB erg
åĭ ī
Ġtrans cript
Ġsens ors
ç© į
Ġconsider ations
ĠI g
Ġpen et
ä¸į çĶ±
au er
ä½ľ å®¶
æİ¨ åĩº
Ġacc eleration
äºĳ åįĹ
ochem ical
Ġexc it
Ġt ar
åĬĽ åĴĮ
Ġt ied
åľ¨ ä¸Ģä¸ª
æĶ¾ åħ¥
37 4
ĠFore ign
Ġbro ader
ÑĢ Ð¾Ðº
çļĦ åİĨåı²
Le ft
ĠApplic ations
éĽĨ åĲĪ
it zer
å¤§ çº¦
H L
end l
Ġb ron
ĠP ack
ĠR u
ĠCon version
à¸ģ à¹ĩ
æģĲ æĢĸ
ä¸į ä¸Ģæł·
ag ers
èĤĮ èĤī
l ower
\ end
åĿļ å®ļ
% ),
ĠU V
æ¶Ī éĻ¤
Ġen abling
Ġper o
äºĮ äºº
ĠD ays
v ard
Ġb reat
æŃ£ å¥½
ĠPro b
ĠÐ¾ Ðº
Ġhead ed
åĪĨ è§£
æ° ¯
AP I
ĉ s
Ġì ²
ĠKore an
ĠN i
ä¾Ŀ éĿł
Ã¡ c
ĠÎ¼ Îµ
ĠØ§ÙĦ ÙĪ
Ġg es
×Ļ× ¢
p ay
Æ ¡
Ġtext ure
çī© èµĦ
pert ension
ĠÙĩ Ø§
Ġa est
an za
ĠÐ±ÑĥÐ´ ÐµÑĤ
ak u
Ġin ev
ĠSt aff
ut her
ij d
æľĪ çļĦ
æ¹ ĺ
Ġarr ive
Ġwire less
Ġconstruct or
ä¸ ĳ
sk y
Ġsus cept
ĠB and
å®¤ åĨħ
ç¬¬ ä¸ĥ
rac le
å¯¹ çĿĢ
Ġrequ iring
â Ļ
s ylvania
Ġf ed
ä¸ī ç§į
Ġw elfare
åª ½
/ US
ĠÐ¿ Ð¾ÐºÐ°
Ġche cks
ĠK ent
Ġcook ies
Ġrel iability
Ġgu ests
ĠRe ference
æĹģ è¾¹
ĠH E
b olds
ac co
ĠRes ult
________________ ________________
* t
50 3
H ave
Ġsho es
os i
ÙĪ Ùĩ
Ġprem ium
Ġu b
ur d
50 2
Ġelse where
Ġthere of
pass word
æľŁ éĻĲ
à§įà¦ ¥
Ġole h
Ġte ch
ĠRe fer
-c alled
æ·± åĮĸ
Ġdel iber
Ġmoist ure
æĹ© å·²
Ġem ission
A ug
il o
Ġrequest ed
ĠÑĥ ÑĩÐ°
äºĴ åĬ¨
Ġmole cule
4 21
æ¦Ĥ çİĩ
Ø± Ø§Ø±
Ġpe er
ĠP s
è®© å¥¹
ck er
åı« åģļ
è®² è§£
un o
Ġsw it
Ġw ake
æĦŁ åıĹåĪ°
. r
=" #
Ġwur de
bolds ymbol
Ġachie vement
à¦ ĸ
ĠÐ½ Ð¾Ð²
ĠBe ach
ial og
æłĳ ç«ĭ
ĠH et
è£ Ļ
" ;
4 35
There fore
çº¿ è·¯
O k
èļ Ģ
ĠLe on
Ġl ub
36 7
à® µ
0 19
Ġimm ig
Ġbar rier
è¯´ å®Į
×ķ× Ĵ
ĠSim ilarly
é ĭ
åħ¬ åĳĬ
iz able
æĦ ī
ey ond
Ġdem ocracy
W ord
åĲĳ ä¸Ĭ
J ob
åĬ¨ èĦī
-p oint
Ġh ook
Ġhead er
ä¼¼ çļĦ
é¼ İ
æĹł æķ°
37 2
ĠDe ath
ĠEff ects
ĠE P
çĶµ åĬĽ
ure n
ĠAtl antic
Ġsk ip
onym s
F ree
Ġl ake
ĠÐ° ÑĢ
Ġappoint ment
ĠÑį ÑĤÐ¾Ð¼
åľ° çĲĨ
èª °
play er
çļĦ æľºä¼ļ
O p
à¸ļ à¸ļ
Ġmod es
art a
é İ
36 9
p aren
, $
Ġne u
ĠÐ° Ð²
Ġdim in
{ R
à« ĩ
35 9
gor ithm
Ġh orses
AC E
f r
Ġmin i
AR D
ĠA G
Ġmedic ations
Ġl ux
äººæ°ĳ å¸ģ
oc ent
Ġout door
38 5
Col lection
Ġc ow
_ y
Ġseg ments
ul ates
Ïģ Î¯
Ġinvent ory
Ġbet a
h yd
Ġenzym e
å½ Ń
Ġà¦ ĩ
Ġprevent ing
Ġcon g
ä»¥ ä¾¿
ri or
bur gh
6 10
Ġb ones
ĠÐļ Ð°
ens is
oc ytes
oc he
ĠV I
. k
tic o
Ġaccompan ied
* s
èĲ¥ éĢł
Ġd ad
Ġacc used
. assert
çļĦ çĽ®çļĦ
Ġab normal
Ġnod ded
ĠT i
ç¾ ħ
åĲ µ
Ġroad s
æİĴ åĲį
Ġsc ar
Ġli ability
Ġ ions
Ġ à¶
Ġwebs ites
ĠN ord
st yles
Ġadapt ed
ir ts
Ġmist ake
ol ly
ç¾İ å¥½
h ard
à¸Ńà¸¢ à¹Īà¸²à¸ĩ
Ġaff ili
Û ķ
ĠF arm
Ġatt itudes
_t est
Ġpar as
ĠPri or
j ava
Ġ* /ĊĊ
ens en
æ¸ Ķ
íķĺ ê³ł
Ġcomp lement
Ġlight ing
i ating
ĠSt ack
Ġbene ath
Ġr Ã©s
çī¹ å®ļ
ĠâĦ ĸ
Ġenter prise
est a
åħ¬ çĽĬ
æ¸ ¬
Ġden ied
artic les
Ġhop ing
å¸ ķ
æĢ ľ
è½¬ åŀĭ
å¯¹ å¾ħ
è¿Ľ æĿ¥
new s
ä¸ «
ĠAdv anced
ĠA u
add ress
çŃī çļĦ
E v
Ġ[ ...
Ġp ier
ĠL ocation
ĠR s
å¤« å¦»
Ġ× ¡
æľįåĬ¡ åĻ¨
ĠØ´ Ø¯
Ġconscious ness
ert o
Ġcro ps
Ð»ÑĮ ÑĤÐ°
em ployment
çļĦ æĻĤåĢĻ
Ġn ic
K S
t ter
39 5
çķ ľ
Ġaccom p
ec urity
ĠS ustain
å¯ ¨
Ġextra ord
æľ¬ ç§ĳ
Ġinject ion
åİ ¦
Ġcheck ing
ĠIm mun
Ġche ap
) ^
Ġcas o
. co
Ġinv ited
Ġm Ãªme
ĠG DP
ffic ients
MMMM MMMM
ä¸°å¯Į çļĦ
ĠR ose
Ġf lying
ĠÐ³ Ð¾Ð²
Ġevery where
sc ore
Ġearn ings
4 22
ĠB at
Ġweek ly
éĺ² æ²»
ot te
Ġsm iled
ep th
Ġpsych ology
ĠG reg
é£İ æĻ¯
æıĴ åħ¥
Ġc iv
Ġcar rier
j Äħ
ĠëĤ ĺ
åŀĤ çĽ´
aw are
ìĭ ł
Ð¶ Ð´Ñĥ
Ġc ats
39 3
ĠG es
Ġconsequ ence
è¯¾ é¢ĺ
æŀ ¯
Ġà¦ı à¦¬
å¯¹ æĪĳ
Ġindepend ently
ĠU lt
Ġefficient ly
Ġd ens
ĠL ady
ac les
ĠØ§ Ø³
é¥ ²
ä¼ł æī¿
Ġj ako
åĨ² åĩ»
è£ ¤
è¶ ģ
Ġhabit at
Ġwor ship
Ġquant itative
gh an
Ġj an
N ull
ER R
Ġc ant
åĵª æĢķ
å± ¬
ment ed
ĠP ast
Ð»Ð¸ ÑģÑĮ
Ġth inks
å± ¤
ou red
Ġout standing
Ġn ap
ç»ıæµİ åıĳå±ķ
ĠCl imate
Ġal iment
æİ¥ æĶ¶
éĢ² è¡Į
ĠW in
æ°ĳ éĹ´
æĩ Ĵ
éļı æľº
çĪ· çĪ·
åĲ »
, x
Ġe ars
æľĢ å¤ļ
6 80
Ġro yal
RE E
armaceut ical
ĠSu ccess
Ġf oi
ÑĤ ÐµÑĤ
Ġland s
éĿ¢ è¯ķ
âĳ ¢
æĭĽ èģĺ
ĠÚ© Ø§Ø±
Ġleg acy
- for
Ġinc idence
t w
ass es
ĠO nt
-b l
ĠF L
æĿ¡ ä¾ĭ
ari able
Ġt mp
Ġorganiz ational
in as
ÑĤ ÑĢÐ°
åħ´ å¥ĭ
Ġbi ology
ĠRad io
Ġar ter
er als
Ø Ł
Ġinsp iration
Ġcelebr ate
Ġlik es
38 3
ä¹Ł ä¸įèĥ½
Ġhop es
à¸Ĺ à¸²à¸ĩ
ðŁ Į
ĠØ´ Ø¯Ùĩ
ĠC ab
Ġmod ify
Ġadvent ure
ãĤ ª
ogene ous
èĪĴ æľį
Ġg athered
è¿ĳ æľŁ
4 33
Ġfact ory
ĠViet nam
Ġrestrict ed
Ġcal endar
ì² ´
Ġchemical s
èĬ ¬
Ġcount ing
( ),Ċ
Ġar c
æĹ© ä¸Ĭ
ĠNig eria
ìĿ Į
Ġm ul
æĮ £
ä½ł ä¸į
Ġaccept ance
ĠÐ¸ÑģÐ¿Ð¾Ð»ÑĮ Ð·Ð¾Ð²Ð°
ĠÑį ÑĤÐ¸
ĠSim ple
Ġto oth
å· ©
é §
W rite
Ø§Ø¯ Ø©
å¼Ģ åħ³
å½ °
N F
åĲĪ æĪĲ
ç¦» åŃĲ
A merican
é¹ ı
Ġcy cles
Ã ħ
Ġchrom os
ett i
y cz
å¼ķ çĶ¨
adel ph
Ġfasc inating
5 30
D ay
ëĭ Ī
Ġcele b
i Ã¨re
4 99
äººæ°ĳ æĶ¿åºľ
ĠPolit ical
çĭ Ģ
as ures
ĠS ens
Ġret rie
Ġburn ing
Ñı Ð·Ð°
Ġnewsp aper
àµ ģ
Ġmarg inal
Øª ØŃ
Ġ: âĢľ
Ġve z
åĿļ åĨ³
éĤĦ æľī
int s
ĠÐºÐ¾Ð¼ Ð¿
ëł ¥
ic z
ĠN ear
Ġincred ible
ol en
37 8
a id
Ġin herent
ĠN ick
ĠChrist ians
èĳĹ ä½ľ
Ġmin us
Ch ild
æ´ Ĵ
Ġscen arios
Ġ ÑĤÐ¸
ĠÃ ¢
es ity
èĸ ĩ
4 28
çĶ³ æĬ¥
Ġge ometry
åĳ½ è¿Ĳ
6 20
ä¹ ĸ
Ġl uck
39 2
Ġprecis ely
B E
Ġâ Ĥ¬
38 1
ard ing
æ±ĩ æĬ¥
ĠÐ± Ð°
" :Ċ
æŁĲ ä¸ª
Ġbirth day
Ġ ï¿½
b ral
Ġtre m
Ġmagn et
æķ´ æĶ¹
çģµ éŃĤ
39 6
4 31
ass en
ird s
èıľ åįķ
ÙĪØ± Ø¯
ĉ m
act ic
Con vert
å®ŀ çĶ¨
å¾ ©
ĠG P
çº³ ç¨İ
Ġpart ially
Ġdes k
Ġthe sis
Ġk illing
åİī å®³
éħ ±
ne cess
A E
Ġstay ed
M em
ĠM i
Ġ- ->
ĠG R
t or
Ùĳ Ùİ
ĠP apers
äºº åĬĽ
Ġd ental
Ġì ¶
çļĦ æľī
×Ļ× ĺ
æµ ¦
Fin ally
Ġdes ert
achus etts
ĠBet ween
44 1
éĶ ¡
çļĦ åĬĽéĩı
ĠRes pons
\ /
C ore
Ġgrand e
Ġpro pose
) ?
ĠÐº Ð»Ð°
ĠF em
ĠRepublic an
åħ³ éĹŃ
Ġcomp act
æµģ è¡Į
å¦¹ å¦¹
æ¼Ķ åĳĺ
ĠK o
Ġrece ives
ĠG il
Ġc ual
Ġunivers ities
38 8
Ġminim ize
Ġtrans f
éĤ£ å°±æĺ¯
38 2
å¤´ åıĳ
Ġtem po
ch arg
Ġpul se
f inder
Ġpro gression
Ġspecial ized
æīĭ æĮĩ
t here
M icro
b est
ver ter
se ud
Ġch ains
ĠM eg
ĠÐ± Ð¾Ð»ÐµÐµ
S QL
Ġb ull
Ġpath ways
y k
Ġmoment um
Ø¨ Øª
à¦ ¥
é» ı
F eb
Ġent ities
u um
A pi
Ġw ound
Ġ× ¦
y tic
ie go
4 24
I LE
Ġm Ã¡
{ array
Ġstay ing
Ġal arm
Ġpers u
ond s
èĭ¥ å¹²
ro c
Ùĥ Ø±
Ġor ange
Ġw avelength
} +\
e j
ĠÐ¸ ÑģÑĤÐ¾
Ġcoord inate
åĪĨ æķ°
Ġbe ings
-d ependent
0 40
Ġnur se
on th
æĥ ¹
Õ ¿
åĪĿ å§ĭ
Ãº blic
Acc ount
. )Ċ
Ùĥ Ø§Øª
Ġdesign ated
è´¢ å¯Į
Ġph ases
Ġbox es
à¯įà® Ł
×ķ× ¢
std io
à¸µà¹Ī à¸¢
M c
Ġdow nt
N ational
Ġbott le
Ġcop ies
/ H
Ġgu ilty
Ġl in
åı¯ çĶ¨
re z
ĠH op
on ing
å·¥ åķĨ
h ome
ĠPl us
áĥĿ áĥ
Ġcon clude
.Gener ic
ä¸Ģ è¡Į
èģ ·
è®¤ å®ļ
ĠF ra
AP P
ä¸Ģ çĶŁ
Ġbreak s
Ġexp ense
Î¿ Ïį
ic iÃ³n
.... ..ĊĊ
... .ĊĊ
w ho
éĺ² æĬ¤
ĠK an
Ġfit ness
ĠL ie
åĲĮ äºĭ
å¾Ī å®¹æĺĵ
Ġme hr
íķ ©
Ġsuggest ions
æĪĲ å¹´
ĠB an
âĢĿ )
æī© å±ķ
n ab
ĠP arent
Ġconst ru
eful ly
conn ect
ĠR oss
ĠRel ig
å§ ļ
ĠÃ ®
k ar
0 25
ÑĩÐ¸ ÑĤÐ°
Ñı Ñħ
æ¸Ĳ æ¸Ĳ
Ð»Ð° Ð²
è¿Ļ ç±»
Ġfunction ality
ĠEn c
Ġenthus i
olester ol
Ġtra uma
ãģĹ ãģ¾ãģĻ
ç»Ł æ²»
F ilter
å¼º å¤§
Ùģ ÙĬ
æķħ æĦı
Ġsearch ing
Ġdis ability
åľ Ĵ
ĠB ail
Ġremov ing
Ġrep et
r er
Public ation
Ġë ²
Ġdev iation
ĠR ate
à¹ī à¸²à¸ĩ
çľŁ çļĦæĺ¯
Ġshould n
am en
ĠØ¨ ÙĪØ¯
ä¿ ±
chn ology
Ġimp ression
Ġdispl ays
ĠØ¨ Ø¹Ø¯
Ġsome how
-cont rol
ĠF ord
æº ĥ
80 1
çļĦ æķħäºĭ
Ġg ains
ĠSol utions
( value
Ùħ Ø³
Ġsm oking
80 8
al is
à¸« à¸¡
Ġtamb iÃ©n
ib les
ç½ Ĳ
ä¸Ńåįİ äººæ°ĳ
å¥ĸ åĬ±
IN D
ĠÙĨ Ø¸
bl og
å¾Ī å¥½çļĦ
N C
è¯ Ī
çĸ« èĭĹ
op les
åºı åĪĹ
och ond
åħ¶ ä»ĸçļĦ
T V
æĲ ı
ĠL ive
ĠU I
ĠT u
çī ²
ert a
éķ¿ æĹ¶éĹ´
è£ ķ
åŃ¦ æľŁ
è£ħ é¥°
Ġop ens
Ġen abled
Ġpi pe
U ND
ä¸Ĭ æĿ¥
row ing
ĠN ative
Ġcont est
æī Ķ
ĠSt ructure
Ġmetabol ism
ä¸º æŃ¤
g on
ĠD utch
Ġmut ual
ah a
ĠD or
è¯Ń æĸĩ
v or
Ġf on
æľī åı¯èĥ½
æĸĩåĮĸ çļĦ
ro st
ä¸į å¤§
ĠH ung
ìķ ¼
èµ· èº«
Ġmen y
ĠL ang
æĩī è©²
Ġdes per
Ġde let
Ġno ch
aus s
ãģ ¹
co in
Ġutil ized
æ¬£ èµı
ķ Į
ĠP ear
) ]Ċ
mar ks
Det ails
Ġm Ã©d
Ġst ere
Å ±
éº µ
(" \
Ġmanus cript
( root
p ing
çĶµ éĺ»
è´¦ æĪ·
S ort
ĠC ategory
Ġatt orney
à¤ £
Ġess ence
ÑĩÐµÑģÐº Ð¾Ð³Ð¾
æ¸¸ å®¢
List ener
p ers
Ġse asons
å¤ļ åħĥ
ÙĤ ÙĬ
f oot
Ġà¦ıà¦¬ à¦Ĥ
contain er
Ġgovern ance
Ġd ag
Ġincor rect
Ġaccompl ish
Ġa ussi
Ġnas od
åŃ¦ å®¶
Que ue
ĠØ§ÙĦ ÙĦ
Ġentertain ment
× §
äº² èĩª
ĠPro duction
Î ©
Ġcu ps
Â º
ĠIn sp
Des pite
Ġshoot ing
æº «
ĠUS D
50 5
.ann otation
ĠÙĨ Ùħ
Ġrel ate
ĠReg ional
Ġvess el
æĹ¥ èµ·
77 7
ĠØ§ÙĨ Øª
å·¥ ä¼ļ
Ðº ÑĤÐ¸
Ġdist inction
adelph ia
li est
Ġarr ival
èĮ Ĥ
ĠÐ²Ñĭ Ñģ
Ġexp end
çŃ Ľ
Ã¤ ll
6 30
Ġconvers ations
Ġproport ional
ìĭ Ŀ
. **ĊĊ
ĠÛĮ Ø§
Ġexec ute
ĠIll inois
ÑĽ Ð¸Ð½
ĠÑıÐ²Ð»Ñı ÐµÑĤÑģÑı
ä¸Ģ ä»¶
ial s
Ġh tml
ĠP od
Ġbrother s
ĠK ids
åĦ ª
}ĊĊ Ċ
Pe ople
åĽŀ å½Ĵ
and id
, **
back s
Ġdram atic
æ² Ĳ
ĠÐ¾Ð± Ð»Ð°
Ġd ess
åĩº è¡Ģ
Ser ver
s ome
é«ĺ äºİ
Ġbur st
ar ched
ĠM and
Ġsing ular
ä»¥ å¤ĸ
our t
Ġcoord inates
è°ĥ çĶ¨
æĴ °
Ġexperien cing
Ġorgan isation
rac ing
å» Ĭ
è¯´ ä¸į
Ġcut s
ĠColor ado
Ġad mit
Ġincorpor ated
ÐµÐ½ ÑģÐºÐ¾
ĠB ras
Ðµ Ð·
iz za
ĠCol lection
å¿ĺ è®°
Ġsche mes
Ġpl ates
hel ial
à¤ Ĺ
Ġp ode
Ġm Ã©
Ġyield s
ut i
\({}^{ \
ĠBl ock
Ġm L
Ķ Ħ
ÏĢ ÏĮ
ĠOb ama
ĠG as
åħļ å»º
Ġassum ptions
\ %
ĠEd itor
Ġdig est
.ĊĊ Ċ
ÙĪ ÙĬ
çĩ Ł
Ġmag azine
×¨× Ĳ
çļĦ ç¬¬ä¸Ģ
fer red
Ġposs ession
ìĿ´ ëĭ¤
ĠBro ad
38 9
Th ree
ä¸Ĭ æľī
ĠConn ect
| Ċ
ä¸ª æĢ§
åŁİ éķĩ
Ð¾Ð± Ð¸
eg en
( *
4 23
Ġestablish ing
4 17
Ġstrugg ling
à² ¦
pro t
ĠMar c
Ġnavig ation
au ra
ĠP H
Ġob jet
çķ «
ion ed
Ġdur ante
ç¾İ æľ¯
éĥ¨ éķ¿
ĠSol ve
Ġmount ains
ãĥ ł
ĠTh ink
Ġmist akes
. left
37 9
Ġëª ¨
B SCRIPT
æĹł éĻĲ
k n
Ġm ont
åĢĭ äºº
à¤¾à¤ ¨
in fo
ĠÐ´Ð¾Ð¼Ð° ÑĽÐ¸Ð½
pr ises
Ġconf usion
Ġn Ã©
ĠN icol
Ġlay out
ĠCon c
Ġvol unt
à¸ľ à¸¥
olog ically
met a
Ġrough ly
ÃŃ c
æ²³ åĮĹ
isc her
× Ĺ
44 3
v ation
Ġt ers
Å¾ e
çŀ ª
å¹³æĸ¹ ç±³
ĠD ue
Ġpo et
çļĦ çī¹çĤ¹
0 80
äº¿ ç¾İåħĥ
Ġprot ective
- cl
Ġme als
æ¹ĸ åĮĹ
ĠM L
\ ,\
d ie
çģ £
ĠM ind
ĠPr imary
l av
ict ions
Ġlab els
i Äħ
æİ¢ è®¨
ĠE q
Ġlov ely
P o
Ġshe ets
Ġpre st
Ġra cial
Ñģ Ñĥ
F urther
b ie
Ġele g
Res ource
Õ¡ ÖĢ
zen ia
ĠM ir
æĽ´å¥½ åľ°
S W
åī ĸ
Ġrit ual
acc ount
Ġpreval ence
åıĸ æ¶Ī
à¸§ à¸¢
Ġlov es
Ġser um
ric ts
ĠT ok
av id
åŃ£ åº¦
å¸ĥ ç½®
* i
els on
Int roduction
ĠJ ordan
iox ide
Ġosc ill
R C
ĠAut o
0 17
ĠIslam ic
Ġt unn
Ġdis aster
ãģ§ ãģĤãĤĭ
å¿ħè¦ģ çļĦ
åĲĳ åīį
Pro cess
Ġb ent
Ġë¬ ¸
Ġemp irical
as an
ro se
ĠL E
ĠB ry
ĠO m
çĿĢ çļĦ
z d
Ġadjust ed
O ptions
Ã °
u per
ur ches
ĠH aving
Ġselect ing
Ġm ales
æ¯Ľ æ³½
ill o
à¹Īà¸²à¸ Ļ
Ġvers ch
åĻ ª
ĠC er
ĠB rain
ent ry
4 75
ze ch
ĠBe havior
ĠØ£ ÙĬ
Ġut ter
ÑĢÑĥ Ðº
ĠCon cept
ĠIT IS
éģµ å®Ī
Ġch ampions
Ġc ake
ç»´ çĶŁç´ł
4 90
ĠÐ¿ Ð¾ÑĢ
è¡¥ åģ¿
Ġsil ent
Ġsh orter
Ġliber al
ud d
Ġwe igh
Ġgold en
ĠDem ocratic
ab ases
Ġguar ante
æĹ¥ çļĦ
38 7
Ġs ans
Ñĺ Ñĥ
Ġleg end
Ġn uest
Ġcardi ac
pec ially
Ġpract ition
ĠT ypes
em i
éĺ Ĳ
ĠO il
ax y
li ers
Ġl ing
Ġact or
P V
ĠIN T
æĦı å¿Ĺ
å¹¿ åľº
ib t
8 70
å¤ļ æķ°
Ġmethod ology
Ret urns
et ed
Ġph armac
uro pe
å¸Ī çĶŁ
åıĳ æĶ¾
æ®µ æĹ¶éĹ´
ĠSt ation
Ġz d
(" /
Ġclos est
ĠPenn sylvania
å¹´ çīĪ
æµ· å¤ĸ
Ġhosp itals
Ġdifferent ly
ial e
Re qu
æ¶ ¯
D M
Ġdiv ine
B T
ict ure
äºº åĴĮ
Ġign ore
Ġbe aring
cond ition
Ġkilomet ers
ĠÙĪ Ø£
* c
çī© ä½ĵ
å¤§ éĻĨ
æ·¡ æ·¡
Ð¸Ñģ Ð°
Ö Ħ
. right
De v
ÑģÐºÐ¸ Ñħ
ĠB ureau
ĠMult iple
l ab
è¦ģ æľī
ob i
ä¸¤ ä½į
æ¯Ľæ³½ ä¸ľ
ĠMe asure
æŃ ī
ĠD ark
ĠØ§ ÛĮ
çĶµ åĬ¨
* y
s ource
\\ \\
èĨ ı
] +
ail ing
Ġre aches
èĨ Ŀ
Ġìŀ Īëĭ¤
Ġgram mar
ver b
. Y
ĠN urs
Ġ×ķ× Ķ×
èĳĹ åĲį
Ð¾Ñģ ÑģÐ¸
ä¸» å¼ł
Ġshap ed
ÙĦ Ø§ÙĦ
. end
Ġvis its
ar roll
Ġequ ality
ãĤĩ ãģĨ
Ġscen es
anal ysis
er ge
ier a
_POSTSU BSCRIPT
Ġeffic acy
5 25
åıį æŃ£
Ġme ets
ĠSt one
× ĳ×
Ġleb ih
Ġcommand s
ãĤ· ãĥ
Ġsp ell
Ġj ack
il an
Ġen f
æ¯« ä¸į
Ã¤n n
âĦ ĥ
çħ İ
çŁŃ æľŁ
ĠB E
Ġmuse um
æĹł å¥Ī
ĠElect ric
Ġed ited
V ersion
èħ »
) **
Ïĥ Î·
us ername
è¶ħ çº§
ĠK it
ĠGu id
9 60
é¡¹çĽ® çļĦ
Ġattempt ed
ynam ics
Ġdes de
-s m
Calcul ate
çĶŁ çĲĨ
Ð¾Ñģ Ñĥ
Ġtra cks
M enu
ĠJ en
ĠEconom ics
æī¿ è¯º
æľĽ çĿĢ
æį ī
åįģ ä¸ĥ
4 29
Ġp ubl
Ġdam aged
ĠpÅĻ ÃŃ
Ġinf ected
Ġc ad
Ġconflic ts
ĠØ³ Ø±
put er
ä¼ł è¾ĵ
ĠPer iod
Ġflu ctu
ÑĪ ÐµÐ½Ð¸Ñı
med ia
N G
Ġassum ing
Ġprov ince
Ġan ten
Ú© ÙĨ
Ġeas tern
Ġdis advant
Ġbas eline
ĠAnd erson
Ġinter vals
ĠDe ep
Ġpro ces
Ġdeterm ines
ç©º ä¸Ń
Ġor ang
ay ing
ä¼Ĺ å¤ļ
Ġinter rupt
èħ Ĭ
Ġ$ (
Ġf iscal
æĭħ å½ĵ
[ [
à¦¿ à§Ł
Ġlif etime
ĠIns urance
ĠPat ients
Ġpurs ue
' );ĊĊ
çļĦ è¿ĩç¨ĭä¸Ń
fl amm
Ġp ose
Ġrat ios
à§§ à§
he alth
Ġfa ire
b as
Ø ¡
om ed
Ð» ÑģÑı
è¿Ľ å±ķ
Ġcritic ism
st ru
0 50
Ġdef ines
Ġ à¸ģà¸²à¸£
om i
Ġoccur ring
st ers
Ġaward ed
ĠØª Ùħ
Ġj ury
æ¸ħ çĲĨ
xx xx
Ġv u
ä½ĵ åĨħ
ĠE ric
_ at
ac ji
Ð»Ð° Ð½
ost ream
na ire
Ġisol ation
Ġperform ances
Ġr Ã³
æ» ©
Ġdiscuss es
ÙĤ Ø·
æĭĵ å±ķ
åĲĮ æŃ¥
w al
ĠW ars
ĠÙĬ Øª
æľī åºı
as ad
requ ire
à¸· à¹Īà¸Ńà¸ĩ
å· ·
4 48
................ ........
Ġf illing
ateg ories
è®© ä»ĸä»¬
t otal
å®Į ç¾İ
i ac
åıĳ è¨Ģ
Û ¹
Ġbul k
è¿Ŀ åıį
éĺŁ åĳĺ
b its
ĠG irl
éļ¾ åº¦
ĠÑĦ ÑĥÐ½Ðº
è®© åŃ¦çĶŁ
æ·± æ·±
Ġs oll
åĽŀ äºĭ
. se
4 34
en o
çļĦ å°±æĺ¯
èĥĮ åĲİ
ĠSever al
Ġrec ruit
et z
Ø¨ Ø©
æĿĤ å¿Ĺ
Ġharm ful
Ġl ady
ä»¬ çļĦ
Ġbe er
è¿Ļ ä¹Łæĺ¯
èİ İ
ä¾¿ å®ľ
ĠÑģÐ¿ Ð¾ÑģÐ¾Ð±
Ġob s
r Ã¤
v ia
Ð´ ÐµÑĢ
st a
Ð¹ ÑĤÐµ
Ġam in
- Z
P op
éľ ī
ĠÕ °
Ñī ÐµÐ¹
it ance
ĠSum mer
is hers
å¤ļ æł·
è² ł
Ġfunction ing
ĠD ur
Ġins ulin
Ġload ed
åĩ ¸
ĠB or
ĠMount ain
ÑĥÑĪ ÐºÐ¾
Ġpol ym
Ġsol ved
(n um
ĠAnd roid
- pl
æ½ ĺ
ĠSk ills
ĠP u
ĠL LC
Ġb ases
at on
" ),
Ġë į
Ġindic ators
5 28
çļĦ ç¡®
Ġgra y
ĠW ales
ĠB ah
æĸ° åĨł
ç¬¬äºĮ å¤©
Ġlater al
Ġreason ing
çĳ ¶
æļĤ æĹ¶
Ġju ice
ĠComp et
éĵ ¸
Cl ose
ik ing
Ï Ī
ie val
ĠS cript
äºĶ å¹´
Ġbehavior al
ĠØ§ÙĦØ «
ÑģÑĤ ÑĢÐ¾
ĠFollow ing
ĠFun ctions
åī ¥
éĴ Ļ
ä¸į æľĥ
60 2
Ġdecre ases
åĵį åºĶ
ä½ĵ ç§¯
ĠÐĸ ÐµÐ½ÑģÐºÐ¾
em por
ä¼ļ åĳĺ
Ġs ys
Ġneur ons
ĠV ers
Ġautom atic
Ġâ Ĭ
à² °
Ġc od
igh th
ä¸¤ æ¬¡
å¿ĥ èĦı
art e
Ġgrate ful
ol ves
Ġsc ales
æĬĬ å®ĥ
äºĭå®ŀ ä¸Ĭ
æľĢ åĪĿ
Ã³ l
ãĥ ī
å¤§å®¶ éĥ½
n ut
ew ise
ĠTe le
Ġtem ple
P G
ĠMO OC
çº¦ æĿŁ
ĠR ow
he res
Ġrout es
çĵ £
G iven
Ġoun ces
Ġun likely
ĠRec ord
×ķ× §
ob ic
Ġmet als
Ġc amb
t au
à´¿ à´
Ġph on
int on
ĠC re
L Y
M F
ĠD at
ĠØ¨ ÙĬ
Ð¾Ð¶ Ð¸
Ä ĵ
è´ ¼
p ress
Ġsa at
å¼º å¤§çļĦ
è¯¢ éĹ®
äºĮ æ¬¡
ĠÑģ Ð¾Ð·
Ġf el
å¤į åĲĪ
Ġvalid ation
ĠDe ut
/ kg
Ġsm ell
çĻ¾ å¹´
Ġassist ant
Ġdescrib ing
On ly
éĿ¢ åĲĳ
ä»¶ çļĦ
à® ª
Ġ×Ķ× Ĳ×
4 19
C ON
ä¾ ¦
éĢĢ ä¼ĳ
ĠOr rell
Ġ" /
ÑĨÐ¸ Ñİ
ĠD eg
Ġext raction
Ġround ed
Ġse bagai
Ø´ Ø§ÙĨ
ÑĪ ÐµÐ½Ð¸Ðµ
ãģĿ ãĤĮ
ĠÅ¾ e
åĲĥ äºĨ
æŁ ¯
Ġphys ically
Ġan at
i ors
a ug
* d
Ġwor ried
Ġgr asp
Ġgrav ity
g ence
èĳ ±
ĠÐ¿ÑĢÐ° Ð²Ð¸
ac iÃ³
Ġmembers hip
çª Ħ
U ST
å®ŀ ä½ĵ
å¢ĥ çķĮ
æ¶Ī æ¯Ĵ
Ġat omic
ev in
Ġco hort
Ġtempor al
ĠCont ents
Ġir rit
æī¿ åĮħ
Ġco inc
æ°´ æŀľ
ç· ¨
Ġt ru
ĠArch itect
Ġwed ding
ä¸į æĩĤ
åįķ çĭ¬
è®° è½½
Ġliter ally
ĠTur key
äºĭ çī©
45 5
Ġ à¸ŀ
ĠU l
pro perty
Ġc ited
$ ,
ç»Ħç»ĩ çļĦ
ast ed
åĥ §
Ġpregn ant
è¿ĩ äºİ
ç¼ ł
; (
åĲį ä¸º
å¸¸ è§Ħ
a ver
åĪĨ æ³Į
o ire
ï¼Į ãĢĬ
ĠAct ivities
à¸¹ à¸ģ
èĴĻ åı¤
T ask
ol ine
é¦ ¨
Ġhead ing
Ð»ÐµÐ´ Ð¾Ð²Ð°
$ \
ÐºÐ¸ Ñħ
åĸ ĺ
Ġan terior
éĢ Ŀ
p ool
ĠProfess ional
Ġst ocks
è§ģ è¿ĩ
_d ate
7 60
Ġmit ig
Ġse am
å¤§ å¹ħ
ol k
Ġelim inate
Am ount
Ùħ Ø§ÙĦ
ol er
u ction
Ġwork place
39 1
Ġremember ed
_ string
st ore
0 23
í ı
å®ŀéªĮ å®¤
Ġb ars
å¸ ĸ
. uk
Ġex clus
å¯ «
Ġo ught
Ø§Ø¯ Ø±
åľ¨ å®¶
æľĢ å°ı
He ad
èĪŀ åı°
Ġcar cin
Ġb ike
Ġo ste
Â ¯
Ġl ap
_ value
ç´¯ è®¡
æľī æĹ¶åĢĻ
ç§į ç±»
Ġn ou
0 18
Ġread ily
æĬ Ħ
45 1
×ľ× Ĳ
è§Ĩ è§ī
Ġel astic
Ġelev ation
al so
.p y
P I
iv als
Ġqual ities
Ġa kt
Ġreject ed
Ġìľ ł
ov ing
oh yd
Ġcou rage
Ġart istic
Ġrece iver
ĠO wn
ĠJ u
Ġn ella
Ġà¦ ĸ
cul o
çłĶç©¶ çĶŁ
all ing
Ġbacter ial
ĠÐ½ ÑĥÐ¶
tic les
ãģ¾ ãģĽ
æĸ ©
ĠSt ruct
çĲĥ éĺŁ
ä¸į å¼Ģ
Ġg em
ãĥ ĭ
if iers
Ġaff airs
ëª ħ
.j son
B as
Ġpr Ã©s
de c
è®¤ åı¯
Ġexpand ing
åĨ ¥
èĲ Ŀ
riz ona
ĠLim ited
ve z
R T
op ed
è£ħ ä¿®
Ġna ar
äºº å¿ĥ
© ×¨
å¾® ç¬ĳ
çĻ Ĥ
Ġcol lections
å½ĵ åĪĿ
Ġ} ;ĊĊ
cret ion
Ġcont rary
ĠPr ince
é« ĵ
ĠRes ource
r ors
NA ME
4 27
ĠRe quest
èĹ ¥
form s
Ġviol ent
/* Ċ
Ġfe at
ĠØ¯ ÛĮ
çĻ¼ çı¾
avig ation
imet ro
ĠC e
Ġenh ancing
æĺ¯ ä»İ
id al
ĠMass achusetts
åĨĻ çļĦ
Ġsyn chron
4 45
Ġtrans mit
39 7
\ times
Ġess ere
f i
ĠAr gent
ĠVict or
Ġm uit
45 4
å·® è·Ŀ
ä¼ļ çļĦ
åıĳ åĬ¨æľº
l at
ĠP osition
em ony
ï¼ģâĢĿ Ċ
ĠL iving
çļĦ åĨħ
ĠD oc
ĠÐ¾Ð±ÑĢÐ°Ð· Ð¾Ð²Ð°
Ġun like
ĠF ern
ia o
ĠA LL
ass er
form ing
æĥ ©
Ġassoci ations
6 60
L ayout
45 3
æĮĩ ä»¤
He ader
åį ¸
ĠIm m
åĺ ¿
Ġde ck
ÑĢÐ¸ Ð¸
éĢł åŀĭ
æĺ¯ ä¸ºäºĨ
Ġ× ŀ×ķ×
ĠÐ´ ÐµÐ¹
D NA
ĠAl t
H i
ĠF ox
ĠD I
_ set
ĠB ody
ĠR ail
ä¸Ģ æ¨£
ä½Ĩ ä»ĸ
é¢ ĸ
å¸¦ åĬ¨
ĠG ard
åıĤ è§Ĥ
ul u
Å¡ t
Ġcount s
å·® ä¸įå¤ļ
com b
ĠR oll
ĠM C
W idth
p us
Ġsy ll
ĠPro perty
5 11
r atic
ä¸ļ ç»©
ĠClass ification
Ġpo ison
ID S
ĠC ole
à¸Ļ à¹ī
ĠAn th
Ġle ver
Ġvari ant
Ġang ry
Pro ps
ĠS ab
Ġcap ability
à¸£ à¹Į
d ist
Ġl ying
4 37
ĠH art
ĠSar ah
Ġpres um
Ġpe pt
ĠÙħ Ø¯
çĳ Ł
cons cious
< string
ĠReg ister
Ġpre view
ç¬Ķ è®°
Ġsoc io
æĽ´ æľī
Ġtrans parent
Ġvit ro
Ð¿ Ð¾
äºī åıĸ
e q
æĹ¥ æĬ¥
çĪ µ
Ġz ones
ä¿® å¤į
ĠUn fortunately
icon ductor
ĠB ab
ä¸ī å¤§
om on
ĠS N
* m
å°ļ æľª
éī´ å®ļ
5 70
ric ht
Ġjurisd iction
í Į
5 80
b ec
erv es
Ġlik elihood
Ġaltern atives
æıĲ åĩºçļĦ
ĠAd ditional
air y
ĠFest ival
* h
Ú¯ Ø§Ùĩ
Ġent rance
Ġsubsequ ently
Ġsqu ares
Ġêµ ¬
ĠCo ord
ĠĠĠĠĠĠĠĠĠĠĠĠĠĠĠĠ ĠĠ
ĠÐ» ÐµÑĤ
Ġcons olid
å»º æĪĲ
Ġh Ã¤r
-h our
paren cy
Ġimp air
à¹Ģ à¸Ļ
å¼ķ é¢Ĩ
å¦ ¨
æ¸ £
Ġint ric
Ġvari ance
è¿Ļ ä»¶äºĭ
, ãĢĬ
45 2
Ġkne e
jo in
ÐµÐ¼ Ñĥ
ol utions
Â §
Ġd la
ç¥ ¸
Ġtele phone
ĠAut om
Ġreal m
Ġne ces
Ġsp ots
à¸ Ĳ
Ġtrans mitted
åŃĺ æ¬¾
Ġemb race
Ġth ou
ag u
Ġt we
// /
Ġsupp lied
ĠPop ulation
ld ots
l on
à´ ¾
çļĦ åħ³éĶ®
á ģ
ĠPriv acy
åĵ İ
åīį åĲİ
Ġgen re
æĶ¶ è´¹
Ġfall en
. To
ÑĢÐ¸ Ñı
(m ax
He alth
à¤ ¶
Ġs yst
t wo
ãĢ ī
39 4
-c ol
Ġdef ining
çºł çº·
å®¡ æī¹
9 50
-g roup
Ġestim ation
ps ilon
çĽĳ æİ§
ä¸ĸçķĮ çļĦ
åĭ Ł
ĠV it
ĠA qu
åĸ ī
Ġread s
Ġconsec utive
Ġk el
ĠFig ures
Ġl ain
ĠJ ersey
n ym
we g
ĠÑĤ ÑĢÑĥ
ist as
ãĥ ģ
Ð¾Ð»Ð¸ ÑĩÐµ
ĠF R
ç»´ ä¿®
Ġr ats
éģĵ çļĦ
47 2
éł Ī
Ġp ob
§ a
Ġarrang ements
åħ¬ åŃĲ
çĻ¼ å±ķ
a Ã§Ãµes
Ġconcept ual
ĠÐľ ÑĥÑĪÐºÐ¾
æĥ Ł
W orks
ĠØª Ø§
å°Ĩ åľ¨
æ°ĳ äºĭ
Ø´ Ø§Ø±
ĠN ic
Ġbare ly
Ġo ven
çŃĶ åºĶ
â ĥ
45 7
Com ment
Ġperson ally
Cont ainer
å¼ §
ĠÐ¿ÐµÑĢ Ð²
* p
ĠIndust rial
Ġmetab olic
Ġ×ľ× ŀ×
å¤§ å¸Ī
Ġalleg ed
ib il
ĠTe acher
Ġà® ®
44 2
è¿Ļä¸ª éĹ®é¢ĺ
åıĳ éĢģ
Ġprotect ing
Ġpol ynomial
ĠD un
J son
ĠM ens
ĠN A
Ġver ify
inc oln
ab its
ĠEr k
ĠWith in
æ´» åĭķ
pp en
} );Ċ
ãĥ Ĳ
Ex ec
èª ²
Ġh its
æĹ¶ åħī
ĠAstron omy
Ġfold er
os ity
o ys
ÑĦ ÐµÐº
Ġcon ve
Ġdi am
å¤§ ä¼Ĺ
çĿ ģ
Ġà¦ħ à¦¨
ÐµÐ½ Ñĭ
Ġcoe fficients
int o
ä¸Ģ èĦ¸
Ġ* ĊĊ
à¯ ĩ
50 8
ort s
éł Ĳ
ä¸ī æĺ¯
____ _
39 8
ĠÐ³Ð¾Ð´Ð¸ Ð½Ðµ
åģ¥ åħ¨
Ġfe as
ç¶ Ń
Ġcont amin
ç« Ń
Com ments
éĥ½ è¢«
ãģ« ãģ¤
st ar
Ġprof its
Ġrec urs
Ġch apters
Ġst ones
Ġch i
k on
éĻ¢ éķ¿
( F
à¸± à¸į
Ġsatisf y
çļĦ æĢĿæĥ³
ÐµÑĤ Ðµ
åı¯ä»¥ éĢļè¿ĩ
Ġadapt ation
éĢļ è®¯
åħļ æĶ¯éĥ¨
éŁ ¦
ĠB uff
æıĲ åĪ°
Ġany more
Ġdark ness
ÅĤ ad
Ġhuman ity
ĠT an
ìŀ ħ
Ġper mitted
Ġ' /
ĠMc G
Ġra bb
ä¸ī äºº
Ġth roat
æĵ ħ
éļĶ ç¦»
usal em
ç« ĸ
å¯¹ åħ¶
Pass word
D ig
Ġtreat ing
Ġ×Ķ× ¢
Ġt ape
ĠÂł ĠÂł
è¸ ©
ient es
åĲ« ä¹ī
è© ķ
ĠM os
å¥½ å¥ĩ
50 6
é»ĳ æļĹ
à¹Ģà¸ Ħ
As ync
Ġf ails
ows ki
Con f
Ð¸ ÑĤ
Ġfem ales
Ð³ Ðµ
à¸¸ à¸ĵ
Ġa Ã±os
ra ham
ìĤ °
Ġass ault
ys ics
è¿Ļ æīį
ucle ar
te ch
-cent ury
h abil
ĠBel g
éĽ ĩ
ìĦ ¸
Ġp ac
Ġex clusive
Ġhere in
Ġcolon ial
ç¾İ é£Ł
æµĭ å®ļ
46 5
ä¾Ľ ç»Ļ
å» £
Î¸ Î·
å°± è¢«
is an
çĽ¯ çĿĢ
ied er
ĠAff airs
ĠMat thew
æĢ» ç»Ł
Ġfun ny
ä½ł ä¼ļ
66 7
P ress
Ġf les
Ġtick et
ing en
Ġtrans plant
by te
Ġ" ./
M ode
.p op
Ġcopy right
çĭ Ń
ä½ Ĳ
Ġw age
ĠB ot
ET H
Î»Î¿ Î³
Ġshe d
å¸Ŀ åĽ½
iam o
ä¸ĢçĽ´ åľ¨
-dr iven
= [
å¾Ĺ åĩº
sh ould
Ġattrib uted
( len
ĠR ound
Ġt ale
Ġoccur rence
4 26
Ġstret ch
Ġspeak ers
Ġoblig ations
æŁ Ħ
ire n
de lete
ĠTra vel
åľ į
47 1
Ö ´
ĠIntellig ence
Ġmod ules
ĠSm art
æ²ī é»ĺ
if s
% E
ms g
Ġm os
æīĭ ç»Ń
Ġprze z
ÙĨ ÛĮ
å® ®
ä¸Ģ åĿĹ
ç¼ĵ è§£
V E
ĠT ag
Ġund ers
4 36
Ġk ep
Ġcl ause
å®¹ éĩı
ir s
å½¢æĪĲ äºĨ
-e ff
Ġap artment
ĠTechn ical
Ġde com
Ġà¤ ¨
ot yp
iox id
70 1
. class
ĠM E
â ħ
åıĳ çĶµ
Ġwin ner
Ġmultip lying
Ġkid ney
ëĲ ľ
ĠC redit
ef ined
æıĲä¾Ľ çļĦ
åĪĨåĪ« ä¸º
f en
çŃī åĪ°
ĠMon th
Ġhaz ard
ĠÐ½Ð° ÑĩÐ°
Ġk r
åıĳçĶŁ çļĦ
i w
Ġlo ose
Ġn h
ĠAct ive
Ġexpl ored
çļĦäºº çĶŁ
Ġj ew
å¹¿ æĴŃ
Hist ory
ĠAir port
è¾ĥ é«ĺ
ĠW inter
ĠEx ternal
5 15
çļĦ åŃ¦çĶŁ
Ġpart ition
åĴ ¸
å°ĳ å¥³
EM ENT
ĠIm plement
per ed
Ġs ous
Ġprof iles
Ġsign ature
Ġsurround ed
éĿ ľ
èĻ ¾
çĬ ¬
Ġpack et
k it
ë© °
Ġequ ipped
ä¸Ńåįİäººæ°ĳ åħ±åĴĮåĽ½
çİ° çĬ¶
Ġbeg un
he imer
Ġdistingu ish
l ah
hes es
Ġu pload
Ġre cess
åıĺ æĪĲäºĨ
Ñı ÑĤÑĮ
ĠG ab
à¸ķ à¹īà¸Ńà¸ĩ
çĽ¸ ç»ĵåĲĪ
Pro f
Ġtong ue
* ĊĊ
Ġmob ility
8 40
à¹Ĥ à¸£
Ġn ue
è® Ģ
ä¸į åĪ©
ĠO ri
Ġrespond ed
ä¸Ģ å¤§
ÙĬ Ø²
ç¿ Ķ
Ġvol umes
Ġcur iosity
Ġmil imetro
Ġw ins
/d m
Ġhas n
åŃĲ å¥³
ÂłÂłÂłÂł ÂłÂłÂłÂł
0 33
Ġresil ience
o en
âĹ ĭ
äºĨ ä¸ĭæĿ¥
iot ics
Ð¾Ð½Ð° Ð»ÑĮ
It ems
Ð¾Ð± Ð°
èĸ Ľ
B ody
Ġb oss
æº ľ
ĠBail ly
åĥ ħ
æĲ ħ
Ġsole ly
á» į
IG N
em ies
Ġspec ify
çĶŁ æĦı
go in
Ġarg ues
Ø· Ø±
Ġà® µ
Ġv ectors
ä¼łç»Ł çļĦ
ĠG ib
Ġin clusive
ĠB uild
IG HT
Ġstri king
Ġtown s
Ġh unt
Ġdemonstr ates
Ġcorre ction
h ot
Ð½Ð¸ ÐºÐ¾Ð²
Ġproceed ings
æ³ ³
Ġn est
ĠInd ividual
Ġ( +
ĠD B
ĠD im
back ground
m ethod
Ġsp ir
ĠE S
_ r
ĠHol ly
ãģ¾ãģĽ ãĤĵ
á» ĥ
ĠPro ceedings
Ġband s
Ġpred omin
æį ı
Ġs Äħ
Ġm ature
et o
Ġcon clusions
å¸¸ çĶ¨
Ð·Ñĥ Ð»ÑĮÑĤÐ°
èħ ¦
-l ife
ç¨İ åĬ¡
Ð½Ð¸ Ñħ
ĠMal ays
Ġb tn
æİĴ åºı
(' /
4 39
Ġqu el
çľ¼ ä¸Ń
ĠLiter ature
æłĩ çŃ¾
ĠTh ings
ĠComm and
ĠMill ion
D el
ÎŃ ÏĤ
R oute
Ġforest s
åŁ¹ èĤ²
ĠW ITH
48 5
çº¿ æĢ§
0 24
ê² ½
Ġelev ated
ç®¡çĲĨ çļĦ
ç¡ ħ
ä¸Ģå®ļ ä¼ļ
å±Ģ éķ¿
u ant
Ġst y
Ġtransform ed
æĺİ æĺŁ
çĽ¸åĲĮ çļĦ
Ġvibr ant
ĠØ§ Ùħ
f ire
itud inal
ĠAuthor ity
è¾ ±
Ġgener ator
Ġweap on
Ġd ioxide
ĠC ultural
à¸ķ à¸±à¸§
opt ions
ĠÑģÐ¾ Ð¾ÑĤ
ä¸¤ å¹´
H C
ĠPh ilosoph
k ow
ul pt
åĮ¹ éħį
pt on
Ġmyst ery
Ġc ache
æĺ¯ è°ģ
46 4
Ġconver ter
ON E
Ġpromot ion
çħ Į
Ġconduct ing
ĠBour goin
ìĥ Ŀ
åĩ ĳ
ick ing
çĤ¹ äºĨ
ell ant
ĠÐ¼Ð° ÑĤÐµÑĢÐ¸
ans k
åħ ĳ
ĠÂ· ĊĊ
çķĻ åľ¨
g reen
is se
Ġt iene
Ġsci ences
ris k
Ġtit les
çļĦ åŃ¦ä¹ł
as ive
Ġelement ary
, (
è£ ¹
æıĲ åıĸ
Ġag reements
æľī åĵªäºĽ
áĢ¯ áĢ
cl er
or iginal
* f
ĠF ried
Ġb ills
è¿Ľ æĶ»
ol ver
ag og
ä½ľ é£İ
ĠF le
ĠìĹ °
è¾¹ ç¼ĺ
¸ áĢ
bl ack
ĠR aj
5 31
ĠC reek
Ġpro long
Ã³ d
\ ]
Øª ÙĬ
46 1
Ġprom ised
æ°Ķ ä½ĵ
Ġv iv
å¼ķ åıĳ
à§ĩà¦ ²
Ġimag ination
Ġsh ield
è¥¿ å®ī
Ġliter acy
ap ing
ãĥ ĸ
ĠD ies
}\ ]
ç«ĭ æ³ķ
ĠÙĥ ÙĦ
ĠTe ch
Ġpopular ity
Ġvar ies
h ma
åŃĹç¬¦ ä¸²
48 8
ç¦ı å»º
B el
7 10
å±± è¥¿
äºº ä¸º
a que
Ġm elt
×ķ× ¦
åı Ľ
à¹Ģà¸ Ĭ
R N
im s
çŃī å¥ĸ
åį³ ä¾¿
ĠSt ra
% .ĊĊ
] :Ċ
ðŁ Ĵ
å¤§ åĵ¥
à¸£ à¸±à¸ļ
B r
6 12
Ġoff ices
ä¹Łå°±æĺ¯ è¯´
ĠHar vard
5 21
Ġdiagn osed
ĠD ouble
Ġent ries
å¤į åĪ¶
Ġtheore m
Ġcomp ute
ential s
éħį å¥Ĺ
æĪ Ī
9 20
æľ¬ åľ°
ä»ĸ ä¹Ł
ĠPro du
L P
Ġreal istic
è½¦ çļĦ
ilit ary
O F
Ġal umin
49 6
Ġcomb inations
âĪ Ĺ
rou ter
Ø§ÙĨ Ùĩ
ĠH it
Ġwarr ant
æĬĢæľ¯ çļĦ
ĠB us
å¿« çļĦ
ul ent
or er
æĸ° çĶŁ
Ġembed ded
ä¸Ģ éĥ¨åĪĨ
éľĢè¦ģ çļĦ
âĢ¦âĢ¦ Ċ
å½ĵ ä»£
Ġm erc
Ġpres erve
Â ½
Ġp ink
ĠPh D
åİĭ ç¼©
G T
å®ŀ ä¹ł
Ġgu itar
ij ke
ĠLess on
Ġres idential
ĠÐ¾ Ð½Ð¸
conn ected
çº ±
inter face
ĠAll en
æ³ Ĭ
ä¹¡ éķĩ
æľª æĿ¥çļĦ
åĲİ æľŁ
ĠPan or
íĸ ī
ors hip
éĵ Ŀ
ç³ Ł
50 7
for ced
el and
Ð° Ñģ
Bl ock
Ġr anges
Ġpush ing
c ore
Pl ayer
re v
ĠR yan
? :
ĠÐ¶ Ð¸Ð·
Ġ ÏĮ
ĠM aking
ĠHam ilton
G ame
met ric
Ġsh ook
å¹³ è¡Į
ĠF ab
* k
Ġwe ights
Ġinj ured
ov o
Ġch ip
Ġrepresent atives
ill ance
achel or
Ġqu ot
kt op
Ġv ed
Ġconf used
åİ» çļĦ
åģļ ä»Ģä¹Ī
* r
Ġste pped
et on
æī¿ åıĹ
ÑĨÐ¸ Ð¹
èĻ ¹
ag an
åħ³ç³» çļĦ
æľĢ ä¸º
ĠT ang
Ġinequ ality
è³ ½
Ġdom ains
ä»ĺ åĩº
4 18
AR E
ok o
ĠO tt
i Äĩ
ĠL ED
Ġtoler ance
P RO
Ġpr ide
à§įà¦ ª
cyclop edia
Ġs lic
ç» ĳ
Ġjo ining
Ġtut orial
èĽ ®
âĸ ł
Ġter rible
ÙĨ ÙĬ
ĠCent ury
Ïħ Î¼Î¿
ĠAr thur
Ġê ´Ģ
ĠÐ¾Ð± ÑĢÐ°
ä¸¤ä¸ª äºº
L ocal
en ne
Ġcra zy
49 5
Ġrad i
ÑģÑĤ ÑĢ
Ġexcept ional
Ġw r
Ġpenal ty
å¤ª å¤ª
Ġdram a
è½¬ èº«
ĠMarket ing
åĬŀ äºĭ
we i
ĠSt ore
éļĲ æĤ£
ÐµÐ¼ Ð°
å¼º åĪ¶
çĮ ´
åĲ ¼
å±Ĥ çļĦ
å½¢ å®¹
Ġp ub
' ),
_ A
ah im
ä¸Ģ çº¿
ÏĦ Î®
å¤§ åľ°
æŃ ĩ
Ġtour ism
ĠÑĤÐµ Ñħ
ĠÐºÐ° Ð¶Ð´
F rame
ĠØ§ÙĦÙħ Ø¹
Ġbrand s
Ġtip o
Ġlaw yer
G od
å¤į ä¹ł
Ġ" $
50 9
[ k
) =\
Ġf ought
* v
å¦Ĥæŀľ æĺ¯
Õ ¾
å¯¹è¯Ŀ æ¡Ĩ
?? ??
æľº åľº
à¨ ¾
( !
Ġg am
è®º åĿĽ
ä¼Ł å¤§
ĠÃ ·
èĲ½ åľ°
áĢ¬ áĢ
ise conds
ĠA uf
Ġsp ray
Ġc ust
è¹ Ī
èĭı èģĶ
ÑĦÐ¾ÑĢ Ð¼Ð°
Ġsever ity
ĠB ull
W E
ĠAm b
ĠØ´ ÙĪØ¯
Ġm undo
æ² «
èĨ ¨
ĠM ort
Ġemploy ers
- content
ĠIm per
ĠAl f
ins i
Ã§ o
à¦¾à¦ ª
Ġnin ete
ĠH ug
ãģĵ ãĤĮ
ip se
ĠPre p
w ich
ar ity
æľĿ çĿĢ
ĠAc ademic
Ġma ar
éĿĻ èĦī
èª ĵ
Oct al
à¹ģà¸ķ à¹Ī
Ġsoph istic
Ġse ats
ç²¾ åĩĨ
Pr int
çĽ ¼
Ġ Ïĩ
Ã¼ l
æłĩ é¢ĺ
ĠMo ore
æĶ¶ è´Ń
ential ly
ä¼ĺ çĤ¹
70 2
/ N
à¸ª à¸´
Ġorg ans
åĩº å¸Ń
Ð¾Ð´ ÐµÑĢ
t ag
æĭĽ çĶŁ
- reg
æİĴ éĻ¤
reg on
Ġcur ves
åĥ µ
Îµ ÏĤ
åĬ į
ãģ ³
Ġcardi ovascular
_ key
Ġking dom
à§ĩà¦ ĩ
è¥¿ åĮĹ
uc ks
\ !
ol u
éŁ© åĽ½
per m
ç§ĺ ä¹¦
Ġtravel ing
ĠB eg
c p
ĠÐµ ÑģÑĤÑĮ
Ġk h
à¸¸ à¸Ķ
ĠN am
Ġimportant e
Ã½ m
ĠS olar
ĠK r
8 20
Ġpe pper
ode cimal
m el
ä¹ĭ äºº
ĠS ex
Ġcap s
* q
ĠK at
çļĦå¤§ å°ı
5 36
- i
à¸¡ à¸²à¸ģ
èķ ´
è· ª
47 6
Ġt ah
ĠE ver
à¸¶ à¹īà¸Ļ
æĶ¾ å¤§
Ġsort ed
ç´ Ģ
Ġw ise
âĪ ŀ
æĶ¾ æĿ¾
Hex adecimal
d ig
ÙĤ Øª
_ k
×Ļ× Ľ
Ġdiff usion
et en
æĺ¥ èĬĤ
åŃ£ èĬĤ
AM P
Ġs ons
ĠH ad
ull a
44 9
Ġrel ates
ĠÐ ¨
od els
åİŁ åŃĲ
ffic iency
èº« åĲİ
æµª è´¹
Ġport ions
48 1
æľį è£ħ
Ġmac ro
un to
c zy
ours es
é£Ł çĶ¨
Ġag gressive
Ġret ain
åįļçī© é¦Ĩ
ĠÙĦ Ùħ
5 16
ĠA th
ĠD al
def ined
) _
us k
Ġpron unciation
Ġinvest ing
Ġdegrad ation
= $
å°Ĩ æĿ¥
Res earch
ĠSing le
ist en
é¸ Ń
Ġgrad ient
Ġanaly zing
ç¹ ¼
om orph
ject ive
per or
Ġemb ry
ĠEduc ational
cer pt
Ġg erm
ç®Ģ ç§°
éĵ ĥ
ĠCo oper
ãĢ Ī
ĠØ§ÙĦÙħ ÙĨ
Ġvir al
Ġoccasion ally
Ġm arch
å°± æ²¡æľī
Ġb aking
Ø« ÙĦ
m ates
8 80
æķ° åĢ¼
çĽ´ å¾Ħ
Ar gs
ç§ĳ çĽ®
Î¹ Î¿
Ġswitch ing
ê ´Ģ
ĠC SS
Ġ= ĊĊ
Ġquest o
å¤ ī
os o
åľ°åĮº çļĦ
re b
ĠL ag
- check
åĲ Ł
ĠP oll
Ġê° ľ
èĿ ¶
à¦¿à¦ ¸
{ "
ĠLeg al
ar in
46 3
Ð± Ð¾ÑĢ
ãģ Ķ
éĻ £
å£° æĺİ
Ġext ending
çĶ· æĢ§
Ġfe ver
ĠE T
çł ¸
æ¸ Ľ
å¤ļ ä¹ħ
à¦¿à¦ ¬
èĥ½ åĲ¦
46 2
ĠØ§ÙĦØ° ÙĬ
44 6
ĠÐł Ðµ
ĠEvalu ation
è¾ Ĳ
Ed it
Ġar med
ãĥ Ł
ç¨ĭåº¦ ä¸Ĭ
J e
åĢº åĪ¸
ĠArray List
Ġmenj adi
æ¤ İ
ä»Ģä¹Ī æĹ¶åĢĻ
å¡ĳ æĸĻ
* z
ĠT ips
ÐµÑĤ Ð¸
ĠÐ¼ Ñĥ
, c
Ġper pet
ĠLin ux
Ġanalyt ical
HT ML
i ya
5 23
w all
Ġsoci eties
ig m
æħ¢ æĢ§
-t rans
Ar r
are na
âĸ ¡
å½¢æĪĲ çļĦ
ĠB rian
v ier
Ġfeature d
cre ts
äºĨä¸Ģ çľ¼
Inter face
èĤº çĤİ
Ġc ube
Ġpart ly
äºĨ å¾Īå¤ļ
çļĦ è©±
Ġà¦ «
Ġlog in
ĠØ¨ Øª
Ġbul an
Ġg olf
èĽĭçĻ½ è´¨
B est
com ponents
Ġsatell ite
/ R
ĠÑĪ ÐºÐ¾Ð»
f un
åĽŀ å¤´
44 7
åĩĿ èģļ
Ġqu art
Ġmix ing
ĠJ ak
atern ary
ĠDeterm ine
Ġl bs
act ivity
ĠX X
æ²¡ ä»Ģä¹Ī
-s ection
Ġfant astic
ern ary
ĠH ou
ĠN ap
Ð²Ð° Ð½Ð¸Ñı
Ġimpos ed
ĠK le
Ġparticip ating
b ot
ĠPhil adelphia
æĹł æ¯Ķ
D ist
åĴĮ æĪĳ
è´Ł æĭħ
æĺİæĺ¾ çļĦ
ie u
çµĲ æŀľ
ç¨İ æĶ¶
à¦ Ľ
ĠØ§ ÙĪ
ul er
ĠP ap
ç¿ °
it on
áº Ń
å¹² çĩ¥
çıŃ çº§
âĢĶ ĊĊ
ĠMed ic
ä»¥ æŃ¤
Ġp ent
Ġra z
ĠMic hel
ĠH om
Ġteas poon
7 40
Ġafford able
Ġf ate
èĦĳ è¢ĭ
æ³¨ å°Ħ
CT ION
Th us
åħ Ĩ
è¦ģ æ³¨æĦı
ĠT yp
çĪĨ åıĳ
ĠTur k
Ã¤ lla
Ġindic ator
un gan
çľĭ æ³ķ
å®ī éĿĻ
Ġpick ing
Ġsh ots
ä»İ å°ı
Û µ
Ġd rew
b d
åĲİ æŀľ
ĠktÃ³ re
æĿŃ å·ŀ
ĠStand ards
9 11
ann ya
ĠO t
G rid
Ġinf ect
60 3
ta it
ĠìĿ ĺ
ĠIs a
Ġdiscl osure
am ic
Ġf ool
om ical
ro ck
çŁ© éĺµ
Lear n
EX T
Ġ* )
s rc
Ġt ropical
Ġag enda
requ ired
F unction
ĠÐ¼Ðµ Ð¶Ð´Ñĥ
Ġ×Ķ× Ĺ
Ġdivis ible
à¸łà¸²à¸ ŀ
ĠM R
Ġk Ã¶
ä½ı å®ħ
åĪĴ åĪĨ
46 8
Ġde ar
Ġad vers
Ġvo ices
ĠLet ter
- Ch
ä½į çļĦ
Ġpol ÃŃ
al ities
Ġv ivo
Ġbank ing
ĠB ush
D atabase
ĠÑĤÐ¾ Ñĩ
ĠBenef its
å·² æľī
ãģ§ ãĤĤ
Ġk ita
Ġtend ency
Ġor az
å¼ķèµ· çļĦ
6 16
47 3
é¥ ¿
Ġí ı
ãģĹ ãĤĩãģĨ
Ġsubt ract
il ia
iz ers
æİī äºĨ
Ġorig ins
Ġcompar able
Ò ¯
Ġmod ification
éĿŀ æ³ķ
ç¬¬äºĮ æ¬¡
ÂłÂł Âł
am ount
Ġsk illed
Ð² Ð¾ÑĢ
Ġcr imes
7 80
Ġqu ote
[ J
æ¢ ³
Ġw ing
Ġillust rate
_ url
Ġsh out
æĿ± è¥¿
à¸§ à¹Īà¸²à¸
ĠHist orical
æł¼ å±Ģ
here nce
Ġplace ment
amm ad
ãĤ¹ ãĥĪ
Act ivity
ia z
an as
ry ing
-st ate
æŁĲ ä¸Ģ
éĩĩ è®¿
ÑĤÐµ Ð»ÐµÐ¹
es k
éĢłæĪĲ çļĦ
å½± éŁ¿
ĠIt em
æ³ķ æ²»
no ÅĽci
æĦ §
} </
ä¹ĭ è·¯
Ġbes ide
ç¼ ¸
Ġen cl
Ġquant ities
S olution
Ġdis hes
ĠB O
è®¤ è¯ģ
ĠIll uminate
Ġphys ician
* j
è·Ł æĪĳ
Ġ× ¤×
b st
å·© åĽº
ag ne
hen g
Ġtestim ony
âĥ £
Ġde ze
() :
p ad
o op
éĢ Ĭ
4 38
çļĦ åİŁåĪĻ
Ġcreat ures
Ġple ased
æ¿Ģ åĬ¨
Ã¶ s
ĠSp ect
ç¥ŀ ç§ĺ
ub le
ç¦ı åĪ©
ĠDe cl
ï¼ī ãĢĤĊĊ
AR CH
FF FF
Com mon
ĠL am
ĠOver all
ä» Ĺ
* g
Ġencourag ing
Ġrenew able
ĳ ľ
éļ ª
ag em
çĥ ¯
.c ss
* l
çºª å¾ĭ
C irc
Ġp ocket
ÑģÑĤÐ² Ðµ
_ (
à¸Ĥ à¸¶à¹īà¸Ļ
èĻļ æĭŁ
' ny
çļĦ æĬĢæľ¯
ĠMonitor ing
ps i
Ġb isa
ç§į åŃĲ
å¦ ®
leg es
ĠB ed
åħ¶ ä½Ļ
Ð½Ðµ Ðµ
åıª å¥½
ÐºÐ¸ Ðµ
ĠT rend
é¦ĸ é¡µ
rif ice
Ġun ity
çĶ· åŃ©
Ġf oster
íĺ ¸
G P
Ġbrill iant
Ġë¶ Ģ
Ġdefe at
Ġcoast al
å¸¦ æľī
ĠCol on
çİ° æľī
â Ĭ
ĠStat ement
Ġen comp
ord on
åĳ¨ è¾¹
ä¾Ĩ çļĦ
Ġà® ¤
Ġup coming
/ pt
ĠØª ÙĨ
ä¿Ŀ åģ¥
ĠCalcul ator
ĠM arsh
ans w
Ġsaf ely
ick ed
at ility
Ġed iting
å± ģ
Ġmark ers
Ġcircul ation
åŁİ åĮº
éł Ĩ
Ġrest ore
ä½ľ æĪĺ
ÙĦ Ø³
éģ £
Ġinv erse
å¥³ å£«
.P rint
Ġev olved
Ġj et
( result
ãĢģ ãĢĮ
ĠOr th
ĠD R
ĠIs lands
D u
Rec ord
V M
ç´§ ç´§
èµ Į
Ġl ungs
ä½¿ åħ¶
æĬĬ ä»ĸ
de velop
ç¥Ŀ ç¦ı
Ġdr ives
ac ial
è¾Ľ èĭ¦
è¶ħ è¶Ĭ
Ġà¦ķà¦° à§ĩ
plic ity
ĠCom plete
æ°Ķ åĢĻ
Ġpat ent
åĨ ĩ
in ery
æŃ» çļĦ
y ers
Ġcompl aint
45 9
Õ¸ÖĤÕ ´
Ġchar ging
ĠR ap
Ġthorough ly
æµ ĩ
åıª ä¸įè¿ĩ
46 6
ĠS port
èĪ ī
Ġmanufact urer
B ER
Ġreal iz
æĪĲ äº¤
åł´ åĲĪ
Ġg ifts
åŁİ ä¹¡
é© °
Ġshel ter
å¾Ĺ ä»¥
5 14
åĪĿ ä¸Ń
av y
Ġ" );Ċ
j ekt
0 60
O s
Ġf al
è¦ģ åľ¨
Ġoper ated
æ¨ ĵ
Ð»Ð¸ Ñĩ
Ġprotocol s
es h
47 4
Ġbrief ly
Ġad hes
Ġp ale
ÙĦÙĬ Ø²
am o
Ġst up
rop y
% ;
z ek
Ġelder ly
ĠC ra
Ġcert ificate
ĠA rizona
d p
-sh aped
k h
Ġpart ir
Ġevalu ating
å®ĮæĪĲ äºĨ
ä¸Ģ æĹ¶
ĠR oy
ä¹Łä¸į çŁ¥éģĵ
Ġmanufact urers
ĠCon vention
ĠØ° ÙĦÙĥ
o Names
èº ģ
Ġshould ers
Ġb ags
Ġsl ide
ĠComp an
Ġrefer ring
ä¿¡ ä»°
habil itation
5 45
, #
ä¸į å®ī
Ã¡ rio
cre ated
IM E
ug in
B en
Ð¾Ð» Ñı
çļĦ éķ¿
Ġd zie
ÐŁ ÑĢÐ¸
5 44
d ot
ĠOut put
Ä Ĺ
st an
Ð½Ð¾Ð¼ Ñĥ
l ang
ĠPro blems
ĠÎ Ń
me an
ĠSpring er
e lect
ric ular
as cript
åħ¶ ä¸ŃçļĦ
çº¦ å®ļ
_ ex
um ar
ĠC el
Ġvers e
Ġaccomp any
Ġqu ando
å³ ¡
y ear
Ġg le
ĠN ag
ĠS ac
ne a
M et
Ġprogress ive
éĻ¢ æł¡
ĠÐ² Ñģ
z el
ura ble
Ġbl ow
æĢ¥ æĢ§
ous es
ok a
_ ID
Ġì ¡°
ab ytes
Ġcontinu ously
M arch
ĠÑĩ Ð¸
46 7
íķĺ ìĹ¬
ĠW atch
à¸ª à¸³
é ı
Ġp ython
ade qu
åĲĮ æĻĤ
ip o
éĤ£ è¾¹
ĠW olf
Ġc ui
åħ» æ®ĸ
Ø§Ø¹ Ø¯
æ³¢ åĬ¨
ë¯ ¸
5 33
Ġorganis ations
ĠL oad
Ġsing ing
èĩªæ²» åĮº
- man
ĠK arl
48 3
æĸ° çĸĨ
. parse
ĠW ind
ĠÐł Ð¾ÑģÑģÐ¸
çĲĨ æĢ§
ĠCom plex
à¤¿à¤ ¤
B i
Ġcompass ion
e vent
Ó Ģ
60 8
ĠÑĥ Ð³
ĠP ubMed
Ñ ŀ
ĠS L
Ġhex adecimal
à¸ķ à¹Īà¸Ń
ĠD ick
po ons
ĠGold en
ug s
Ġcom un
ĠØª Ø³
Ġìĥ Ŀ
5 32
B inary
48 6
f ather
ot ive
45 8
ä¸ĭ æĿ¥çļĦ
Ġvot ing
Ġcontext s
Ġsc ulpt
Pr ime
çĽ¸å½ĵ äºİ
Ġm p
oc ard
Ġton ight
åıª è§ģ
Ð ¥
Sh are
åĪ« äººçļĦ
ä½ł èĥ½
Bl ack
* u
è¡¥ è´´
Ġeconom ics
æ¨¡ ç³Ĭ
çļĦ è®¾è®¡
Ġnot able
( ()
èĸ ¯
ë¶ Ħ
Ġassess ments
og o
ÙĪØ± Ø©
ĠGovern or
= Ċ
e ft
åĲĦ åĽ½
ĠÐľ Ð°
Ġaccompl ished
f c
Ġsee ks
Ġë ķĮ
Ġtum ors
Ġmod o
å®ŀçİ° äºĨ
åºĬ ä¸Ĭ
a L
æīĭ éĩĮ
Ġacqu ire
A nal
Ã¤ Ã¤
ĠÑĤ Ð¾Ð³Ð¾
Ġhighlight ed
48 4
ic her
Ġseg u
m ember
çĿ¡ è§ī
eb ook
åĢ¾ åĲĳ
uk a
Ġgrow s
Ġincorpor ate
Ġgenu ine
re i
Ġtri es
St ore
çļĦ éĢīæĭ©
èĪĴ éĢĤ
5 35
éĽĨ æĪĲ
46 9
Ġ( *
Ġdist ant
Ġclust ers
55 6
Ġcur ious
ä»Ĭ åĲİ
6 70
ä»» æĦı
Rel ated
Ġbl end
ĠÐµ Ðµ
6 55
r ice
å®ŀ è´¨
ĠÑįÑĤ Ð¾Ð³Ð¾
Ġb iod
Us ers
48 2
Ġdepend ence
æľī è¶£
57 1
á» ĭ
Ġâī ¥
Ġlov ing
Ġexpl an
æĺ¯ ä»ĸ
æ¢ ¨
Ġgra ins
-------------------------------- --------------------------------
C ap
ich ael
ang les
Ġà¦ Ľ
å¤ª åŃĲ
Ġacknow ledge
Ð°ÑĢÐ° Ðº
è½¬ è®©
åİļ çļĦ
Ġrul ing
fl ag
Ġst iff
ĠB BC
Ø¯ ÙĬØ¯
æ¡ ©
Ġg aming
è®² è¿°
Ġt anto
necess ary
ĠP D
à¸Ħ à¸Ļ
th al
Ïģ Î¬
è¾ħ å¯¼
Ġpost erior
Ġmunic ipal
* w
Ġpo inter
Ġgen ome
Ġadjust ment
ov an
ĠM ust
æł· æľ¬
çļĦ æĸ¹åĲĳ
Ġout line
åĬ¨ æīĭ
çĦ¶ å¾Į
æł ĵ
Ãª s
çļĦ æķĪæŀľ
å¢ŀ å¤§
- ,
ĠÐĿ Ðµ
Ġfol ks
à¤ ĥ
ond o
Ġadv ances
Ġrecept ors
æĭ ¦
åıĺ å½¢
çĶ· å¥³
ä»Ģä¹Ī æĺ¯
ãĤ »
oth y
ä¸į å¿ħ
åį ĳ
Ġgot ten
L anguage
Res ults
5 13
ĠP ara
Gener al
ĠCh oose
/ F
ĠK ir
Ġ--- |---|---
v ÃŃ
éĿł è¿ĳ
ĠDi agn
ĠPublic ation
ĠGree ce
Ġà® ħ
J une
5 22
Ġel le
æĸ° å¢ŀ
8 10
ĠÙħ ÙĤØ§ÙĦ
Ã ĸ
Conn ection
Ġminor ity
Ã¡ k
; ;
Ġend e
Ġcateg or
ä½ł çľĭ
op ath
Ġk u
log in
ï¼ ĵ
ä¾ ł
ĠPe ace
ãģĪ ãĤĭ
å¥½ çľĭ
×ķ× ©
æ® ·
Ġproduct ive
5 18
Ø Ľ
ĠE D
Ġaut or
iam i
w riting
Ġfulf ill
à¤ ļ
} >Ċ
ĠD omin
m us
æµģ éĢļ
Ġk w
ĠAf ghan
ç®¡ éģĵ
t x
æĭ¿ çĿĢ
if i
y on
ĠNever theless
g ood
åħ ¹
ly n
æĭ ĺ
å¹´è½» äºº
Ġsleep ing
æĪ ļ
åĪ© æģ¯
ì§ Ħ
Ġt ends
Ġgra des
unn en
æķĻ å®¤
49 1
ç¬¬ åħ«
Ġkom mer
47 7
Ġcomput ed
è§Ĩ ä¸º
à¦ ¡
è¸ ¢
Ġle ar
Ġh ill
ĠÃ ľ
sp ect
Ġm old
ort ic
Ġstruct ured
Ġres ident
Ġwond ering
éĩį éĩı
inn en
g raph
ä¸į æĪĲ
Ġpre lim
æĢ» ä¹ĭ
urs or
D er
cal cul
æ³ »
Ġeduc ators
éĩįè¦ģ çļĦæĺ¯
om at
ĠUr ban
Ġc rown
âĢĿ ;
cipl inary
ä»£ è°¢
osc ow
æ¨¡ æł·
en en
Ġ- ĊĊ
- St
çļĦ çĽ®æłĩ
ĠMan ufact
ser ver
Ġsynt hetic
S al
ĠReg ular
7 30
çĨ ¬
yd ney
Ġtrans m
æĮ¯ åħ´
éĻķ è¥¿
57 6
G ET
æ¯Ķ è¼ĥ
ĠÑĥÑģ Ð»Ð¾Ð²Ð¸
ather ine
å¤ļ ä¹Ī
cre d
5 24
æĽ¿ ä»£
ĠÑģ Ð»ÐµÐ´
ãĤĬ ãģ¾ãģĻ
ap on
åĩº çı¾
Ġtem pt
ĠÐ½Ðµ Ð¿
um my
Ġoccup ied
m ay
ĠAr g
m ake
Ġabund ance
æĶ Ģ
60 4
claim ed
ĠHot el
Ð½ Ð¾Ð²Ð°
ĠCont ract
ĠC art
ĠT ony
áĢ ±
ĠÎµ ÏĢ
pp e
Ġhop ed
Ġpreced ing
Ġdifferent iation
Ġdiet ary
ë² ķ
Ġvot ers
Ġj am
akes pe
Ġport ray
ĠÐŃ ÑĤÐ¾
Ġê ±
Ð»Ð¾Ñģ ÑĮ
Ñĩ Ð½Ð°
çĨ Ķ
ĠD ra
Ġd ib
ĠC ustomer
æĦŁ è¦º
c ents
ĠĠĠĠĠĠĠĠĠĠĠĠĠĠĠĠ ĠĠĠĠĠĠĠĠĠ
ĠV ery
Ġsust ained
G reen
æŀģ ä¸º
Ð² Ð¾Ð´Ð¸
ul se
ur re
Ġmut ations
0 31
å¼º çĥĪ
çłĶç©¶ æīĢ
çī© ä¸ļ
èĦ ĸ
(n ode
Ġmet rics
å¼Ł å¼Ł
Ġpre ference
Ġroll ing
Ġconsist ency
il ateral
è¡ ¬
Õ¸ÖĤÕ ©
å£« åħµ
Ġ à¬
Ġ×Ķ ×ķ×Ĳ
( key
ĠPanor amas
Ø² Ø´
Ġcomm od
Ġag ing
( list
ĠOper ations
è¯¯ å·®
v Ã¡
Ø¨ ÛĮ
Ġal ike
arc el
Ġdam ages
Ġcas ual
ä¸Ģ ç³»åĪĹ
éĴ ī
ol t
48 7
ag ine
ac o
è² ¬
I con
60 6
ik t
è° ¦
æĶ¾ ä¸ĭ
Ġìĥ ģ
L INE
arg o
ĠPh ase
æī¶ è´«
5 75
ðĿ Ĵ
as hes
l ov
Ġdepart ments
e ven
å¿ĺ äºĨ
ãĥĥ ãĥĪ
çµ ²
ãģª ãģı
æª ¢
Ġt ie
×ķ× Ĺ
å· ¢
Ġutil ize
( @
Ġphenomen a
æĨ ¾
ĠInd ians
nd e
- pr
Ġlett ing
Ġhorm one
å¸Ī èĮĥ
ĠB arn
ĠÐ¿Ð¾Ñģ Ð»Ðµ
Ġd ying
Ġsub set
Ġfrequ encies
ens ed
Ġcontrib utes
åįı åĬ©
Ġinsp ection
y g
çļĦ çĥŃ
Ġb ind
ĠP eng
å°ı åŃĲ
Ġpat ch
over line
æ°´ ä¸Ń
ç¼º çĤ¹
Ġal ignment
ĠL ater
ĠAn na
ĠReview s
orm s
æĪĳ åİ»
Ġm ock
å§ ¬
Ġviol ation
Ġpro st
Ã³ ÅĤ
Ġextraord inary
Ġf ue
å¹³ çŃī
æĸ° é²ľ
Ġwhe at
6 11
Ġ ip
Ġh id
çļĦ ç®¡çĲĨ
å¤Ħ ç½®
ues e
Ð³ Ð¾Ð²
Ġg Ã©n
ĠMem bers
09 2
.C ont
Ġor bit
Ġsp here
55 1
çļĦ ä¼ģä¸ļ
56 2
æİĪ æĿĥ
åħħåĪĨ åıĳæĮ¥
# Ċ
åĪ¤ åĨ³
M us
5 99
ĠØ§ÙĦÙħ Ø¬
ÑĢÐ¾Ð²Ð° Ð½
å»¶ ä¼¸
ÑģÑĤÑĥ Ð¿
Ġgather ing
è¿Ļä¹Ī å¤ļ
ĠPro c
å°ı åŃ©
! =
Ġcirc uits
Ä± n
ĠD ream
çĩĥ çĥ§
Ġb rid
åıĳ çĹħ
Ġvalid ity
ĠH ours
æŃ ·
ĠPro ced
Ġmin istry
9 10
ĠCh art
* o
Ġc ock
Ð´Ðµ Ð¹
×Ļ× ¤
Ġsim ulations
im ated
Ġflu ores
Ð» Ð¾Ð¼
- \)
ä¼ł æĦŁ
æı ī
ĠCon vers
anc el
Ġterm in
ĠB os
æĢ» ç»ıçĲĨ
ÃŃ ch
5 37
Ġste am
59 2
Ġtr im
ĠD onald
èĬĤ å¥ı
éĢ Ľ
. min
æĳ Ķ
un ar
Ġë ¯
å¤ª å¹³
çļĦ ä½¿çĶ¨
ä½Ĩ æĪĳ
æĺ¯ å¾Ī
Ġrespond ents
l aw
Â £
å´ Ķ
Ġje j
Ġad a
æľŁ æľĽ
5 26
ad ies
æĺİ æĺİ
\ pi
Ġcorrespond s
i ostream
Un ited
Ġm og
5 90
Ġle v
subscript ðĿĳ
8 75
ne x
ĠR A
Ġab road
Ġqual itative
æ¯ķä¸ļ çĶŁ
) ^{
es c
ĠH yd
ĠT ro
Ġhun ting
uk i
èµ· åĪ°
çĶŁ æ°Ķ
at ivo
ĠÙĬ Ø¹
ä¸Ĭ çıŃ
Ġ\ -
åķĨ æłĩ
Ġrestaur ants
ĠCP U
ĠS ound
ou ri
æ°ĳ èŃ¦
IC AL
æ¿Ģ ç´ł
ì Ī
Ġc ig
ä¸Ģ æĹ¥
è¯Ń åı¥
res a
ç· ´
ĠB R
Ġsu icide
æĻ¯ åĮº
Ġm uy
Ġdro ve
Ġgener ic
5 17
ĠAl i
à® ®
oci ated
åĨł åĨĽ
ĠSwed en
ul is
Ð²Ð° ÐµÑĤÑģÑı
Ġh oney
f rame
à¯ģà® ®à¯į
Hel per
äºº ä¹ĭ
Ġd ried
ìľ Ħ
ãģĹ ãģĦ
Ġarrest ed
Ġgl ory
inst ance
Ġpres cribed
äº ŀ
in ning
Ġwas h
é»ĺ é»ĺ
Ġdat abases
Ġmot iv
5 43
å¤ı å¤©
adt ong
ê ¹
æĸ¯ çī¹
ĠJer usalem
æĹ ¬
èµ° åĩº
çĪĨ çĤ¸
ĠR oom
ÑĩÐµÑģÐºÐ¸ Ð¹
Ġinter ference
ĠM AT
å¸ Ĩ
Ġexplicit ly
Ġdes arroll
N T
j ango
ous ing
_n umber
< Integer
Ø¨ Ø§Ø±
ĠÐ¼Ð¾Ð³ ÑĥÑĤ
Ġd ated
( res
Ġmother s
ĠB art
ĠHex adecimal
ĠNav y
å¯¹ ä»ĸ
å¼ķ è¿Ľ
Ret urn
ä¸Ģ ä¼ļåĦ¿
rag on
Ġsh ifts
åĬł çĥŃ
ĠÕ §
Ġfif teen
ĠR ab
and ra
çļĦ å®īåħ¨
Ġint rig
G raph
Û ´
ĠG arden
60 9
7 12
å±Ģ éĿ¢
ĠDel hi
à®¿à® ²
éĢĻ éº¼
ĠHaw ai
Ġfest ival
ing ton
ÑīÐµ Ð³Ð¾
Ġpublic ations
Ġm ism
æĢ» ä¹¦è®°
ç¼º éĻ·
ah n
éĽ¶ åĶ®
struct or
w y
Ġtra ject
æĿ¿ åĿĹ
å¢ŀåĬł äºĨ
ĠTor onto
Ġcar ries
Ġdis par
æĪĲ æķĪ
Ġcomp ression
M AT
Ġcomb ust
Ġf usion
çĶŁ æĹ¥
\ )ĊĊ
å½± çīĩ
ell ar
Ġobtain ing
Ó ©
Ġfat ty
S ocial
Un iversity
à¸Ķ à¸µ
éĽ Ģ
ros is
it ations
Ġsc oring
ìĹ ħ
ĠM obile
éĢı æĺİ
à®¿à® ¯
æ¼Ķ åĩº
Ġsh aft
æıĲé«ĺ äºĨ
ĠT arget
Ð½Ð° Ð»Ð¸
èĥ º
ĠCom prehens
è¡ ·
ins ic
åĩºçİ° çļĦ
Ġul an
5 67
æľī åĬ©äºİ
Ġloc ally
åįķ çº¯
$ .
âĢ¦âĢ¦âĢ¦âĢ¦ âĢ¦âĢ¦âĢ¦âĢ¦
h ave
ĠAss istant
Ġjed n
Ġê³ µ
Ġsu cc
è£ ľ
ÑģÑĤÐ° Ð²Ð¸
. user
ud es
ĠB attle
at um
ĠIn itial
èĤ¡ æĿĥ
Ġk le
ĠÃ ĸ
90 1
æ¸© æŁĶ
70 7
Ġlibr aries
][ ]
Ġfro zen
ĠDe ad
Ġphr ases
æ±Ł è¥¿
Ġth rown
Ġsurround ings
55 2
å°½ å¿«
Ġspeak s
od ge
Ġwant ing
è¡ Ľ
éĿ ĸ
ĠH ydro
60 5
UN T
Act ive
å² Ĥ
ĠL incoln
å®¹ åĻ¨
er es
Ġcoord ination
m ers
åĪĨ æķ£
Ġni adtong
Ð»Ð¸ Ñı
ãĥĥ ãĤ¯
Ġdis abled
ĠP il
Ġmil it
ÄĻ p
ĠÐº Ð¾Ð»Ð¸ÑĩÐµ
pert i
Ġair port
æ£ µ
Ġstrength s
ph y
å¢ŀ åĢ¼
é¡ ĺ
Ġv Ãł
áº ¥
ä¸ĢèĪ¬ çļĦ
est y
ph al
à² ¨
Ġl ucky
æŀ ¢
k el
ad ows
Ġwild life
è¯´ ä»Ģä¹Ī
Ġaccum ulation
ä¸Ģ æĸ¹
Ġg ently
iku ha
ĠI ron
éļı ä¾¿
Ġmet ast
à¯ Ĩ
ĠSil ver
ä½ľ äºĨ
ĠPr ivate
ĠG ikuha
ahim ut
= ĊĊ
ut er
ç»Ļ å¤§å®¶
P ay
5 65
Î» Î·
Ġnurs es
ç©¿ çĿĢ
av ailable
æķĻèĤ² çļĦ
Spec ies
ĠC ou
49 7
Ġk al
Ġall ocation
ĠØ¯ Ø§ÙĨ
æĴ ķ
Sur face
ing ham
à¦ ¼
-------- ----
ä¸İ æŃ¤
Char acter
Ġdem ocratic
Ġpri est
×ľ ×Ķ
Ser ial
ic io
è¾ Ł
Ġp on
ç¿ ħ
ĠD istance
çĭ ®
çİī ç±³
pp ers
Ġharm on
es p
æĸĩ æ¡£
Ġconv in
ðŁ ĳ
ä»£ æĽ¿
ĠS HA
ä¸ľ åįĹ
åĬŁ å¤«
çļĦ å¤©
Ġsp ont
å®ŀ ä¾ĭ
æ²¡ äºĭ
Ġvirt ually
Ġfib ers
Ġint u
è¡ Ķ
70 4
78 9
ĠPat rick
ĠC ut
åĽŀ æĶ¶
ĠÑĢÐ° ÑģÑģ
åĬł æ²¹
ĠJud ge
æ¢ Ĺ
çį ²
6 21
ä¸Ĭ åīį
Ġutil izing
åĲĪ çī©
Ar g
ãĥ¼ ãĥ«
Ġfil ters
Ð¾Ð¶ Ðµ
ç²ī ä¸Ŀ
Ġ >Ċ
aps ed
ra h
èĭ ¯
Ġamong st
Ġinf inite
Ġsw ing
ĠMean ing
åĩı è½»
æĺ¯ éĿŀå¸¸
ĠSchool s
ĉĉĉĉ ĉĉĉĉ
ĠD og
è¿Ļ æĿ¡
é£ŀ è¡Į
. put
h on
Ġre vel
ĠTe achers
Ġrat ings
é¹ ¤
Ġcir cles
7 37
{ al
48 9
<< "
ĠW i
ê ·¸
P an
cc a
éħ µ
ĠÐ³Ð¾Ð² Ð¾ÑĢÐ¸
x imate
ĠV el
che ll
Ġob esity
Ġoutput s
ĠØ§ÙĦ Ø§Ø³Øª
C le
è¿Ļä¸ª æĹ¶åĢĻ
ie g
æ²¡æľī ä»»ä½ķ
5 41
um i
any ak
Ġre nal
Ġbelong ing
Ġfarm ing
ä¸īè§Ĵ å½¢
ĠC F
inn ed
ĠA wards
ãĥ ĳ
Ġprodu cer
åıĺ æĽ´
ĠF C
ĠB h
49 4
ÃŁ en
ç¼ĵ ç¼ĵ
æĹł çĸĳ
ÙĬØ± Ø©
.m odel
Ġincred ibly
åħ ®
Ġenc oding
{ (
Ġstra ins
Ġ| ĊĊ
å· «
Th rough
. âĢľ
à§ĩà¦ ĸ
Ġmean ings
ash i
w rite
ic hen
åģľ è½¦
Ġmort gage
9 80
ĠD A
åĴĮ ä»ĸ
Ġsynt hes
Ġcou pling
+ b
åı¯ æĢķ
ĠÑį Ð»ÐµÐº
M ake
at rix
Ġfat igue
æ³ķ å®ļ
Ġdiv or
ĠCh o
è¿ľ è¿ľ
p un
è° Ĭ
å¼ķ åħ¥
à« į
p ot
Ġ ÑĢÐ¸
ä¸į è®º
Ġf az
èĬ¯ çīĩ
rac ellular
Ġmount ed
Ġpas te
roph y
Ġover look
Ġcons ensus
Ġpl acing
æĥħ çļĦ
å¸¸è§ģ çļĦ
rit t
Ġins ects
éĿĴ å°ĳå¹´
.st atus
in ian
att i
49 2
47 9
ç¬¬äºĮ ä¸ª
æľĢ å¾Į
Ġeng ines
! )
J ava
Ġearth qu
ĠLabor atory
Ø¹ Ø±
åĳ¨ å¹´
rane an
Ġabs ent
åĴĮ åıĳå±ķ
Ġtrans cription
ĠØ¯ Ùī
Ġenorm ous
om ething
å®ī å¾½
Ġì Ĥ
Ġmin erals
Ġec ological
{ }
d an
æĪĳ çľĭ
6 75
åĩł ç§į
S pace
ard ed
akespe are
s pec
æİĴ åĪĹ
åıĸå¾Ĺ äºĨ
w d
Ġtransl ated
product ive
Ð¾Ðº Ñĥ
Ġvolunte ers
éĴ ©
Ġtem ps
S pe
Ġd ol
çĿ¡ çľł
ĠB ridge
ĠEqu ation
ĠS oci
ra pper
Ġdis abilities
at ro
Ġpr icing
Ġi Phone
Ġì Ľ
ĠT ar
å°ı æľĭåıĭ
Ġc á»
Ġa rom
- ind
st o
ĠÎ ĵ
èı Ĭ
Ġpan els
æĥħ å½¢
S I
Ø¨ Ø§Øª
åı¯ä»¥ è¯´
6 17
Ġd y
k ol
Ġa pre
Ġprefer ably
Ġperipher al
âĪ ĳ
ĠHig her
ak ukan
éĴ ł
ian ces
.âĢĻ Ċ
Ġnumer ator
ĠDo ctor
ob a
0 32
çļĦ æľĭåıĭ
åħ³ èģĶ
Ġco in
Ġu pt
5 29
Ġconc ert
Ġs our
ĠM uch
çĬ¹ è±«
Ġfles h
ug hed
Ġand ere
ÙģØŃ Ùĩ
ĠH em
è¾ ²
uh an
æ´»åĬ¨ ä¸Ń
ĠR ules
æ°´ æ³¥
æ´» æĢ§
Ã¡ ri
æĪª èĩ³
ĠFor um
æĶ¿ åįı
Ġu int
Ġp iano
ost o
ĠM T
å® °
åħĭ æľį
ä¸Ģä¸ĭ åŃĲ
Ġswim ming
) |
6 18
Ġge ometric
Ġí Į
Ġsepar ately
or f
å¤ ·
ag i
ä¸İ åħ¶
èģļ éĽĨ
Ġt ender
å¿ĥ çģµ
ĠÑĤ Ð¾Ð¼
æĪĲ ä¸ºäºĨ
Pro gram
z et
ĠN ik
65 6
e ous
Ġst ops
åĪ ®
5 27
à¹Ģà¸ Ī
ĠSe pt
è¯Ĺ äºº
ĠVict oria
è¶³ çĲĥ
à¥ §
ĠJos h
Ġd ign
å¹¿ è¥¿
ĠFact s
Ġd ating
Ùĥ Ùħ
æķ ·
ex pl
çŁ¥ åĲį
åľ¨ éĤ£
ãĢĭ ï¼Ī
ĠÑĢÐµ Ð·ÑĥÐ»ÑĮÑĤÐ°
âĸ ³
âĸ ¼
5 46
åıį å°Ħ
ĠNew ton
à¸ª à¸¡
al id
Ð½ ÑĤÐ¸
ĠOnt ario
49 3
âĪ ł
j amin
ĠD iet
åľº çļĦ
ç¦» å©ļ
A pril
ĠR F
à«į àª
ĠÙĪ Ø³
ĠÑĢÐµ Ð±
ĠZe it
ê° ľ
ass ium
Ġevery body
olit an
å¹² æī°
Ġgen us
Ġdecre asing
ĠMor gan
ĠÃ ģ
k ind
à¤° à¥įà¤
å¹´ åºķ
Ġsens ory
Ð¾Ð³ÑĢÐ° Ð¼
ĠâĹ ı
Cont act
e i
Ġpro be
ëŀ ĺ
-st yle
é¹ °
bb ed
åīį è¿Ľ
Ġoff ense
st rap
un ting
Ġad mission
ĠV ector
vent ory
âĪ Ĥ
Ġtrust ed
b ling
Ġel s
æĶ» åĿļ
Ġencounter ed
Ġg au
Ġbasket ball
64 1
É ª
æ´¾ åĩº
ï¼ ı
.s plit
Ġextract ed
;ĊĊ Ċ
æĥ³ æĥ³
Ġnecess ity
æĦŁ åĬ¨
( I
Ġ{ }
Å Ī
.S kip
60 7
Ġexpl ores
ĠL ind
New s
ï¼Į ãĢĮ
à¦ķ à§įà¦¤
Ġgu ided
Ļ à§įà¦
Ġmain t
åħ¥ åı£
ĠM un
çĸĳ æĥĳ
ĠJava Script
è¨ ´
ut z
çĲĥ åĳĺ
Ġhousehold s
ä¸į æ¸ħ
åıĳè¡¨ äºİ
Ġmet all
ĠÐ¿Ðµ ÑĢÐ¸
ĠÙĦ ÙĬÙĨ
åĨħ åŃĺ
Ġconserv ative
æ£ ļ
Ġcy ber
Ġexpl aining
ĠMin nes
anc ia
Ġcan cel
å¤§ éĺŁ
ograf ia
Ġn ick
à¦ķ à§įà¦·
5 49
äºĶ ä¸ª
MA X
.... .
ĠÐ´ÑĢÑĥ Ð³
reat ment
Ġpredict ions
ĠÐ²Ð¾Ð· Ð¼Ð¾Ð¶
æĺ¯ ä½ł
ĠV o
Ġcu ando
Ġactiv ated
6 31
à¸Ķà¹ī à¸§à¸¢
ĠMex ican
ĠĠĠĠĠĠĠĠĠĠĠĠĠĠĠĠ ĠĠĠĠĠĠĠĠ
al g
ĠP ain
C u
ï ¹
Ġb ass
56 1
ĠSing h
Ġdiscuss ing
ĉ while
rac ks
5 68
Ġwood en
æ² ¸
ij ing
ar am
Ġengine ers
ĠH oll
ut ation
Ñĩ ÐµÐ½ÑĮ
ĠA F
ä¸ĩ åĲ¨
0 70
ë ¹Ħ
Ġla ughed
Ġcomb ining
åĳµ åĳµ
éŃħ åĬĽ
è¦ģ æĬĬ
est amp
Ġt bsp
× Ĵ
çĪ Ń
åĸľ æŃ¡
ne k
ĠT el
Ġdist ances
Ġk i
49 8
vious ly
Ġfram es
æĪĲåĬŁ çļĦ
æ´» åĬĽ
çĪ º
ç´§ æĢ¥
Ġres emb
åºĶ åĬĽ
Ġ Ïī
åĽŃ åĮº
EN CE
æĽ´ æį¢
Stud ent
Ġt ing
Ġw ings
ĠMar ine
åİ¿ å§Ķ
åį Ķ
èµĦæľ¬ ä¸»ä¹ī
Ġm end
Ġbur ied
.w rite
app ropri
éļ ¶
Ġen emies
ĠAl bert
5 42
ĠìŀĪ ëĬĶ
Ð° Ð¹
Ã¶ l
ĠR ather
åĩº éĹ¨
Ġconstitution al
ĠØª Ø¬
Ġà¤ ¦
èģ ĸ
Ġcollabor ative
Ġabund ant
åı¯ çĪ±
ĠF if
ĠCh ap
Ġresid ual
eps ilon
æĪ ¶
çļĦ ç»ıæµİ
ĠN ich
Ġb ay
ĠO regon
ĠÐ¿ Ð»Ð¾
_ W
åĽ¢ ä½ĵ
In it
Ġch urches
_ str
u fficient
view s
Ġinv asion
Ġa plic
Ġg ases
å°± æĬĬ
( q
åĿ ¤
Ġcoll apse
ĠL uke
rig er
_ )
å° ¬
åı¯ä»¥ çĶ¨
Ġvac uum
Ġters ebut
ç¼ĸ çłģ
ãĢĭ Ċ
à¤ ľ
Ġc ement
ern ess
Ð»ÑĮ Ð½Ð¾
const ruct
mer cial
Ġs ake
ĠPop ular
Ġbas ihan
Ġworks hop
un j
åĲį åįķ
6 22
Ľ Ħ
è¾Ī åŃĲ
Ġtamb Ã©m
åĬŁ æķĪ
Ġdeliver ing
ĠTai wan
A h
ist or
çļĦ åŃĺåľ¨
Ġro ku
Ġdec ay
Ġfurn iture
Ð²Ð° ÐµÑĤ
ãģķ ãĤĵ
Ġam id
Ġâ ĭħ
ĠM ED
ÑīÐµ ÑģÑĤÐ²
æĬ± çĿĢ
end if
è¿Ļ è¾¹
ĠEss ay
47 8
ĠB uy
aterial s
éĬ Ģ
- right
in th
Ġm uc
55 9
ä¸įä»ħ ä»ħ
Ġpo le
Ġ- =
Ã¤ s
Ġpass ive
cur ities
Ġe gy
Ġdef ensive
Ġcloud s
ĠT y
Ġeth ics
Ġst unning
) ),
Ġatt ending
åį Ĵ
ĠÐ ¯
ang a
ro cal
Ġsl ot
Ġbe ans
æŃ£ å¦Ĥ
à´¾ à´
ĠÐ±Ñĭ Ð»Ð¾
m other
n als
ĠK am
ĠØ§ÙĦØ ²
ĠìĤ¬ ìļ©
ä¹ĭ åľ°
è¯´ åĪ°
Ġmark er
Ġforg otten
Ġantib ody
ĉ printf
ibl ical
t emp
éª Ħ
end ant
ãĤĮ ãģ°
Ġtra it
ĠR T
Ġl id
åĮ ł
éĢī ä¸¾
6 33
çķĮ éĿ¢
6 32
Ġg aps
Ġch arts
Ġspecial ist
im os
Ġb atch
Ġdefic iency
åĬ© åĬĽ
5 77
æĭ¿ åĩº
ĠThe orem
_n um
Oct ober
Ġìĸ ´
Ġs ar
Ġorgan ism
ë¥ ´
AT ED
à° ¨
- order
_ by
Ñĭ Ð¼
Re ference
out heast
×ķ× ¤
ock ey
ä¸Ģ å¼Ģå§ĭ
ãģ Ń
ient ed
Ġunder go
æ¼Ķ è®²
ari um
à¹ĥ à¸Ī
åĺ ±
: =
ĠM olecular
çŁ¥éģĵ äºĨ
Ġe ager
ÃŃ fic
7 11
ĠL yn
ill ary
Ġpack ed
ĠC oun
Ġinterpret ed
åħ·ä½ĵ çļĦ
Ġimper ial
èģª æĺİ
( H
6 24
> =
_ IN
d z
6 44
ä»¥ å¾Ģ
ok u
Ġe k
ad j
58 5
å°± è¿Ļæł·
ĠV in
àµģ à´
Ġins ect
æīĵ çł´
Ġhe pat
ç¥ĸ åĽ½
d rop
u ccess
Ġauthor ized
l arg
is y
Ġdeb ut
Ġoverwhel ming
ĠR O
ĠP E
ĠStrateg y
æĮ ½
Ġt iem
/ re
ç¦ ħ
em n
Ġd un
Ġ×Ľ ×ľ
ro it
Ġexp ed
ç»© æķĪ
ĠCapt ain
Ġinvestig ations
gl as
ĠHar ris
he at
ĠCov id
æľŁ è´§
åħ¶ å¯¦
ĠØ§ÙĦÙħ Ø±
zen ie
ĠSam uel
Ġcelebr ated
Ġ[ âĢ¦
ĠRec ords
ä¸Ń æīĢ
ĠCh at
kt ion
Ġm ethyl
Ġ-- >Ċ
äºĶ åįģ
ĠAdd ress
5 38
æĹ Ń
Ġexist ed
ÑĪÐ¸ Ñħ
ink ed
à¹Ģà¸ §
ĠK y
åŃ¦ åĳĺ
ê³ µ
Ġenjoy ing
Õ¸ÖĤ Õ¶
ĠØ³ Ø¨
åļ ´
à¦² à§ĩ
ç¤¾ äº¤
Ġenzym es
æħ ¨
Ġsurv iv
Ġatt achment
Ġë ¹Ħ
ĠE M
ìĽ Ķ
ab ol
5 64
çļĦ åŃ©åŃĲ
Ġtour nament
Ġthreat ened
ĠØ§ÙĦÙħ ØŃ
Ġz ap
Ġby te
ĠG A
Õ¡ ÖĢÕ
çĪ± å¥½
åĬ¿ åĬĽ
Ġ"" "
ĠC ass
Ġw enn
Ġfoss il
er on
6 36
æĸ¹ éĴĪ
åĽĽ åĳ¨
ç®Ģ ä»ĭ
é©¬åħĭæĢĿ ä¸»ä¹ī
ë¬ ¼
ĠT ak
inter est
z b
ĠFib onacci
Ġprom ises
ĠP ow
æĪĳ è¿ĺ
58 4
à¸Ī à¸³
f ly
åħ¬ åĬ¡
ĠJ am
ï¼Į âĢĿ
åº ¸
" We
ail ure
ÑĤÑĥ ÑĢÐ°
-d own
. on
Ġbase ball
ocr ats
' ]Ċ
Ġintellig ent
çľ¼ éĩĮ
ĠSy nt
ä»² è£ģ
Ð´ ÐµÐ½
ç«ŀ èµĽ
Ġdisput e
Om ega
app lication
9 40
Ġoff ensive
ĠM ental
{ C
Ġp neum
ä¸Ģ æī¹
å¼ ĵ
Ġsa il
B oth
æĹ¥ çĽĬ
{ p
Ġre pository
æľįåĬ¡ çļĦ
ãģĤãĤĬ ãģ¾ãģĻ
èµ ģ
55 3
8 60
åĪĨ çļĦ
ÑĤÑĥ ÑĢ
Ġ\( {
ĠR ot
â Ĥ
Ġdro ps
æĦı åĽ¾
P OST
pos itive
é¤ ¨
eterm ined
è¡¨çİ° ä¸º
ä¸Ģ çķª
cur y
and y
al en
åı¯ çŁ¥
Ġsix th
j ÄĻ
éĤ£ æĹ¶
ĠN ation
ĠAll ah
Ġvari eties
Ġcross ed
Ġdistrib utions
ĠÑģ ÐµÐ¼
è¥¿ åįĹ
99 0
Ġon set
ä¸Ģ åı£
** (
ĠK er
ł ×Ļ×Ŀ
Ġabandon ed
ĠÐ±Ñĭ Ð»
ĠEx ception
ĠØ´ Ø±
åħ© åĢĭ
Ġd ok
Ġexcit ement
å¤© å¤©
æİĴ æĶ¾
ä¿¡ å¿µ
Ġa wards
å¹³ éĿĻ
99 8
in cess
AC H
6 90
ĠØ§ÙĦØ º
ĠMinnes ota
uls ion
c all
Ġpack ages
- fl
ĠMar x
qu ence
Ã¡ st
67 1
ä»İ æŃ¤
Ar ch
icht e
g ang
ier ra
ĠQu ick
N ULL
æĪ ²
æł ĭ
sh ot
ĠrÃ© g
pl t
å¤´ ä¸Ĭ
Ġcounter part
Ġold est
Ġ à¸Ń
Ġnorm s
Ġcompet e
7 70
N N
Ġext ens
+ =
Ġstim ulation
/ O
ist ration
ä¸Ģ ä»£
ĠJ SON
Ġconstit ute
it ic
Ġles ions
Ø¥ ÙĨ
Ġinflamm atory
Ġh oly
Ġk unnen
Ġjav ax
à¸ģ à¸£à¸°
çļĦ ä¸ī
sh ared
Reply Delete
è¾Ĳ å°Ħ
Ġaw esome
Ġbab ies
56 3
åıĺ åĬ¨
Ġ\( (
Äį nÃŃ
Ġtim ely
Ġhome work
6 39
Ġ ##
âĢĿ ãĢģ
ĠÑģÐ¿ Ðµ
ģ ¬
ĠR on
à§įà¦ ®
u ar
s ite
57 2
b eg
Ã¥ r
é¡µ éĿ¢
_ user
c b
Ġadmin istered
×Ļ ×Ļ×
ãĢį ï¼Į
-g ener
") ]Ċ
65 3
çļĦ äº§åĵģ
ĠSub ject
Sim pl
Ñī ÐµÐ½Ð¸Ñı
äºī è®®
Ġan x
Ġp ela
å¾Ĺ çŁ¥
Ġin duction
e h
Ġconvers ions
ĠÑģÐ¾Ð· Ð´Ð°
ox ic
ĠW ould
Ġg aze
Ã© k
Ġlast ing
ĠÑĤ ÑĢÐµ
ĠOther s
ä½ł æĢİä¹Ī
pro p
Ġlim iting
ãĥ ¥
ment ioned
åĪ° æĿ¥
serv ice
Ġpe oples
Ġu k
èĶ ½
Ġcomprehens ion
"" "Ċ
Ġsl ave
Ġalter ed
Ġsem iconductor
Ġpros per
åĭ ĺ
D to
Ġch ron
åĿ Ŀ
á ¸
Ġm ph
ug g
Ġn Ãºmero
anc ies
Ġìķ Ĭ
7 22
Ġroll ed
é¤Ĳ åİħ
Ġbo ards
Or gan
epend ence
æĺ Ĭ
Cons ider
åĲĮæĹ¶ ä¹Ł
f riend
Ġdr inks
Ġod ds
70 3
Ġtarget ing
ĠN ie
est one
ĠSe ason
åĲĪçĲĨ çļĦ
Ġcot ton
Ġrem ed
ĠLink ed
Ġgovern or
å¯¹ åºĶçļĦ
ph ant
L oc
Ġso vere
Ð¶ ÐµÐ½Ð¸Ñı
7 68
iv el
Ġprom otes
reg ion
sm all
ĠÐ½ÐµÐ¾Ð±ÑħÐ¾Ð´Ð¸ Ð¼Ð¾
5 34
éļı æĦı
V P
Ġdisc ourse
IT E
.m ap
Ð ¯
æĹ ±
Ġentreprene urs
ĠExerc ise
ĠÑħ Ð°ÑĢÐ°Ðº
æĬĢ è¡ĵ
ĠTem ple
Sum mary
èĢĮ æĿ¥
Ġprosp ective
Ġavoid ing
5 48
åĨį åĬłä¸Ĭ
v ised
ĠF at
ks i
ili ation
Ð½ ÐµÑĢ
æİ¥ åĪ°
çĶŁ èĤ²
c rit
å¤§ èµĽ
ĠÑģÐ¾Ð¾ÑĤ Ð²ÐµÑĤ
Ġg amb
ĠÑĩ ÐµÐ¼
éĢī çĶ¨
6 14
M apping
é¸¡ èĽĭ
Ġdoct rine
è² ¡
b ound
ran es
Ġwond ered
ĠAnd a
ç§Ł èµģ
as ets
æīİ å®ŀ
Ø¬ Ùħ
Ġch ampion
erm at
Ġde emed
ãģĹ ãģ¦ãģĦãĤĭ
ow y
Ï ķ
Ġres idence
Ð·Ð° ÑĨÐ¸Ð¸
ign ant
ĠF isher
f d
ĠY u
Ġcontact s
Ã³ r
âĦ ¢
ĠPrint able
P ad
us r
à² µ
Sc ore
Ġappreci ation
Ġbel t
64 2
bs ite
Ð½ ÑĮ
äº¤ å¾Ģ
- z
Ġb ibli
å¯¼ æ¼Ķ
_ Ċ
em ption
ĠAs k
Ð²Ð¸ ÑģÐ¸
80 3
äºļ æ´²
Ġw ages
äºĨ å¥½
ÛĮ ÙĦ
Ġdivid ing
ĠLe v
Ð° Ð¼
è¯ µ
ç´§ å¯Ĩ
ĠEv idence
x is
tic as
Ġs á»ĳ
éĢģ åĪ°
L R
ĠHe bre
ivers ary
L D
Ġre vis
Ġpun ishment
å¯¹ ç§°
è½¬ åĲĳ
à§įà¦ ²
Ġv ascular
Ġin quiry
Ġsubstit ute
æĺ¯ çļĦ
ä»ĸ ä¸į
åľ¨ å¤ĸ
Ġvari ability
ĠL CM
èĢĮ åĩº
ä»ª åĻ¨
Ġan not
Ġpresent ing
n as
- ing
ate ur
ĠTh read
-m d
P al
åı¸ æľº
èĮ ħ
ak ter
Ð ¨
ĠK han
æĭ¿ åĪ°
(f alse
.m d
Ġmob il
ĠL ower
Ġr ival
å¸® å¿Ļ
Ġutil iz
Ġover t
Ġdepos it
' une
ĠC E
Ġv ocal
ĠCommun ications
à¸²à¸ Ķ
[ /
ä¸į å®¹æĺĵ
Ġdeg li
at to
u o
ry ption
Back ground
Ð¾ÑģÑĥ Ð´Ð°ÑĢ
Ġw o
, s
Ġgod s
Ġg y
Ġv ine
[ -
Ġch olesterol
ê ·
Ø§ÛĮ Ø¯
' a
Ġamb ient
S k
åĲİ èĢħ
ĠM essage
éĥ½ å¸Ĥ
ä¸ŃåĽ½ åħ±äº§åħļ
Ġreserv oir
è½¦ åŀĭ
Ġneighb ors
ĠProduct s
Ġsed iment
Ġinhab it
æļ ¨
Ġincorpor ating
Ġaccording ly
Se ptember
57 4
æİ¢ ç©¶
ĠMe eting
ĠChristian ity
Ġtou ched
Me an
èĦļ æŃ¥
ç»Ļ å¥¹
Ñı Ð¼
Ġpel o
ĠBack ground
å± ĳ
ä¸Ĭ å¸Ŀ
ĠOr iginal
ìŀ ¬
Ġaud iences
å¥ī çĮ®
åĬ ī
Ġret ention
Ġt ies
Ã© rie
à§ ľ
Ġis lands
Ġk un
0 41
Ġv eg
8 30
æį §
Ġpurch asing
de g
e or
è¿Ļ åı¥è¯Ŀ
Ġa ument
ien en
onom ous
En c
Ġshe ep
rom agnetic
ä¼ĺ æĥł
ĠColl abor
Ġprodu cers
á» ¥
t ry
åį ¦
è´µ å·ŀ
Ġb rack
Rad ius
ge q
C ent
æĸ¯ åĿ¦
éĤ£ å¤©
Ġpain ful
rib utes
çĹħ çļĦ
åª ³
Ġw ars
ynt hesis
æĩĤ å¾Ĺ
ä¹¦ æ³ķ
Ġcorrel ated
åĢ¼ çļĦ
ĠIn g
çĽ® çļĦæĺ¯
tter lig
çł į
5 47
em perature
Ġpe ers
< br
ĠJ uan
-b ack
Ġcampaign s
ob s
è¾ĥ ä½İ
è¢ į
Îµ Ïģ
èĩ º
Ġ}ĊĊ Ċ
Ġf ears
Ġver bal
ĠW y
èĩªèº« çļĦ
Ġartik eln
Ġp em
T ag
m ill
è¥¿ éĥ¨
ĠÐ¿Ð¾Ð¼ Ð¾
Ġh anging
ov ie
oll ar
V R
Ġm art
è´µ çļĦ
6 13
Ġre cre
ĠEss ays
è¡Į é©¶
pro ps
{ table
T ake
pro v
Ġpix el
Ġnucle us
ey er
Ġà¤ ľ
Ġà¦¸ à¦Ĥ
Ġsec ured
6 15
Ġse al
ä¸Ģ èĤ¡
æĭħ ä¿Ŀ
Ġt ous
6 99
ĠPol and
Ġoblig ation
é¡ į
éŃ ļ
Ġtick ets
Û ¸
ut ils
Ġassoci ate
Ð´Ðµ Ð»Ð°
ĠPress ure
ĠP in
ÑĨ ÐµÐ½
æĵ ĩ
Ġà® ļ
ĠM ent
ÑİÑīÐ¸ Ñħ
Ġrecover ed
ãĤĪãģĨ ãģ«
ĠApp l
\ Http
. __
Ġs ir
å½ĵ å¤©
ãĥ Ĭ
Ġdies e
be ing
çĪ± å¿ĥ
ĠÐº Ð¾Ð³Ð´Ð°
Ġsystem ic
å³ ¶
Ġregul ate
ĠIsrael i
Ðº ÑĢÑĭ
Ġres olved
Ã© p
åľ° éľĩ
ä¸Ĭ çº§
Ġmere ka
co res
ä¸º æŃ¢
ĠRe comm
ç»Ł çŃ¹
Ġclar ity
Ġd ense
_ ptr
Ġc s
cons in
éģµ å¾ª
{ A
Ġprelim inary
Ġath letes
Ġtrans parency
Ġpop ul
Ġbatter ies
ä¿® çĤ¼
L ab
-cent er
in ces
ä¸¥éĩį çļĦ
Ġpo ems
ĠApp lied
ers ch
åĲ¬ äºĨ
æĦı å¤§åĪ©
âĢ ŀ
Ġcur r
OR Y
ĠNe u
è© ŀ
P rim
h ind
ĠD ES
çĽ ¡
80 5
z ent
a ired
Ġr ivers
ä¸ĭ ä¾Ĩ
è§Ĥ çľĭ
ĠM oscow
Ġ--- |---
èĢģ å©Ĩ
ĠHe at
à¸²à¸ ķ
Ġmot ivated
ĠText en
Ø§ÙĨ ÙĬ
Ġdirect ors
åĨ³ å¿ĥ
ĠP ublisher
Ġint ro
Ð½ Ñĸ
ĠF ocus
eng es
70 8
ub s
åħ¬ åħĥ
uel a
Ad v
b ach
å°½ åı¯èĥ½
Ġsac rifice
æĽ´ é«ĺ
6 45
Ġindic ation
ĠK evin
ĠJ ay
çļĦ æ¦Ĥå¿µ
Ġcal ories
ĉ var
åĪĿ å¿ĥ
Ġdevelopment al
7 14
Ġconsum ed
Qu est
ĠH ab
ĠÐ´Ð¾Ð¼Ð°ÑĽÐ¸Ð½ ÑģÑĤÐ²Ð°
J o
Ġconven ience
st ration
8 90
-d is
ĠDie go
å©´ åĦ¿
ĠP our
è® ¶
Ġ×Ķ× ª×
e u
Ġdev ast
k il
à§ĩà¦Ľ à§ĩ
Ġdev oted
or ious
% ãĢĤĊĊ
ĠThom pson
6 78
0 26
ass a
Ġme j
tterlig are
ĠUn like
65 2
=" /
70 5
åİ¨ æĪ¿
ĠT ools
Ġwarm ing
ä¼ģ æ¥Ń
su per
vare psilon
Ġcon se
çĹ °
Ġac res
Ð¾Ð² Ð¸
De cember
ĠC arbon
Ġimpl ant
Ġoper ates
AN S
ĠØ¨ ÙĦ
5 66
åįı åķĨ
)) :Ċ
Ġ×Ķ× ©×
ty ped
P ower
ĠP m
y ard
ãģ¾ ãģŁ
çļĦ åĬŁèĥ½
S n
and roid
ob b
Ġprogram mes
55 4
Ġassess ing
äººåĳĺ çļĦ
çģ« è½¦
[ \
h ops
Ġ×Ķ× Ĳ
H as
Î½ ÏĦ
ĠB ibli
upp ort
Ġcomp ly
Ġgr ants
Ġpull ing
unt ime
èĵ ¬
se x
-w idth
ĠØ³ Ø§ÙĦ
ä¸į åİ»
åĢ¼ ä¸º
Ð½Ð¾ÑģÑĤÑĮ Ñİ
Ġbl o
Ġh arsh
Õ¸ÖĤÕ© Õµ
7 90
ĠMed iter
ÑĪ ÐµÐ½
Ġdepos its
ĠJ ahr
ĠØ§ÙĦÙħ Ø³Øª
çĴ° å¢ĥ
Ġsurve ys
ĠDisc ussion
ëł ¤
Ġcompet ing
è¿Ļ åľº
ier ad
Ã¡l nÃŃ
× ¦
Ġpublic ly
Ġft m
ĠS R
h is
n Ã¡
å»¶ éķ¿
B F
ĠEv olution
Ġà¦¤ à¦¾à¦°
à¤¾à¤ Ĥ
èĥ½ ä¸įèĥ½
Ġdis placement
çĪ± åĽ½
in ely
è¿Ľ èĢĮ
55 8
55 7
58 3
mod els
äºĨ ä¸¤
ĠAgric ulture
M ember
é»Ħ èī²
Ġ ÑĨÐ¸
èģĮ åĬ¡
Ġposit ively
r ators
è®¾ å®ļ
ĠSt rong
æĪĳä»¬ å°±
erv let
er ra
ãģ«ãģ¤ ãģĦãģ¦
pe ople
Ġsimpl est
âī ¥
Ġin cons
" ),Ċ
Ġo verse
lev ant
0 90
æŃ ²
Ġk or
åµ Į
ä¸Ģ é¡¹
åĵģ çļĦ
6 37
ØªÙħ Ø§Ø¹
ist o
èµ Ĳ
Ġrec ru
ac ia
5 39
æĬĵ å¥½
è¯Ń æ°Ķ
ÐºÐ¸ Ð¼
èģĬ å¤©
ond a
ä¸ĵ çĶ¨
e ared
íķľ ëĭ¤
Ġbl ame
Ġ×ĳ× ¢
ement e
oy d
Ġam er
all ow
Ġperson a
Ġpr Ã¡
æĸ° å»º
ĠÐ¸ Ð¼
Ġinhib ition
ĠThe rapy
æł¸ ç®Ĺ
æıĲ èµ·
Ġunder w
èº« ä¸ĬçļĦ
- go
ĠH arm
Ġ íķ´
æķ´ æķ°
57 3
+ Ċ
ĠP erm
ast ro
ĠG ran
à¸£ à¸¹à¹ī
Ġgar lic
Ġgo ver
Ġdescript ions
ĠAd ams
Ġf are
ĠAm endment
8 12
âĸ ²
ĠL arge
Ġres erve
ĠÐ´ Ð²Ð¸
çĹħ ä¾ĭ
Ġconvin ced
çļĦ ä¸įåĲĮ
Ġl ith
us i
ĠDef ense
rom b
Ġdesign ing
åĲİ ç»Ń
ä¼ł æĿ¥
-t op
à¸Ľ à¸¥
ĠPat tern
Jan uary
+ (
b urn
Ðº Ð»Ð°
ãģĦ ãģ¾ãģĻ
ethe less
ĠIm ages
çļĦ ä¸ĸçķĮ
Ã© v
Ġantib odies
ĠT ab
ÑĢÐµ Ð´Ð¸
all oc
Ġes cal
F i
Ġs or
69 6
èħ ³
Ġ ðĿĲ
Ġhum idity
Ø¬ Ø±
Ġterm er
65 4
ul atory
h ou
ĠDiv isors
Ġd ich
äºĨä¸Ģ ç§į
à¸Ĭ à¸Ļ
à¸Ńà¸¢ à¸¹à¹Ī
lic t
åīį æľŁ
{ e
\ frac
Ġcollect ing
Ġresc ue
58 6
an ci
è¯´ è¿ĩ
è¯ķ é¢ĺ
çļĦ æīĢæľī
åŃ¦ ä½į
Ġdef ects
ĠF amil
T w
Ġh ack
Ġear liest
b at
Ġsur f
ĠPl ayer
é¢Ĺ ç²Ĵ
Ġcyl inder
Ø§ÙĦ Øª
} );ĊĊ
æ¿ Ł
Ġphotograph s
Ġceleb ration
oc rat
Ġperiod ic
ĠS Y
Ġì Ļ
éķ¿ æ±Ł
. sc
ĠG on
8 33
Ġpar se
çº³ åħ¥
Ã¤nn ande
Ġrepresent ations
èĲ½ åľ¨
OW N
Ð» Ð¾Ð²Ð°
ĠTest ing
ĠEn h
à¸ª à¸²à¸¡
K a
Ġt res
ent ity
Ġbr ush
D own
è« ĩ
ä¸ĭ è·Į
Ġ ãĢĭ
Ġnan op
. 'ĊĊ
æĶ¶ æĭ¾
ĠP el
(n ums
Ġst raw
: #
éļĲ èĹı
åħħ çĶµ
AP TER
éĺ² èĮĥ
ãĤĮ ãĤĭ
Ġg Ã¤lla
ĠR io
58 1
58 9
f ill
ĠS ave
Ġoptim ize
ĠRober ts
W as
Ð½ Ð³
ç¼ Ĩ
Ð½ ÐµÐ½Ð¸Ñı
éĢĻ ä¸Ģ
7 55
ĠCom ponent
Ġdistinct ive
ĠCirc le
ĠCirc uit
Ġpre cious
å·® åĪ«
Ġpres chool
åīį æıĲ
ab ama
¢ ħ
åĬ¨ çĶ»
Ġpers istent
Ġpra ise
ĠG y
Ġad en
à¦¬ à§ĩ
èħ ķ
e urs
Pl ay
66 4
æŃĮ æĽ²
Ġdial og
à¦ ĵ
ÑĤÐµ ÑĢÐ°
Ġsubt le
Ġan throp
Ġillust rates
çļĦ æĢģåº¦
ĠS ky
ĠMot or
ĠY tterligare
Ġf n
ï¼İ ĊĊ
Ð¿ ÐµÑĢ
à¸§ à¸Ļ
6 27
ra ch
Ġcitiz en
æĺ¯ æĢİä¹Ī
8 57
ĠÎ ¤
7 32
n atural
ĠErk Ã¤nnande
( :
Ġmed ief
å°ģ å»º
Ġrem inder
ëĭ ¨
er ial
ĠPhilipp ines
èĥ½ åľ¨
ri el
Ġmedief iler
ç¿ ģ
Ġtr Ã¨s
èĪŀ è¹Ī
g iving
ĠDel aL
ire ments
èį£ èªī
Ġ< !--
ĠDelaL ika
ç²¾ åĬĽ
Ġpress ed
èŀį åħ¥
Ġl on
ĠJ our
Y eah
Ġlicens ierad
chem ical
W indow
ĠM oney
l iv
ĠCar ib
Ġup set
A f
ä¸ļ ä¸»
äºĨä¸Ģ å£°
5 95
Ġc ous
Ġpul monary
èĪ¬ çļĦ
Ġfin ancing
Ġcer emony
Ġmit ochond
Ġs urn
Ġinform al
Ġdist ricts
L ondon
_ CO
åŁºç¡Ģ ä¸Ĭ
_ E
ä¼¸ æīĭ
ĠT am
ĠN eb
.A pp
ä¸į æĺĵ
Ġc ater
ĠC op
59 1
ĠN g
at ivity
Pro t
return s
St and
ĠH ur
d in
Ġcam eras
ol as
Ġhand ed
Ġnum eral
> ,
Ġun p
à¸ŀ à¸£à¸°
Ã§ as
ä¸º äºº
ĠRem ove
è¿Ļ æ¬¾
ĠHow ard
bl ue
Ġëĵ ±
am ous
åıĹ ä¼¤
Ġant ioxid
Ġapp le
Ġm ai
-w orld
ĠS ay
90 4
nt e
Ø¯ Ø§
çº º
ĠÐ ¦
ĠÐ¿ÑĢ Ð¾Ð±
Ġz Ã¡
5 88
Ġd ik
è¿Ļ æĺ¯ä¸Ģ
Ġrelev ance
Ġdistingu ished
P res
æĸ Į
ä½ł æĥ³
ĠA y
ĠD M
Ġdef ence
ĠSt yle
éªĮ æĶ¶
- ac
ĠC ome
ĠF ish
Ġt ags
Ġun employment
Ġcharacter ization
ĠInst agram
R ange
Ġfre ely
Ġd amp
s ign
Ġsun light
80 4
ĠShe l
è¿Ļ ä¹Ł
it Ã©s
Ġp ist
7 15
olit ical
Ġf etch
è¶³ ä»¥
Ġì Ĭ
ãĤ¤ ãĥ³
ick er
éĢĻ æĺ¯
!! !!
ĠD uke
.. .,
Ġcook ed
éĻ· åħ¥
å®¿ èĪį
ÑĤÐµ Ð»Ð¸
çļĦ ä¸¤
èĤ Ĩ
65 1
/ ><
æ¸ħ æ´Ĺ
éĨ ĭ
ĠRet urns
è¯Ĺ æŃĮ
Ġintrodu cing
ä¼ł è¯´
Ġpoint ing
ĠB uck
ç²¾ å¿ĥ
ĠN othing
ĠÎ± ÏĢÏĮ
ĠTree Node
--- Ċ
( in
Ġpress ures
çĤº äºĨ
Ġsl a
/ x
it et
ĠRes erve
oc ur
Ġ) ãĢĤĊĊ
Ġampl itude
ĠB ron
ĠUn ter
Ġarch ae
ç»Ĩ èıĮ
Ġsw ord
æŃ §
åıĸ åĨ³
ãģ »
Ġwork force
Ġob sc
eles c
åĽŀ åºĶ
çĦ¦ èĻĳ
Ġbreak down
Ġg ym
ĠH erm
eral d
Ġd x
6 48
åĩºæĿ¥ äºĨ
v g
ĠP itt
æ¯« ç±³
ŀ× Ķ
å·¥ç¨ĭ å¸Ī
/( -
d k
Ġd ining
if eration
roph ic
Ġin adequ
id ge
Ġinters ection
Ġrul ed
io let
åľ° è´¨
ays ay
ÛĮ Ùĩ
Ġcalcul ating
åĪĿ æľŁ
Ġcit ations
ä» ķ
ia p
Ġball s
. as
ss on
Ġapplic ant
Ġle m
68 2
ĠDis ney
ĠWal ter
Ġhost s
ĠktÃ³ ry
Ġcomp elling
Ġlock ed
ĠH yp
Ġremind ed
cl ock
Ġis ot
è§£ éĻ¤
6 26
ĠTest ament
Ġkind ergarten
Ġv iel
Ġdecl are
èº« åŃĲ
æĻ® åıĬ
Ġb unch
ĳ× ¢
Ġà¦Ĩ à¦®
Ġshap ing
å®ĺ åĳĺ
æĺ¯ æĪĳä»¬
Ġi hr
Ġarbit rary
Aug ust
7 28
äºº ä¸İ
Ġshort ly
E duc
al ian
Ġprem ier
6 35
Ġver tex
B et
Ġir regular
èĢĲ å¿ĥ
arr ass
ĠH old
æĪĳ æľī
æĸ° èĥ½æºĲ
Ġhy pertension
ĠS now
ail and
Ġre ass
ip ation
ĠApp e
ĠB L
Ġappreci ated
AN CE
U ID
- an
Ġclub s
t emplate
Ġ' ../
ç¼º å°ĳ
j es
s ur
Ñļ Ðµ
Ġv erm
åĪ ¹
z ig
Ġsp okes
67 2
pos ite
å¯Ĩ çłģ
Ġespec ial
- ne
Ġme er
C a
ĠInvest ig
ic ion
-m onth
ĠIn flu
ĠS EC
Ġrev ision
Ġn ights
ĠEm ail
Ġautom ated
Ġ\ )
å¤ļ äºº
( st
äº¤ åıī
èģļ çĦ¦
s ystem
ĠØ¹ Ø§Ùħ
Ġattempt ing
æī© å¼ł
Ð¾Ð´Ñĥ Ðº
Ġcryst all
å¼ Ĭ
ĠM aj
Ġuse State
å¯¹ èĩªå·±
Ġpro gn
5 69
7 21
t ail
çļĦ çİ¯å¢ĥ
ÑĦ Ðµ
åĮ» èį¯
du ced
um atic
è¾¾ æĪĲ
åī¯ ä¸»ä»»
åı¯ æĮģç»Ń
Ġen rich
Ġcomple ting
Ġa h
ä¸¥ èĤĥ
[ index
zia ÅĤ
çļĦ åħ·ä½ĵ
7 16
A p
Ġaggreg ate
ot or
à® ±
Ġkil ograms
Ġar tery
ag ent
Ġdep ict
Par am
ĠAnth ony
Ġsufficient ly
M a
Ġdes p
å°± è¡Į
çļĦ èĬ±
Ġver bs
é»ĺ è®¤
hic le
[...]
