{
  "<unk>": 0,
  "<s>": 1,
  "</s>": 2,
  "[INST]": 3,
  "[/INST]": 4,
  "[AVAILABLE_TOOLS]": 5,
  "[/AVAILABLE_TOOLS]": 6,
  "[TOOL_RESULTS]": 7,
  "[/TOOL_RESULTS]": 8,
  "[TOOL_CALLS]": 9,
  "[IMG]": 10,
  "<pad>": 11,
  "[IMG_BREAK]": 12,
  "[IMG_END]": 13,
  "[PREFIX]": 14,
  "[MIDDLE]": 15,
  "[SUFFIX]": 16,
  "[SYSTEM_PROMPT]": 17,
  "[/SYSTEM_PROMPT]": 18,
  "[TOOL_CONTENT]": 19,
  "<SPECIAL_20>": 20,
  "<SPECIAL_21>": 21,
  "<SPECIAL_22>": 22,
  "<SPECIAL_23>": 23,
  "<SPECIAL_24>": 24,
  "<SPECIAL_25>": 25,
  "<SPECIAL_26>": 26,
  "<SPECIAL_27>": 27,
  "<SPECIAL_28>": 28,
  "<SPECIAL_29>": 29,
  "<SPECIAL_30>": 30,
  "<SPECIAL_31>": 31,
  "<SPECIAL_32>": 32,
  "<SPECIAL_33>": 33,
  "<SPECIAL_34>": 34,
  "<SPECIAL_35>": 35,
  "<SPECIAL_36>": 36,
  "<SPECIAL_37>": 37,
  "<SPECIAL_38>": 38,
  "<SPECIAL_39>": 39,
  "<SPECIAL_40>": 40,
  "<SPECIAL_41>": 41,
  "<SPECIAL_42>": 42,
  "<SPECIAL_43>": 43,
  "<SPECIAL_44>": 44,
  "<SPECIAL_45>": 45,
  "<SPECIAL_46>": 46,
  "<SPECIAL_47>": 47,
  "<SPECIAL_48>": 48,
  "<SPECIAL_49>": 49,
  "<SPECIAL_50>": 50,
  "<SPECIAL_51>": 51,
  "<SPECIAL_52>": 52,
  "<SPECIAL_53>": 53,
  "<SPECIAL_54>": 54,
  "<SPECIAL_55>": 55,
  "<SPECIAL_56>": 56,
  "<SPECIAL_57>": 57,
  "<SPECIAL_58>": 58,
  "<SPECIAL_59>": 59,
  "<SPECIAL_60>": 60,
  "<SPECIAL_61>": 61,
  "<SPECIAL_62>": 62,
  "<SPECIAL_63>": 63,
  "<SPECIAL_64>": 64,
  "<SPECIAL_65>": 65,
  "<SPECIAL_66>": 66,
  "<SPECIAL_67>": 67,
  "<SPECIAL_68>": 68,
  "<SPECIAL_69>": 69,
  "<SPECIAL_70>": 70,
  "<SPECIAL_71>": 71,
  "<SPECIAL_72>": 72,
  "<SPECIAL_73>": 73,
  "<SPECIAL_74>": 74,
  "<SPECIAL_75>": 75,
  "<SPECIAL_76>": 76,
  "<SPECIAL_77>": 77,
  "<SPECIAL_78>": 78,
  "<SPECIAL_79>": 79,
  "<SPECIAL_80>": 80,
  "<SPECIAL_81>": 81,
  "<SPECIAL_82>": 82,
  "<SPECIAL_83>": 83,
  "<SPECIAL_84>": 84,
  "<SPECIAL_85>": 85,
  "<SPECIAL_86>": 86,
  "<SPECIAL_87>": 87,
  "<SPECIAL_88>": 88,
  "<SPECIAL_89>": 89,
  "<SPECIAL_90>": 90,
  "<SPECIAL_91>": 91,
  "<SPECIAL_92>": 92,
  "<SPECIAL_93>": 93,
  "<SPECIAL_94>": 94,
  "<SPECIAL_95>": 95,
  "<SPECIAL_96>": 96,
  "<SPECIAL_97>": 97,
  "<SPECIAL_98>": 98,
  "<SPECIAL_99>": 99,
  "<SPECIAL_100>": 100,
  "<SPECIAL_101>": 101,
  "<SPECIAL_102>": 102,
  "<SPECIAL_103>": 103,
  "<SPECIAL_104>": 104,
  "<SPECIAL_105>": 105,
  "<SPECIAL_106>": 106,
  "<SPECIAL_107>": 107,
  "<SPECIAL_108>": 108,
  "<SPECIAL_109>": 109,
  "<SPECIAL_110>": 110,
  "<SPECIAL_111>": 111,
  "<SPECIAL_112>": 112,
  "<SPECIAL_113>": 113,
  "<SPECIAL_114>": 114,
  "<SPECIAL_115>": 115,
  "<SPECIAL_116>": 116,
  "<SPECIAL_117>": 117,
  "<SPECIAL_118>": 118,
  "<SPECIAL_119>": 119,
  "<SPECIAL_120>": 120,
  "<SPECIAL_121>": 121,
  "<SPECIAL_122>": 122,
  "<SPECIAL_123>": 123,
  "<SPECIAL_124>": 124,
  "<SPECIAL_125>": 125,
  "<SPECIAL_126>": 126,
  "<SPECIAL_127>": 127,
  "<SPECIAL_128>": 128,
  "<SPECIAL_129>": 129,
  "<SPECIAL_130>": 130,
  "<SPECIAL_131>": 131,
  "<SPECIAL_132>": 132,
  "<SPECIAL_133>": 133,
  "<SPECIAL_134>": 134,
  "<SPECIAL_135>": 135,
  "<SPECIAL_136>": 136,
  "<SPECIAL_137>": 137,
  "<SPECIAL_138>": 138,
  "<SPECIAL_139>": 139,
  "<SPECIAL_140>": 140,
  "<SPECIAL_141>": 141,
  "<SPECIAL_142>": 142,
  "<SPECIAL_143>": 143,
  "<SPECIAL_144>": 144,
  "<SPECIAL_145>": 145,
  "<SPECIAL_146>": 146,
  "<SPECIAL_147>": 147,
  "<SPECIAL_148>": 148,
  "<SPECIAL_149>": 149,
  "<SPECIAL_150>": 150,
  "<SPECIAL_151>": 151,
  "<SPECIAL_152>": 152,
  "<SPECIAL_153>": 153,
  "<SPECIAL_154>": 154,
  "<SPECIAL_155>": 155,
  "<SPECIAL_156>": 156,
  "<SPECIAL_157>": 157,
  "<SPECIAL_158>": 158,
  "<SPECIAL_159>": 159,
  "<SPECIAL_160>": 160,
  "<SPECIAL_161>": 161,
  "<SPECIAL_162>": 162,
  "<SPECIAL_163>": 163,
  "<SPECIAL_164>": 164,
  "<SPECIAL_165>": 165,
  "<SPECIAL_166>": 166,
  "<SPECIAL_167>": 167,
  "<SPECIAL_168>": 168,
  "<SPECIAL_169>": 169,
  "<SPECIAL_170>": 170,
  "<SPECIAL_171>": 171,
  "<SPECIAL_172>": 172,
  "<SPECIAL_173>": 173,
  "<SPECIAL_174>": 174,
  "<SPECIAL_175>": 175,
  "<SPECIAL_176>": 176,
  "<SPECIAL_177>": 177,
  "<SPECIAL_178>": 178,
  "<SPECIAL_179>": 179,
  "<SPECIAL_180>": 180,
  "<SPECIAL_181>": 181,
  "<SPECIAL_182>": 182,
  "<SPECIAL_183>": 183,
  "<SPECIAL_184>": 184,
  "<SPECIAL_185>": 185,
  "<SPECIAL_186>": 186,
  "<SPECIAL_187>": 187,
  "<SPECIAL_188>": 188,
  "<SPECIAL_189>": 189,
  "<SPECIAL_190>": 190,
  "<SPECIAL_191>": 191,
  "<SPECIAL_192>": 192,
  "<SPECIAL_193>": 193,
  "<SPECIAL_194>": 194,
  "<SPECIAL_195>": 195,
  "<SPECIAL_196>": 196,
  "<SPECIAL_197>": 197,
  "<SPECIAL_198>": 198,
  "<SPECIAL_199>": 199,
  "<SPECIAL_200>": 200,
  "<SPECIAL_201>": 201,
  "<SPECIAL_202>": 202,
  "<SPECIAL_203>": 203,
  "<SPECIAL_204>": 204,
  "<SPECIAL_205>": 205,
  "<SPECIAL_206>": 206,
  "<SPECIAL_207>": 207,
  "<SPECIAL_208>": 208,
  "<SPECIAL_209>": 209,
  "<SPECIAL_210>": 210,
  "<SPECIAL_211>": 211,
  "<SPECIAL_212>": 212,
  "<SPECIAL_213>": 213,
  "<SPECIAL_214>": 214,
  "<SPECIAL_215>": 215,
  "<SPECIAL_216>": 216,
  "<SPECIAL_217>": 217,
  "<SPECIAL_218>": 218,
  "<SPECIAL_219>": 219,
  "<SPECIAL_220>": 220,
  "<SPECIAL_221>": 221,
  "<SPECIAL_222>": 222,
  "<SPECIAL_223>": 223,
  "<SPECIAL_224>": 224,
  "<SPECIAL_225>": 225,
  "<SPECIAL_226>": 226,
  "<SPECIAL_227>": 227,
  "<SPECIAL_228>": 228,
  "<SPECIAL_229>": 229,
  "<SPECIAL_230>": 230,
  "<SPECIAL_231>": 231,
  "<SPECIAL_232>": 232,
  "<SPECIAL_233>": 233,
  "<SPECIAL_234>": 234,
  "<SPECIAL_235>": 235,
  "<SPECIAL_236>": 236,
  "<SPECIAL_237>": 237,
  "<SPECIAL_238>": 238,
  "<SPECIAL_239>": 239,
  "<SPECIAL_240>": 240,
  "<SPECIAL_241>": 241,
  "<SPECIAL_242>": 242,
  "<SPECIAL_243>": 243,
  "<SPECIAL_244>": 244,
  "<SPECIAL_245>": 245,
  "<SPECIAL_246>": 246,
  "<SPECIAL_247>": 247,
  "<SPECIAL_248>": 248,
  "<SPECIAL_249>": 249,
  "<SPECIAL_250>": 250,
  "<SPECIAL_251>": 251,
  "<SPECIAL_252>": 252,
  "<SPECIAL_253>": 253,
  "<SPECIAL_254>": 254,
  "<SPECIAL_255>": 255,
  "<SPECIAL_256>": 256,
  "<SPECIAL_257>": 257,
  "<SPECIAL_258>": 258,
  "<SPECIAL_259>": 259,
  "<SPECIAL_260>": 260,
  "<SPECIAL_261>": 261,
  "<SPECIAL_262>": 262,
  "<SPECIAL_263>": 263,
  "<SPECIAL_264>": 264,
  "<SPECIAL_265>": 265,
  "<SPECIAL_266>": 266,
  "<SPECIAL_267>": 267,
  "<SPECIAL_268>": 268,
  "<SPECIAL_269>": 269,
  "<SPECIAL_270>": 270,
  "<SPECIAL_271>": 271,
  "<SPECIAL_272>": 272,
  "<SPECIAL_273>": 273,
  "<SPECIAL_274>": 274,
  "<SPECIAL_275>": 275,
  "<SPECIAL_276>": 276,
  "<SPECIAL_277>": 277,
  "<SPECIAL_278>": 278,
  "<SPECIAL_279>": 279,
  "<SPECIAL_280>": 280,
  "<SPECIAL_281>": 281,
  "<SPECIAL_282>": 282,
  "<SPECIAL_283>": 283,
  "<SPECIAL_284>": 284,
  "<SPECIAL_285>": 285,
  "<SPECIAL_286>": 286,
  "<SPECIAL_287>": 287,
  "<SPECIAL_288>": 288,
  "<SPECIAL_289>": 289,
  "<SPECIAL_290>": 290,
  "<SPECIAL_291>": 291,
  "<SPECIAL_292>": 292,
  "<SPECIAL_293>": 293,
  "<SPECIAL_294>": 294,
  "<SPECIAL_295>": 295,
  "<SPECIAL_296>": 296,
  "<SPECIAL_297>": 297,
  "<SPECIAL_298>": 298,
  "<SPECIAL_299>": 299,
  "<SPECIAL_300>": 300,
  "<SPECIAL_301>": 301,
  "<SPECIAL_302>": 302,
  "<SPECIAL_303>": 303,
  "<SPECIAL_304>": 304,
  "<SPECIAL_305>": 305,
  "<SPECIAL_306>": 306,
  "<SPECIAL_307>": 307,
  "<SPECIAL_308>": 308,
  "<SPECIAL_309>": 309,
  "<SPECIAL_310>": 310,
  "<SPECIAL_311>": 311,
  "<SPECIAL_312>": 312,
  "<SPECIAL_313>": 313,
  "<SPECIAL_314>": 314,
  "<SPECIAL_315>": 315,
  "<SPECIAL_316>": 316,
  "<SPECIAL_317>": 317,
  "<SPECIAL_318>": 318,
  "<SPECIAL_319>": 319,
  "<SPECIAL_320>": 320,
  "<SPECIAL_321>": 321,
  "<SPECIAL_322>": 322,
  "<SPECIAL_323>": 323,
  "<SPECIAL_324>": 324,
  "<SPECIAL_325>": 325,
  "<SPECIAL_326>": 326,
  "<SPECIAL_327>": 327,
  "<SPECIAL_328>": 328,
  "<SPECIAL_329>": 329,
  "<SPECIAL_330>": 330,
  "<SPECIAL_331>": 331,
  "<SPECIAL_332>": 332,
  "<SPECIAL_333>": 333,
  "<SPECIAL_334>": 334,
  "<SPECIAL_335>": 335,
  "<SPECIAL_336>": 336,
  "<SPECIAL_337>": 337,
  "<SPECIAL_338>": 338,
  "<SPECIAL_339>": 339,
  "<SPECIAL_340>": 340,
  "<SPECIAL_341>": 341,
  "<SPECIAL_342>": 342,
  "<SPECIAL_343>": 343,
  "<SPECIAL_344>": 344,
  "<SPECIAL_345>": 345,
  "<SPECIAL_346>": 346,
  "<SPECIAL_347>": 347,
  "<SPECIAL_348>": 348,
  "<SPECIAL_349>": 349,
  "<SPECIAL_350>": 350,
  "<SPECIAL_351>": 351,
  "<SPECIAL_352>": 352,
  "<SPECIAL_353>": 353,
  "<SPECIAL_354>": 354,
  "<SPECIAL_355>": 355,
  "<SPECIAL_356>": 356,
  "<SPECIAL_357>": 357,
  "<SPECIAL_358>": 358,
  "<SPECIAL_359>": 359,
  "<SPECIAL_360>": 360,
  "<SPECIAL_361>": 361,
  "<SPECIAL_362>": 362,
  "<SPECIAL_363>": 363,
  "<SPECIAL_364>": 364,
  "<SPECIAL_365>": 365,
  "<SPECIAL_366>": 366,
  "<SPECIAL_367>": 367,
  "<SPECIAL_368>": 368,
  "<SPECIAL_369>": 369,
  "<SPECIAL_370>": 370,
  "<SPECIAL_371>": 371,
  "<SPECIAL_372>": 372,
  "<SPECIAL_373>": 373,
  "<SPECIAL_374>": 374,
  "<SPECIAL_375>": 375,
  "<SPECIAL_376>": 376,
  "<SPECIAL_377>": 377,
  "<SPECIAL_378>": 378,
  "<SPECIAL_379>": 379,
  "<SPECIAL_380>": 380,
  "<SPECIAL_381>": 381,
  "<SPECIAL_382>": 382,
  "<SPECIAL_383>": 383,
  "<SPECIAL_384>": 384,
  "<SPECIAL_385>": 385,
  "<SPECIAL_386>": 386,
  "<SPECIAL_387>": 387,
  "<SPECIAL_388>": 388,
  "<SPECIAL_389>": 389,
  "<SPECIAL_390>": 390,
  "<SPECIAL_391>": 391,
  "<SPECIAL_392>": 392,
  "<SPECIAL_393>": 393,
  "<SPECIAL_394>": 394,
  "<SPECIAL_395>": 395,
  "<SPECIAL_396>": 396,
  "<SPECIAL_397>": 397,
  "<SPECIAL_398>": 398,
  "<SPECIAL_399>": 399,
  "<SPECIAL_400>": 400,
  "<SPECIAL_401>": 401,
  "<SPECIAL_402>": 402,
  "<SPECIAL_403>": 403,
  "<SPECIAL_404>": 404,
  "<SPECIAL_405>": 405,
  "<SPECIAL_406>": 406,
  "<SPECIAL_407>": 407,
  "<SPECIAL_408>": 408,
  "<SPECIAL_409>": 409,
  "<SPECIAL_410>": 410,
  "<SPECIAL_411>": 411,
  "<SPECIAL_412>": 412,
  "<SPECIAL_413>": 413,
  "<SPECIAL_414>": 414,
  "<SPECIAL_415>": 415,
  "<SPECIAL_416>": 416,
  "<SPECIAL_417>": 417,
  "<SPECIAL_418>": 418,
  "<SPECIAL_419>": 419,
  "<SPECIAL_420>": 420,
  "<SPECIAL_421>": 421,
  "<SPECIAL_422>": 422,
  "<SPECIAL_423>": 423,
  "<SPECIAL_424>": 424,
  "<SPECIAL_425>": 425,
  "<SPECIAL_426>": 426,
  "<SPECIAL_427>": 427,
  "<SPECIAL_428>": 428,
  "<SPECIAL_429>": 429,
  "<SPECIAL_430>": 430,
  "<SPECIAL_431>": 431,
  "<SPECIAL_432>": 432,
  "<SPECIAL_433>": 433,
  "<SPECIAL_434>": 434,
  "<SPECIAL_435>": 435,
  "<SPECIAL_436>": 436,
  "<SPECIAL_437>": 437,
  "<SPECIAL_438>": 438,
  "<SPECIAL_439>": 439,
  "<SPECIAL_440>": 440,
  "<SPECIAL_441>": 441,
  "<SPECIAL_442>": 442,
  "<SPECIAL_443>": 443,
  "<SPECIAL_444>": 444,
  "<SPECIAL_445>": 445,
  "<SPECIAL_446>": 446,
  "<SPECIAL_447>": 447,
  "<SPECIAL_448>": 448,
  "<SPECIAL_449>": 449,
  "<SPECIAL_450>": 450,
  "<SPECIAL_451>": 451,
  "<SPECIAL_452>": 452,
  "<SPECIAL_453>": 453,
  "<SPECIAL_454>": 454,
  "<SPECIAL_455>": 455,
  "<SPECIAL_456>": 456,
  "<SPECIAL_457>": 457,
  "<SPECIAL_458>": 458,
  "<SPECIAL_459>": 459,
  "<SPECIAL_460>": 460,
  "<SPECIAL_461>": 461,
  "<SPECIAL_462>": 462,
  "<SPECIAL_463>": 463,
  "<SPECIAL_464>": 464,
  "<SPECIAL_465>": 465,
  "<SPECIAL_466>": 466,
  "<SPECIAL_467>": 467,
  "<SPECIAL_468>": 468,
  "<SPECIAL_469>": 469,
  "<SPECIAL_470>": 470,
  "<SPECIAL_471>": 471,
  "<SPECIAL_472>": 472,
  "<SPECIAL_473>": 473,
  "<SPECIAL_474>": 474,
  "<SPECIAL_475>": 475,
  "<SPECIAL_476>": 476,
  "<SPECIAL_477>": 477,
  "<SPECIAL_478>": 478,
  "<SPECIAL_479>": 479,
  "<SPECIAL_480>": 480,
  "<SPECIAL_481>": 481,
  "<SPECIAL_482>": 482,
  "<SPECIAL_483>": 483,
  "<SPECIAL_484>": 484,
  "<SPECIAL_485>": 485,
  "<SPECIAL_486>": 486,
  "<SPECIAL_487>": 487,
  "<SPECIAL_488>": 488,
  "<SPECIAL_489>": 489,
  "<SPECIAL_490>": 490,
  "<SPECIAL_491>": 491,
  "<SPECIAL_492>": 492,
  "<SPECIAL_493>": 493,
  "<SPECIAL_494>": 494,
  "<SPECIAL_495>": 495,
  "<SPECIAL_496>": 496,
  "<SPECIAL_497>": 497,
  "<SPECIAL_498>": 498,
  "<SPECIAL_499>": 499,
  "<SPECIAL_500>": 500,
  "<SPECIAL_501>": 501,
  "<SPECIAL_502>": 502,
  "<SPECIAL_503>": 503,
  "<SPECIAL_504>": 504,
  "<SPECIAL_505>": 505,
  "<SPECIAL_506>": 506,
  "<SPECIAL_507>": 507,
  "<SPECIAL_508>": 508,
  "<SPECIAL_509>": 509,
  "<SPECIAL_510>": 510,
  "<SPECIAL_511>": 511,
  "<SPECIAL_512>": 512,
  "<SPECIAL_513>": 513,
  "<SPECIAL_514>": 514,
  "<SPECIAL_515>": 515,
  "<SPECIAL_516>": 516,
  "<SPECIAL_517>": 517,
  "<SPECIAL_518>": 518,
  "<SPECIAL_519>": 519,
  "<SPECIAL_520>": 520,
  "<SPECIAL_521>": 521,
  "<SPECIAL_522>": 522,
  "<SPECIAL_523>": 523,
  "<SPECIAL_524>": 524,
  "<SPECIAL_525>": 525,
  "<SPECIAL_526>": 526,
  "<SPECIAL_527>": 527,
  "<SPECIAL_528>": 528,
  "<SPECIAL_529>": 529,
  "<SPECIAL_530>": 530,
  "<SPECIAL_531>": 531,
  "<SPECIAL_532>": 532,
  "<SPECIAL_533>": 533,
  "<SPECIAL_534>": 534,
  "<SPECIAL_535>": 535,
  "<SPECIAL_536>": 536,
  "<SPECIAL_537>": 537,
  "<SPECIAL_538>": 538,
  "<SPECIAL_539>": 539,
  "<SPECIAL_540>": 540,
  "<SPECIAL_541>": 541,
  "<SPECIAL_542>": 542,
  "<SPECIAL_543>": 543,
  "<SPECIAL_544>": 544,
  "<SPECIAL_545>": 545,
  "<SPECIAL_546>": 546,
  "<SPECIAL_547>": 547,
  "<SPECIAL_548>": 548,
  "<SPECIAL_549>": 549,
  "<SPECIAL_550>": 550,
  "<SPECIAL_551>": 551,
  "<SPECIAL_552>": 552,
  "<SPECIAL_553>": 553,
  "<SPECIAL_554>": 554,
  "<SPECIAL_555>": 555,
  "<SPECIAL_556>": 556,
  "<SPECIAL_557>": 557,
  "<SPECIAL_558>": 558,
  "<SPECIAL_559>": 559,
  "<SPECIAL_560>": 560,
  "<SPECIAL_561>": 561,
  "<SPECIAL_562>": 562,
  "<SPECIAL_563>": 563,
  "<SPECIAL_564>": 564,
  "<SPECIAL_565>": 565,
  "<SPECIAL_566>": 566,
  "<SPECIAL_567>": 567,
  "<SPECIAL_568>": 568,
  "<SPECIAL_569>": 569,
  "<SPECIAL_570>": 570,
  "<SPECIAL_571>": 571,
  "<SPECIAL_572>": 572,
  "<SPECIAL_573>": 573,
  "<SPECIAL_574>": 574,
  "<SPECIAL_575>": 575,
  "<SPECIAL_576>": 576,
  "<SPECIAL_577>": 577,
  "<SPECIAL_578>": 578,
  "<SPECIAL_579>": 579,
  "<SPECIAL_580>": 580,
  "<SPECIAL_581>": 581,
  "<SPECIAL_582>": 582,
  "<SPECIAL_583>": 583,
  "<SPECIAL_584>": 584,
  "<SPECIAL_585>": 585,
  "<SPECIAL_586>": 586,
  "<SPECIAL_587>": 587,
  "<SPECIAL_588>": 588,
  "<SPECIAL_589>": 589,
  "<SPECIAL_590>": 590,
  "<SPECIAL_591>": 591,
  "<SPECIAL_592>": 592,
  "<SPECIAL_593>": 593,
  "<SPECIAL_594>": 594,
  "<SPECIAL_595>": 595,
  "<SPECIAL_596>": 596,
  "<SPECIAL_597>": 597,
  "<SPECIAL_598>": 598,
  "<SPECIAL_599>": 599,
  "<SPECIAL_600>": 600,
  "<SPECIAL_601>": 601,
  "<SPECIAL_602>": 602,
  "<SPECIAL_603>": 603,
  "<SPECIAL_604>": 604,
  "<SPECIAL_605>": 605,
  "<SPECIAL_606>": 606,
  "<SPECIAL_607>": 607,
  "<SPECIAL_608>": 608,
  "<SPECIAL_609>": 609,
  "<SPECIAL_610>": 610,
  "<SPECIAL_611>": 611,
  "<SPECIAL_612>": 612,
  "<SPECIAL_613>": 613,
  "<SPECIAL_614>": 614,
  "<SPECIAL_615>": 615,
  "<SPECIAL_616>": 616,
  "<SPECIAL_617>": 617,
  "<SPECIAL_618>": 618,
  "<SPECIAL_619>": 619,
  "<SPECIAL_620>": 620,
  "<SPECIAL_621>": 621,
  "<SPECIAL_622>": 622,
  "<SPECIAL_623>": 623,
  "<SPECIAL_624>": 624,
  "<SPECIAL_625>": 625,
  "<SPECIAL_626>": 626,
  "<SPECIAL_627>": 627,
  "<SPECIAL_628>": 628,
  "<SPECIAL_629>": 629,
  "<SPECIAL_630>": 630,
  "<SPECIAL_631>": 631,
  "<SPECIAL_632>": 632,
  "<SPECIAL_633>": 633,
  "<SPECIAL_634>": 634,
  "<SPECIAL_635>": 635,
  "<SPECIAL_636>": 636,
  "<SPECIAL_637>": 637,
  "<SPECIAL_638>": 638,
  "<SPECIAL_639>": 639,
  "<SPECIAL_640>": 640,
  "<SPECIAL_641>": 641,
  "<SPECIAL_642>": 642,
  "<SPECIAL_643>": 643,
  "<SPECIAL_644>": 644,
  "<SPECIAL_645>": 645,
  "<SPECIAL_646>": 646,
  "<SPECIAL_647>": 647,
  "<SPECIAL_648>": 648,
  "<SPECIAL_649>": 649,
  "<SPECIAL_650>": 650,
  "<SPECIAL_651>": 651,
  "<SPECIAL_652>": 652,
  "<SPECIAL_653>": 653,
  "<SPECIAL_654>": 654,
  "<SPECIAL_655>": 655,
  "<SPECIAL_656>": 656,
  "<SPECIAL_657>": 657,
  "<SPECIAL_658>": 658,
  "<SPECIAL_659>": 659,
  "<SPECIAL_660>": 660,
  "<SPECIAL_661>": 661,
  "<SPECIAL_662>": 662,
  "<SPECIAL_663>": 663,
  "<SPECIAL_664>": 664,
  "<SPECIAL_665>": 665,
  "<SPECIAL_666>": 666,
  "<SPECIAL_667>": 667,
  "<SPECIAL_668>": 668,
  "<SPECIAL_669>": 669,
  "<SPECIAL_670>": 670,
  "<SPECIAL_671>": 671,
  "<SPECIAL_672>": 672,
  "<SPECIAL_673>": 673,
  "<SPECIAL_674>": 674,
  "<SPECIAL_675>": 675,
  "<SPECIAL_676>": 676,
  "<SPECIAL_677>": 677,
  "<SPECIAL_678>": 678,
  "<SPECIAL_679>": 679,
  "<SPECIAL_680>": 680,
  "<SPECIAL_681>": 681,
  "<SPECIAL_682>": 682,
  "<SPECIAL_683>": 683,
  "<SPECIAL_684>": 684,
  "<SPECIAL_685>": 685,
  "<SPECIAL_686>": 686,
  "<SPECIAL_687>": 687,
  "<SPECIAL_688>": 688,
  "<SPECIAL_689>": 689,
  "<SPECIAL_690>": 690,
  "<SPECIAL_691>": 691,
  "<SPECIAL_692>": 692,
  "<SPECIAL_693>": 693,
  "<SPECIAL_694>": 694,
  "<SPECIAL_695>": 695,
  "<SPECIAL_696>": 696,
  "<SPECIAL_697>": 697,
  "<SPECIAL_698>": 698,
  "<SPECIAL_699>": 699,
  "<SPECIAL_700>": 700,
  "<SPECIAL_701>": 701,
  "<SPECIAL_702>": 702,
  "<SPECIAL_703>": 703,
  "<SPECIAL_704>": 704,
  "<SPECIAL_705>": 705,
  "<SPECIAL_706>": 706,
  "<SPECIAL_707>": 707,
  "<SPECIAL_708>": 708,
  "<SPECIAL_709>": 709,
  "<SPECIAL_710>": 710,
  "<SPECIAL_711>": 711,
  "<SPECIAL_712>": 712,
  "<SPECIAL_713>": 713,
  "<SPECIAL_714>": 714,
  "<SPECIAL_715>": 715,
  "<SPECIAL_716>": 716,
  "<SPECIAL_717>": 717,
  "<SPECIAL_718>": 718,
  "<SPECIAL_719>": 719,
  "<SPECIAL_720>": 720,
  "<SPECIAL_721>": 721,
  "<SPECIAL_722>": 722,
  "<SPECIAL_723>": 723,
  "<SPECIAL_724>": 724,
  "<SPECIAL_725>": 725,
  "<SPECIAL_726>": 726,
  "<SPECIAL_727>": 727,
  "<SPECIAL_728>": 728,
  "<SPECIAL_729>": 729,
  "<SPECIAL_730>": 730,
  "<SPECIAL_731>": 731,
  "<SPECIAL_732>": 732,
  "<SPECIAL_733>": 733,
  "<SPECIAL_734>": 734,
  "<SPECIAL_735>": 735,
  "<SPECIAL_736>": 736,
  "<SPECIAL_737>": 737,
  "<SPECIAL_738>": 738,
  "<SPECIAL_739>": 739,
  "<SPECIAL_740>": 740,
  "<SPECIAL_741>": 741,
  "<SPECIAL_742>": 742,
  "<SPECIAL_743>": 743,
  "<SPECIAL_744>": 744,
  "<SPECIAL_745>": 745,
  "<SPECIAL_746>": 746,
  "<SPECIAL_747>": 747,
  "<SPECIAL_748>": 748,
  "<SPECIAL_749>": 749,
  "<SPECIAL_750>": 750,
  "<SPECIAL_751>": 751,
  "<SPECIAL_752>": 752,
  "<SPECIAL_753>": 753,
  "<SPECIAL_754>": 754,
  "<SPECIAL_755>": 755,
  "<SPECIAL_756>": 756,
  "<SPECIAL_757>": 757,
  "<SPECIAL_758>": 758,
  "<SPECIAL_759>": 759,
  "<SPECIAL_760>": 760,
  "<SPECIAL_761>": 761,
  "<SPECIAL_762>": 762,
  "<SPECIAL_763>": 763,
  "<SPECIAL_764>": 764,
  "<SPECIAL_765>": 765,
  "<SPECIAL_766>": 766,
  "<SPECIAL_767>": 767,
  "<SPECIAL_768>": 768,
  "<SPECIAL_769>": 769,
  "<SPECIAL_770>": 770,
  "<SPECIAL_771>": 771,
  "<SPECIAL_772>": 772,
  "<SPECIAL_773>": 773,
  "<SPECIAL_774>": 774,
  "<SPECIAL_775>": 775,
  "<SPECIAL_776>": 776,
  "<SPECIAL_777>": 777,
  "<SPECIAL_778>": 778,
  "<SPECIAL_779>": 779,
  "<SPECIAL_780>": 780,
  "<SPECIAL_781>": 781,
  "<SPECIAL_782>": 782,
  "<SPECIAL_783>": 783,
  "<SPECIAL_784>": 784,
  "<SPECIAL_785>": 785,
  "<SPECIAL_786>": 786,
  "<SPECIAL_787>": 787,
  "<SPECIAL_788>": 788,
  "<SPECIAL_789>": 789,
  "<SPECIAL_790>": 790,
  "<SPECIAL_791>": 791,
  "<SPECIAL_792>": 792,
  "<SPECIAL_793>": 793,
  "<SPECIAL_794>": 794,
  "<SPECIAL_795>": 795,
  "<SPECIAL_796>": 796,
  "<SPECIAL_797>": 797,
  "<SPECIAL_798>": 798,
  "<SPECIAL_799>": 799,
  "<SPECIAL_800>": 800,
  "<SPECIAL_801>": 801,
  "<SPECIAL_802>": 802,
  "<SPECIAL_803>": 803,
  "<SPECIAL_804>": 804,
  "<SPECIAL_805>": 805,
  "<SPECIAL_806>": 806,
  "<SPECIAL_807>": 807,
  "<SPECIAL_808>": 808,
  "<SPECIAL_809>": 809,
  "<SPECIAL_810>": 810,
  "<SPECIAL_811>": 811,
  "<SPECIAL_812>": 812,
  "<SPECIAL_813>": 813,
  "<SPECIAL_814>": 814,
  "<SPECIAL_815>": 815,
  "<SPECIAL_816>": 816,
  "<SPECIAL_817>": 817,
  "<SPECIAL_818>": 818,
  "<SPECIAL_819>": 819,
  "<SPECIAL_820>": 820,
  "<SPECIAL_821>": 821,
  "<SPECIAL_822>": 822,
  "<SPECIAL_823>": 823,
  "<SPECIAL_824>": 824,
  "<SPECIAL_825>": 825,
  "<SPECIAL_826>": 826,
  "<SPECIAL_827>": 827,
  "<SPECIAL_828>": 828,
  "<SPECIAL_829>": 829,
  "<SPECIAL_830>": 830,
  "<SPECIAL_831>": 831,
  "<SPECIAL_832>": 832,
  "<SPECIAL_833>": 833,
  "<SPECIAL_834>": 834,
  "<SPECIAL_835>": 835,
  "<SPECIAL_836>": 836,
  "<SPECIAL_837>": 837,
  "<SPECIAL_838>": 838,
  "<SPECIAL_839>": 839,
  "<SPECIAL_840>": 840,
  "<SPECIAL_841>": 841,
  "<SPECIAL_842>": 842,
  "<SPECIAL_843>": 843,
  "<SPECIAL_844>": 844,
  "<SPECIAL_845>": 845,
  "<SPECIAL_846>": 846,
  "<SPECIAL_847>": 847,
  "<SPECIAL_848>": 848,
  "<SPECIAL_849>": 849,
  "<SPECIAL_850>": 850,
  "<SPECIAL_851>": 851,
  "<SPECIAL_852>": 852,
  "<SPECIAL_853>": 853,
  "<SPECIAL_854>": 854,
  "<SPECIAL_855>": 855,
  "<SPECIAL_856>": 856,
  "<SPECIAL_857>": 857,
  "<SPECIAL_858>": 858,
  "<SPECIAL_859>": 859,
  "<SPECIAL_860>": 860,
  "<SPECIAL_861>": 861,
  "<SPECIAL_862>": 862,
  "<SPECIAL_863>": 863,
  "<SPECIAL_864>": 864,
  "<SPECIAL_865>": 865,
  "<SPECIAL_866>": 866,
  "<SPECIAL_867>": 867,
  "<SPECIAL_868>": 868,
  "<SPECIAL_869>": 869,
  "<SPECIAL_870>": 870,
  "<SPECIAL_871>": 871,
  "<SPECIAL_872>": 872,
  "<SPECIAL_873>": 873,
  "<SPECIAL_874>": 874,
  "<SPECIAL_875>": 875,
  "<SPECIAL_876>": 876,
  "<SPECIAL_877>": 877,
  "<SPECIAL_878>": 878,
  "<SPECIAL_879>": 879,
  "<SPECIAL_880>": 880,
  "<SPECIAL_881>": 881,
  "<SPECIAL_882>": 882,
  "<SPECIAL_883>": 883,
  "<SPECIAL_884>": 884,
  "<SPECIAL_885>": 885,
  "<SPECIAL_886>": 886,
  "<SPECIAL_887>": 887,
  "<SPECIAL_888>": 888,
  "<SPECIAL_889>": 889,
  "<SPECIAL_890>": 890,
  "<SPECIAL_891>": 891,
  "<SPECIAL_892>": 892,
  "<SPECIAL_893>": 893,
  "<SPECIAL_894>": 894,
  "<SPECIAL_895>": 895,
  "<SPECIAL_896>": 896,
  "<SPECIAL_897>": 897,
  "<SPECIAL_898>": 898,
  "<SPECIAL_899>": 899,
  "<SPECIAL_900>": 900,
  "<SPECIAL_901>": 901,
  "<SPECIAL_902>": 902,
  "<SPECIAL_903>": 903,
  "<SPECIAL_904>": 904,
  "<SPECIAL_905>": 905,
  "<SPECIAL_906>": 906,
  "<SPECIAL_907>": 907,
  "<SPECIAL_908>": 908,
  "<SPECIAL_909>": 909,
  "<SPECIAL_910>": 910,
  "<SPECIAL_911>": 911,
  "<SPECIAL_912>": 912,
  "<SPECIAL_913>": 913,
  "<SPECIAL_914>": 914,
  "<SPECIAL_915>": 915,
  "<SPECIAL_916>": 916,
  "<SPECIAL_917>": 917,
  "<SPECIAL_918>": 918,
  "<SPECIAL_919>": 919,
  "<SPECIAL_920>": 920,
  "<SPECIAL_921>": 921,
  "<SPECIAL_922>": 922,
  "<SPECIAL_923>": 923,
  "<SPECIAL_924>": 924,
  "<SPECIAL_925>": 925,
  "<SPECIAL_926>": 926,
  "<SPECIAL_927>": 927,
  "<SPECIAL_928>": 928,
  "<SPECIAL_929>": 929,
  "<SPECIAL_930>": 930,
  "<SPECIAL_931>": 931,
  "<SPECIAL_932>": 932,
  "<SPECIAL_933>": 933,
  "<SPECIAL_934>": 934,
  "<SPECIAL_935>": 935,
  "<SPECIAL_936>": 936,
  "<SPECIAL_937>": 937,
  "<SPECIAL_938>": 938,
  "<SPECIAL_939>": 939,
  "<SPECIAL_940>": 940,
  "<SPECIAL_941>": 941,
  "<SPECIAL_942>": 942,
  "<SPECIAL_943>": 943,
  "<SPECIAL_944>": 944,
  "<SPECIAL_945>": 945,
  "<SPECIAL_946>": 946,
  "<SPECIAL_947>": 947,
  "<SPECIAL_948>": 948,
  "<SPECIAL_949>": 949,
  "<SPECIAL_950>": 950,
  "<SPECIAL_951>": 951,
  "<SPECIAL_952>": 952,
  "<SPECIAL_953>": 953,
  "<SPECIAL_954>": 954,
  "<SPECIAL_955>": 955,
  "<SPECIAL_956>": 956,
  "<SPECIAL_957>": 957,
  "<SPECIAL_958>": 958,
  "<SPECIAL_959>": 959,
  "<SPECIAL_960>": 960,
  "<SPECIAL_961>": 961,
  "<SPECIAL_962>": 962,
  "<SPECIAL_963>": 963,
  "<SPECIAL_964>": 964,
  "<SPECIAL_965>": 965,
  "<SPECIAL_966>": 966,
  "<SPECIAL_967>": 967,
  "<SPECIAL_968>": 968,
  "<SPECIAL_969>": 969,
  "<SPECIAL_970>": 970,
  "<SPECIAL_971>": 971,
  "<SPECIAL_972>": 972,
  "<SPECIAL_973>": 973,
  "<SPECIAL_974>": 974,
  "<SPECIAL_975>": 975,
  "<SPECIAL_976>": 976,
  "<SPECIAL_977>": 977,
  "<SPECIAL_978>": 978,
  "<SPECIAL_979>": 979,
  "<SPECIAL_980>": 980,
  "<SPECIAL_981>": 981,
  "<SPECIAL_982>": 982,
  "<SPECIAL_983>": 983,
  "<SPECIAL_984>": 984,
  "<SPECIAL_985>": 985,
  "<SPECIAL_986>": 986,
  "<SPECIAL_987>": 987,
  "<SPECIAL_988>": 988,
  "<SPECIAL_989>": 989,
  "<SPECIAL_990>": 990,
  "<SPECIAL_991>": 991,
  "<SPECIAL_992>": 992,
  "<SPECIAL_993>": 993,
  "<SPECIAL_994>": 994,
  "<SPECIAL_995>": 995,
  "<SPECIAL_996>": 996,
  "<SPECIAL_997>": 997,
  "<SPECIAL_998>": 998,
  "<SPECIAL_999>": 999,
  "Ā": 1000,
  "ā": 1001,
  "Ă": 1002,
  "ă": 1003,
  "Ą": 1004,
  "ą": 1005,
  "Ć": 1006,
  "ć": 1007,
  "Ĉ": 1008,
  "ĉ": 1009,
  "Ċ": 1010,
  "ċ": 1011,
  "Č": 1012,
  "č": 1013,
  "Ď": 1014,
  "ď": 1015,
  "Đ": 1016,
  "đ": 1017,
  "Ē": 1018,
  "ē": 1019,
  "Ĕ": 1020,
  "ĕ": 1021,
  "Ė": 1022,
  "ė": 1023,
  "Ę": 1024,
  "ę": 1025,
  "Ě": 1026,
  "ě": 1027,
  "Ĝ": 1028,
  "ĝ": 1029,
  "Ğ": 1030,
  "ğ": 1031,
  "Ġ": 1032,
  "!": 1033,
  "\"": 1034,
  "#": 1035,
  "$": 1036,
  "%": 1037,
  "&": 1038,
  "'": 1039,
  "(": 1040,
  ")": 1041,
  "*": 1042,
  "+": 1043,
  ",": 1044,
  "-": 1045,
  ".": 1046,
  "/": 1047,
  "0": 1048,
  "1": 1049,
  "2": 1050,
  "3": 1051,
  "4": 1052,
  "5": 1053,
  "6": 1054,
  "7": 1055,
  "8": 1056,
  "9": 1057,
  ":": 1058,
  ";": 1059,
  "<": 1060,
  "=": 1061,
  ">": 1062,
  "?": 1063,
  "@": 1064,
  "A": 1065,
  "B": 1066,
  "C": 1067,
  "D": 1068,
  "E": 1069,
  "F": 1070,
  "G": 1071,
  "H": 1072,
  "I": 1073,
  "J": 1074,
  "K": 1075,
  "L": 1076,
  "M": 1077,
  "N": 1078,
  "O": 1079,
  "P": 1080,
  "Q": 1081,
  "R": 1082,
  "S": 1083,
  "T": 1084,
  "U": 1085,
  "V": 1086,
  "W": 1087,
  "X": 1088,
  "Y": 1089,
  "Z": 1090,
  "[": 1091,
  "\\": 1092,
  "]": 1093,
  "^": 1094,
  "_": 1095,
  "`": 1096,
  "a": 1097,
  "b": 1098,
  "c": 1099,
  "d": 1100,
  "e": 1101,
  "f": 1102,
  "g": 1103,
  "h": 1104,
  "i": 1105,
  "j": 1106,
  "k": 1107,
  "l": 1108,
  "m": 1109,
  "n": 1110,
  "o": 1111,
  "p": 1112,
  "q": 1113,
  "r": 1114,
  "s": 1115,
  "t": 1116,
  "u": 1117,
  "v": 1118,
  "w": 1119,
  "x": 1120,
  "y": 1121,
  "z": 1122,
  "{": 1123,
  "|": 1124,
  "}": 1125,
  "~": 1126,
  "ġ": 1127,
  "Ģ": 1128,
  "ģ": 1129,
  "Ĥ": 1130,
  "ĥ": 1131,
  "Ħ": 1132,
  "ħ": 1133,
  "Ĩ": 1134,
  "ĩ": 1135,
  "Ī": 1136,
  "ī": 1137,
  "Ĭ": 1138,
  "ĭ": 1139,
  "Į": 1140,
  "į": 1141,
  "İ": 1142,
  "ı": 1143,
  "Ĳ": 1144,
  "ĳ": 1145,
  "Ĵ": 1146,
  "ĵ": 1147,
  "Ķ": 1148,
  "ķ": 1149,
  "ĸ": 1150,
  "Ĺ": 1151,
  "ĺ": 1152,
  "Ļ": 1153,
  "ļ": 1154,
  "Ľ": 1155,
  "ľ": 1156,
  "Ŀ": 1157,
  "ŀ": 1158,
  "Ł": 1159,
  "ł": 1160,
  "¡": 1161,
  "¢": 1162,
  "£": 1163,
  "¤": 1164,
  "¥": 1165,
  "¦": 1166,
  "§": 1167,
  "¨": 1168,
  "©": 1169,
  "ª": 1170,
  "«": 1171,
  "¬": 1172,
  "Ń": 1173,
  "®": 1174,
  "¯": 1175,
  "°": 1176,
  "±": 1177,
  "²": 1178,
  "³": 1179,
  "´": 1180,
  "µ": 1181,
  "¶": 1182,
  "·": 1183,
  "¸": 1184,
  "¹": 1185,
  "º": 1186,
  "»": 1187,
  "¼": 1188,
  "½": 1189,
  "¾": 1190,
  "¿": 1191,
  "À": 1192,
  "Á": 1193,
  "Â": 1194,
  "Ã": 1195,
  "Ä": 1196,
  "Å": 1197,
  "Æ": 1198,
  "Ç": 1199,
  "È": 1200,
  "É": 1201,
  "Ê": 1202,
  "Ë": 1203,
  "Ì": 1204,
  "Í": 1205,
  "Î": 1206,
  "Ï": 1207,
  "Ð": 1208,
  "Ñ": 1209,
  "Ò": 1210,
  "Ó": 1211,
  "Ô": 1212,
  "Õ": 1213,
  "Ö": 1214,
  "×": 1215,
  "Ø": 1216,
  "Ù": 1217,
  "Ú": 1218,
  "Û": 1219,
  "Ü": 1220,
  "Ý": 1221,
  "Þ": 1222,
  "ß": 1223,
  "à": 1224,
  "á": 1225,
  "â": 1226,
  "ã": 1227,
  "ä": 1228,
  "å": 1229,
  "æ": 1230,
  "ç": 1231,
  "è": 1232,
  "é": 1233,
  "ê": 1234,
  "ë": 1235,
  "ì": 1236,
  "í": 1237,
  "î": 1238,
  "ï": 1239,
  "ð": 1240,
  "ñ": 1241,
  "ò": 1242,
  "ó": 1243,
  "ô": 1244,
  "õ": 1245,
  "ö": 1246,
  "÷": 1247,
  "ø": 1248,
  "ù": 1249,
  "ú": 1250,
  "û": 1251,
  "ü": 1252,
  "ý": 1253,
  "þ": 1254,
  "ÿ": 1255,
  "ĠĠ": 1256,
  "Ġt": 1257,
  "er": 1258,
  "in": 1259,
  "ĠĠĠĠ": 1260,
  "Ġa": 1261,
  "en": 1262,
  "on": 1263,
  "es": 1264,
  "Ġs": 1265,
  "Ġd": 1266,
  "ĊĊ": 1267,
  "he": 1268,
  "at": 1269,
  "or": 1270,
  "an": 1271,
  "Ġc": 1272,
  "re": 1273,
  "Ġp": 1274,
  "is": 1275,
  "it": 1276,
  "ar": 1277,
  "Ġthe": 1278,
  "al": 1279,
  "Ø§": 1280,
  "Ġo": 1281,
  "le": 1282,
  "Ġm": 1283,
  "Ġf": 1284,
  "Ġw": 1285,
  "ed": 1286,
  "âĢ": 1287,
  "as": 1288,
  "Ġb": 1289,
  "ic": 1290,
  "ro": 1291,
  "ion": 1292,
  "ĠĠĠ": 1293,
  "Ġin": 1294,
  "Ġl": 1295,
  "ãĢ": 1296,
  "ent": 1297,
  "nd": 1298,
  "el": 1299,
  "ĠÐ": 1300,
  "ĠĠĠĠĠĠĠĠ": 1301,
  "ing": 1302,
  "ÙĦ": 1303,
  "et": 1304,
  "ou": 1305,
  "à¤": 1306,
  "Ġof": 1307,
  "Ġn": 1308,
  "ĠØ": 1309,
  "Ġh": 1310,
  "Ġde": 1311,
  "Ġ|": 1312,
  "om": 1313,
  "st": 1314,
  "Ð°": 1315,
  "ct": 1316,
  "Ġto": 1317,
  "il": 1318,
  "Ġ(": 1319,
  "ãĢĤ": 1320,
  "Ġand": 1321,
  "ĠÙ": 1322,
  "Ð¾": 1323,
  "Ġe": 1324,
  "am": 1325,
  "Ġth": 1326,
  "id": 1327,
  "ur": 1328,
  "im": 1329,
  "Ġv": 1330,
  "ch": 1331,
  "ad": 1332,
  "Ġu": 1333,
  "Ðµ": 1334,
  "ĠS": 1335,
  "ol": 1336,
  "Ã©": 1337,
  ".ĊĊ": 1338,
  "ÙĬ": 1339,
  "ãģ": 1340,
  "ut": 1341,
  "ï¼": 1342,
  "Ġg": 1343,
  "Ġre": 1344,
  "ÙĨ": 1345,
  "os": 1346,
  "Ð¸": 1347,
  "qu": 1348,
  "ĠA": 1349,
  "Ø§ÙĦ": 1350,
  "ig": 1351,
  "Ø±": 1352,
  "ĠT": 1353,
  "iv": 1354,
  "ãĢĤĊĊ": 1355,
  "em": 1356,
  "ra": 1357,
  "##": 1358,
  "ĠC": 1359,
  "ot": 1360,
  "ÑĤ": 1361,
  "ĠI": 1362,
  "Ð½": 1363,
  "Ġ*": 1364,
  ";Ċ": 1365,
  "ul": 1366,
  "ÑĢ": 1367,
  "ce": 1368,
  "ĠĠĠĠĠĠĠ": 1369,
  "ation": 1370,
  "Ùħ": 1371,
  "est": 1372,
  "ĠM": 1373,
  "us": 1374,
  "ĠØ§ÙĦ": 1375,
  "Ġ=": 1376,
  "Ñģ": 1377,
  "ir": 1378,
  "à°": 1379,
  "ÙĪ": 1380,
  "à¦": 1381,
  "Ġr": 1382,
  "Ġcon": 1383,
  "un": 1384,
  "Ġì": 1385,
  "ie": 1386,
  "od": 1387,
  "Øª": 1388,
  "Ġst": 1389,
  "ĠP": 1390,
  "if": 1391,
  "ow": 1392,
  "ag": 1393,
  "Ġfor": 1394,
  "Ġis": 1395,
  "Ð¾Ð": 1396,
  "ter": 1397,
  "ĠB": 1398,
  "Ø¯": 1399,
  "te": 1400,
  "ab": 1401,
  "Ġbe": 1402,
  "um": 1403,
  "Ġy": 1404,
  "ly": 1405,
  "áĥ": 1406,
  "ĠD": 1407,
  "Ġon": 1408,
  "Ġk": 1409,
  "Ġal": 1410,
  "th": 1411,
  "Ġse": 1412,
  "ac": 1413,
  "âĢĿ": 1414,
  "se": 1415,
  "ist": 1416,
  "ay": 1417,
  "Ġen": 1418,
  "ate": 1419,
  "Ġan": 1420,
  "and": 1421,
  "Ùĩ": 1422,
  "ess": 1423,
  "ĠL": 1424,
  "ith": 1425,
  "à¥": 1426,
  "Ġla": 1427,
  "ers": 1428,
  "Ġ\"": 1429,
  "av": 1430,
  "Ġpro": 1431,
  "Ð»": 1432,
  "Ġà¤": 1433,
  "ĠR": 1434,
  "Ġas": 1435,
  "ĠE": 1436,
  "Ġcom": 1437,
  "**": 1438,
  "ĠF": 1439,
  "Ø§Ø": 1440,
  "ere": 1441,
  "Ġqu": 1442,
  "ĠH": 1443,
  "ri": 1444,
  "Ġ{": 1445,
  "pe": 1446,
  "Ġë": 1447,
  "Ø©": 1448,
  "ort": 1449,
  "ant": 1450,
  "à²": 1451,
  "Ġwh": 1452,
  "oc": 1453,
  "Ġwith": 1454,
  "Ġthat": 1455,
  ")Ċ": 1456,
  "Ġun": 1457,
  "ĉĉ": 1458,
  "Ġle": 1459,
  "à®": 1460,
  "ĠG": 1461,
  "Ġ-": 1462,
  "ĠĠĠĠĠĠĠĠĠĠĠ": 1463,
  "ĠN": 1464,
  "ver": 1465,
  "ap": 1466,
  "ÛĮ": 1467,
  ");Ċ": 1468,
  "ãĤ": 1469,
  "Ġsu": 1470,
  "âĢĻ": 1471,
  "Ñĥ": 1472,
  "ìĿ": 1473,
  "end": 1474,
  "Ġj": 1475,
  "ment": 1476,
  "ĠÙħ": 1477,
  "ht": 1478,
  "our": 1479,
  "Ġex": 1480,
  "Ðº": 1481,
  "âĢľ": 1482,
  "ĠØ§ÙĦØ": 1483,
  "op": 1484,
  "ia": 1485,
  "Ġwas": 1486,
  "à¸": 1487,
  "ĠW": 1488,
  "ak": 1489,
  "art": 1490,
  "ction": 1491,
  "ĠÃ": 1492,
  "ain": 1493,
  "Ġit": 1494,
  "Ġ}": 1495,
  "ãĥ": 1496,
  "pl": 1497,
  "ue": 1498,
  "rom": 1499,
  "og": 1500,
  "ud": 1501,
  "Ã¡": 1502,
  "ass": 1503,
  "Ġne": 1504,
  "Ġor": 1505,
  "Ã³": 1506,
  "ĠJ": 1507,
  "Ø¨": 1508,
  "ame": 1509,
  "âĢ¦": 1510,
  "Ð²": 1511,
  "Ġ{Ċ": 1512,
  "Ġat": 1513,
  "Ġhe": 1514,
  "pt": 1515,
  "ĠÙĪ": 1516,
  "Ġpr": 1517,
  "iz": 1518,
  "ine": 1519,
  ",Ċ": 1520,
  "ich": 1521,
  "ell": 1522,
  "ub": 1523,
  "port": 1524,
  "ill": 1525,
  "ÙĤ": 1526,
  "Ø³": 1527,
  "Ġch": 1528,
  "ÃŃ": 1529,
  "Ø¹": 1530,
  "ĠThe": 1531,
  "ity": 1532,
  "ang": 1533,
  "Ġ<": 1534,
  "ĠO": 1535,
  "Ġby": 1536,
  "ĠĠĠĠĠĠĠĠĠĠĠĠĠĠĠĠ": 1537,
  "Ð´": 1538,
  "ov": 1539,
  "ĠâĢ": 1540,
  "age": 1541,
  "à´": 1542,
  "ld": 1543,
  "ĠØ¨": 1544,
  "ans": 1545,
  "ne": 1546,
  "Ġ×": 1547,
  "ãĢį": 1548,
  "ure": 1549,
  "ĠK": 1550,
  "ial": 1551,
  "ik": 1552,
  "pr": 1553,
  "Ġz": 1554,
  "//": 1555,
  "ive": 1556,
  "ore": 1557,
  "de": 1558,
  "Ùĥ": 1559,
  "Ġtr": 1560,
  ">Ċ": 1561,
  "Ġfrom": 1562,
  "Ġdes": 1563,
  "ies": 1564,
  "Ð¼": 1565,
  "Ùģ": 1566,
  "å¹": 1567,
  "Ġet": 1568,
  "per": 1569,
  "Ñı": 1570,
  "tr": 1571,
  "Ġ|Ċ": 1572,
  "Ġcl": 1573,
  "),": 1574,
  "ber": 1575,
  "Ġ'": 1576,
  ").": 1577,
  "Ġel": 1578,
  "ult": 1579,
  "ard": 1580,
  "ĠV": 1581,
  "Ġê": 1582,
  "ĠÎ": 1583,
  "Ġare": 1584,
  "ect": 1585,
  "ip": 1586,
  "å¹´": 1587,
  "ĠÐ¿": 1588,
  "á»": 1589,
  "con": 1590,
  "ost": 1591,
  "ire": 1592,
  "Ġthis": 1593,
  "int": 1594,
  "###": 1595,
  "Õ¡": 1596,
  "cl": 1597,
  "ï¼ī": 1598,
  "all": 1599,
  "âĢĿĊĊ": 1600,
  "ØĮ": 1601,
  "Ġim": 1602,
  "Ġ**": 1603,
  "à±": 1604,
  "Ġnot": 1605,
  "orm": 1606,
  "Ñĭ": 1607,
  "ĠU": 1608,
  "ff": 1609,
  "Ġres": 1610,
  "to": 1611,
  "ib": 1612,
  "Ġque": 1613,
  "ĠÑģ": 1614,
  "Ġpl": 1615,
  "ust": 1616,
  "Ġ\\": 1617,
  "rou": 1618,
  "ord": 1619,
  "ight": 1620,
  "ated": 1621,
  "=\"": 1622,
  "Ġi": 1623,
  "Ø§ÙĨ": 1624,
  "ï¼Į": 1625,
  ".Ċ": 1626,
  "Ġsh": 1627,
  "ĠØ£": 1628,
  "ind": 1629,
  "ave": 1630,
  "ile": 1631,
  "æľ": 1632,
  "ata": 1633,
  "íķ": 1634,
  "Ġpar": 1635,
  "Ġyou": 1636,
  "xt": 1637,
  "able": 1638,
  "Ġme": 1639,
  ";ĊĊ": 1640,
  "ãĢįĊĊ": 1641,
  "ast": 1642,
  "ge": 1643,
  "ëĭ": 1644,
  "urn": 1645,
  "à§": 1646,
  "ens": 1647,
  "ĠÙģ": 1648,
  "ru": 1649,
  "Ġus": 1650,
  "Ġper": 1651,
  "ĠĠĠĠĠ": 1652,
  "Ġdo": 1653,
  "Ã¤": 1654,
  "io": 1655,
  "ĠIn": 1656,
  "``": 1657,
  "à¤¾": 1658,
  "Ġ$": 1659,
  "out": 1660,
  "ase": 1661,
  "ok": 1662,
  "ack": 1663,
  "ach": 1664,
  "Õ¡Õ": 1665,
  "cc": 1666,
  "are": 1667,
  "ĠÐ²": 1668,
  "du": 1669,
  "++": 1670,
  "Ã¼": 1671,
  "ve": 1672,
  "Ġund": 1673,
  "âĢĶ": 1674,
  "ide": 1675,
  "lic": 1676,
  "à¯": 1677,
  "Ġcont": 1678,
  "act": 1679,
  "ould": 1680,
  "'s": 1681,
  "ath": 1682,
  "Ġad": 1683,
  "nt": 1684,
  "ical": 1685,
  "Ġar": 1686,
  "ient": 1687,
  "áĢ": 1688,
  "get": 1689,
  "()": 1690,
  "Ġcomp": 1691,
  "ĠÐ½": 1692,
  "Ġif": 1693,
  "ĠĠĠĠĠĠĠĠĠĠĠĠĠĠĠ": 1694,
  "pp": 1695,
  "ĠÑ": 1696,
  "ont": 1697,
  "ĠÂ": 1698,
  "ÑĢÐ°": 1699,
  "ĠÕ": 1700,
  "ÏĦ": 1701,
  "ice": 1702,
  "ä¸": 1703,
  "ĠTh": 1704,
  "ÑģÑĤ": 1705,
  "ong": 1706,
  "ĠØª": 1707,
  "ØŃ": 1708,
  "Ġest": 1709,
  "Ġcan": 1710,
  "ĠØ¹": 1711,
  "ÑĮ": 1712,
  "Î±": 1713,
  "ign": 1714,
  "Ġab": 1715,
  "ng": 1716,
  "ition": 1717,
  "ous": 1718,
  "ï¼Ł": 1719,
  "ier": 1720,
  "ime": 1721,
  "Ġwere": 1722,
  "ph": 1723,
  "ob": 1724,
  "Î¿": 1725,
  "fer": 1726,
  "ï¼ļ": 1727,
  "Ġder": 1728,
  "Ġwe": 1729,
  "com": 1730,
  "ĠÙĦ": 1731,
  "Ð·": 1732,
  "ence": 1733,
  "ÐµÐ½": 1734,
  "æľĪ": 1735,
  "Ġhave": 1736,
  "Ġ:": 1737,
  "ìĹ": 1738,
  "ëĭ¤": 1739,
  "turn": 1740,
  "ance": 1741,
  "--": 1742,
  "âĢ¦âĢ¦": 1743,
  "Ø¬": 1744,
  "Ġà¦": 1745,
  "_{": 1746,
  "Ġall": 1747,
  "Ġ&": 1748,
  "ãĢģ": 1749,
  "Ġpre": 1750,
  "à³": 1751,
  "ite": 1752,
  "Ñĸ": 1753,
  "Ã¨": 1754,
  "ĠÃł": 1755,
  "ĠÐ¸": 1756,
  "ĠSt": 1757,
  "Ú©": 1758,
  "Ġdis": 1759,
  "ary": 1760,
  "form": 1761,
  "æĹ": 1762,
  "ll": 1763,
  "Ùī": 1764,
  "Ġer": 1765,
  "Ġ[": 1766,
  "×Ļ": 1767,
  "Ġro": 1768,
  "Ġà°": 1769,
  "res": 1770,
  "ace": 1771,
  "Ġdi": 1772,
  "erv": 1773,
  "one": 1774,
  "ĠâĢĵ": 1775,
  "Ø§Ø±": 1776,
  "Ġte": 1777,
  "so": 1778,
  "Î¹": 1779,
  "Ä±": 1780,
  "ther": 1781,
  "ĠÃ©": 1782,
  "ork": 1783,
  "The": 1784,
  "In": 1785,
  "au": 1786,
  "ÙĬØ©": 1787,
  "iÃ³": 1788,
  "Ð¿": 1789,
  "ode": 1790,
  "..": 1791,
  "Ã¶": 1792,
  "Ð¾Ð²": 1793,
  "Ġhis": 1794,
  "ations": 1795,
  "(\"": 1796,
  "×ķ": 1797,
  "ome": 1798,
  "Ġwhich": 1799,
  "ck": 1800,
  ")ĊĊ": 1801,
  "Ñĩ": 1802,
  "à¥ĩ": 1803,
  "me": 1804,
  "Ġpart": 1805,
  "Ø´": 1806,
  "Ġdel": 1807,
  "we": 1808,
  "Ġbut": 1809,
  "ĠÐ¾": 1810,
  "ublic": 1811,
  "pon": 1812,
  "ement": 1813,
  "ert": 1814,
  "enc": 1815,
  "ah": 1816,
  "Ġau": 1817,
  "ï¼Ī": 1818,
  "ĠÙģÙĬ": 1819,
  "à¤°": 1820,
  "áº": 1821,
  "ps": 1822,
  "Ġes": 1823,
  "ions": 1824,
  "Ð³": 1825,
  "Ġ}Ċ": 1826,
  "ĠCh": 1827,
  "Ġdie": 1828,
  "ype": 1829,
  "ual": 1830,
  "ma": 1831,
  "Ø§Øª": 1832,
  "ëĬ": 1833,
  "gh": 1834,
  "ĠÐº": 1835,
  "Ġno": 1836,
  "che": 1837,
  "Î½": 1838,
  "ors": 1839,
  "ĠØ§ÙĦÙħ": 1840,
  "ple": 1841,
  "ose": 1842,
  "Ġob": 1843,
  "ãĢĤĊ": 1844,
  "Ġclass": 1845,
  "ft": 1846,
  "Ð°Ð½": 1847,
  "Ġout": 1848,
  "Ġles": 1849,
  "Ġreturn": 1850,
  "ung": 1851,
  "ÖĢ": 1852,
  "Ġher": 1853,
  "ory": 1854,
  "Ġam": 1855,
  "ìĿ´": 1856,
  "àª": 1857,
  "àµ": 1858,
  "ari": 1859,
  "cre": 1860,
  "ait": 1861,
  "Ð¹": 1862,
  "ëĬĶ": 1863,
  "Ġinter": 1864,
  "ject": 1865,
  "æĹ¥": 1866,
  "Ġ+": 1867,
  "der": 1868,
  "ĠÙħÙĨ": 1869,
  "gr": 1870,
  "ĠRe": 1871,
  "que": 1872,
  "Ġem": 1873,
  "ĠÙĬ": 1874,
  "Ġnew": 1875,
  "ĠÐ´": 1876,
  ":Ċ": 1877,
  "Ġso": 1878,
  "yst": 1879,
  "Ġhad": 1880,
  "Ð±": 1881,
  "âĢĵ": 1882,
  "vent": 1883,
  "Ġdu": 1884,
  "</": 1885,
  "ÑĢÐµ": 1886,
  "Ġsa": 1887,
  "elf": 1888,
  "rit": 1889,
  "ys": 1890,
  "à¥į": 1891,
  "iss": 1892,
  "lect": 1893,
  "Ġman": 1894,
  "Ġ//": 1895,
  "Ø·": 1896,
  "\",": 1897,
  "ï¼ģ": 1898,
  "vel": 1899,
  "her": 1900,
  "Ñħ": 1901,
  "ĠÐ½Ð°": 1902,
  "Îµ": 1903,
  "ear": 1904,
  "iew": 1905,
  "lo": 1906,
  "iel": 1907,
  "ific": 1908,
  "×ķ×": 1909,
  "ĠØ¯": 1910,
  "ian": 1911,
  "inal": 1912,
  ".s": 1913,
  "Ġma": 1914,
  "Ġí": 1915,
  "Ġval": 1916,
  "import": 1917,
  "\\)": 1918,
  "Õ¸": 1919,
  "erm": 1920,
  "Ãł": 1921,
  "ï¼ļâĢľ": 1922,
  "ater": 1923,
  "Ã©s": 1924,
  "Ġone": 1925,
  "Øµ": 1926,
  "own": 1927,
  "Ø§Ùħ": 1928,
  "ÑĤÐ°": 1929,
  "à¯į": 1930,
  "ran": 1931,
  "oll": 1932,
  "ÙĩØ§": 1933,
  "Ġhas": 1934,
  "Ġint": 1935,
  "ug": 1936,
  "ener": 1937,
  "ry": 1938,
  "×Ļ×": 1939,
  "Ã§": 1940,
  "->": 1941,
  "Ġsp": 1942,
  "ĠÄ": 1943,
  "ely": 1944,
  "ĠY": 1945,
  "put": 1946,
  "ĠÂ«": 1947,
  "ex": 1948,
  "ount": 1949,
  "div": 1950,
  "Com": 1951,
  "^{": 1952,
  "ãĢĤâĢĿĊĊ": 1953,
  "ê³": 1954,
  "az": 1955,
  "à¤¾à¤": 1956,
  "Ġ_": 1957,
  "Ġsur": 1958,
  "Ġent": 1959,
  "Ø²": 1960,
  "Ø®": 1961,
  "ìĿĦ": 1962,
  "iÃ³n": 1963,
  "ÑĢÐ¸": 1964,
  "ke": 1965,
  "eth": 1966,
  "unction": 1967,
  "irst": 1968,
  "ìĹĲ": 1969,
  "led": 1970,
  "ÑĨ": 1971,
  "cri": 1972,
  "ÙĬÙĨ": 1973,
  "Ġgo": 1974,
  "```": 1975,
  "Ïģ": 1976,
  "val": 1977,
  "li": 1978,
  "aus": 1979,
  "ann": 1980,
  "ÙĦÙī": 1981,
  "up": 1982,
  "ese": 1983,
  "Ġag": 1984,
  "ick": 1985,
  "ail": 1986,
  "Ġ/": 1987,
  "Ð¾Ð´": 1988,
  "St": 1989,
  "Ġlo": 1990,
  "ten": 1991,
  "Â»": 1992,
  "ade": 1993,
  "pro": 1994,
  "Ġass": 1995,
  "ĠØ³": 1996,
  "ien": 1997,
  "ound": 1998,
  "ild": 1999,
  "Ġ`": 2000,
  "Ġpo": 2001,
  "}Ċ": 2002,
  "ep": 2003,
  "Ïĥ": 2004,
  "Ġmod": 2005,
  "ĠĠĠĠĠĠĠĠĠĠĠĠĠĠĠĠĠĠĠ": 2006,
  "Ġ\\(": 2007,
  "Ġdif": 2008,
  "Ġcomm": 2009,
  "äº": 2010,
  "Ġstr": 2011,
  "Ġget": 2012,
  "les": 2013,
  "ied": 2014,
  "Ġup": 2015,
  "Ġset": 2016,
  "ock": 2017,
  "Ġconst": 2018,
  "Ġver": 2019,
  "ĠØ¥": 2020,
  "('": 2021,
  "Ġpos": 2022,
  "ents": 2023,
  "Ð¾Ð»": 2024,
  "ec": 2025,
  "ê°": 2026,
  "Ð½Ð°": 2027,
  "ĉĉĉĉ": 2028,
  "par": 2029,
  "{Ċ": 2030,
  "eng": 2031,
  "ew": 2032,
  "ize": 2033,
  "Ġtheir": 2034,
  "clud": 2035,
  "Ġmy": 2036,
  "ystem": 2037,
  "ull": 2038,
  "ado": 2039,
  "à±į": 2040,
  "row": 2041,
  "und": 2042,
  "ij": 2043,
  "ĠÙĨ": 2044,
  "ada": 2045,
  "ĠÙĥ": 2046,
  "à¥įà¤": 2047,
  "ĠAn": 2048,
  "ption": 2049,
  "Õ¶": 2050,
  "Õ«": 2051,
  "à¨": 2052,
  "ss": 2053,
  "wo": 2054,
  "eg": 2055,
  "tring": 2056,
  "Õ¥": 2057,
  "Ġsc": 2058,
  "ark": 2059,
  "Ð»Ð¸": 2060,
  "Ġcol": 2061,
  "pec": 2062,
  "à¥Ģ": 2063,
  "Ġ}ĊĊ": 2064,
  "Ġpublic": 2065,
  "ree": 2066,
  "à¦¾": 2067,
  "ale": 2068,
  "à¤¿": 2069,
  "Ġph": 2070,
  "Ġform": 2071,
  "Ġtra": 2072,
  "Ġap": 2073,
  "ĠÚ©": 2074,
  "Ġreg": 2075,
  "ÑĤÐµ": 2076,
  "ink": 2077,
  "Ġav": 2078,
  "Ø§Ø³": 2079,
  "Ġìŀ": 2080,
  "Ġmore": 2081,
  "ake": 2082,
  "ta": 2083,
  "Ġwill": 2084,
  "ÉĻ": 2085,
  "ĠÐ¼": 2086,
  "ise": 2087,
  "Ġbet": 2088,
  "Ġvo": 2089,
  "ä»": 2090,
  "Ð½Ð¸": 2091,
  "}ĊĊ": 2092,
  "Ġra": 2093,
  "emb": 2094,
  "Ġalso": 2095,
  "',": 2096,
  "ins": 2097,
  "Ġà¤ķ": 2098,
  "Ø£": 2099,
  ":ĊĊ": 2100,
  "Ġil": 2101,
  "Ġacc": 2102,
  "ÑĤÐ¾": 2103,
  "ĠÐ±": 2104,
  "Ð»Ð°": 2105,
  "íķĺ": 2106,
  "ric": 2107,
  "Ġact": 2108,
  "Ġcons": 2109,
  "ĠÐ·": 2110,
  "ix": 2111,
  "Ð¾Ð¼": 2112,
  "Ã£": 2113,
  "Ãª": 2114,
  "áĥĲ": 2115,
  "();Ċ": 2116,
  "pect": 2117,
  "Ġapp": 2118,
  "fter": 2119,
  "Ġà²": 2120,
  "Ġdef": 2121,
  "ular": 2122,
  "ì§": 2123,
  "ĠìĿ": 2124,
  "Ġlos": 2125,
  "Ġ@": 2126,
  "Ġthey": 2127,
  "ÑĪ": 2128,
  "ĠâĢľ": 2129,
  "ates": 2130,
  "Ø¶": 2131,
  "tt": 2132,
  "ãĢĮ": 2133,
  "Ġrec": 2134,
  "Ġpe": 2135,
  "Ġover": 2136,
  "ern": 2137,
  "ĠÙĩ": 2138,
  "ÙĪØ±": 2139,
  "ish": 2140,
  "anc": 2141,
  "Ġtime": 2142,
  "Ġyour": 2143,
  "cess": 2144,
  "Ø°": 2145,
  "aj": 2146,
  "Ġother": 2147,
  "Ġtrans": 2148,
  "text": 2149,
  "ike": 2150,
  "Ġbeen": 2151,
  "Ġrel": 2152,
  "*,": 2153,
  "ven": 2154,
  "Ġsub": 2155,
  "Ġthere": 2156,
  "ĠIt": 2157,
  "Ġfirst": 2158,
  "ĠUn": 2159,
  "Ġco": 2160,
  "pos": 2161,
  "ÏĤ": 2162,
  "ĠZ": 2163,
  "::": 2164,
  "Ġshe": 2165,
  "ek": 2166,
  "à¦°": 2167,
  "Ġwould": 2168,
  "Ġser": 2169,
  "Ġda": 2170,
  "Î·": 2171,
  "ÏĢ": 2172,
  "Ġpor": 2173,
  "ange": 2174,
  "ĠÐ³": 2175,
  "Ġche": 2176,
  "Ġà®": 2177,
  "à±įà°": 2178,
  "ĠAl": 2179,
  ");ĊĊ": 2180,
  "Ġdata": 2181,
  "ĠHe": 2182,
  "ĠØŃ": 2183,
  "str": 2184,
  "ìĿĺ": 2185,
  "let": 2186,
  "ings": 2187,
  "Ġmay": 2188,
  "old": 2189,
  "âĢĻs": 2190,
  "ÑģÐº": 2191,
  "ÙĪÙĨ": 2192,
  "olog": 2193,
  "ĠAr": 2194,
  "app": 2195,
  "Ġwork": 2196,
  "Ø§Ø¯": 2197,
  "Ġein": 2198,
  "ë¡": 2199,
  "Ġwhen": 2200,
  "ÅĤ": 2201,
  "Ð¶": 2202,
  "Ġinto": 2203,
  "æĺ": 2204,
  "à°¾": 2205,
  "Ġac": 2206,
  "áĥĺ": 2207,
  "ina": 2208,
  "but": 2209,
  "Ġuse": 2210,
  "à°¿": 2211,
  "Ïħ": 2212,
  "Ùĭ": 2213,
  "Ġpres": 2214,
  "ìĦ": 2215,
  "Ġnum": 2216,
  "ÙĪÙĦ": 2217,
  "Ø«": 2218,
  "ë¥": 2219,
  "Ġden": 2220,
  "mer": 2221,
  "à§į": 2222,
  "Ġpol": 2223,
  "Ġthan": 2224,
  "lement": 2225,
  "ê³ł": 2226,
  "igh": 2227,
  "Ð¾Ð³": 2228,
  "Ġadd": 2229,
  "arg": 2230,
  "Ġstud": 2231,
  "ons": 2232,
  "eb": 2233,
  "ond": 2234,
  "ove": 2235,
  ".get": 2236,
  "à¹": 2237,
  "ĠÙĤ": 2238,
  "à¤¿à¤": 2239,
  "ĠØ±": 2240,
  "\"Ċ": 2241,
  "Ð²Ð°": 2242,
  "ays": 2243,
  "Ã£o": 2244,
  "ava": 2245,
  "Ġits": 2246,
  "Ġ.": 2247,
  "Īëĭ¤": 2248,
  "yn": 2249,
  "ĠĠĠĠĠĠĠĠĠ": 2250,
  "ĠâĢĶ": 2251,
  "Ġid": 2252,
  "ci": 2253,
  "Ġfunction": 2254,
  "âĢĮ": 2255,
  "Ġdet": 2256,
  "Ġáĥ": 2257,
  "Ġany": 2258,
  "Ġ</": 2259,
  "Ñİ": 2260,
  "round": 2261,
  "ÐµÑĢ": 2262,
  "ef": 2263,
  "ente": 2264,
  "·¸": 2265,
  "Name": 2266,
  "Ã©e": 2267,
  "ble": 2268,
  "Ġsome": 2269,
  "Ġgr": 2270,
  "Ġbo": 2271,
  "ĠSe": 2272,
  "ĠdÃ©": 2273,
  "Ġwho": 2274,
  "ĠØ§ÙĦØ£": 2275,
  "ror": 2276,
  "ative": 2277,
  "Ø§Ø¨": 2278,
  "oth": 2279,
  "atch": 2280,
  "Ġcor": 2281,
  "Ġresult": 2282,
  "ating": 2283,
  "Ġatt": 2284,
  "atic": 2285,
  "ÖĤ": 2286,
  "Ġsign": 2287,
  "à¤Ĥ": 2288,
  "ased": 2289,
  "à§ĩ": 2290,
  "ray": 2291,
  "Ġdem": 2292,
  "####": 2293,
  "Ġkn": 2294,
  "Ġtwo": 2295,
  "à¯įà®": 2296,
  "Ġ=>": 2297,
  "ĠÏĦ": 2298,
  "à³į": 2299,
  "Ġdur": 2300,
  "ĠLe": 2301,
  "na": 2302,
  "ë¡ľ": 2303,
  "ÙĬØ±": 2304,
  "ãģĹ": 2305,
  "ton": 2306,
  "ield": 2307,
  "sp": 2308,
  "Ġprodu": 2309,
  "Ġje": 2310,
  "Comment": 2311,
  "ãģ¯": 2312,
  "ession": 2313,
  "Ġabout": 2314,
  "ĠÄĳ": 2315,
  "íķľ": 2316,
  "Ġop": 2317,
  "ÑĤÐ¸": 2318,
  "tern": 2319,
  "co": 2320,
  "à°¾à°": 2321,
  "Ã©r": 2322,
  "cond": 2323,
  "itt": 2324,
  "ìł": 2325,
  "Ġbl": 2326,
  "Ġfl": 2327,
  "Ġaut": 2328,
  "ween": 2329,
  "ember": 2330,
  "Ġuna": 2331,
  "ĠÑĥ": 2332,
  "ĠØ¬": 2333,
  "Ð½Ð¾": 2334,
  "ict": 2335,
  "Ġna": 2336,
  "Ġfe": 2337,
  "red": 2338,
  "Ġfil": 2339,
  "oy": 2340,
  "áĥĲáĥ": 2341,
  "Ġonly": 2342,
  "ze": 2343,
  "Ġeff": 2344,
  "://": 2345,
  "Ùĳ": 2346,
  "Ġìķ": 2347,
  "ĠØ´": 2348,
  "Ġdiffer": 2349,
  "Ġpat": 2350,
  "Ġ==": 2351,
  "be": 2352,
  "ÃŃa": 2353,
  ".com": 2354,
  "âĢĶâĢĶ": 2355,
  "ner": 2356,
  "Ġrem": 2357,
  "ren": 2358,
  "uc": 2359,
  "ym": 2360,
  "Õ¸ÖĤ": 2361,
  "Ġend": 2362,
  "bo": 2363,
  "als": 2364,
  "Ġmin": 2365,
  "åı": 2366,
  "Ġdans": 2367,
  "ãĢĤâĢĿ": 2368,
  "ì§Ģ": 2369,
  "urr": 2370,
  "Ġke": 2371,
  "amp": 2372,
  "ï¼īĊ": 2373,
  "Ġtem": 2374,
  "Ķ×": 2375,
  "Ġson": 2376,
  "ĠØ£ÙĨ": 2377,
  "à¥ĭ": 2378,
  "Ġpara": 2379,
  "}\\": 2380,
  "Å¡": 2381,
  "Ġcar": 2382,
  "its": 2383,
  "ìķ": 2384,
  "ê°Ģ": 2385,
  "ui": 2386,
  "àµį": 2387,
  "Ġpour": 2388,
  "åĲ": 2389,
  "plic": 2390,
  "name": 2391,
  "ts": 2392,
  "ãģĦ": 2393,
  "åħ": 2394,
  "ank": 2395,
  "Ġbetween": 2396,
  "els": 2397,
  "urs": 2398,
  "uch": 2399,
  "ãģĿ": 2400,
  "rol": 2401,
  "Ġinclud": 2402,
  "ues": 2403,
  "à±ģ": 2404,
  "'t": 2405,
  "Id": 2406,
  "ãģ¨": 2407,
  "roup": 2408,
  "ĠThis": 2409,
  "Ġsol": 2410,
  "Ãº": 2411,
  "ator": 2412,
  "ë¦": 2413,
  "Ġhim": 2414,
  "Ġune": 2415,
  "ible": 2416,
  "Ġmed": 2417,
  "gan": 2418,
  "Îº": 2419,
  "Ġprov": 2420,
  "Ġvon": 2421,
  "min": 2422,
  "ĠØ§ÙĦØª": 2423,
  "Ġthem": 2424,
  "Ġunder": 2425,
  "à¦¿": 2426,
  "ract": 2427,
  "ux": 2428,
  "ãģŁ": 2429,
  "Ġthen": 2430,
  "ĠCom": 2431,
  "land": 2432,
  "Î»": 2433,
  "Ġused": 2434,
  "ìĿĢ": 2435,
  "ser": 2436,
  "à§įà¦": 2437,
  "Th": 2438,
  "ãģ®": 2439,
  "hed": 2440,
  "à°Ĥ": 2441,
  "Ġinst": 2442,
  "wer": 2443,
  "fl": 2444,
  "Ġsi": 2445,
  "Ġcre": 2446,
  "ethod": 2447,
  "ced": 2448,
  "ais": 2449,
  "Ø§ÛĮ": 2450,
  "ĠPro": 2451,
  "att": 2452,
  "Ġafter": 2453,
  "den": 2454,
  "ces": 2455,
  "ures": 2456,
  "Ġê·¸": 2457,
  "Äĥ": 2458,
  "ica": 2459,
  "Ġx": 2460,
  "×¨": 2461,
  "ger": 2462,
  "ÐºÐ°": 2463,
  "ai": 2464,
  "ìŀ": 2465,
  "ĠQ": 2466,
  "ä½": 2467,
  "è¯": 2468,
  "Ġcell": 2469,
  "à¦¾à¦": 2470,
  "une": 2471,
  "ages": 2472,
  "Ġrequ": 2473,
  "ãĥ¼": 2474,
  "à³įà²": 2475,
  "ats": 2476,
  "Ġmet": 2477,
  "Ġwhere": 2478,
  "Ġlike": 2479,
  "_t": 2480,
  "Ġcould": 2481,
  "aut": 2482,
  "rough": 2483,
  "ĠMar": 2484,
  "à¤¨": 2485,
  "Õ¡Õ¶": 2486,
  "ally": 2487,
  "Ġvari": 2488,
  "Ġext": 2489,
  "Ġoff": 2490,
  "ĠDe": 2491,
  "Ñĺ": 2492,
  "yp": 2493,
  "ĠÐ°": 2494,
  "Ġind": 2495,
  "this": 2496,
  "Ð½Ñĭ": 2497,
  "erson": 2498,
  "æĺ¯": 2499,
  "Ġsim": 2500,
  "Ú¯": 2501,
  "Ġspec": 2502,
  "ruct": 2503,
  "ause": 2504,
  "Ġusing": 2505,
  "ider": 2506,
  "ample": 2507,
  "ique": 2508,
  "ene": 2509,
  "ext": 2510,
  "air": 2511,
  "uss": 2512,
  "Ġbu": 2513,
  "Äį": 2514,
  "Ð¾ÑĢ": 2515,
  "Ġsuch": 2516,
  "Ġdist": 2517,
  "vo": 2518,
  ").ĊĊ": 2519,
  "Ġdire": 2520,
  "htt": 2521,
  "ê²": 2522,
  "oh": 2523,
  "Î¯": 2524,
  "List": 2525,
  "ĠÙĪØ§ÙĦ": 2526,
  "ution": 2527,
  "ĠĠĠĠĠĠĠĠĠĠĠĠĠĠĠĠĠĠĠĠĠĠĠ": 2528,
  "ollow": 2529,
  "Ð»ÑĮ": 2530,
  "po": 2531,
  "ë¥¼": 2532,
  "Ġloc": 2533,
  "Ġneed": 2534,
  "ational": 2535,
  "ĉĉĉ": 2536,
  "Ġinv": 2537,
  "ç¬": 2538,
  "Ġmon": 2539,
  "å¤": 2540,
  "ĠLa": 2541,
  "Ġgener": 2542,
  "ĸ´": 2543,
  "String": 2544,
  "Ġ%": 2545,
  "Å¾": 2546,
  "ower": 2547,
  "je": 2548,
  "Ġwhat": 2549,
  "ĠWh": 2550,
  "hr": 2551,
  "Ð»Ðµ": 2552,
  "-s": 2553,
  "uer": 2554,
  "ĠÐ·Ð°": 2555,
  "Ġqui": 2556,
  "ility": 2557,
  "ature": 2558,
  "fore": 2559,
  "oci": 2560,
  "ole": 2561,
  "ìĭ": 2562,
  "¸°": 2563,
  "Ġname": 2564,
  "reat": 2565,
  "àµįà´": 2566,
  "áĥĶ": 2567,
  "åľ": 2568,
  "Ġ#": 2569,
  "Pro": 2570,
  "\">": 2571,
  "cent": 2572,
  "Øº": 2573,
  "ando": 2574,
  "ars": 2575,
  "Ġthese": 2576,
  "ants": 2577,
  "ism": 2578,
  "ï¼ĮâĢľ": 2579,
  "\",Ċ": 2580,
  "ãģĭ": 2581,
  "Ġconf": 2582,
  "ç¬¬": 2583,
  "la": 2584,
  "Ġself": 2585,
  "Ġjust": 2586,
  "ĠØ¹ÙĦÙī": 2587,
  "ning": 2588,
  "amb": 2589,
  "Con": 2590,
  "**Ċ": 2591,
  "Ã¼r": 2592,
  "Ġìł": 2593,
  "Î¼": 2594,
  "Ġback": 2595,
  "Re": 2596,
  "Ġve": 2597,
  "Ĥ¬": 2598,
  "Ġê°": 2599,
  "ÅŁ": 2600,
  "Ġed": 2601,
  "ãĢĭ": 2602,
  "add": 2603,
  ".p": 2604,
  "ument": 2605,
  "Ġhow": 2606,
  "Ġdon": 2607,
  "son": 2608,
  "----": 2609,
  "ìľ": 2610,
  "ined": 2611,
  "æĪ": 2612,
  ".\"": 2613,
  "Ġë§": 2614,
  "Ġcal": 2615,
  ".j": 2616,
  "oun": 2617,
  "Ġlas": 2618,
  "ward": 2619,
  "ough": 2620,
  "ho": 2621,
  "à¤ķ": 2622,
  "Ġê²": 2623,
  "Ã±": 2624,
  "ÐµÐ½Ð¸": 2625,
  "ĠØ§ÙĦØ¹": 2626,
  "×ľ": 2627,
  "ĠX": 2628,
  "Ġshow": 2629,
  "cho": 2630,
  "Ã«": 2631,
  "Ġvalue": 2632,
  "read": 2633,
  "?ĊĊ": 2634,
  "Ġmit": 2635,
  "è¿": 2636,
  "Ġyear": 2637,
  ".âĢĿĊĊ": 2638,
  "Ġsaid": 2639,
  "```Ċ": 2640,
  "ivers": 2641,
  "ÙĪØ¯": 2642,
  "Ġfr": 2643,
  "cept": 2644,
  "Ġthrough": 2645,
  "rac": 2646,
  "ior": 2647,
  "ĠØ§Ø": 2648,
  "no": 2649,
  "ãģ«": 2650,
  "data": 2651,
  "ëı": 2652,
  "any": 2653,
  "ute": 2654,
  "ctions": 2655,
  ".l": 2656,
  "ãģĤ": 2657,
  "Ġtype": 2658,
  "ody": 2659,
  "æŃ": 2660,
  "Ð¾Ð¹": 2661,
  "Ġ!": 2662,
  "Ġsystem": 2663,
  "Ġpas": 2664,
  "âĶ": 2665,
  "ãģĨ": 2666,
  "Ġsecond": 2667,
  "}\\)": 2668,
  "ÐµÑĤ": 2669,
  "ÙĦÙĬ": 2670,
  "Ġimport": 2671,
  "çļ": 2672,
  "cont": 2673,
  "ëĵ": 2674,
  "alse": 2675,
  "til": 2676,
  "rop": 2677,
  "Ġ×Ķ×": 2678,
  "ervice": 2679,
  "áĥĺáĥ": 2680,
  "Ġpartic": 2681,
  "isch": 2682,
  "set": 2683,
  "ÙĨØ¯": 2684,
  "Ġfollow": 2685,
  "ever": 2686,
  "ï¼ŁâĢĿĊĊ": 2687,
  "Ġtest": 2688,
  "ĠìĿ´": 2689,
  "Ġà´": 2690,
  "Ø§Ø¡": 2691,
  "Ø±ÙĬ": 2692,
  "ivate": 2693,
  "åĪ": 2694,
  "urrent": 2695,
  "ato": 2696,
  "Ġdid": 2697,
  "âĢĻt": 2698,
  "uk": 2699,
  "à²¿": 2700,
  "ãģ§": 2701,
  "iver": 2702,
  "man": 2703,
  "Ġvan": 2704,
  "Ã¡s": 2705,
  "\">Ċ": 2706,
  "ŀ×": 2707,
  "col": 2708,
  "ìĦľ": 2709,
  "Ġsm": 2710,
  "ĠÐ¿Ð¾": 2711,
  "za": 2712,
  "çļĦ": 2713,
  "ÏĮ": 2714,
  "Ġshould": 2715,
  "áĥĶáĥ": 2716,
  "ics": 2717,
  "ÑĢÐ¾": 2718,
  "vi": 2719,
  "Ã¢": 2720,
  "Ġcent": 2721,
  "ÙħØ§": 2722,
  "ler": 2723,
  "Ø§Ø¦": 2724,
  "Ġmost": 2725,
  "Ð´Ð°": 2726,
  "Ø³Øª": 2727,
  "sk": 2728,
  "ni": 2729,
  "Ġlong": 2730,
  "```ĊĊ": 2731,
  "ĠCon": 2732,
  "Ġter": 2733,
  "Ġ|ĊĊ": 2734,
  "Ġcap": 2735,
  "ash": 2736,
  "Ġbec": 2737,
  "Ġhigh": 2738,
  "Ùİ": 2739,
  "ĠØ®": 2740,
  "ribut": 2741,
  "ante": 2742,
  "à¯ģ": 2743,
  "Ġeach": 2744,
  "Ġsom": 2745,
  "ë¦¬": 2746,
  "Ã©n": 2747,
  "Ã©t": 2748,
  "ros": 2749,
  "ength": 2750,
  "fo": 2751,
  "ĠÑĩ": 2752,
  "ax": 2753,
  "ities": 2754,
  "elle": 2755,
  "-b": 2756,
  "It": 2757,
  "swer": 2758,
  "pres": 2759,
  "ty": 2760,
  "aciÃ³n": 2761,
  "go": 2762,
  "Ex": 2763,
  "Ġpass": 2764,
  "other": 2765,
  "âĶĢ": 2766,
  "Ġnon": 2767,
  "ãģª": 2768,
  "à®¿": 2769,
  "ited": 2770,
  "Ġwar": 2771,
  "velop": 2772,
  "Ġà¤¸": 2773,
  ".m": 2774,
  "Æ°": 2775,
  "yl": 2776,
  "Õ¸ÖĤÕ": 2777,
  "Ġfinal": 2778,
  "ized": 2779,
  "Ĥĺ": 2780,
  "Ġins": 2781,
  "Ġnumber": 2782,
  "ines": 2783,
  "ral": 2784,
  "Î¿Ïħ": 2785,
  "Ġhand": 2786,
  "wn": 2787,
  "ĠEn": 2788,
  "ared": 2789,
  "Ġagain": 2790,
  "ponse": 2791,
  "{\\": 2792,
  "gen": 2793,
  "ER": 2794,
  "Ġbr": 2795,
  "ress": 2796,
  "Ã´": 2797,
  "))": 2798,
  "icht": 2799,
  "ĠEl": 2800,
  "Ġdifferent": 2801,
  "à¦¿à¦": 2802,
  "Ã¥": 2803,
  "+++": 2804,
  "dd": 2805,
  "Ġvers": 2806,
  "+++++": 2807,
  "ãģ£": 2808,
  "ido": 2809,
  "Ġchar": 2810,
  "\":": 2811,
  "',Ċ": 2812,
  "ĠAs": 2813,
  "Ch": 2814,
  "View": 2815,
  "ĠrÃ©": 2816,
  "ĠÑĤ": 2817,
  "Ġvoid": 2818,
  "ìļ": 2819,
  "]Ċ": 2820,
  "}}": 2821,
  "Cont": 2822,
  "à¤¤": 2823,
  "Õ¥Õ": 2824,
  "à°Ĥà°": 2825,
  "ä¹": 2826,
  "è¯´": 2827,
  "ask": 2828,
  "Ġzu": 2829,
  "Ġmain": 2830,
  "ÖĢÕ": 2831,
  "Ġprocess": 2832,
  "ource": 2833,
  "Ġant": 2834,
  "Ġmen": 2835,
  "Ġdas": 2836,
  "ĠWe": 2837,
  "()Ċ": 2838,
  "line": 2839,
  "Ġknow": 2840,
  "Ġvar": 2841,
  "Ġsup": 2842,
  "ĠÐ½Ðµ": 2843,
  "atus": 2844,
  "Data": 2845,
  "ames": 2846,
  "Ġà¤¹": 2847,
  "-t": 2848,
  "Ġelse": 2849,
  "Ð¾Ð½": 2850,
  "Ġeffect": 2851,
  "pend": 2852,
  "\\(": 2853,
  "åĽ": 2854,
  "Ã¡n": 2855,
  "ĠìĹ": 2856,
  ".c": 2857,
  "iment": 2858,
  "essage": 2859,
  "Ġcomo": 2860,
  "*Ċ": 2861,
  "Ġpoint": 2862,
  "Î¬": 2863,
  "Ġ*/": 2864,
  "abel": 2865,
  "Ġmethod": 2866,
  "gg": 2867,
  "ane": 2868,
  "Ġum": 2869,
  "Ġvol": 2870,
  "\");Ċ": 2871,
  "roll": 2872,
  "ault": 2873,
  "Ġë°": 2874,
  "Ġincre": 2875,
  "Ġsl": 2876,
  "lich": 2877,
  "Ġlet": 2878,
  "Ġsame": 2879,
  "...": 2880,
  "ĠØ¯Ø±": 2881,
  "public": 2882,
  "yle": 2883,
  "ÃŁ": 2884,
  "Ġdec": 2885,
  "very": 2886,
  "kt": 2887,
  "amil": 2888,
  "raph": 2889,
  "à®¿à®": 2890,
  "gy": 2891,
  "To": 2892,
  "Äħ": 2893,
  "Ã¨re": 2894,
  "ÑĢÑĥ": 2895,
  "ÑĨÐ¸": 2896,
  "ìĸ´": 2897,
  "ĠFor": 2898,
  "Ø¸": 2899,
  "ÄĻ": 2900,
  "era": 2901,
  "ful": 2902,
  "Ġwell": 2903,
  "ule": 2904,
  "work": 2905,
  "ium": 2906,
  "ott": 2907,
  "rc": 2908,
  "ision": 2909,
  "ĠØ¥ÙĦÙī": 2910,
  "En": 2911,
  "ara": 2912,
  "'Ċ": 2913,
  "inc": 2914,
  "Ġpop": 2915,
  "ients": 2916,
  "self": 2917,
  "ON": 2918,
  "Ġdev": 2919,
  "ãĥ³": 2920,
  "ulation": 2921,
  "ja": 2922,
  "Ø§Ø³Øª": 2923,
  "à¥¤": 2924,
  "Ġtrue": 2925,
  "Ø§Ø¹": 2926,
  "ron": 2927,
  "ett": 2928,
  "por": 2929,
  "ÄĽ": 2930,
  "ÙĦÙĥ": 2931,
  "ince": 2932,
  "Ġwant": 2933,
  "ico": 2934,
  "of": 2935,
  "ëł": 2936,
  "Ġcase": 2937,
  "view": 2938,
  "ired": 2939,
  "va": 2940,
  "wh": 2941,
  "lex": 2942,
  "ms": 2943,
  "ÙĭØ§": 2944,
  "Ġanal": 2945,
  "ĮĢ": 2946,
  "Ġfo": 2947,
  "Ġour": 2948,
  "itle": 2949,
  "ayer": 2950,
  "Ġlist": 2951,
  "Ġprote": 2952,
  "arget": 2953,
  "Type": 2954,
  "ĳ×": 2955,
  "ader": 2956,
  "ional": 2957,
  "sh": 2958,
  "Ġfound": 2959,
  "Ġboth": 2960,
  "ices": 2961,
  "ëıĦ": 2962,
  "']": 2963,
  "Ġprim": 2964,
  "Ġperson": 2965,
  "way": 2966,
  "à«": 2967,
  "Cl": 2968,
  "ste": 2969,
  "bl": 2970,
  "ãĢĬ": 2971,
  "Ġbel": 2972,
  "ãģ¦": 2973,
  "quest": 2974,
  "for": 2975,
  "men": 2976,
  "Ġmar": 2977,
  "math": 2978,
  "ÛĴ": 2979,
  "cript": 2980,
  "ically": 2981,
  "ĠÐ¡": 2982,
  "ìľ¼": 2983,
  "Ġplus": 2984,
  "Ġlook": 2985,
  "gram": 2986,
  "Ġauf": 2987,
  "Ġpresent": 2988,
  "Ġcr": 2989,
  "ĠâĢŀ": 2990,
  "Ġposs": 2991,
  "Ġce": 2992,
  "ella": 2993,
  "ĠTr": 2994,
  "Ar": 2995,
  "pre": 2996,
  "Ø§Ùģ": 2997,
  "åľ¨": 2998,
  "Val": 2999,
  "ĠString": 3000,
  "date": 3001,
  "ka": 3002,
  "Ġgu": 3003,
  "return": 3004,
  "ĠSch": 3005,
  "Ġ>": 3006,
  "Ġave": 3007,
  "Ġgl": 3008,
  "Ġpost": 3009,
  "ãĤĮ": 3010,
  "orld": 3011,
  "ãģ¾": 3012,
  "Ð²Ð¸": 3013,
  "ĠÃ©t": 3014,
  "ote": 3015,
  "Ġwhile": 3016,
  "Ð¼Ð¸": 3017,
  "ural": 3018,
  "ĠØ§ÙĦØŃ": 3019,
  "ister": 3020,
  "ĠCl": 3021,
  "II": 3022,
  "ë§": 3023,
  "['": 3024,
  "omb": 3025,
  "aw": 3026,
  "ml": 3027,
  "-d": 3028,
  "Ûģ": 3029,
  "Ġstart": 3030,
  "ino": 3031,
  "Ð¾Ð³Ð¾": 3032,
  "ments": 3033,
  "ques": 3034,
  "Ġcas": 3035,
  "imes": 3036,
  "Ġinform": 3037,
  "use": 3038,
  "Ġway": 3039,
  "Ġà¤®": 3040,
  "duct": 3041,
  "ê¸°": 3042,
  "ception": 3043,
  "Ġsk": 3044,
  "à²¿à²": 3045,
  "ĠÂ»": 3046,
  "Ġdr": 3047,
  "Ñī": 3048,
  "-m": 3049,
  "ida": 3050,
  ".S": 3051,
  "Ġ(*": 3052,
  "à¤¸": 3053,
  "ople": 3054,
  "à³ģ": 3055,
  "sch": 3056,
  "reg": 3057,
  "irc": 3058,
  "ÑģÑı": 3059,
  "ĠAnd": 3060,
  "ÙĪÙħ": 3061,
  "Ã½": 3062,
  "ĠØ¢": 3063,
  "igure": 3064,
  "Res": 3065,
  "Ġbefore": 3066,
  "Ġrest": 3067,
  "dex": 3068,
  "odel": 3069,
  "fe": 3070,
  "Col": 3071,
  "ÙĬØ¯": 3072,
  "ĠSh": 3073,
  "ST": 3074,
  "ĠHow": 3075,
  "Ġoper": 3076,
  "].": 3077,
  "ivity": 3078,
  "ĠAb": 3079,
  "new": 3080,
  "Ġfind": 3081,
  "Ġ?": 3082,
  "ets": 3083,
  "ID": 3084,
  "vers": 3085,
  "à¤¹": 3086,
  "ä¸Ģ": 3087,
  "ana": 3088,
  "Ġequ": 3089,
  "Ġgen": 3090,
  "Ð¼Ð°": 3091,
  "ï¼ŁãĢįĊĊ": 3092,
  "ery": 3093,
  "ĠBe": 3094,
  "ved": 3095,
  "ks": 3096,
  "ores": 3097,
  "Ġdevelop": 3098,
  "ura": 3099,
  "),Ċ": 3100,
  "ident": 3101,
  "ather": 3102,
  "ÑĤÑĮ": 3103,
  "Ġtri": 3104,
  "×Ķ": 3105,
  "Ġquest": 3106,
  "==": 3107,
  "tain": 3108,
  ".,": 3109,
  "Ġline": 3110,
  "itu": 3111,
  "ano": 3112,
  "à¥ģ": 3113,
  "Ð¾Ð±": 3114,
  "âĢĿï¼Į": 3115,
  "ĠÐµ": 3116,
  "ĠìŀĪ": 3117,
  "ë©": 3118,
  "Ġcontrol": 3119,
  "Ġdoes": 3120,
  "Ġfact": 3121,
  "Ġos": 3122,
  "Ġart": 3123,
  "ife": 3124,
  "iter": 3125,
  "ament": 3126,
  "Ġnull": 3127,
  "ĠÑĢÐ°": 3128,
  "Ġhab": 3129,
  "Ġhel": 3130,
  "Ġexper": 3131,
  "ãģł": 3132,
  "acter": 3133,
  "_s": 3134,
  "Ġ*/Ċ": 3135,
  "face": 3136,
  "ÐºÐ¸": 3137,
  "ĠØ¨Ùĩ": 3138,
  "ados": 3139,
  "ĠNew": 3140,
  "ird": 3141,
  "Ġperform": 3142,
  "Ġ\\(\\": 3143,
  "Ġbeing": 3144,
  "Ġreal": 3145,
  "ason": 3146,
  "Ġbecause": 3147,
  "Ġterm": 3148,
  "def": 3149,
  "const": 3150,
  "Ġdown": 3151,
  "eter": 3152,
  "Ġëĭ": 3153,
  "ĠPl": 3154,
  "ox": 3155,
  "ativ": 3156,
  "rem": 3157,
  "Ġport": 3158,
  "Ġdescri": 3159,
  "Ġrun": 3160,
  "}^{": 3161,
  "ĠØ§ÙĦØ³": 3162,
  "ä¸į": 3163,
  "ouse": 3164,
  "ĠĠĠĠĠĠĠĠĠĠĠĠĠ": 3165,
  "ref": 3166,
  "Ġprivate": 3167,
  "ero": 3168,
  "Ġright": 3169,
  "agn": 3170,
  "Ġvis": 3171,
  "å®": 3172,
  "ca": 3173,
  "IN": 3174,
  ".f": 3175,
  "class": 3176,
  "enn": 3177,
  "Ġlevel": 3178,
  "ios": 3179,
  "Ġmake": 3180,
  "={": 3181,
  "ccess": 3182,
  "Ġmat": 3183,
  "Ġduring": 3184,
  "rag": 3185,
  "($": 3186,
  ".set": 3187,
  "ÙĩÙħ": 3188,
  "Īĺ": 3189,
  "da": 3190,
  "vol": 3191,
  "ĠÐĴ": 3192,
  "Ġìĭ": 3193,
  "Ġou": 3194,
  "Ġge": 3195,
  "ÙĦÙħ": 3196,
  "leg": 3197,
  "Ġfin": 3198,
  "Ġeven": 3199,
  "Ġbre": 3200,
  "Se": 3201,
  "cul": 3202,
  "ĠEx": 3203,
  "Ġgroup": 3204,
  "ified": 3205,
  "ender": 3206,
  "ght": 3207,
  "íķ´": 3208,
  "ams": 3209,
  "Text": 3210,
  "Ġà¤ª": 3211,
  "Ġtot": 3212,
  "ĠYou": 3213,
  "Ġmade": 3214,
  "Ð´Ð¸": 3215,
  "ĠPr": 3216,
  "-l": 3217,
  "hip": 3218,
  "Ġsee": 3219,
  "à²¾": 3220,
  "Ġâ": 3221,
  "Ø§ÙĤ": 3222,
  "Åĳ": 3223,
  "ences": 3224,
  "ìĬ": 3225,
  "Ġhere": 3226,
  "ĠÐŁ": 3227,
  "umn": 3228,
  "ization": 3229,
  "ha": 3230,
  "ĠIl": 3231,
  "Ġstudy": 3232,
  ".t": 3233,
  "lt": 3234,
  "ital": 3235,
  "Ġdirect": 3236,
  "Wh": 3237,
  "Ã¶r": 3238,
  "Ð¾Ðº": 3239,
  "ï¼īï¼Į": 3240,
  "ĠÏĥ": 3241,
  "ĠÎ±": 3242,
  "ĠEr": 3243,
  "Ġmodel": 3244,
  "over": 3245,
  "Ġnow": 3246,
  "ĠOr": 3247,
  "ateg": 3248,
  "ĠOn": 3249,
  "Ġtak": 3250,
  "NA": 3251,
  "lev": 3252,
  "ency": 3253,
  "Ð»Ñı": 3254,
  "à°¿à°": 3255,
  ".d": 3256,
  "orn": 3257,
  "idth": 3258,
  "Ġcontin": 3259,
  "Ð°ÑĢ": 3260,
  "Ġavec": 3261,
  "à¸²": 3262,
  "user": 3263,
  "ĠShe": 3264,
  "the": 3265,
  "Ġëª": 3266,
  "ours": 3267,
  "lection": 3268,
  "Ã¨s": 3269,
  "ê²Į": 3270,
  "ÎŃ": 3271,
  "ÅĻ": 3272,
  "med": 3273,
  "ify": 3274,
  "ross": 3275,
  "Ġfalse": 3276,
  "Le": 3277,
  "å¾": 3278,
  "ĠĠĠĠĠĠĠĠĠĠĠĠĠĠĠĠĠĠĠĠĠĠĠĠĠĠĠĠĠĠĠĠ": 3279,
  "à¯ģà®": 3280,
  "ĠÑģÐµ": 3281,
  "yd": 3282,
  "ĠInd": 3283,
  "Ġhist": 3284,
  "br": 3285,
  "ĠPar": 3286,
  "ually": 3287,
  "press": 3288,
  "ales": 3289,
  "Ġì§": 3290,
  "itÃ©": 3291,
  "Ġproble": 3292,
  "iet": 3293,
  "Ïī": 3294,
  "ĠBr": 3295,
  "iven": 3296,
  "(Ċ": 3297,
  "\";Ċ": 3298,
  "https": 3299,
  "Ġthree": 3300,
  "ĠØ§ÙĦÙĤ": 3301,
  "ëŁ": 3302,
  "Ġals": 3303,
  "ĠÙħØ¹": 3304,
  "ici": 3305,
  "Ġpeople": 3306,
  "itions": 3307,
  "__": 3308,
  "idad": 3309,
  "Ġstring": 3310,
  "Ġwur": 3311,
  "print": 3312,
  "AT": 3313,
  "Ġref": 3314,
  "Ġmuch": 3315,
  "ĠIs": 3316,
  "uro": 3317,
  ">ĊĊ": 3318,
  "à²¾à²": 3319,
  "Ġsich": 3320,
  "èĢ": 3321,
  "ãģĮ": 3322,
  "Ġfile": 3323,
  "ëĿ": 3324,
  "Ġmany": 3325,
  "by": 3326,
  "ĠÏĢ": 3327,
  "Ġcond": 3328,
  "pression": 3329,
  "Ġuser": 3330,
  "êµ": 3331,
  "part": 3332,
  "ting": 3333,
  "Ġsignific": 3334,
  "Ã§Ã£o": 3335,
  "Ġexample": 3336,
  "Ð½Ðµ": 3337,
  "Ġorgan": 3338,
  "Ġàª": 3339,
  "à´¿": 3340,
  "Ġà¸": 3341,
  "earch": 3342,
  "ØªØ±": 3343,
  "ille": 3344,
  "ëŀ": 3345,
  "Ġread": 3346,
  "var": 3347,
  "Ġident": 3348,
  "Ġevent": 3349,
  "à°°": 3350,
  "Ġyears": 3351,
  "Ġtry": 3352,
  "ĉif": 3353,
  "Ġplay": 3354,
  "Ġlog": 3355,
  "arly": 3356,
  "Ð»Ð¾": 3357,
  "Ġpatients": 3358,
  "ĠìĤ¬": 3359,
  "Ø§Ùĭ": 3360,
  "Ġmus": 3361,
  "Æ°á»": 3362,
  "ĠÙħÛĮ": 3363,
  "æĸ": 3364,
  "ains": 3365,
  "ĠØ§ÙĦØ¨": 3366,
  "ĠIf": 3367,
  "Ġmov": 3368,
  "Ġconsider": 3369,
  "à¥Ī": 3370,
  "Ġcommun": 3371,
  "à¤²": 3372,
  "ãĤĵ": 3373,
  "Ġprof": 3374,
  "Î³": 3375,
  "Ġcu": 3376,
  "ĠTe": 3377,
  "play": 3378,
  "Ø§ØŃ": 3379,
  "ĠÙ¾": 3380,
  "ĠFran": 3381,
  "hor": 3382,
  "ĠÎº": 3383,
  "_id": 3384,
  "Ġthose": 3385,
  "value": 3386,
  "Ġevery": 3387,
  "ëĵ¤": 3388,
  "Ð²Ð¾": 3389,
  "ette": 3390,
  "mi": 3391,
  "Ø¨Ø±": 3392,
  "×ª": 3393,
  "gu": 3394,
  "ĠCar": 3395,
  "alk": 3396,
  "ione": 3397,
  "Ġret": 3398,
  "Ġann": 3399,
  "ĠÐļ": 3400,
  "Ġhum": 3401,
  "áĥĿ": 3402,
  "Ġtext": 3403,
  "Ùı": 3404,
  "äºº": 3405,
  "chn": 3406,
  "lected": 3407,
  "æŃ¤": 3408,
  "ems": 3409,
  "ãĤĤ": 3410,
  "Ø§Ùĩ": 3411,
  "Ġocc": 3412,
  "Ġenc": 3413,
  "ena": 3414,
  "indow": 3415,
  "raw": 3416,
  "Ġpu": 3417,
  "Ġpot": 3418,
  "action": 3419,
  "ÑĦ": 3420,
  "-f": 3421,
  "Ã²": 3422,
  "().": 3423,
  "ito": 3424,
  "Ø±Ø¨": 3425,
  "ëħ": 3426,
  "ential": 3427,
  "ohn": 3428,
  "ëĿ¼": 3429,
  "serv": 3430,
  "íĸ": 3431,
  "Ġopen": 3432,
  "frac": 3433,
  "ĠSp": 3434,
  "Ġvery": 3435,
  "ocument": 3436,
  "å°": 3437,
  "td": 3438,
  "ĠSystem": 3439,
  "ĠØ§ÙĦÙĨ": 3440,
  "Ġmil": 3441,
  "ãĤī": 3442,
  "Â«": 3443,
  "Ġist": 3444,
  "_l": 3445,
  "yt": 3446,
  "Ð°Ð½Ð¸": 3447,
  "**ĊĊ": 3448,
  "Ġstruct": 3449,
  "ĠAnswer": 3450,
  "ĠCol": 3451,
  "He": 3452,
  "La": 3453,
  "ÙĬÙĦ": 3454,
  ");": 3455,
  "Ġfa": 3456,
  "amente": 3457,
  "unt": 3458,
  "Ġcells": 3459,
  "ĠÐ¾ÑĤ": 3460,
  "ãģĵ": 3461,
  "Ã©es": 3462,
  "Ġreport": 3463,
  "alt": 3464,
  "bject": 3465,
  "Î®": 3466,
  "Ġprogram": 3467,
  "Ġstate": 3468,
  "lar": 3469,
  "ination": 3470,
  "Ġsupport": 3471,
  "Ġchild": 3472,
  "ished": 3473,
  "ived": 3474,
  "Ġcode": 3475,
  "Ø¦": 3476,
  "ĠÙĥØ§ÙĨ": 3477,
  "fig": 3478,
  "erc": 3479,
  "_c": 3480,
  "Ġobject": 3481,
  "Ġappro": 3482,
  "}{": 3483,
  "org": 3484,
  "ration": 3485,
  "rain": 3486,
  "Ġsing": 3487,
  "Ø¹Ø¯": 3488,
  "arch": 3489,
  "ama": 3490,
  "ny": 3491,
  "Ġê²ĥ": 3492,
  "Ġ},Ċ": 3493,
  "word": 3494,
  "alth": 3495,
  "Ð´Ðµ": 3496,
  "present": 3497,
  "Ġmo": 3498,
  "Ġbi": 3499,
  "ï¼ŁĊĊ": 3500,
  "ĠNo": 3501,
  "ĠÃ¼": 3502,
  "Ġfamil": 3503,
  "tre": 3504,
  "ko": 3505,
  "ush": 3506,
  "bed": 3507,
  "Ġhelp": 3508,
  "right": 3509,
  "à¸²à¸": 3510,
  "ĠÙĦÙĦ": 3511,
  "ides": 3512,
  "ĠÐ»": 3513,
  "æĿ": 3514,
  "Ġserv": 3515,
  "Ġmais": 3516,
  "ĠØµ": 3517,
  "Ġhead": 3518,
  "Ġcurrent": 3519,
  "zy": 3520,
  "ĠÐľ": 3521,
  "tion": 3522,
  "));Ċ": 3523,
  "mp": 3524,
  "à¤®": 3525,
  "(f": 3526,
  "Ġentre": 3527,
  "Ġmult": 3528,
  "ission": 3529,
  "ìĹĪëĭ¤": 3530,
  "Ġê³": 3531,
  "aterial": 3532,
  "ense": 3533,
  "ĠØ¨Ø§ÙĦ": 3534,
  "Ġplace": 3535,
  "Õ¡Õ¯": 3536,
  "ita": 3537,
  "ÙĤØ¯": 3538,
  "ĠĠĠĠĠĠ": 3539,
  "ãĢİ": 3540,
  "Ġword": 3541,
  "Ġorder": 3542,
  "Ġexpl": 3543,
  "ĠìĦ": 3544,
  "à§ĩà¦": 3545,
  "ï¼īĊĊ": 3546,
  "Ġà¨": 3547,
  "ãĢı": 3548,
  "Ġpath": 3549,
  "ìľ¼ë¡ľ": 3550,
  "Ø±ÙĪ": 3551,
  "ĠØ§ÙĦØ¬": 3552,
  "ĠÐºÐ°": 3553,
  "ben": 3554,
  "plication": 3555,
  "nh": 3556,
  "_f": 3557,
  "Ġaus": 3558,
  "Öģ": 3559,
  "Ġbest": 3560,
  "LE": 3561,
  "Å¼": 3562,
  "]ĊĊ": 3563,
  "ĠGr": 3564,
  "rist": 3565,
  "ey": 3566,
  "ĠAd": 3567,
  "Ġarr": 3568,
  "ken": 3569,
  "order": 3570,
  "ĠPh": 3571,
  "Ġlim": 3572,
  "Õ¸Õ": 3573,
  "è¿Ļ": 3574,
  "Ġbas": 3575,
  "ĠÐ¿ÑĢÐ¸": 3576,
  "ga": 3577,
  "Ġelect": 3578,
  "Ġtarget": 3579,
  "Ġorig": 3580,
  "back": 3581,
  "ĠJe": 3582,
  "*.": 3583,
  "Ġelement": 3584,
  "ĠBl": 3585,
  "inter": 3586,
  "ÑģÑĤÐ¸": 3587,
  "çĦ": 3588,
  "ĠĠĠĠĠĠĠĠĠĠĠĠĠĠĠĠĠĠĠĠĠĠĠĠĠĠĠ": 3589,
  ".A": 3590,
  "-c": 3591,
  "ording": 3592,
  "Ġsus": 3593,
  "ëĤĺ": 3594,
  "ÄŁ": 3595,
  ".g": 3596,
  "ĠAmer": 3597,
  "ini": 3598,
  "áº¿": 3599,
  "Ġsou": 3600,
  "cer": 3601,
  "_d": 3602,
  "Ġ\\\\": 3603,
  "itor": 3604,
  "],": 3605,
  "By": 3606,
  "string": 3607,
  "ĠfÃ¼r": 3608,
  "RE": 3609,
  "ĠÐ³Ð¾Ð´": 3610,
  "lete": 3611,
  "Î±Î¹": 3612,
  "ÐºÐ¾": 3613,
  "adi": 3614,
  "Ġchang": 3615,
  "Ġë³": 3616,
  "Im": 3617,
  "çĶ": 3618,
  "Ġaff": 3619,
  "_m": 3620,
  "æĪĳ": 3621,
  "ìĺ": 3622,
  "stand": 3623,
  "omen": 3624,
  "urther": 3625,
  "ĠBut": 3626,
  "ysis": 3627,
  ".h": 3628,
  "Ġfollowing": 3629,
  "Ġpod": 3630,
  "ream": 3631,
  "Ġredu": 3632,
  "Ġdat": 3633,
  "ided": 3634,
  "Al": 3635,
  "isk": 3636,
  "Ġstill": 3637,
  "arr": 3638,
  "ĠØ¹ÙĨ": 3639,
  "):Ċ": 3640,
  "ĠRes": 3641,
  "Ġur": 3642,
  "ification": 3643,
  "aving": 3644,
  "Ġrece": 3645,
  "ï¼ŁâĢĿ": 3646,
  "ÑĩÐ°": 3647,
  "Ġthink": 3648,
  "Ġsch": 3649,
  "rm": 3650,
  "ness": 3651,
  "hib": 3652,
  "ĠQu": 3653,
  "px": 3654,
  "';Ċ": 3655,
  "elt": 3656,
  "Ġresults": 3657,
  "ager": 3658,
  "oj": 3659,
  "Ø°Ø§": 3660,
  "á»Ļ": 3661,
  "eta": 3662,
  "oint": 3663,
  "ĠMe": 3664,
  "Ġ×ĳ×": 3665,
  "Ġmemb": 3666,
  "Ġmi": 3667,
  "roid": 3668,
  "Ġog": 3669,
  "ãĤĭ": 3670,
  "ÑģÐºÐ¸": 3671,
  "xim": 3672,
  "ocial": 3673,
  "mit": 3674,
  "Ġagainst": 3675,
  "uf": 3676,
  "****": 3677,
  "ology": 3678,
  "Ġstand": 3679,
  "On": 3680,
  "iron": 3681,
  "ora": 3682,
  "Ġgood": 3683,
  "ples": 3684,
  "Ġlocal": 3685,
  "Ġinformation": 3686,
  "Ġbeh": 3687,
  "ÐµÐ¼": 3688,
  "Ġcle": 3689,
  "Ġcall": 3690,
  "Ġdiv": 3691,
  "php": 3692,
  "ison": 3693,
  "rite": 3694,
  "Ġvi": 3695,
  "à©": 3696,
  "Ïĩ": 3697,
  "ØªÙħ": 3698,
  "ÛĮÙĨ": 3699,
  "ÑģÐ¸": 3700,
  "ters": 3701,
  "Ġmot": 3702,
  "éģ": 3703,
  "à¸Ļ": 3704,
  "ischen": 3705,
  "ìķĦ": 3706,
  "Ġdos": 3707,
  "ĠìķĦ": 3708,
  "Ġsmall": 3709,
  "×ķ×ª": 3710,
  "ĠVer": 3711,
  "Ġ×©": 3712,
  "Ġmeas": 3713,
  "ĠFr": 3714,
  "not": 3715,
  "Ã©m": 3716,
  "åį": 3717,
  "ìĽ": 3718,
  "Ġview": 3719,
  "Ġinit": 3720,
  "Value": 3721,
  "Ġconne": 3722,
  "Äĩ": 3723,
  "Ġdisc": 3724,
  "Ø¥": 3725,
  "ference": 3726,
  "Ġfield": 3727,
  "ista": 3728,
  "Ġsize": 3729,
  "ĠThere": 3730,
  "itive": 3731,
  "vious": 3732,
  ",âĢĿ": 3733,
  "ĠDie": 3734,
  "ĠÎ¼": 3735,
  "Ġeine": 3736,
  "çĦ¶": 3737,
  "à±ģà°": 3738,
  "ĉreturn": 3739,
  "Ġdom": 3740,
  "ves": 3741,
  "ists": 3742,
  "ume": 3743,
  "Ġstatic": 3744,
  "ubl": 3745,
  "Ġwithin": 3746,
  "ÑĬ": 3747,
  "Ġassoci": 3748,
  "OR": 3749,
  "Ġsignificant": 3750,
  "ĠÐ¸Ð·": 3751,
  "zen": 3752,
  "ela": 3753,
  "Ġown": 3754,
  "[i": 3755,
  "iones": 3756,
  "ki": 3757,
  "å½": 3758,
  "ìĿ¸": 3759,
  "='": 3760,
  "De": 3761,
  "à®¾": 3762,
  "Ġprint": 3763,
  "Ġnov": 3764,
  "Î¹Îº": 3765,
  "/m": 3766,
  "Ø±Ø¯": 3767,
  "\")Ċ": 3768,
  "ends": 3769,
  "chool": 3770,
  "empl": 3771,
  "ÙĨØ§": 3772,
  "¯à¦": 3773,
  "Ã¹": 3774,
  "áĢº": 3775,
  "à±ĭ": 3776,
  "ĠÐĲ": 3777,
  "Ġinc": 3778,
  "gl": 3779,
  "Ġmark": 3780,
  "ÑģÑĤÐ°": 3781,
  "Ġìĺ": 3782,
  "arge": 3783,
  "ĠÐ¾Ð±": 3784,
  "Ĥ´": 3785,
  "\\({": 3786,
  "ĠìĪĺ": 3787,
  "Ġtotal": 3788,
  "Õ¥ÖĢ": 3789,
  "Ġíķĺ": 3790,
  "_p": 3791,
  "ĠAm": 3792,
  "ood": 3793,
  "ude": 3794,
  ":**": 3795,
  "Ġ×ľ": 3796,
  "ĠAll": 3797,
  "Ð¾Ð·": 3798,
  "Ġqual": 3799,
  "come": 3800,
  "Ġhet": 3801,
  "arm": 3802,
  "ä»ĸ": 3803,
  "Ġlast": 3804,
  "áº¡": 3805,
  "à¥įà¤°": 3806,
  "ÑģÑĮ": 3807,
  "mente": 3808,
  "http": 3809,
  "oss": 3810,
  "Ġdiff": 3811,
  "ĠØ§ÙĦØ¥": 3812,
  "ives": 3813,
  "Par": 3814,
  "×Ļ×Ŀ": 3815,
  "Ġwithout": 3816,
  "}ĊĊĊ": 3817,
  "áĥĿáĥ": 3818,
  "âĢķ": 3819,
  "Ġlead": 3820,
  "Tr": 3821,
  "à³Ĩ": 3822,
  "Ġleg": 3823,
  "))Ċ": 3824,
  "ĠUS": 3825,
  "/s": 3826,
  "Ġwer": 3827,
  "ĠÎµ": 3828,
  "ĠØ·": 3829,
  "Ġcomb": 3830,
  "Ġcare": 3831,
  "ige": 3832,
  "Ð²Ðµ": 3833,
  "Ġva": 3834,
  "å¥": 3835,
  "ÙĥÙĨ": 3836,
  "ww": 3837,
  "igen": 3838,
  "Ãªn": 3839,
  "}_{": 3840,
  "Ġopt": 3841,
  "Ġfre": 3842,
  "iod": 3843,
  "Ġkey": 3844,
  "ĠØ§Ø²": 3845,
  "do": 3846,
  "Ġdeterm": 3847,
  "(s": 3848,
  "Ġmu": 3849,
  "ability": 3850,
  "Ġcou": 3851,
  "Ġdou": 3852,
  "Ø§Ø²": 3853,
  "Ġprom": 3854,
  "Ġnh": 3855,
  "ustom": 3856,
  "Ġinf": 3857,
  "Ġsie": 3858,
  "Er": 3859,
  "jor": 3860,
  "pi": 3861,
  "ots": 3862,
  "ãĥ«": 3863,
  "];Ċ": 3864,
  "ival": 3865,
  "Ġanother": 3866,
  "Ġcour": 3867,
  "ï¼īãĢģ": 3868,
  "pond": 3869,
  "ĠTo": 3870,
  "\".": 3871,
  "Ð¾Ð¶": 3872,
  "Ð¾ÑĤ": 3873,
  "ìĹĲìĦľ": 3874,
  "Ġproper": 3875,
  "Ġarg": 3876,
  "Un": 3877,
  "Ġsuper": 3878,
  "Ġaround": 3879,
  "Ġerror": 3880,
  "zt": 3881,
  "ë¬": 3882,
  "ĠRo": 3883,
  "Ġturn": 3884,
  "ï¼ģâĢĿĊĊ": 3885,
  "ĠHowever": 3886,
  "ĠØ°": 3887,
  "ati": 3888,
  "Ġli": 3889,
  "But": 3890,
  "à®¾à®": 3891,
  "key": 3892,
  "vert": 3893,
  "Ġallow": 3894,
  "âĶĢâĶĢ": 3895,
  "ĠØ§Ø³Øª": 3896,
  "Ġ,": 3897,
  "Ġappe": 3898,
  "clude": 3899,
  "à´¿à´": 3900,
  "Ġ&&": 3901,
  "Ñĳ": 3902,
  "Ä±n": 3903,
  "ÃŃt": 3904,
  "AR": 3905,
  "State": 3906,
  "Ġincluding": 3907,
  "Ïį": 3908,
  "Ġod": 3909,
  "ograph": 3910,
  "cle": 3911,
  "ÙħÙĦ": 3912,
  "ĠÐ¶": 3913,
  "ÅĽ": 3914,
  "ÑĩÐ¸": 3915,
  "endo": 3916,
  "Ġindic": 3917,
  "Ġimp": 3918,
  "Ġsem": 3919,
  "Ġdan": 3920,
  "ĠØ§ÙĦØ´": 3921,
  "×Ĳ": 3922,
  "ively": 3923,
  "Ð½Ñı": 3924,
  "Ġmak": 3925,
  "ĠÑĦ": 3926,
  "Ġobserv": 3927,
  "¶Ģ": 3928,
  "ently": 3929,
  "Ġcome": 3930,
  "ĠAt": 3931,
  "SE": 3932,
  "my": 3933,
  "rel": 3934,
  "Ġproduct": 3935,
  "Ġdesign": 3936,
  "Ġimage": 3937,
  "ãĤ¹": 3938,
  "Ġseg": 3939,
  "Ġev": 3940,
  "ĠØ§": 3941,
  "Ġ!=": 3942,
  "ĠØ§ÛĮ": 3943,
  "Ġha": 3944,
  "Ġrespect": 3945,
  "Ġfour": 3946,
  "bar": 3947,
  "ĠØ§ÙĦØ¯": 3948,
  "ÑĢÑĭ": 3949,
  "Ġday": 3950,
  "ìŀĲ": 3951,
  "Ġlui": 3952,
  "try": 3953,
  "bum": 3954,
  "ÙĬÙħ": 3955,
  "iving": 3956,
  "ØŃØ¯": 3957,
  "Ġwurde": 3958,
  "ÙģÙĬ": 3959,
  "ĠÐºÐ¾": 3960,
  "Ġ×Ĳ": 3961,
  "ilar": 3962,
  "ende": 3963,
  "Ġdue": 3964,
  "Ġtro": 3965,
  "Ġsont": 3966,
  "left": 3967,
  "Ø±Ø©": 3968,
  "Ø§Ø¬": 3969,
  "load": 3970,
  "){Ċ": 3971,
  "Ġìĥ": 3972,
  "ormal": 3973,
  "umber": 3974,
  "Ã³n": 3975,
  "orth": 3976,
  "Ġtop": 3977,
  "net": 3978,
  "Ġleft": 3979,
  "Ġposition": 3980,
  "roller": 3981,
  "ĠÑĤÐ°": 3982,
  "ones": 3983,
  "ëį": 3984,
  "ìĭľ": 3985,
  "ĠJohn": 3986,
  "ĠÐĿ": 3987,
  "Ġaddition": 3988,
  "ï¼ļĊĊ": 3989,
  "æī": 3990,
  "bu": 3991,
  "Ġold": 3992,
  "ief": 3993,
  "ypes": 3994,
  "Ġste": 3995,
  "ä»¥": 3996,
  "Âł": 3997,
  "Ġpolit": 3998,
  "Item": 3999,
  "--------": 4000,
  "Ñį": 4001,
  "erg": 4002,
  "ially": 4003,
  "ately": 4004,
  "Ġresponse": 4005,
  "Ġide": 4006,
  "ables": 4007,
  "param": 4008,
  "ffer": 4009,
  "ĠPol": 4010,
  "ras": 4011,
  "Ġcert": 4012,
  "Ãµ": 4013,
  "Ġcount": 4014,
  "](": 4015,
  "Ġmust": 4016,
  "bert": 4017,
  "ÑĩÐµ": 4018,
  "User": 4019,
  "Ġtreat": 4020,
  "arn": 4021,
  "æĹ¶": 4022,
  "Ġimportant": 4023,
  "ury": 4024,
  "Ġlater": 4025,
  "à¸£": 4026,
  "span": 4027,
  "ØªÙĩ": 4028,
  "Ġhref": 4029,
  "unc": 4030,
  "lease": 4031,
  "af": 4032,
  "Ġera": 4033,
  ".st": 4034,
  "vern": 4035,
  "Ġchange": 4036,
  "ua": 4037,
  "Ġcult": 4038,
  "(t": 4039,
  "Ġsens": 4040,
  "Ġnicht": 4041,
  "Ġja": 4042,
  ".\"ĊĊ": 4043,
  "ĠØ¨Ø±": 4044,
  "ĠIm": 4045,
  "ook": 4046,
  "Ġemb": 4047,
  "Ġê°Ģ": 4048,
  "Time": 4049,
  "ãĢģãĢĮ": 4050,
  "An": 4051,
  "Ã©d": 4052,
  "Ġpower": 4053,
  "../": 4054,
  "ĠEst": 4055,
  "âĢĿãĢĤ": 4056,
  "Ġbased": 4057,
  "ards": 4058,
  "ÑģÐµ": 4059,
  "ÙĪØ³": 4060,
  "CT": 4061,
  "Object": 4062,
  "ackage": 4063,
  "Ð¾Ð²Ð°": 4064,
  "ĠÐ¿ÑĢÐµ": 4065,
  "åŃ": 4066,
  "Ġjava": 4067,
  "à¤¾à¤°": 4068,
  "Ġtake": 4069,
  "ases": 4070,
  "àµģ": 4071,
  "As": 4072,
  "itch": 4073,
  "Ġsugg": 4074,
  "Î´": 4075,
  "Ġfilm": 4076,
  "ali": 4077,
  "ï¼ģãĢįĊĊ": 4078,
  "icon": 4079,
  "£¼": 4080,
  "Ã¡t": 4081,
  "input": 4082,
  "ift": 4083,
  "âĢ¦âĢ¦ãĢįĊĊ": 4084,
  "ĠGe": 4085,
  "à¦¨": 4086,
  "Ġcirc": 4087,
  "Ġëı": 4088,
  "Ġindiv": 4089,
  "incip": 4090,
  "err": 4091,
  "Ġpred": 4092,
  "Ã¸": 4093,
  "ĠÂ·": 4094,
  "Ġsam": 4095,
  "idual": 4096,
  "ĠUnivers": 4097,
  "Ġquestion": 4098,
  "à²°": 4099,
  "Ġà¤ľ": 4100,
  "Ġsrc": 4101,
  "ĠÐ±Ñĭ": 4102,
  "ething": 4103,
  "ĠØ§ÙĦÙģ": 4104,
  "ĠëĮĢ": 4105,
  "ku": 4106,
  "Ġà¤¬": 4107,
  "Ġsent": 4108,
  "Ġprop": 4109,
  "ily": 4110,
  "ites": 4111,
  "Ġaz": 4112,
  "Õ«Õ¶": 4113,
  "ining": 4114,
  "Õ¸ÖĤÕ´": 4115,
  "Ġfac": 4116,
  "Ġinfl": 4117,
  "ably": 4118,
  "Ġeng": 4119,
  "Ġmem": 4120,
  "ĠII": 4121,
  "ĠSu": 4122,
  "ĠMan": 4123,
  "ëħĦ": 4124,
  "using": 4125,
  "ï¼īãĢĤ": 4126,
  "Ġproblem": 4127,
  "Ġsuggest": 4128,
  "Ġlife": 4129,
  "à±įà°°": 4130,
  "hel": 4131,
  "ĠØ§ÙĨ": 4132,
  "Ġrepresent": 4133,
  "Ġadv": 4134,
  "Ġpri": 4135,
  "Ġsince": 4136,
  "Ġëĵ": 4137,
  "Ġdest": 4138,
  "Ġmight": 4139,
  "ĠÑĺ": 4140,
  "Ã©c": 4141,
  "Õ«Õ": 4142,
  "ĠØ£ÙĪ": 4143,
  "arl": 4144,
  "Ġcharacter": 4145,
  "ges": 4146,
  "Get": 4147,
  "Ġà¤¨": 4148,
  "¯à¦¼": 4149,
  "Ġsay": 4150,
  "iá»": 4151,
  "Exception": 4152,
  "Ġhat": 4153,
  "ĠmÃ¡s": 4154,
  "Ġsever": 4155,
  "ãģĪ": 4156,
  "item": 4157,
  "nÃŃ": 4158,
  "ĠThey": 4159,
  "Ġconc": 4160,
  "ector": 4161,
  "ĠâĢĺ": 4162,
  "Ġbro": 4163,
  "Ġcho": 4164,
  "ĠÏĦÎ·": 4165,
  "Ġspe": 4166,
  "ĠSc": 4167,
  "El": 4168,
  "*ĊĊ": 4169,
  "Ð¼Ðµ": 4170,
  "Ġpossible": 4171,
  "ley": 4172,
  "ĠÑį": 4173,
  "Ġgre": 4174,
  "Ð³Ð¾": 4175,
  "ĠFl": 4176,
  "ĠØ²": 4177,
  "urch": 4178,
  "},": 4179,
  "Ġwater": 4180,
  "ican": 4181,
  "ala": 4182,
  "ih": 4183,
  "ë©´": 4184,
  ".e": 4185,
  "Ġgrand": 4186,
  "ãĤĴ": 4187,
  "à¥ĩà¤Ĥ": 4188,
  "ways": 4189,
  "index": 4190,
  "ima": 4191,
  "ĠÙħØ§": 4192,
  "à²¦": 4193,
  "ils": 4194,
  "Ġenv": 4195,
  "cted": 4196,
  "embre": 4197,
  "ĠÕ°": 4198,
  "ĠÐ¿ÑĢÐ¾": 4199,
  "ĠÐĳ": 4200,
  "ĠØº": 4201,
  "cha": 4202,
  "Ġaf": 4203,
  "Ġmean": 4204,
  "ĠØ§ÙĦØ°": 4205,
  "Ġcheck": 4206,
  "Õµ": 4207,
  "Ġih": 4208,
  "Ġexpect": 4209,
  "Ã©g": 4210,
  "å¦": 4211,
  "Ġbody": 4212,
  "Ġvalues": 4213,
  "ãĢĤâĢľ": 4214,
  "sole": 4215,
  "Ġgra": 4216,
  "Ġses": 4217,
  "Ġrecord": 4218,
  "abl": 4219,
  "ÈĻ": 4220,
  "ried": 4221,
  "ira": 4222,
  "ured": 4223,
  "ploy": 4224,
  ",\"": 4225,
  "åĴ": 4226,
  "Ġ{ĊĊ": 4227,
  "off": 4228,
  "Ġorg": 4229,
  "×ł": 4230,
  "Ġcontain": 4231,
  "Ġactiv": 4232,
  "uel": 4233,
  "Ġtable": 4234,
  "ires": 4235,
  "Ġstat": 4236,
  "Ġask": 4237,
  "aim": 4238,
  "ĠÐ´Ð°": 4239,
  "Ġexp": 4240,
  "ï¼ģĊĊ": 4241,
  "ention": 4242,
  "ÙĦØ§": 4243,
  "):": 4244,
  "Ġiss": 4245,
  "Ġmill": 4246,
  "ĠvÃł": 4247,
  "áº£": 4248,
  "Ġsingle": 4249,
  "Ġsw": 4250,
  "ï¼ģâĢĿ": 4251,
  "ìĥ": 4252,
  "Ġlow": 4253,
  "Ġ--": 4254,
  "obre": 4255,
  "');Ċ": 4256,
  "Ġë¬": 4257,
  "Ġside": 4258,
  "Ġsuccess": 4259,
  "Ð¾Ð¿": 4260,
  "Õ¡Õµ": 4261,
  "èĢĮ": 4262,
  "ya": 4263,
  "Ġinvest": 4264,
  "Ġgiven": 4265,
  "Ġbar": 4266,
  "Ĳĺ": 4267,
  "We": 4268,
  "iste": 4269,
  "ought": 4270,
  "Service": 4271,
  "ÙħÙĨ": 4272,
  "Ġmom": 4273,
  "Ġnet": 4274,
  "Ġnext": 4275,
  "ario": 4276,
  "ocal": 4277,
  "aba": 4278,
  "Ġperiod": 4279,
  "mon": 4280,
  "ised": 4281,
  "aux": 4282,
  "Ġput": 4283,
  "ĠEng": 4284,
  "ĠSte": 4285,
  "AL": 4286,
  "Ø¹Ø©": 4287,
  "pons": 4288,
  "Ġless": 4289,
  "SS": 4290,
  "Ġcoun": 4291,
  "Ġinput": 4292,
  "cia": 4293,
  "Ġà¤µ": 4294,
  "Ġ;": 4295,
  "iam": 4296,
  ".add": 4297,
  "Ġmor": 4298,
  "ĠÐĶ": 4299,
  "åĴĮ": 4300,
  "pu": 4301,
  "uit": 4302,
  "log": 4303,
  "Ġworld": 4304,
  "Ġcreate": 4305,
  "Ġà¤ķà¥ĩ": 4306,
  "uring": 4307,
  "Ġaw": 4308,
  "Ð·Ð°": 4309,
  "include": 4310,
  "aint": 4311,
  "iled": 4312,
  "ria": 4313,
  "ret": 4314,
  "ĠJul": 4315,
  "ÑĤÑĥ": 4316,
  "Ġbuild": 4317,
  "Ġmaterial": 4318,
  "Ġanalysis": 4319,
  "mes": 4320,
  "ET": 4321,
  "ili": 4322,
  "Ġbreak": 4323,
  "ĠÃ¡": 4324,
  "ĠÃ©s": 4325,
  "Ġshown": 4326,
  "eder": 4327,
  "Ind": 4328,
  "Ġlarge": 4329,
  "Ġintern": 4330,
  "Ġsz": 4331,
  "à¥įà¤¯": 4332,
  "Ġ×ŀ×": 4333,
  "Form": 4334,
  "Ġexist": 4335,
  "icro": 4336,
  "ĠReg": 4337,
  "ãĤĬ": 4338,
  "atal": 4339,
  "Ġparam": 4340,
  "ÙħØ±": 4341,
  ").Ċ": 4342,
  "æĻ": 4343,
  "[]": 4344,
  "Ġnach": 4345,
  "Ġsocial": 4346,
  "ĠØ§ÙĦÙĥ": 4347,
  "ĠØ§ÙĦØªÙĬ": 4348,
  "ische": 4349,
  "Ġà¤ħ": 4350,
  "IG": 4351,
  "Ġgeneral": 4352,
  "();ĊĊ": 4353,
  "Ġtre": 4354,
  "ÑģÐ¿": 4355,
  "Ð¾Ð»ÑĮ": 4356,
  "Ġcaus": 4357,
  ".C": 4358,
  "ety": 4359,
  "ete": 4360,
  "Ġten": 4361,
  "Ġcost": 4362,
  "ë³": 4363,
  "ttp": 4364,
  "ë§Į": 4365,
  "âĢĮÙĩØ§": 4366,
  "Ġq": 4367,
  "Î¸": 4368,
  "Ġparticular": 4369,
  "Ġ)": 4370,
  "*)": 4371,
  "Â°": 4372,
  "Ġsal": 4373,
  "rame": 4374,
  "jo": 4375,
  "Ġlang": 4376,
  "inn": 4377,
  "amm": 4378,
  "ither": 4379,
  "This": 4380,
  "Ġwrit": 4381,
  "Ġtoo": 4382,
  "Ð³Ð°": 4383,
  "Ġinte": 4384,
  "ÙĲ": 4385,
  "ittle": 4386,
  "Ġneg": 4387,
  "Ġbeg": 4388,
  "Ġkon": 4389,
  "ÏĦÎ±": 4390,
  "Ġlight": 4391,
  "ä¸Ń": 4392,
  "For": 4393,
  "ĠÑĢÐµ": 4394,
  "Ġmatch": 4395,
  "ĠEd": 4396,
  "Ã¤r": 4397,
  "Ġìľ": 4398,
  "ÈĽ": 4399,
  "Ø¨ÙĬ": 4400,
  "à°¨": 4401,
  "ba": 4402,
  "Ġleast": 4403,
  "Ġcrit": 4404,
  "ground": 4405,
  "ìĬ¤": 4406,
  "icle": 4407,
  "Ġol": 4408,
  "ias": 4409,
  "\"ĊĊ": 4410,
  "à®°": 4411,
  "Ġà¤¹à¥Ī": 4412,
  "×ĳ": 4413,
  "ĠGu": 4414,
  "Ð½Ñĥ": 4415,
  "irm": 4416,
  "test": 4417,
  "Ġcalled": 4418,
  "ÖĦ": 4419,
  "ological": 4420,
  "oph": 4421,
  "Ġprincip": 4422,
  "Or": 4423,
  "Úº": 4424,
  "ĠCan": 4425,
  "Ġê±": 4426,
  "ula": 4427,
  "\")": 4428,
  "aron": 4429,
  "rap": 4430,
  "Ġpa": 4431,
  "Ġeen": 4432,
  "Ġsomething": 4433,
  "á»§": 4434,
  "aster": 4435,
  "ede": 4436,
  "ë°": 4437,
  "Ġpress": 4438,
  "à¤Ĺ": 4439,
  "Ġdocument": 4440,
  "Ġtechn": 4441,
  "Ġbus": 4442,
  "._": 4443,
  "Pl": 4444,
  "ä¸Ĭ": 4445,
  "ances": 4446,
  "Ġvir": 4447,
  "ĠØ§ÙĦØ±": 4448,
  "ĠëĤĺ": 4449,
  "ache": 4450,
  "ements": 4451,
  "Man": 4452,
  "Ġstyle": 4453,
  "ĠMay": 4454,
  "Ġabove": 4455,
  "EN": 4456,
  "Ġarea": 4457,
  "osed": 4458,
  "Ġtrad": 4459,
  "Ġarray": 4460,
  "à´¾": 4461,
  "ĠÐ´Ðµ": 4462,
  "ãģĻ": 4463,
  "ti": 4464,
  "rix": 4465,
  "ÚĨ": 4466,
  "Ġbir": 4467,
  "></": 4468,
  "Ġbase": 4469,
  "Ġaux": 4470,
  "ands": 4471,
  "ĠDes": 4472,
  "ĠPer": 4473,
  "ĠCent": 4474,
  "ched": 4475,
  "Ġcontinu": 4476,
  "ience": 4477,
  "Ġcompon": 4478,
  ".âĢĿ": 4479,
  "Ġabs": 4480,
  "usion": 4481,
  "ayout": 4482,
  "à¥Ĥ": 4483,
  "conom": 4484,
  "ãĥ¼ãĥ": 4485,
  "à¤ª": 4486,
  "Ġtu": 4487,
  "ride": 4488,
  "Ġparticip": 4489,
  "ahr": 4490,
  "ban": 4491,
  "Ġgrow": 4492,
  "ĠSo": 4493,
  "Ġey": 4494,
  "Ġgrou": 4495,
  "abor": 4496,
  "á»ĳ": 4497,
  "ãģĬ": 4498,
  "ãĤ¤": 4499,
  "Ø±Ùģ": 4500,
  "ries": 4501,
  "urg": 4502,
  "Ġhuman": 4503,
  "ona": 4504,
  "Ġfut": 4505,
  "ĠÑı": 4506,
  "Error": 4507,
  "ponent": 4508,
  ".w": 4509,
  "Ġsimilar": 4510,
  "çĽ": 4511,
  "Ġsein": 4512,
  "mun": 4513,
  "Ġfurther": 4514,
  "ĠPart": 4515,
  "Ġà¤¦": 4516,
  "Ġfew": 4517,
  "âĢī": 4518,
  "outh": 4519,
  "ador": 4520,
  "Ġrange": 4521,
  "ì¹": 4522,
  "à¹Ģ": 4523,
  "Ġcur": 4524,
  "'m": 4525,
  "cal": 4526,
  "less": 4527,
  "ÙĪÙĤ": 4528,
  "ĠÚ¯": 4529,
  "ÙĦØ©": 4530,
  "Ġuma": 4531,
  "cription": 4532,
  "ÙĬØ³": 4533,
  "Ġprob": 4534,
  "áĥĺáĥ¡": 4535,
  "zo": 4536,
  "kan": 4537,
  "ĠPa": 4538,
  "Ġdepend": 4539,
  "ÐºÑĥ": 4540,
  "File": 4541,
  "ĠÐł": 4542,
  "thing": 4543,
  "ules": 4544,
  "å¦Ĥ": 4545,
  "Ġrequest": 4546,
  "Äģ": 4547,
  "ious": 4548,
  "iles": 4549,
  "':": 4550,
  "Bu": 4551,
  "Ġwon": 4552,
  "èĩ": 4553,
  "());Ċ": 4554,
  "iness": 4555,
  "Ġsum": 4556,
  "idence": 4557,
  "Ġcolor": 4558,
  "ÏĨ": 4559,
  "adas": 4560,
  "och": 4561,
  "though": 4562,
  "à¦¾à¦°": 4563,
  "((": 4564,
  "stit": 4565,
  "Ġdefault": 4566,
  "Ġëĭ¤": 4567,
  "You": 4568,
  "Ġdies": 4569,
  "Ġuntil": 4570,
  "ĠNov": 4571,
  "ëĭĪ": 4572,
  "éĩ": 4573,
  "ension": 4574,
  "bol": 4575,
  "')": 4576,
  "ĠStad": 4577,
  "Ġdella": 4578,
  "ĠSer": 4579,
  "×©": 4580,
  "ï¼ĮâĢĿ": 4581,
  "ffic": 4582,
  "Ġhaving": 4583,
  "ĠÐ¢": 4584,
  "Ġsitu": 4585,
  "ĠÐ¿ÑĢ": 4586,
  ".b": 4587,
  "ĠÃ®": 4588,
  "Ġir": 4589,
  "Ġhome": 4590,
  "mod": 4591,
  "vention": 4592,
  "Î¹Î±": 4593,
  "ourn": 4594,
  "-p": 4595,
  "ĠìŀĲ": 4596,
  "Ġindividual": 4597,
  "_C": 4598,
  "Ġì§Ģ": 4599,
  "bb": 4600,
  "Ġproject": 4601,
  "Ġtou": 4602,
  "encia": 4603,
  "ling": 4604,
  "ĠÐŀ": 4605,
  "zi": 4606,
  "Ġprevious": 4607,
  "áĢºáĢ": 4608,
  "ungen": 4609,
  "Ġhom": 4610,
  "×ĵ": 4611,
  "Ġhealth": 4612,
  "ĠÐ¾Ð´": 4613,
  "UL": 4614,
  "')Ċ": 4615,
  "Ġmajor": 4616,
  "ails": 4617,
  "Ġoriginal": 4618,
  "Ġmes": 4619,
  "ê³¼": 4620,
  "ĠÙĦØ§": 4621,
  "Ġlink": 4622,
  "ĠAug": 4623,
  "Ã¡l": 4624,
  "Ġben": 4625,
  "Ġinclude": 4626,
  "Õ¿": 4627,
  "ĠJan": 4628,
  "Ġknown": 4629,
  "error": 4630,
  "Ġseveral": 4631,
  "pen": 4632,
  "ëĮĢ": 4633,
  "ĠThese": 4634,
  "Ġess": 4635,
  "Ġcompr": 4636,
  "Ġgovern": 4637,
  "Date": 4638,
  "Ġbes": 4639,
  "Ġkh": 4640,
  "Ġë§Ĳ": 4641,
  "Ġcomme": 4642,
  "day": 4643,
  "ÙĬØ§": 4644,
  "Event": 4645,
  "_name": 4646,
  "Ø§Ø·": 4647,
  "Ġ<<": 4648,
  "ailable": 4649,
  "ĠØ«": 4650,
  "[\"": 4651,
  "ĠChrist": 4652,
  "ĠÛĮ": 4653,
  "ĠÑĤÐµ": 4654,
  "Ġinvol": 4655,
  "Ġtreatment": 4656,
  "ĠØ§ÙĦØµ": 4657,
  "à¤µ": 4658,
  "àµģà´": 4659,
  "ĪĴ": 4660,
  "Ġkm": 4661,
  "ĠÐ²Ð¾": 4662,
  "igher": 4663,
  "ĠÃī": 4664,
  "Ã¡c": 4665,
  "Ġstudies": 4666,
  "ÙĪØ¬": 4667,
  "All": 4668,
  "Ġpopulation": 4669,
  "Ġgoing": 4670,
  "ĠNe": 4671,
  "})": 4672,
  "æľī": 4673,
  "Ø£ÙĨ": 4674,
  "Ġpi": 4675,
  "ĠØ§ÙĦØ®": 4676,
  "aps": 4677,
  "éĢ": 4678,
  "acc": 4679,
  "ync": 4680,
  "ored": 4681,
  "ĠEm": 4682,
  "Ġep": 4683,
  "Ġng": 4684,
  "ìĻ": 4685,
  "ĨĮ": 4686,
  "íĸĪëĭ¤": 4687,
  "ĊĊĊ": 4688,
  "urope": 4689,
  "Ġelle": 4690,
  "Ġsurface": 4691,
  "init": 4692,
  "-ch": 4693,
  "Ġà°ª": 4694,
  "Ġutil": 4695,
  "-se": 4696,
  "ych": 4697,
  "ç§": 4698,
  "Element": 4699,
  ".M": 4700,
  "Ġcontent": 4701,
  "oman": 4702,
  "Õ¡ÖĢ": 4703,
  "ĉpublic": 4704,
  "Ø®Ø±": 4705,
  "loat": 4706,
  "ald": 4707,
  "ĠÚ©Ùĩ": 4708,
  "}(": 4709,
  "ĠÃ¼ber": 4710,
  "ãĤ¢": 4711,
  "ĠÏĦÎ¿Ïħ": 4712,
  "atter": 4713,
  "ÙĤØ©": 4714,
  "Ã®": 4715,
  "ended": 4716,
  "ources": 4717,
  "àª¾": 4718,
  "met": 4719,
  "ĠÑĸ": 4720,
  "Ġkom": 4721,
  "rid": 4722,
  "ĠÕ§": 4723,
  "Ġlarg": 4724,
  "Ġdise": 4725,
  "ÑĪÐ¸": 4726,
  "ĠAss": 4727,
  "ades": 4728,
  "Ġsym": 4729,
  "Ġfem": 4730,
  "Ġaccess": 4731,
  "ÑĺÐ°": 4732,
  "Ġele": 4733,
  "ä½Ĩ": 4734,
  "Ġmoment": 4735,
  "Ġimpro": 4736,
  "Ø§Ø´": 4737,
  "åĲİ": 4738,
  "à¸±": 4739,
  "ĠMon": 4740,
  "irect": 4741,
  "Ġauch": 4742,
  "ii": 4743,
  "Ġho": 4744,
  "ìłģ": 4745,
  "void": 4746,
  "Ġwhe": 4747,
  "Ġíķ": 4748,
  "#include": 4749,
  "opt": 4750,
  "ĠĠĠĠĠĠĠĠĠĠĠĠĠĠĠĠĠ": 4751,
  "ĠLes": 4752,
  "No": 4753,
  "html": 4754,
  "RO": 4755,
  "Key": 4756,
  "å¯": 4757,
  "Ġsec": 4758,
  "Ã©l": 4759,
  "à±Ģ": 4760,
  "wa": 4761,
  "=\\": 4762,
  "Ġanim": 4763,
  "ĠÑħ": 4764,
  "ql": 4765,
  "Ø±Ùĥ": 4766,
  "Ġdeux": 4767,
  "Ġlib": 4768,
  "Ġalg": 4769,
  "Ø¹ÙĦ": 4770,
  "Ġrequire": 4771,
  "Ġnever": 4772,
  "Ġmal": 4773,
  "Ïİ": 4774,
  "ĠÑĺÐµ": 4775,
  "ĠÃº": 4776,
  "Ġplan": 4777,
  "IT": 4778,
  "à¸Ń": 4779,
  "à¯Ī": 4780,
  "Info": 4781,
  ".log": 4782,
  "'un": 4783,
  "ÙĪØ¨": 4784,
  "Ã¬": 4785,
  "ãĢĭï¼Į": 4786,
  "creen": 4787,
  "Ġface": 4788,
  "à¯įà®ķ": 4789,
  "(x": 4790,
  "ĠÐ²Ñĭ": 4791,
  "chan": 4792,
  "atures": 4793,
  "Õ¾": 4794,
  "mail": 4795,
  "file": 4796,
  "à§ģ": 4797,
  "Ġtitle": 4798,
  "ãĥª": 4799,
  "Ġobtain": 4800,
  "Ġtemper": 4801,
  "Ġhal": 4802,
  "Ã¤n": 4803,
  "Ġred": 4804,
  "utes": 4805,
  "Ġíķľ": 4806,
  "ids": 4807,
  "Ø¤": 4808,
  "à°ķ": 4809,
  "Ġservice": 4810,
  "Ġspecific": 4811,
  "><": 4812,
  "ëŁ¬": 4813,
  "Ġdidn": 4814,
  "andom": 4815,
  "ĠĠĠĠĠĠĠĠĠĠĠĠĠĠĠĠĠĠĠĠĠĠĠĠĠĠĠĠĠĠĠ": 4816,
  "Ġcamp": 4817,
  "Ġexpression": 4818,
  "Ġweek": 4819,
  "_{\\": 4820,
  "sc": 4821,
  "ika": 4822,
  "oad": 4823,
  "Ġgreat": 4824,
  ".js": 4825,
  "mand": 4826,
  "ãģĿãĤĮ": 4827,
  "Ø°Ùĩ": 4828,
  "tn": 4829,
  "ÑģÑĤÐ¾": 4830,
  "Ġamb": 4831,
  "Ġanswer": 4832,
  "Ã³w": 4833,
  "ories": 4834,
  "ÏĦÎ¿": 4835,
  "äºĨ": 4836,
  "Ġalong": 4837,
  "rie": 4838,
  "ĉĉĉĉĉ": 4839,
  "rodu": 4840,
  "aces": 4841,
  "anto": 4842,
  "ĠìĿ¼": 4843,
  "ĠBar": 4844,
  "sum": 4845,
  "Ġsat": 4846,
  "ĠÃ¨": 4847,
  "Ġoutput": 4848,
  "eters": 4849,
  "App": 4850,
  "apt": 4851,
  "Ġìĭľ": 4852,
  "Ġhigher": 4853,
  "ÑģÐ°": 4854,
  "depend": 4855,
  "Ġcontr": 4856,
  "ĠUnited": 4857,
  "æĢ": 4858,
  "ĠÑģÐ°": 4859,
  "à´¾à´": 4860,
  "Ã¶n": 4861,
  "ivo": 4862,
  "plement": 4863,
  "Ġair": 4864,
  "export": 4865,
  "ĠÙĦÙħ": 4866,
  "ilt": 4867,
  "ready": 4868,
  "ĠØ§ÙĦÙĦ": 4869,
  "stract": 4870,
  "Ġê¸°": 4871,
  "ĠÑĢ": 4872,
  "box": 4873,
  "Ã¼n": 4874,
  "éģĵ": 4875,
  "ln": 4876,
  "Ð·Ð¸": 4877,
  "Ġcommon": 4878,
  "ĠMed": 4879,
  "oot": 4880,
  "ìĿ¼": 4881,
  "ĠVal": 4882,
  "_n": 4883,
  "Ġgot": 4884,
  "ogn": 4885,
  "Ġeas": 4886,
  "áº¥": 4887,
  "vis": 4888,
  "oper": 4889,
  "ĠMy": 4890,
  "Ġindex": 4891,
  "uration": 4892,
  "ĠáĢ": 4893,
  "à¤¦": 4894,
  "Ġom": 4895,
  "Ġhapp": 4896,
  "×Ĺ": 4897,
  "£áĥ": 4898,
  "Ġà¦¸": 4899,
  "Ġdevelopment": 4900,
  "æł": 4901,
  "ĠÑģÐ¾": 4902,
  "lick": 4903,
  "kl": 4904,
  "ÙĪØ§": 4905,
  "Ġ->": 4906,
  "ÙĥØ§ÙĨ": 4907,
  "Ø§Øµ": 4908,
  "Ġresearch": 4909,
  "idd": 4910,
  "à®¤": 4911,
  "Ġconcent": 4912,
  "Ġfran": 4913,
  "Ġthought": 4914,
  "ĠÑģÑĤ": 4915,
  "Ø±ÛĮ": 4916,
  "Ġmonth": 4917,
  "Ġbis": 4918,
  "ony": 4919,
  "Ġinterest": 4920,
  "iro": 4921,
  "Test": 4922,
  "ĠÐĵ": 4923,
  "Ġfue": 4924,
  "ĠWhen": 4925,
  "rect": 4926,
  "åĽł": 4927,
  "ãģķ": 4928,
  "Ġyang": 4929,
  "Ð½Ñĸ": 4930,
  "Ġêµ": 4931,
  "aff": 4932,
  "older": 4933,
  "Ġrole": 4934,
  "Ġrad": 4935,
  "Model": 4936,
  "ĠÐ¼Ð°": 4937,
  "Ġmeans": 4938,
  "ump": 4939,
  "iff": 4940,
  "bre": 4941,
  "Ġbetter": 4942,
  "Ġë³´": 4943,
  "Table": 4944,
  "Ġlittle": 4945,
  "Ġsepar": 4946,
  "Ð¿Ð°": 4947,
  "ÙĨÙĬ": 4948,
  "ķĮ": 4949,
  "Ġblock": 4950,
  "Button": 4951,
  "Öī": 4952,
  "Ġlower": 4953,
  "ÐµÑĢÐµ": 4954,
  "Ġfar": 4955,
  "à¹Ģà¸": 4956,
  "valu": 4957,
  "Ġshort": 4958,
  "ĠìķĬ": 4959,
  "à§įà¦°": 4960,
  "Ġiz": 4961,
  "Ġpap": 4962,
  "Ġassociated": 4963,
  "\"]": 4964,
  "etic": 4965,
  "Ġphys": 4966,
  "Request": 4967,
  "Ġdevice": 4968,
  "wards": 4969,
  "odes": 4970,
  "ĠWill": 4971,
  "Ġpract": 4972,
  "ĠHer": 4973,
  "Ġchildren": 4974,
  "ao": 4975,
  "æĿ¥": 4976,
  "Ġå": 4977,
  "Ġbook": 4978,
  "ãģĿãģ®": 4979,
  "minist": 4980,
  "uter": 4981,
  "Set": 4982,
  "Ġclaim": 4983,
  "ĠÑĪ": 4984,
  "ogen": 4985,
  "è¨": 4986,
  "Ġsignal": 4987,
  "ĠCont": 4988,
  "Ġcomplet": 4989,
  "(n": 4990,
  "Ġversion": 4991,
  "Ġãĥ": 4992,
  "empt": 4993,
  "type": 4994,
  "Ġteam": 4995,
  "Ġexam": 4996,
  "ako": 4997,
  "And": 4998,
  "Log": 4999,
  "Ġà¤°": 5000,
  "ìĤ¬": 5001,
  "Ġamong": 5002,
  "ĠdÃ©c": 5003,
  "à¹Ī": 5004,
  "ĠÐ´Ð¾": 5005,
  "Ġà¤²": 5006,
  "Ð´Ñĥ": 5007,
  "Ġà°¸": 5008,
  "abil": 5009,
  "AN": 5010,
  "from": 5011,
  "Ã¢n": 5012,
  "ãģĹãģ¦": 5013,
  "img": 5014,
  "ises": 5015,
  "opy": 5016,
  "ideo": 5017,
  "ironment": 5018,
  "Ġill": 5019,
  "åĪĨ": 5020,
  "åĲĮ": 5021,
  "Ġandroid": 5022,
  "Ġpers": 5023,
  "(self": 5024,
  "Ġespec": 5025,
  "Ġìļ": 5026,
  "à±ĩ": 5027,
  "Ġà°ķ": 5028,
  "Ġcertain": 5029,
  "atory": 5030,
  "Ġà¦ķ": 5031,
  "ster": 5032,
  "Ġrate": 5033,
  "ained": 5034,
  "Õ¡ÖĢÕ": 5035,
  "-M": 5036,
  "hem": 5037,
  "SB": 5038,
  "ĠÔ": 5039,
  "Ð¼ÐµÐ½": 5040,
  "Ġsequ": 5041,
  "Ġesc": 5042,
  "Ġsil": 5043,
  "Õ¥Õ¬": 5044,
  "ï¼Ľ": 5045,
  "ĠWest": 5046,
  "Color": 5047,
  "Ġunderstand": 5048,
  "Ġot": 5049,
  "Ġrelations": 5050,
  "Ġnat": 5051,
  "Ġza": 5052,
  "url": 5053,
  "Û±": 5054,
  "Ġdescribed": 5055,
  "Ġà¤¤": 5056,
  "rug": 5057,
  "Ø¨ÙĦ": 5058,
  "Ġvia": 5059,
  "æĽ": 5060,
  "mission": 5061,
  "Ġ});Ċ": 5062,
  "icult": 5063,
  "Ù¾": 5064,
  "Ġà¤ī": 5065,
  "ÐµÐ½Ð¸Ñı": 5066,
  "ombre": 5067,
  "ties": 5068,
  "osition": 5069,
  "ĠCor": 5070,
  "à²µ": 5071,
  "Ġdays": 5072,
  "Ġmag": 5073,
  "Ġrequired": 5074,
  "Ġrespons": 5075,
  "abase": 5076,
  "iy": 5077,
  "Ø³Ø¨": 5078,
  "Ġgame": 5079,
  "pha": 5080,
  "à²¨": 5081,
  "Field": 5082,
  "Ġable": 5083,
  "Map": 5084,
  "gress": 5085,
  "ptember": 5086,
  "ÎµÏģ": 5087,
  "DE": 5088,
  "ãĤĪ": 5089,
  "Ġschool": 5090,
  "ising": 5091,
  "ĠAust": 5092,
  "egin": 5093,
  "util": 5094,
  "Sh": 5095,
  "Ġ×ķ": 5096,
  "Ġsolution": 5097,
  "Ãªme": 5098,
  "ØªÙĬ": 5099,
  "Ġdisplay": 5100,
  "ĠMin": 5101,
  "ĠÅ": 5102,
  "_st": 5103,
  "ÎµÎ¹": 5104,
  "Ã¤t": 5105,
  "ÏĦÎ·": 5106,
  "Ġren": 5107,
  "iem": 5108,
  "Ġaway": 5109,
  "Ġang": 5110,
  "Ð¡": 5111,
  "Ġcy": 5112,
  "Ð¿Ð¸": 5113,
  "Context": 5114,
  "ãĤĦ": 5115,
  "Ð¾Ð²Ð¸": 5116,
  "Ġmessage": 5117,
  "Ø¯Ùĩ": 5118,
  "PI": 5119,
  "ãģĭãĤī": 5120,
  "bit": 5121,
  "è¡": 5122,
  "ocation": 5123,
  "Ġearly": 5124,
  "Ġapproach": 5125,
  "ION": 5126,
  "Ġ);Ċ": 5127,
  "Ġage": 5128,
  "ì²": 5129,
  "uth": 5130,
  "pring": 5131,
  "Ġhard": 5132,
  "result": 5133,
  "ĠØ±Ø§": 5134,
  "Ġfamily": 5135,
  "bs": 5136,
  "ìļĶ": 5137,
  "Ġaccording": 5138,
  "ĠlÃł": 5139,
  "button": 5140,
  "ÑģÑĤÐ²": 5141,
  "pa": 5142,
  "Ġtout": 5143,
  "Ġlik": 5144,
  "à±įà°¯": 5145,
  "Ġnom": 5146,
  "ĠÎºÎ±Î¹": 5147,
  "unk": 5148,
  "Ġut": 5149,
  "ĠAmerican": 5150,
  "ĠSan": 5151,
  "ĠYork": 5152,
  "Ġoften": 5153,
  "ÑĹ": 5154,
  "Ġsobre": 5155,
  "obal": 5156,
  "Õ¨": 5157,
  "imin": 5158,
  "Ġ||": 5159,
  "ãģĿãģĨ": 5160,
  "sequ": 5161,
  "Of": 5162,
  "Ġsupp": 5163,
  "(c": 5164,
  "function": 5165,
  "Ð»Ñĥ": 5166,
  "ĠApr": 5167,
  "-y": 5168,
  "Ġalt": 5169,
  "ĠAnt": 5170,
  "thers": 5171,
  "osp": 5172,
  "aring": 5173,
  "Ġload": 5174,
  "ëª": 5175,
  "zer": 5176,
  "Ġactivity": 5177,
  "Ġavailable": 5178,
  "ĠAng": 5179,
  "ME": 5180,
  "ØªØ¨": 5181,
  "Ġnetwork": 5182,
  "à¦ķ": 5183,
  "head": 5184,
  "rt": 5185,
  "Ġsort": 5186,
  "ĠAugust": 5187,
  "åĵ": 5188,
  "ĠUniversity": 5189,
  "jet": 5190,
  "ola": 5191,
  "icial": 5192,
  "AC": 5193,
  "Ġstructure": 5194,
  "ĠÏĦÎ¿": 5195,
  "ĠÕ´": 5196,
  "len": 5197,
  "Path": 5198,
  "agement": 5199,
  "Ġgroups": 5200,
  "Ø¯Ø±": 5201,
  "ori": 5202,
  ".)": 5203,
  "åĳ": 5204,
  "-in": 5205,
  "cz": 5206,
  "trans": 5207,
  "oria": 5208,
  "Ġfrequ": 5209,
  "Ġà¤®à¥ĩà¤Ĥ": 5210,
  "Ġsource": 5211,
  "Ġdurch": 5212,
  "Ġtimes": 5213,
  "ĠìĹĨ": 5214,
  "Ġvor": 5215,
  "Ġcommand": 5216,
  ",\\": 5217,
  "lood": 5218,
  "Ġmut": 5219,
  "Ġpel": 5220,
  "ìŀ¥": 5221,
  "Ġà¦ª": 5222,
  "cht": 5223,
  "ategory": 5224,
  "áºŃ": 5225,
  ".D": 5226,
  "antes": 5227,
  "ĠIntern": 5228,
  "Ġgi": 5229,
  "×§": 5230,
  "Ġ$\\": 5231,
  "à¤¾à¤¨": 5232,
  "ĠÃ¶": 5233,
  "Ġprovide": 5234,
  "Ġsin": 5235,
  "ãĢĮâĢ¦âĢ¦": 5236,
  "Ġreported": 5237,
  "Over": 5238,
  "(m": 5239,
  "Pr": 5240,
  "apter": 5241,
  "Class": 5242,
  "-g": 5243,
  "Ġtook": 5244,
  "acy": 5245,
  "Ġfait": 5246,
  "ĠList": 5247,
  "Int": 5248,
  ".print": 5249,
  "Ġeither": 5250,
  "ipp": 5251,
  "(d": 5252,
  "ãĥĪ": 5253,
  "ÑģÐºÐ°": 5254,
  "Ġ()": 5255,
  "à¤¯": 5256,
  "Ġsure": 5257,
  "ĠBu": 5258,
  "Ġeiner": 5259,
  "à²²": 5260,
  "Ġwerden": 5261,
  "Ð½Ð¾Ð³Ð¾": 5262,
  "Ġaction": 5263,
  "respond": 5264,
  "âĢĻd": 5265,
  "Ġchanges": 5266,
  "ĠìłĦ": 5267,
  "Î¯Î±": 5268,
  "ĠÑĨ": 5269,
  "Ġnormal": 5270,
  "ĠBrit": 5271,
  "query": 5272,
  "Ġinflu": 5273,
  "Array": 5274,
  "Ġfull": 5275,
  "ë²": 5276,
  "é¡": 5277,
  "à²¤": 5278,
  "Ð½Ð¾Ð¹": 5279,
  "×¤": 5280,
  "Å¯": 5281,
  "Ġalways": 5282,
  "Ġlevels": 5283,
  "ney": 5284,
  "Ġerr": 5285,
  "With": 5286,
  "Ġband": 5287,
  "ĠÎ´": 5288,
  "Ġpotential": 5289,
  "ball": 5290,
  "ĠÙĪÙĩ": 5291,
  "ruction": 5292,
  "ÙħØ©": 5293,
  "áĥĶáĥĳ": 5294,
  "ãĥ©": 5295,
  "æľ¬": 5296,
  "ji": 5297,
  "/j": 5298,
  "chen": 5299,
  "Ġber": 5300,
  "lem": 5301,
  "ribute": 5302,
  "ĠMc": 5303,
  "Ġstop": 5304,
  "Ġpoints": 5305,
  "Ġ/>Ċ": 5306,
  "Ġ\\[": 5307,
  "-w": 5308,
  "ĠÃ®n": 5309,
  "otal": 5310,
  "ĠBer": 5311,
  "ication": 5312,
  "tes": 5313,
  "Ġalready": 5314,
  "Ġcontext": 5315,
  "ibility": 5316,
  "oi": 5317,
  "çī": 5318,
  "static": 5319,
  "ĠÃ©tÃ©": 5320,
  "Figure": 5321,
  "ãģ©": 5322,
  "Index": 5323,
  "à¸µ": 5324,
  "ĠWorld": 5325,
  "Ġrefer": 5326,
  "Ġcomplex": 5327,
  "âĢĻest": 5328,
  "ÐµÐ¹": 5329,
  "ãģ¾ãģŁ": 5330,
  "è©": 5331,
  "ä¹Ī": 5332,
  "aced": 5333,
  "Ġmechan": 5334,
  "Ġcá»§": 5335,
  "oto": 5336,
  "abe": 5337,
  "!ĊĊ": 5338,
  "Ñļ": 5339,
  "ware": 5340,
  "ieve": 5341,
  "å½ĵ": 5342,
  "Ġwomen": 5343,
  "ĠÄį": 5344,
  "Ġrepl": 5345,
  "Ġfront": 5346,
  "ebru": 5347,
  "Size": 5348,
  "Ġroom": 5349,
  "Ð½ÑĭÑħ": 5350,
  "Ġpur": 5351,
  "-h": 5352,
  "ocus": 5353,
  "à¸ģ": 5354,
  "Ġsubject": 5355,
  "Is": 5356,
  "Ġeta": 5357,
  "idos": 5358,
  "create": 5359,
  "Ġzur": 5360,
  "ĠCo": 5361,
  ".java": 5362,
  "Ġcá»§a": 5363,
  "nen": 5364,
  "Ġju": 5365,
  "stance": 5366,
  "åĨ": 5367,
  "å¤§": 5368,
  "Ġç¬¬": 5369,
  "Ġfree": 5370,
  "][": 5371,
  "Ġcam": 5372,
  "Ġpage": 5373,
  "ÉĻr": 5374,
  "Õ¸ÖĤÕ©": 5375,
  "Ġincreased": 5376,
  "Ġæ": 5377,
  "oma": 5378,
  "eld": 5379,
  "ĠÐĺ": 5380,
  "Ġze": 5381,
  "ĠÙħØŃ": 5382,
  "where": 5383,
  "./": 5384,
  "Ġ///": 5385,
  "ÙĥÙĦ": 5386,
  "×ŀ×": 5387,
  "Ġthrow": 5388,
  "Ġfeel": 5389,
  "ĠMus": 5390,
  "Add": 5391,
  "side": 5392,
  "Ġinvestig": 5393,
  "Ġrap": 5394,
  "Ġseries": 5395,
  "ãĢįĊ": 5396,
  "Ġëª¨": 5397,
  "ĠApp": 5398,
  "ãĥĥ": 5399,
  "api": 5400,
  "ols": 5401,
  "ilter": 5402,
  "à¯įà®¤": 5403,
  "à°¾à°°": 5404,
  ".id": 5405,
  "ÙĪØ§ÙĨ": 5406,
  "ĠØ§ÙĦØ·": 5407,
  "volution": 5408,
  "Î±Î½": 5409,
  "ìłķ": 5410,
  "ĠØ¹Ø§Ùħ": 5411,
  "Ġà¦¬": 5412,
  "ĠDav": 5413,
  "'Ã©": 5414,
  "ĠØ£ÙĬ": 5415,
  "ĠÙĩØ°Ø§": 5416,
  "ĠAfter": 5417,
  "Ġcoll": 5418,
  "ĠÖ": 5419,
  "ending": 5420,
  "ãģĹãģĭ": 5421,
  "ixed": 5422,
  "ĠÎ¿": 5423,
  "ĠCal": 5424,
  "ĠGerm": 5425,
  "ĠBo": 5426,
  "ilder": 5427,
  "ä¾": 5428,
  "ĠÐ¿Ð¾Ð´": 5429,
  "umb": 5430,
  "content": 5431,
  "pace": 5432,
  "Ġdoor": 5433,
  "ctor": 5434,
  "ĠØ¨ÙĨ": 5435,
  "Ġtamb": 5436,
  "verage": 5437,
  "åº": 5438,
  "Ġ)Ċ": 5439,
  "ÙĩØ±": 5440,
  "Ġmer": 5441,
  "Ġdal": 5442,
  "Ġcases": 5443,
  "Ġhowever": 5444,
  "raf": 5445,
  "à¥ĭà¤Ĥ": 5446,
  "íķĺëĬĶ": 5447,
  "Ad": 5448,
  "Ġaccount": 5449,
  "**:": 5450,
  "Ġdate": 5451,
  "Ġmas": 5452,
  "ĠZe": 5453,
  "à¦¤": 5454,
  "itar": 5455,
  "uage": 5456,
  "Ġ*Ċ": 5457,
  "Ġìĸ´": 5458,
  "Controller": 5459,
  "ĠAf": 5460,
  "Mod": 5461,
  "Ġdass": 5462,
  "ram": 5463,
  "mo": 5464,
  "Ġwidth": 5465,
  "Ġproduction": 5466,
  "Î²": 5467,
  "à¸´": 5468,
  "ĠDo": 5469,
  "mu": 5470,
  "Ġland": 5471,
  "else": 5472,
  "ë¶Ģ": 5473,
  "rict": 5474,
  "If": 5475,
  "Ġunit": 5476,
  "array": 5477,
  "éĸ": 5478,
  "_T": 5479,
  "æĻĤ": 5480,
  "Ġconditions": 5481,
  "_P": 5482,
  "ĠÑĢÐ°Ð·": 5483,
  "Not": 5484,
  "ĠÐ¼Ðµ": 5485,
  "position": 5486,
  "ÙĦÛĮ": 5487,
  "Ġdam": 5488,
  "UT": 5489,
  "à¸ĩ": 5490,
  "Õ¸ÖĤÕ©Õµ": 5491,
  "Sc": 5492,
  "Result": 5493,
  "à§ĩà¦°": 5494,
  "plit": 5495,
  "Ġcompared": 5496,
  "image": 5497,
  "ĠFrance": 5498,
  "lin": 5499,
  "ĠNot": 5500,
  "ering": 5501,
  "package": 5502,
  "Ø¯Ø©": 5503,
  "ĠEs": 5504,
  "çĻ": 5505,
  "Ġens": 5506,
  "US": 5507,
  "ĠÑģÑĥ": 5508,
  "ÃŃn": 5509,
  "Ġapplication": 5510,
  "ĠSim": 5511,
  "Ġcorrespond": 5512,
  "Ã§a": 5513,
  "Ð¾Ñģ": 5514,
  "íĻ": 5515,
  "AD": 5516,
  "ju": 5517,
  "Ø³Ùħ": 5518,
  "åī": 5519,
  "Ġbei": 5520,
  "}$": 5521,
  "Ġrow": 5522,
  "łáĥ": 5523,
  "Ġreally": 5524,
  "ello": 5525,
  "Ġseason": 5526,
  "à²Ĥ": 5527,
  "Up": 5528,
  "à¤°à¥įà¤": 5529,
  "Ġjed": 5530,
  "ä¸º": 5531,
  "ÙĤÙĬ": 5532,
  "iple": 5533,
  "Ġmach": 5534,
  "Ġcolumn": 5535,
  "æīĢ": 5536,
  "Ġperformed": 5537,
  "è®": 5538,
  "ened": 5539,
  "raft": 5540,
  "Ġdir": 5541,
  "à¦²": 5542,
  "Ġmass": 5543,
  "¯¸": 5544,
  "Ð»Ñĸ": 5545,
  "uto": 5546,
  "Õ¡Õ¯Õ¡Õ¶": 5547,
  "ES": 5548,
  "Ġì¤": 5549,
  "ĠEurope": 5550,
  "bf": 5551,
  "Ġjo": 5552,
  "UR": 5553,
  "ĠÐ¿Ð¾Ð»": 5554,
  "amed": 5555,
  "ĠÙĥÙĦ": 5556,
  "ÐµÐ½Ð¸Ðµ": 5557,
  "Ġdouble": 5558,
  "SBN": 5559,
  "iga": 5560,
  "Ġvarious": 5561,
  "ĠØ§ÙĦØ°ÙĬ": 5562,
  "ç«": 5563,
  "Ġworking": 5564,
  "ached": 5565,
  "Ġalbum": 5566,
  "aren": 5567,
  "Ġvá»": 5568,
  "Ġà¤Ĩ": 5569,
  "iu": 5570,
  "Ġans": 5571,
  "Ġthough": 5572,
  "ected": 5573,
  "àª¾àª": 5574,
  "Ġestim": 5575,
  "à¤¨à¥ĩ": 5576,
  "osis": 5577,
  "Ġregion": 5578,
  "posed": 5579,
  "²à±ĭ": 5580,
  "cret": 5581,
  "(int": 5582,
  "hen": 5583,
  "Ġtell": 5584,
  "irl": 5585,
  "Ġsite": 5586,
  "olean": 5587,
  "\").": 5588,
  "Õ¡Õ´": 5589,
  "Ġregard": 5590,
  "Ġìłķ": 5591,
  "Ġlength": 5592,
  "Ġbien": 5593,
  "ality": 5594,
  "Ġdone": 5595,
  "ä¼": 5596,
  "Ġincrease": 5597,
  "Ġeffects": 5598,
  "Ġpubl": 5599,
  "Ġparte": 5600,
  "ë©°": 5601,
  "Ġopp": 5602,
  "Code": 5603,
  "ribution": 5604,
  "ìĭł": 5605,
  "ĠÃ§": 5606,
  "ips": 5607,
  "(),": 5608,
  "Ġcette": 5609,
  "Ġitem": 5610,
  "éĤ": 5611,
  "illa": 5612,
  "ĠÙĪØ£": 5613,
  "Ġdeb": 5614,
  "osa": 5615,
  ".app": 5616,
  "Ġont": 5617,
  "_S": 5618,
  "ĠGener": 5619,
  "íĺ": 5620,
  "(p": 5621,
  "Ġlaw": 5622,
  "Ġao": 5623,
  "-S": 5624,
  "iva": 5625,
  "ĠëĤ´": 5626,
  "Ġwhether": 5627,
  "Ġgive": 5628,
  "At": 5629,
  "-B": 5630,
  "Ø¨Ø¯": 5631,
  ".php": 5632,
  "este": 5633,
  "Ġrep": 5634,
  "inding": 5635,
  "emp": 5636,
  "igned": 5637,
  "Ð³Ð¸": 5638,
  "Ġnecess": 5639,
  "ĠØ§ÛĮÙĨ": 5640,
  "iques": 5641,
  "Ð»ÐµÐ½": 5642,
  "Ġrat": 5643,
  "Ú¾": 5644,
  "Ġdig": 5645,
  "ĠThat": 5646,
  "Ġamount": 5647,
  "Ġconfig": 5648,
  "ÑģÑĤÑĮ": 5649,
  "annel": 5650,
  "Ġoch": 5651,
  "ĠBy": 5652,
  "Act": 5653,
  "Message": 5654,
  "ĠØ¨ÙĬÙĨ": 5655,
  "Ġincluded": 5656,
  "ĠÃ©tait": 5657,
  "nes": 5658,
  "Ġbit": 5659,
  "Ø§Ø®": 5660,
  "ĠOne": 5661,
  "Ġprovided": 5662,
  "ĠSeptember": 5663,
  "Ø¬Ùħ": 5664,
  "oz": 5665,
  "Ġstrong": 5666,
  "ynam": 5667,
  "apan": 5668,
  "Ġacross": 5669,
  "ĠPat": 5670,
  "\\({}^{": 5671,
  "Ġach": 5672,
  "ãģ£ãģŁ": 5673,
  "ĠWar": 5674,
  "ĠWhat": 5675,
  "Ġdeg": 5676,
  "Ġstatus": 5677,
  "uck": 5678,
  "ĠØ¨Ø¹Ø¯": 5679,
  "resh": 5680,
  "Ã©ri": 5681,
  "ĠMa": 5682,
  "ester": 5683,
  "ydro": 5684,
  "Æ°á»£": 5685,
  "ĠØ°ÙĦÙĥ": 5686,
  "Ġimplement": 5687,
  "à¥ģà¤": 5688,
  "aine": 5689,
  "icip": 5690,
  "ila": 5691,
  "Ġflow": 5692,
  "asta": 5693,
  "esis": 5694,
  "Ġë¶": 5695,
  "×ķ×¨": 5696,
  "Ġ×¢": 5697,
  "Ġfri": 5698,
  "ÑĤÑĭ": 5699,
  "Ġexpress": 5700,
  "yth": 5701,
  "Ġspace": 5702,
  "Ġsig": 5703,
  "Ġë²": 5704,
  "Ġthings": 5705,
  "assword": 5706,
  "æ²": 5707,
  "ÈĻi": 5708,
  "ÙĪØ¹": 5709,
  "Ġclin": 5710,
  "Ġmis": 5711,
  "ÏīÎ½": 5712,
  "çº": 5713,
  "cel": 5714,
  "oud": 5715,
  "Ġexec": 5716,
  "rack": 5717,
  "Ġhouse": 5718,
  "Ġinitial": 5719,
  "Ġdro": 5720,
  "label": 5721,
  "lam": 5722,
  "ĠÐ²Ð¸": 5723,
  "Ġmm": 5724,
  "Ġcourse": 5725,
  "Ġë¹": 5726,
  "ê·¸": 5727,
  "Ã¡r": 5728,
  "iento": 5729,
  "ìķĺ": 5730,
  "Ġeyes": 5731,
  "orage": 5732,
  "Ġbehav": 5733,
  "Ġsel": 5734,
  "Ġrisk": 5735,
  "hal": 5736,
  "Ø´Ø±": 5737,
  "ØªÙĦ": 5738,
  "uy": 5739,
  "Ġcame": 5740,
  "à¸¡": 5741,
  "Ġmembers": 5742,
  "Ġestabl": 5743,
  "istic": 5744,
  "omet": 5745,
  "Ġvalid": 5746,
  "åĩ": 5747,
  "âĢĮÙĩØ§ÛĮ": 5748,
  "ÏĢÎ¿": 5749,
  "Ø¯ÙĬ": 5750,
  "Ġaddress": 5751,
  "ä½ľ": 5752,
  "Ġseen": 5753,
  "Ġ{\\": 5754,
  "iert": 5755,
  "Ã©rie": 5756,
  "cher": 5757,
  "Manager": 5758,
  "Ġmind": 5759,
  "asing": 5760,
  "ĠCO": 5761,
  "Ġselect": 5762,
  "äºİ": 5763,
  "color": 5764,
  "ÙĪÙĬ": 5765,
  "Ġtw": 5766,
  "Æ¡": 5767,
  "Ġener": 5768,
  "iction": 5769,
  "ãĤ¯": 5770,
  "ismo": 5771,
  "Ġsex": 5772,
  "Ġ+=": 5773,
  "à®Ł": 5774,
  "Ġhor": 5775,
  "reate": 5776,
  "het": 5777,
  "Node": 5778,
  "Ġconsole": 5779,
  "Att": 5780,
  "ĠÕ¸": 5781,
  "Ġwhy": 5782,
  "à¤¿à¤¯": 5783,
  "mathrm": 5784,
  "Ġonce": 5785,
  "uv": 5786,
  "medi": 5787,
  "íŀ": 5788,
  "ĠpÃ¥": 5789,
  "ĠØ¥ÙĨ": 5790,
  "iding": 5791,
  "Ġseu": 5792,
  "Ġavait": 5793,
  "icy": 5794,
  "ĠMart": 5795,
  "Ġpal": 5796,
  "Ġtil": 5797,
  "istance": 5798,
  "ape": 5799,
  "ÐĴ": 5800,
  "ãģı": 5801,
  "Ġobserved": 5802,
  "Ġstd": 5803,
  "ÃŃs": 5804,
  "ĠNational": 5805,
  "Ġheight": 5806,
  "Ġkeep": 5807,
  "ĠnÃ£o": 5808,
  "asi": 5809,
  "ëł¤": 5810,
  "Ã´ng": 5811,
  "ĠÄĳá»": 5812,
  "ìĥģ": 5813,
  "ĠJanu": 5814,
  "Ġfund": 5815,
  "Ġtoget": 5816,
  "Ø§Ø¶": 5817,
  "isp": 5818,
  "ÙĤÙĦ": 5819,
  "ĠÛģ": 5820,
  "ĠApril": 5821,
  "si": 5822,
  "Ġtogether": 5823,
  "ĠÐ¿Ð°": 5824,
  "ÏģÎ±": 5825,
  "Ġdiscuss": 5826,
  "Ġevalu": 5827,
  "ÏģÎ¿": 5828,
  "iments": 5829,
  "×ĺ": 5830,
  "ìĻĢ": 5831,
  "ìķ¼": 5832,
  "Ġavo": 5833,
  "Ġindust": 5834,
  "Ġintegr": 5835,
  "uz": 5836,
  "perty": 5837,
  "ague": 5838,
  "'est": 5839,
  "Ġemploy": 5840,
  "Ġà°µ": 5841,
  "ĠÕ¯": 5842,
  "Ġwie": 5843,
  "à¦¬": 5844,
  "ĠAct": 5845,
  "Ġeinem": 5846,
  "Des": 5847,
  "point": 5848,
  "-C": 5849,
  "nie": 5850,
  "ÙħØ§ÙĨ": 5851,
  "Ġprotein": 5852,
  "Ñŀ": 5853,
  "Ð¾Ð´Ð¸": 5854,
  "Bl": 5855,
  "ĠëķĮ": 5856,
  "-st": 5857,
  "ĠÑĩÑĤÐ¾": 5858,
  "ä½Ĩæĺ¯": 5859,
  "Ġdecl": 5860,
  "Ġdecre": 5861,
  "æĪĲ": 5862,
  "Def": 5863,
  "Ġhold": 5864,
  "aÅĤ": 5865,
  "ĨĴ": 5866,
  "rat": 5867,
  "sel": 5868,
  "Û°": 5869,
  "iente": 5870,
  ")\\": 5871,
  "Ġbecame": 5872,
  "Box": 5873,
  "çľ": 5874,
  "à²Ĺ": 5875,
  "true": 5876,
  "ê¸": 5877,
  "Ġcalcul": 5878,
  "ĠDec": 5879,
  "_,": 5880,
  "Image": 5881,
  "Ġarm": 5882,
  "ĠØªÙħ": 5883,
  "Ġëį": 5884,
  "\\({}_{": 5885,
  "Ġfra": 5886,
  "ĠÙĪØª": 5887,
  "Ġthird": 5888,
  "Ð¶Ðµ": 5889,
  ".in": 5890,
  "gn": 5891,
  "Ã¦": 5892,
  "éĤ£": 5893,
  "à°®": 5894,
  "urity": 5895,
  "%D": 5896,
  "Ġlie": 5897,
  "Ġkind": 5898,
  "Ġë§Ī": 5899,
  "cular": 5900,
  "Ġì°": 5901,
  "eur": 5902,
  "imal": 5903,
  "Ãµes": 5904,
  "à¤¬": 5905,
  "Ä±r": 5906,
  "ÙĢ": 5907,
  "ainer": 5908,
  "-A": 5909,
  "Ã±o": 5910,
  "Ġà¤Ĺ": 5911,
  "ìĿ´ëĭ¤": 5912,
  "Ġok": 5913,
  "max": 5914,
  "ĠInt": 5915,
  "ago": 5916,
  "Ġprec": 5917,
  "itz": 5918,
  "Ġsua": 5919,
  "],Ċ": 5920,
  "Ġtyp": 5921,
  "Ġgovernment": 5922,
  "Ġdemon": 5923,
  "Õ¸ÖĤÕ¶": 5924,
  "Ġsyn": 5925,
  "åħĥ": 5926,
  "iers": 5927,
  "Ġax": 5928,
  "sten": 5929,
  "ĠWith": 5930,
  "Ġsy": 5931,
  "Ġzum": 5932,
  "anks": 5933,
  "Be": 5934,
  "table": 5935,
  "Ġcustom": 5936,
  "ches": 5937,
  "/c": 5938,
  "ĠDr": 5939,
  "anz": 5940,
  "ãĤ¸": 5941,
  "ê¹": 5942,
  "most": 5943,
  "Ġmeasure": 5944,
  "Ġincl": 5945,
  "Ġsix": 5946,
  "æ³": 5947,
  ".png": 5948,
  "Ġadded": 5949,
  ".r": 5950,
  "Ã¤nd": 5951,
  "(this": 5952,
  "alle": 5953,
  "Ġweight": 5954,
  "indows": 5955,
  "Ġbelow": 5956,
  "ema": 5957,
  "âĢķâĢķ": 5958,
  "\"></": 5959,
  "ĠØªØŃ": 5960,
  "ounds": 5961,
  "ĠGl": 5962,
  "ĠØ¨Ø§": 5963,
  "íĥ": 5964,
  "Ġpattern": 5965,
  "Ġstep": 5966,
  "¡°": 5967,
  "eme": 5968,
  "Em": 5969,
  "Ġcity": 5970,
  ".L": 5971,
  "Ġreason": 5972,
  "ÛĮØ±": 5973,
  "Ġalle": 5974,
  "ĠìŀĪëĭ¤": 5975,
  "********": 5976,
  "à°Ĥà°¦": 5977,
  "Ġshowed": 5978,
  "cd": 5979,
  "ĠëĤ": 5980,
  "lag": 5981,
  "áĢ¬": 5982,
  "valid": 5983,
  "è¿ĩ": 5984,
  "orge": 5985,
  "ÙĪØª": 5986,
  "ottom": 5987,
  "rab": 5988,
  "Ġsind": 5989,
  "Ġstandard": 5990,
  "å¸": 5991,
  "Ġgru": 5992,
  ".*": 5993,
  "ĠÐĽ": 5994,
  "Ġunter": 5995,
  "ÙģØ³": 5996,
  "esch": 5997,
  "uid": 5998,
  "Ġhar": 5999,
  "ĠMal": 6000,
  "Ø¡": 6001,
  "Ġconduct": 6002,
  "AS": 6003,
  "Ġmember": 6004,
  "Ø¬ÙĦ": 6005,
  "ÑĤÐµÐ»ÑĮ": 6006,
  "config": 6007,
  "×¢": 6008,
  "ĠArt": 6009,
  "Ġquant": 6010,
  "à¦¯à¦¼": 6011,
  "Ġpay": 6012,
  ".out": 6013,
  "ä¹ĭ": 6014,
  "Ġeconom": 6015,
  "åĪ°": 6016,
  "ÓĻ": 6017,
  "Fig": 6018,
  ".n": 6019,
  "isc": 6020,
  "Ġmethods": 6021,
  "ãģĹãģĭãģĹ": 6022,
  "Ð°Ð½Ð°": 6023,
  "ĠÙĩØ°Ùĩ": 6024,
  "Ġsett": 6025,
  "Ġcontact": 6026,
  "utsch": 6027,
  "una": 6028,
  "æ¯": 6029,
  "ÙĥÙĪÙĨ": 6030,
  "ĠPaul": 6031,
  "ĠNovember": 6032,
  "Ġhost": 6033,
  "andid": 6034,
  "ee": 6035,
  "begin": 6036,
  "Ã¼ck": 6037,
  "ĠStud": 6038,
  "(new": 6039,
  "áº§": 6040,
  "Ã¨me": 6041,
  "Ġrelationship": 6042,
  "Ġtit": 6043,
  "ĠMor": 6044,
  "Ġì£¼": 6045,
  "ç»": 6046,
  ".R": 6047,
  "IC": 6048,
  "ober": 6049,
  "ìłľ": 6050,
  "rav": 6051,
  "Ġ/**Ċ": 6052,
  "Ġintrodu": 6053,
  "entes": 6054,
  "ãĥ¬": 6055,
  "Ġmodels": 6056,
  "å·": 6057,
  "åĬ": 6058,
  "list": 6059,
  "idade": 6060,
  "Ġspecial": 6061,
  "ê±": 6062,
  "mary": 6063,
  "Ġdeath": 6064,
  "Ġresol": 6065,
  "ĠAbstract": 6066,
  "ÑĤÐ¾ÑĢ": 6067,
  "Cap": 6068,
  "ĠOct": 6069,
  "Ä±nd": 6070,
  "Ġeinen": 6071,
  "iÃ¨re": 6072,
  "-china": 6073,
  "Ġtransform": 6074,
  "éĹ": 6075,
  "Ġconsist": 6076,
  "Ġ(!": 6077,
  "des": 6078,
  "Ġsection": 6079,
  "Die": 6080,
  "ham": 6081,
  "iddle": 6082,
  "Ġprot": 6083,
  "ĠØ§ÙĦÙĪ": 6084,
  "itory": 6085,
  "ĠStates": 6086,
  "ĠØ§ÙĦØ«": 6087,
  "elles": 6088,
  "Ġauthor": 6089,
  "Ġconsidered": 6090,
  "Ġenergy": 6091,
  "®à¯į": 6092,
  "Ġenvironment": 6093,
  "ators": 6094,
  "Ġnou": 6095,
  "ØµÙĦ": 6096,
  "aria": 6097,
  "iten": 6098,
  "Ġfont": 6099,
  "Input": 6100,
  "íŀĪ": 6101,
  "Ê»": 6102,
  "Ġperformance": 6103,
  "Õ¶Õ¥ÖĢ": 6104,
  "New": 6105,
  "æķ": 6106,
  "ÙĬØ¹": 6107,
  "board": 6108,
  "request": 6109,
  "à«ĩ": 6110,
  "ucle": 6111,
  "aire": 6112,
  "Ġworks": 6113,
  "Ġpan": 6114,
  "à°¸": 6115,
  "ìĹ¬": 6116,
  "Ġnear": 6117,
  "pat": 6118,
  "ĠÐ£": 6119,
  "Ġdar": 6120,
  "idget": 6121,
  "Ġshows": 6122,
  "Ġsearch": 6123,
  "Ġaccept": 6124,
  "uments": 6125,
  "×Ļ×ª": 6126,
  "Ġbecome": 6127,
  "Ġà¤ķà¥Ģ": 6128,
  "plied": 6129,
  "Ġcross": 6130,
  "Ġfav": 6131,
  "www": 6132,
  "Ġclear": 6133,
  "à¯įà®ª": 6134,
  "âĢĻm": 6135,
  "Ġasked": 6136,
  "Ġdisease": 6137,
  "Ġtemperature": 6138,
  "Ġlimit": 6139,
  "Ġps": 6140,
  "åīį": 6141,
  "ĠDer": 6142,
  "**,": 6143,
  "iber": 6144,
  "ĠGod": 6145,
  "ĠCD": 6146,
  "ULL": 6147,
  "Ġíĸ": 6148,
  "_b": 6149,
  "olo": 6150,
  "Ġsche": 6151,
  "aged": 6152,
  "Ġrather": 6153,
  "code": 6154,
  "Ġíĺ": 6155,
  "sub": 6156,
  "Ġcompar": 6157,
  "Ġà¦ı": 6158,
  "char": 6159,
  "Ġpen": 6160,
  "ĠÑģÐ¸": 6161,
  "Ġprem": 6162,
  "ÙĥØ±": 6163,
  "Ġrelated": 6164,
  "Ġsimple": 6165,
  "').": 6166,
  "Ġgro": 6167,
  "Ġnational": 6168,
  "(\\": 6169,
  "Ġbusiness": 6170,
  "Ġenough": 6171,
  "pty": 6172,
  "ifier": 6173,
  "ky": 6174,
  "Ent": 6175,
  "ĠÙħØª": 6176,
  ".length": 6177,
  "ota": 6178,
  "Ð±Ð¸": 6179,
  "rier": 6180,
  "Config": 6181,
  "Â»,": 6182,
  "Ġoder": 6183,
  "Ġfive": 6184,
  "'re": 6185,
  "Ġsample": 6186,
  "Ġmaking": 6187,
  "Ġmicro": 6188,
  "ĠPort": 6189,
  "urt": 6190,
  "à®©": 6191,
  "ĠDan": 6192,
  "-P": 6193,
  "Ġnode": 6194,
  "Ġdirection": 6195,
  "ĠChar": 6196,
  "ĠÐ³Ð¾Ð´Ð°": 6197,
  "à§įà¦¯": 6198,
  "Ø¯Ùħ": 6199,
  "elta": 6200,
  "Ġleur": 6201,
  "heck": 6202,
  "Ġfoi": 6203,
  "Ġdin": 6204,
  "ÑĨÐ°": 6205,
  "Ġmort": 6206,
  "Ġmiss": 6207,
  "Ed": 6208,
  "Hand": 6209,
  "anta": 6210,
  "alls": 6211,
  "Ġpou": 6212,
  "ìĺĢ": 6213,
  "ead": 6214,
  "Ġeste": 6215,
  "gi": 6216,
  "IV": 6217,
  "Ġothers": 6218,
  "Override": 6219,
  "Ġox": 6220,
  "Out": 6221,
  "Page": 6222,
  "script": 6223,
  "ris": 6224,
  "ĠAdd": 6225,
  "à§ĭ": 6226,
  "ĠØªØ¹": 6227,
  "ĠFil": 6228,
  "Ø³ÙĦ": 6229,
  "Ġawait": 6230,
  "Ġclose": 6231,
  "ÙĳÙİ": 6232,
  "ĠÚ©ÛĮ": 6233,
  "Ġ__": 6234,
  ".W": 6235,
  "oney": 6236,
  "Ġpul": 6237,
  "lor": 6238,
  "ĠHar": 6239,
  "Ġlayer": 6240,
  "à°²": 6241,
  "ija": 6242,
  "ML": 6243,
  "ĠÈĻi": 6244,
  "Ġmultiple": 6245,
  "ensive": 6246,
  "à®³": 6247,
  "imo": 6248,
  "ialog": 6249,
  "\\n": 6250,
  "ÐºÐ¾Ð²": 6251,
  "Ġà¤¥": 6252,
  "ÐŁ": 6253,
  "Ġcreated": 6254,
  "Ġtask": 6255,
  "Ġtá»": 6256,
  "Ġnav": 6257,
  "Ġcompet": 6258,
  "Ġà¤Ń": 6259,
  "à²³": 6260,
  "Ð½ÑĭÐ¹": 6261,
  "bon": 6262,
  "rary": 6263,
  "acional": 6264,
  "ĳĲ": 6265,
  "Ġoffer": 6266,
  "Ġtour": 6267,
  "iano": 6268,
  "Ref": 6269,
  "see": 6270,
  "ĠPe": 6271,
  "ĠØ§Ø³": 6272,
  "},Ċ": 6273,
  "Ġseem": 6274,
  "å¾Į": 6275,
  "Ġeduc": 6276,
  "Ġindepend": 6277,
  "enu": 6278,
  "ĠAg": 6279,
  "ogle": 6280,
  "ĠmÃªme": 6281,
  "icos": 6282,
  "åı¯": 6283,
  "She": 6284,
  "Ġdim": 6285,
  "iden": 6286,
  "Ġwird": 6287,
  "(String": 6288,
  "ìĽĶ": 6289,
  "Ġpet": 6290,
  "atz": 6291,
  "AP": 6292,
  "ì°": 6293,
  "Ġci": 6294,
  "ĠáĥĽ": 6295,
  "Ġmagn": 6296,
  "Õ¡Õ¿": 6297,
  "Ġcorrect": 6298,
  "Ġich": 6299,
  "ĠÙħØ±": 6300,
  "geb": 6301,
  "Ġinstead": 6302,
  "Ġba": 6303,
  "ĠHis": 6304,
  "Ġrom": 6305,
  "Ġobtained": 6306,
  "Ġreceived": 6307,
  "ĠCity": 6308,
  "Ġcard": 6309,
  "ÛĮØ¯": 6310,
  "Ġìłľ": 6311,
  ".util": 6312,
  "ãĥ»": 6313,
  "ê°Ħ": 6314,
  "Ġnel": 6315,
  "Ġexc": 6316,
  "íķĺê³ł": 6317,
  "pan": 6318,
  "Il": 6319,
  "Ġ(Ċ": 6320,
  "ÙĨØª": 6321,
  "Ġselected": 6322,
  "ĠInter": 6323,
  "ĠMich": 6324,
  "oms": 6325,
  "icas": 6326,
  "mitt": 6327,
  "isation": 6328,
  "aten": 6329,
  "Ġhistory": 6330,
  "Ġacid": 6331,
  "´Ģ": 6332,
  "ĠFig": 6333,
  "Ġpast": 6334,
  "Ġembod": 6335,
  "Ġdrug": 6336,
  "ĠJo": 6337,
  "aining": 6338,
  "ÏĥÎ·": 6339,
  "emplate": 6340,
  "amento": 6341,
  "lim": 6342,
  "ischer": 6343,
  "Ã»": 6344,
  "yr": 6345,
  "ĠMarch": 6346,
  "Ġcatch": 6347,
  "Ġ×©×ľ": 6348,
  "ÑĪÐµ": 6349,
  ".F": 6350,
  "ĠìľĦ": 6351,
  "ĠÙĩÙĪ": 6352,
  "Ġthá»": 6353,
  "Ġdoesn": 6354,
  "Ġsn": 6355,
  "Ġclub": 6356,
  "anced": 6357,
  "iqu": 6358,
  "ĠĠĠĠĠĠĠĠĠĠĠĠ": 6359,
  "Ġdescription": 6360,
  "Ġdemonstr": 6361,
  "ving": 6362,
  "ì§Ģë§Į": 6363,
  "isi": 6364,
  "Ġìĸ": 6365,
  "Ġadminist": 6366,
  "ĠĠĠĠĠĠĠĠĠĠ": 6367,
  "/com": 6368,
  "Ġreview": 6369,
  "Ġtrying": 6370,
  "object": 6371,
  "à¥ĩà¤": 6372,
  "Ġmap": 6373,
  "ëĭĪëĭ¤": 6374,
  "Ġrele": 6375,
  "itude": 6376,
  "ithub": 6377,
  "osph": 6378,
  "×¡": 6379,
  "Ġpoly": 6380,
  "?âĢĿ": 6381,
  "ĠãĢĮ": 6382,
  "stant": 6383,
  "raz": 6384,
  "alpha": 6385,
  "à¦®": 6386,
  "Ġwent": 6387,
  "Ø³ÙĬ": 6388,
  "aciones": 6389,
  "check": 6390,
  "Ġassess": 6391,
  "ĠForm": 6392,
  "Ġà®ª": 6393,
  "ĠíĻ": 6394,
  "Ġserver": 6395,
  "Ġbegin": 6396,
  "Ġimag": 6397,
  "Ġled": 6398,
  "à¸¥": 6399,
  "ĠcÃ³": 6400,
  "Ġ×Ķ": 6401,
  "Ġï¼Ī": 6402,
  "cing": 6403,
  "Ġrelig": 6404,
  "iene": 6405,
  "/d": 6406,
  "Î¼Î±": 6407,
  "ÑīÐ¸": 6408,
  "ãģ£ãģ¦": 6409,
  "Ġloss": 6410,
  "pm": 6411,
  "ëŀĮ": 6412,
  "Ġtypes": 6413,
  "Ġà¤¸à¥ĩ": 6414,
  "berg": 6415,
  "Ð¾Ð²Ðµ": 6416,
  "âĢĻre": 6417,
  "Ġimm": 6418,
  "Ġwin": 6419,
  "Ġhalf": 6420,
  "Ġ...": 6421,
  ",ĊĊ": 6422,
  "Ĳľ": 6423,
  "ĠSal": 6424,
  ".is": 6425,
  "Ġà¤Ķ": 6426,
  "eria": 6427,
  "Content": 6428,
  "oved": 6429,
  "êµŃ": 6430,
  "ius": 6431,
  "Ġcover": 6432,
  "verse": 6433,
  "å¤©": 6434,
  "Ġconv": 6435,
  "å¯¹": 6436,
  "'une": 6437,
  "ĠPre": 6438,
  "ãĤı": 6439,
  "uery": 6440,
  "ĠSie": 6441,
  "Ġliter": 6442,
  "ĠSouth": 6443,
  "Ġsoft": 6444,
  "omas": 6445,
  "uan": 6446,
  "åĽłæŃ¤": 6447,
  "Ġframe": 6448,
  "ĠÚ©ÛĴ": 6449,
  "ĠLond": 6450,
  "rica": 6451,
  "Ġheld": 6452,
  "su": 6453,
  "las": 6454,
  "ĠÑģÑĤÐ°": 6455,
  "ìĿĮ": 6456,
  "à¹ī": 6457,
  "à¨¾": 6458,
  "Ġsv": 6459,
  "Â».": 6460,
  "×ŀ": 6461,
  "ìĦ±": 6462,
  "ternal": 6463,
  "Õ´": 6464,
  "ops": 6465,
  "oles": 6466,
  "Ġsystems": 6467,
  "Ġfocus": 6468,
  "Ð¶Ð°": 6469,
  "ĠGet": 6470,
  "ĠEin": 6471,
  "post": 6472,
  "Line": 6473,
  "ÄĹ": 6474,
  "Ġfun": 6475,
  "ensity": 6476,
  "ĠPhil": 6477,
  "ï¼ĮĊĊ": 6478,
  "ael": 6479,
  "Ġapr": 6480,
  "ĠPark": 6481,
  "Ġpatient": 6482,
  "'ve": 6483,
  "change": 6484,
  "ãĤ·": 6485,
  "ãĢĤãĢĮ": 6486,
  "ëĲĺ": 6487,
  "bor": 6488,
  "ono": 6489,
  "ĠRuss": 6490,
  "âĢ¦âĢ¦âĢĿĊĊ": 6491,
  "esta": 6492,
  "Ġdefined": 6493,
  "'A": 6494,
  "ï½": 6495,
  "ĠState": 6496,
  "áº¡i": 6497,
  "iÃ©n": 6498,
  "ÙĬØ§Øª": 6499,
  "anger": 6500,
  "ÙĪØ²": 6501,
  "Component": 6502,
  "ãĥī": 6503,
  "íķł": 6504,
  "Ġrespectively": 6505,
  "ĠÐ±Ð¸": 6506,
  "FA": 6507,
  "Ġord": 6508,
  "Ġround": 6509,
  "with": 6510,
  "æĶ": 6511,
  "Ġni": 6512,
  "hing": 6513,
  "ande": 6514,
  "ÑĨÑĸ": 6515,
  "ÑĺÐµ": 6516,
  "Ġblood": 6517,
  "Ø§Ø±Ø©": 6518,
  "js": 6519,
  "erd": 6520,
  ".println": 6521,
  "Ġnombre": 6522,
  "ĠBel": 6523,
  "\\[": 6524,
  "ë¥´": 6525,
  "Ġcommune": 6526,
  "à«į": 6527,
  "à±įà°°à°¾à°": 6528,
  "Ġà¤Ķà¤°": 6529,
  "Ġclos": 6530,
  "Ġmeet": 6531,
  "ÑĢÐ°Ð½": 6532,
  "ĠØ¹ÙĦÙĬ": 6533,
  "(i": 6534,
  "BC": 6535,
  "ÐºÐµ": 6536,
  "Ġmole": 6537,
  "Ġ_{": 6538,
  "Ġinhib": 6539,
  "ÙĪÙģ": 6540,
  "Ð´Ñĭ": 6541,
  "ĠìŀĪëĬĶ": 6542,
  "à«įàª": 6543,
  "ĠPres": 6544,
  "ĠØ¶": 6545,
  "ĠÙģØ±": 6546,
  "Ġà¤ķà¥ĭ": 6547,
  "ëĤ": 6548,
  "Ġdit": 6549,
  "ĠÕ¥": 6550,
  "iar": 6551,
  "Ġyoung": 6552,
  "Ġconcern": 6553,
  "Ġrot": 6554,
  "ìĹĪ": 6555,
  "product": 6556,
  "ulated": 6557,
  "ê¹Į": 6558,
  "éĿ": 6559,
  "Ġcannot": 6560,
  "_in": 6561,
  "èµ": 6562,
  "á»ĩ": 6563,
  "åĲį": 6564,
  ".P": 6565,
  "Response": 6566,
  "fect": 6567,
  "define": 6568,
  "ĠÎ¼Îµ": 6569,
  "Ġcondition": 6570,
  "Ø«Ø±": 6571,
  "Ġsen": 6572,
  "ĠKing": 6573,
  "Ġtaken": 6574,
  "bers": 6575,
  "Ġcin": 6576,
  "Ġadj": 6577,
  "mt": 6578,
  "ĠpÅĻ": 6579,
  "Ġcompany": 6580,
  "rown": 6581,
  "Ġnu": 6582,
  "ledge": 6583,
  "Ġspecies": 6584,
  "ĠSam": 6585,
  "ĠLu": 6586,
  "×Ľ": 6587,
  "Ġthing": 6588,
  "å¤ĸ": 6589,
  "ĠItal": 6590,
  "Ġservices": 6591,
  "Ġdifference": 6592,
  "Ġdifficult": 6593,
  "Ġnature": 6594,
  "ìłĦ": 6595,
  "van": 6596,
  "cciÃ³n": 6597,
  "ĠprÃ©s": 6598,
  "Ġinstance": 6599,
  "Ġment": 6600,
  "ĠÐ²Ðµ": 6601,
  "à§Ģ": 6602,
  "-n": 6603,
  "Ġprefer": 6604,
  "Qu": 6605,
  "à®ķ": 6606,
  "Ġê±°": 6607,
  "Ġoc": 6608,
  "Ġbegan": 6609,
  "Ġupon": 6610,
  "oke": 6611,
  "Ð¶Ð¸": 6612,
  "Ġforce": 6613,
  "Ġhy": 6614,
  "Ġ===": 6615,
  "iáº¿": 6616,
  "æĥ": 6617,
  "Ġneeded": 6618,
  "Ġwords": 6619,
  "Status": 6620,
  "ube": 6621,
  "ĉc": 6622,
  "ä¾ĭ": 6623,
  "urop": 6624,
  "Ġinside": 6625,
  "====": 6626,
  "ĠMark": 6627,
  "Ġmemory": 6628,
  "áĢ¯": 6629,
  "Ġpero": 6630,
  "ãģ¡": 6631,
  "áĥ£áĥ": 6632,
  "ĠJune": 6633,
  "ĠìĥĿ": 6634,
  "isplay": 6635,
  "enden": 6636,
  "({Ċ": 6637,
  "Ġtum": 6638,
  "ÙĬØ±Ø©": 6639,
  "ĠFebru": 6640,
  "Click": 6641,
  "Ġconstruct": 6642,
  ".to": 6643,
  "Ø¯ÙĬØ¯": 6644,
  "ĠPal": 6645,
  "Ľi": 6646,
  "ags": 6647,
  "ordin": 6648,
  "aven": 6649,
  "mas": 6650,
  "next": 6651,
  "ĠTrans": 6652,
  "ĠOctober": 6653,
  "Ġvolt": 6654,
  "atively": 6655,
  "Ġcontra": 6656,
  "Ġexperiment": 6657,
  "ĠGo": 6658,
  "abled": 6659,
  "à¥įà¤¤": 6660,
  "oken": 6661,
  ".x": 6662,
  "Ġattack": 6663,
  "éĻ": 6664,
  "anda": 6665,
  "ÙĬÙģ": 6666,
  "body": 6667,
  "ĠĠĠĠĠĠĠĠĠĠĠĠĠĠĠĠĠĠĠĠĠĠĠĠĠĠĠĠĠĠĠĠĠĠĠ": 6668,
  "Count": 6669,
  ".ex": 6670,
  "ills": 6671,
  "ĠData": 6672,
  "IS": 6673,
  "Ġidea": 6674,
  "Ø§Ø«": 6675,
  "ĠÐºÐ¾Ð¼": 6676,
  "nÃ©": 6677,
  "àµĨ": 6678,
  "uns": 6679,
  "(e": 6680,
  "Ġà°¨": 6681,
  "ĠÏĦÎ·ÏĤ": 6682,
  "ged": 6683,
  "ije": 6684,
  "Ġnor": 6685,
  "Ġspect": 6686,
  "áģ": 6687,
  "ÑĸÐ´": 6688,
  "Ġelements": 6689,
  "ĠÅ¡": 6690,
  "ĠFre": 6691,
  "place": 6692,
  "å£": 6693,
  "Ð¾Ð½Ð°": 6694,
  "Ġsignificantly": 6695,
  "ì£¼": 6696,
  "ĠAustral": 6697,
  "ouble": 6698,
  "({": 6699,
  "à¦¾à¦¨": 6700,
  "Ġauss": 6701,
  "âĢĺ": 6702,
  "_data": 6703,
  "Ġetc": 6704,
  "Ġmax": 6705,
  "Ġcause": 6706,
  "${": 6707,
  "ports": 6708,
  "Ġcomponent": 6709,
  "èĩ³": 6710,
  "From": 6711,
  "Ġsoci": 6712,
  "âĢĻun": 6713,
  "çİ": 6714,
  "Ġlot": 6715,
  "Ġrecom": 6716,
  "Ġmaxim": 6717,
  "Ġtor": 6718,
  "enz": 6719,
  "My": 6720,
  "ì¹ĺ": 6721,
  "aft": 6722,
  "Ġ×Ľ": 6723,
  "ani": 6724,
  "Ġecho": 6725,
  "Ġupdate": 6726,
  "Ġyet": 6727,
  "ĠØ§ÙĦÙħØª": 6728,
  "react": 6729,
  "Ġappear": 6730,
  "adem": 6731,
  "Ġbig": 6732,
  "ÙĪÛĮ": 6733,
  "azione": 6734,
  "gs": 6735,
  "ĠÕ¶": 6736,
  "ë¬¸": 6737,
  "ĠIII": 6738,
  "à®²": 6739,
  "Æ°á»Ŀ": 6740,
  "à¤¿à¤ķ": 6741,
  "Ġcancer": 6742,
  "lichen": 6743,
  "à¸¢": 6744,
  "actions": 6745,
  "ipe": 6746,
  "Ġvot": 6747,
  "çŁ": 6748,
  "ï½ŀ": 6749,
  "istics": 6750,
  "ĠÙĪØ¬": 6751,
  "Ġreference": 6752,
  "ĠÃª": 6753,
  "kn": 6754,
  "å¥½": 6755,
  "Ġwr": 6756,
  "Ġnight": 6757,
  "AM": 6758,
  "âĢĻil": 6759,
  "ĠSm": 6760,
  "ĠÃ©l": 6761,
  "Ġgrowth": 6762,
  "Ġfactors": 6763,
  "Ġpun": 6764,
  "Ġlabel": 6765,
  ".org": 6766,
  "ĠSw": 6767,
  "teger": 6768,
  "Ġissue": 6769,
  "iti": 6770,
  "ÅĦ": 6771,
  "rl": 6772,
  "Ġvel": 6773,
  "}}\\": 6774,
  "System": 6775,
  "ĠJuly": 6776,
  "ĠJapan": 6777,
  "Ġcapac": 6778,
  "blank": 6779,
  "<?": 6780,
  "êµ¬": 6781,
  "'h": 6782,
  "Ġë¶Ģ": 6783,
  "omin": 6784,
  "Õ¡Õ¾": 6785,
  "uh": 6786,
  "ander": 6787,
  "å°±": 6788,
  "Î½Î±": 6789,
  "Ġvous": 6790,
  "ĠìĻ": 6791,
  "ĠFe": 6792,
  "-to": 6793,
  "ĠÐ±Ñĥ": 6794,
  "Ġì²": 6795,
  "Ġven": 6796,
  "ĠDon": 6797,
  "Ġappar": 6798,
  "Ġ\"\"": 6799,
  "äºĮ": 6800,
  "çĤ": 6801,
  "Ð½ÑĭÐµ": 6802,
  "lie": 6803,
  "plications": 6804,
  "Ġvez": 6805,
  "private": 6806,
  "Ġnous": 6807,
  "Ø«ÙĦ": 6808,
  "Ġkil": 6809,
  "ady": 6810,
  "Æ°á»£c": 6811,
  "aking": 6812,
  "'d": 6813,
  "ä¸ĸ": 6814,
  "ĠSaint": 6815,
  "Ġcountry": 6816,
  "Ġtod": 6817,
  "Ġpositive": 6818,
  "Ø¹Ø¶": 6819,
  "Ġtried": 6820,
  "íĬ": 6821,
  "Ġautom": 6822,
  "ĠÅ¾": 6823,
  "ĠÚĨ": 6824,
  "pose": 6825,
  "down": 6826,
  "option": 6827,
  "ĠNor": 6828,
  "×Ŀ": 6829,
  "ĠThen": 6830,
  "Ġproced": 6831,
  "Ġtim": 6832,
  "Ġprimary": 6833,
  "gt": 6834,
  "Ġpeu": 6835,
  "Ġwhole": 6836,
  "Û²": 6837,
  "ĽĦ": 6838,
  "Ø¥ÙĨ": 6839,
  "Ã±os": 6840,
  "lib": 6841,
  "Ġfol": 6842,
  "ĠÐ¿ÑĢÐ°": 6843,
  "çŃ": 6844,
  "åĽŀ": 6845,
  "Ø§Ø¯Ø©": 6846,
  ".T": 6847,
  "obile": 6848,
  "*.ĊĊ": 6849,
  "ker": 6850,
  "à¸§": 6851,
  "Ġassert": 6852,
  "ĠGre": 6853,
  "Ġjob": 6854,
  "à¦¸": 6855,
  "Ġterms": 6856,
  "ye": 6857,
  "Ġrecogn": 6858,
  "ĠØ¨Ø¯": 6859,
  "ĠComp": 6860,
  "angle": 6861,
  "Ø§ÙĨÙĬ": 6862,
  "Ø§ÙĦÙĬ": 6863,
  "rio": 6864,
  "Õ¥ÖĢÕ": 6865,
  "ĠJanuary": 6866,
  "ĠsiÄĻ": 6867,
  "Ser": 6868,
  "ĠPo": 6869,
  "ustr": 6870,
  "ÙĦØ¨": 6871,
  "Ġcm": 6872,
  "Ġesp": 6873,
  "ĠLand": 6874,
  "atur": 6875,
  "Ġsqu": 6876,
  "Ò¯": 6877,
  "Ġexpected": 6878,
  "%)": 6879,
  "argin": 6880,
  "Trans": 6881,
  "Inter": 6882,
  "Ġsor": 6883,
  "Ø§Ø©": 6884,
  "ĠÂ°": 6885,
  "à´¤": 6886,
  "arning": 6887,
  "center": 6888,
  "Ġenter": 6889,
  "Ġpain": 6890,
  "Ġà°ī": 6891,
  "å®ŀ": 6892,
  "×Ķ×": 6893,
  "Ġthus": 6894,
  "oul": 6895,
  "Ġlines": 6896,
  "Ġmodern": 6897,
  "Ġconse": 6898,
  "Ġ×ĳ": 6899,
  "ieder": 6900,
  "¨àµįà´": 6901,
  "Ġdesc": 6902,
  "ĠJahr": 6903,
  "Ġtransfer": 6904,
  "ÒĽ": 6905,
  "Ġlikely": 6906,
  "cos": 6907,
  "Ġactive": 6908,
  "Ġpressure": 6909,
  "ĠISBN": 6910,
  "_M": 6911,
  "ãĤ¿": 6912,
  "Ġlat": 6913,
  "ĠLos": 6914,
  "actory": 6915,
  "ipo": 6916,
  "è¦": 6917,
  "OT": 6918,
  "ospital": 6919,
  "Ġmove": 6920,
  "æł·": 6921,
  "åĽ½": 6922,
  "Ġ[Ċ": 6923,
  "Ġhttp": 6924,
  "Param": 6925,
  "×Ĵ": 6926,
  "Ġmechanism": 6927,
  "-D": 6928,
  "Ġterrit": 6929,
  "ĠÙĥØ§ÙĨØª": 6930,
  "Ġaverage": 6931,
  "Ø±Ø¶": 6932,
  "Ġtrack": 6933,
  "Ġclient": 6934,
  "Ġgrad": 6935,
  "iá»ĩ": 6936,
  "ĠìĿ¸": 6937,
  "Ġviol": 6938,
  "Ġfood": 6939,
  "onom": 6940,
  "Ġnur": 6941,
  "Õ¯": 6942,
  "Ġvoor": 6943,
  "ØŁ": 6944,
  "Ġcut": 6945,
  "Ø§ÙĦÙħ": 6946,
  "Ġsong": 6947,
  "aÃ§Ã£o": 6948,
  "fully": 6949,
  "ĠÎ³": 6950,
  "lish": 6951,
  "ÐµÐ²": 6952,
  "Ġsav": 6953,
  "Ġquel": 6954,
  "Ġbenef": 6955,
  "ĉĉĉĉĉĉ": 6956,
  "Ġya": 6957,
  "There": 6958,
  "ĠDavid": 6959,
  "Ġentire": 6960,
  "roy": 6961,
  "Ġfall": 6962,
  "á»Ļt": 6963,
  "OS": 6964,
  "Ġdoing": 6965,
  "ìĪĺ": 6966,
  "Ġnatural": 6967,
  "Ġarch": 6968,
  "Ġrev": 6969,
  "AG": 6970,
  "Ġfeatures": 6971,
  "Ġmonths": 6972,
  "ä¸ª": 6973,
  "Ġrandom": 6974,
  "Ġà¤ķà¤°": 6975,
  "Ġdiagn": 6976,
  "Ġjun": 6977,
  "ĠNa": 6978,
  "ä¸ĭ": 6979,
  "Ġlooked": 6980,
  "Ġsold": 6981,
  "pret": 6982,
  "Ġattempt": 6983,
  "Number": 6984,
  "rich": 6985,
  "ĠDem": 6986,
  "Ġincludes": 6987,
  "Ġì¤ĳ": 6988,
  "field": 6989,
  "Ġstarted": 6990,
  "ï¼īãĢĤĊĊ": 6991,
  "Ġ/*": 6992,
  "ĠParis": 6993,
  "Ġpie": 6994,
  "Ã¼l": 6995,
  "Ph": 6996,
  "Ġauth": 6997,
  "rea": 6998,
  "ND": 6999,
  "Ġzw": 7000,
  "Ġpremi": 7001,
  "åħ¶": 7002,
  "ÐµÐ»": 7003,
  "ĠìĤ¬ëŀĮ": 7004,
  "Ġels": 7005,
  "reet": 7006,
  "Ġbal": 7007,
  "Ġheart": 7008,
  "ĠÙĪÙĤ": 7009,
  "ĠÐ»Ð¸": 7010,
  "esse": 7011,
  "ÃŃan": 7012,
  "à¤ļ": 7013,
  "hn": 7014,
  "amespace": 7015,
  "Listener": 7016,
  "ÑĢÐ¾Ð²": 7017,
  "ĠNorth": 7018,
  "ĠÐ´Ð»Ñı": 7019,
  "æ°": 7020,
  "ëĵľ": 7021,
  "åħ¬": 7022,
  "thern": 7023,
  "Ġphot": 7024,
  "ç¾": 7025,
  "Ġscreen": 7026,
  "à¤¾à¤¤": 7027,
  "comes": 7028,
  "ĠâĪĴ": 7029,
  "Ġcentral": 7030,
  "à°µ": 7031,
  "ĠìĹ¬": 7032,
  "iller": 7033,
  "Ġcenter": 7034,
  "Ġdefin": 7035,
  "Ġdei": 7036,
  "Ġà¤¯": 7037,
  "Ġextends": 7038,
  "Ġaltern": 7039,
  "ĠRec": 7040,
  "uct": 7041,
  "Ġbackground": 7042,
  "ĠAp": 7043,
  "ĠAlex": 7044,
  "ÑĢÑı": 7045,
  "ĠØĮ": 7046,
  "Ġko": 7047,
  "gal": 7048,
  "ĠëĲĺ": 7049,
  "ë³´": 7050,
  "ED": 7051,
  "enter": 7052,
  "=\"_": 7053,
  "Ġaud": 7054,
  "}=": 7055,
  "Ġnie": 7056,
  "ÛĶ": 7057,
  "-e": 7058,
  "åĩº": 7059,
  "Ġimpact": 7060,
  "Ġexperience": 7061,
  "ĠÑģÐ¿": 7062,
  "active": 7063,
  "fr": 7064,
  "æ¬": 7065,
  "Ġgas": 7066,
  "Ġmillion": 7067,
  "å¼": 7068,
  "iger": 7069,
  "é¡µ": 7070,
  "utions": 7071,
  "ply": 7072,
  "ĠÐºÐ¾Ð½": 7073,
  "ÑĸÐ²": 7074,
  "ĠÄĳÆ°á»£c": 7075,
  "ĠØ¢ÙĨ": 7076,
  "ĠÐ½Ð¸": 7077,
  "Ġvariable": 7078,
  "Ġphase": 7079,
  "Ġorganiz": 7080,
  "ening": 7081,
  "Ġreve": 7082,
  "ĠAcc": 7083,
  "ĠØ£Ùĥ": 7084,
  "ĠâĢ¢": 7085,
  "ãģĹãģŁ": 7086,
  "Query": 7087,
  "Ã¼hr": 7088,
  "Ġstudents": 7089,
  "Ġtal": 7090,
  "Ġoption": 7091,
  "Ġexact": 7092,
  "ĠÙħØ³": 7093,
  "Ġmilit": 7094,
  "-based": 7095,
  "ĠÙĤØ¯": 7096,
  "ĠKe": 7097,
  "auf": 7098,
  "encies": 7099,
  "ttps": 7100,
  "ĠStr": 7101,
  "inary": 7102,
  "Caption": 7103,
  "undo": 7104,
  "/main": 7105,
  "áĢ¬áĢ": 7106,
  "Ġlove": 7107,
  "ĠÐ¤": 7108,
  "Ġtempor": 7109,
  "Ġprior": 7110,
  "select": 7111,
  "ĠÙĪÙħ": 7112,
  "Ġtiss": 7113,
  "ĠEnd": 7114,
  "Ġalmost": 7115,
  "Les": 7116,
  "Ġzwe": 7117,
  "Ġgene": 7118,
  "/src": 7119,
  ".html": 7120,
  "æŀ": 7121,
  ".data": 7122,
  "à¤ľ": 7123,
  "ÏĢÏĮ": 7124,
  "Ġfollowed": 7125,
  "itation": 7126,
  "Ġradi": 7127,
  "ÙĨØ©": 7128,
  "Ġevents": 7129,
  "å¿": 7130,
  "Ġhatte": 7131,
  "lying": 7132,
  "Ġpercent": 7133,
  "PE": 7134,
  "Ġwanted": 7135,
  "Ġcer": 7136,
  "Ġpredict": 7137,
  ".B": 7138,
  "ĠMil": 7139,
  "à°¦": 7140,
  "inde": 7141,
  "Ġunivers": 7142,
  "Ġhydro": 7143,
  ".append": 7144,
  "ponents": 7145,
  "Ġmusic": 7146,
  "Ġfuture": 7147,
  "ÐµÐ½Ð°": 7148,
  "Ġà°Ĺ": 7149,
  "rial": 7150,
  "pped": 7151,
  "áĥĲáĥľ": 7152,
  "Ġbed": 7153,
  "};ĊĊ": 7154,
  "Ġhttps": 7155,
  "Rep": 7156,
  "ĠElle": 7157,
  "ĠĠĠĠĠĠĠĠĠĠĠĠĠĠĠĠĠĠĠĠĠ": 7158,
  "mathbf": 7159,
  "Ĩį": 7160,
  "Ġground": 7161,
  "×ĳ×": 7162,
  "Ġdont": 7163,
  "ĠRich": 7164,
  "Ġmedia": 7165,
  "ijn": 7166,
  "Ġclinical": 7167,
  "Ġ;Ċ": 7168,
  "ĠMad": 7169,
  "Ġhac": 7170,
  "inen": 7171,
  "Ġmode": 7172,
  "di": 7173,
  "Ġà®®": 7174,
  "à²ķ": 7175,
  "Us": 7176,
  "ĠÐ¾Ñģ": 7177,
  "umer": 7178,
  "Ġà®ķ": 7179,
  "ambda": 7180,
  "Det": 7181,
  "ÙĬØª": 7182,
  "Ġindu": 7183,
  "à±Ĥ": 7184,
  "Ġextra": 7185,
  "zn": 7186,
  "ova": 7187,
  "Ġvert": 7188,
  "ãĢĭï¼Ī": 7189,
  "à°¾à°²": 7190,
  "hl": 7191,
  "Ġproperties": 7192,
  "ìļ©": 7193,
  "Ġanc": 7194,
  "Ġfail": 7195,
  "ĠÑĤÐ°Ðº": 7196,
  "è§": 7197,
  "_to": 7198,
  "ĠDecember": 7199,
  "ares": 7200,
  "Ġtalk": 7201,
  "Ġà²®": 7202,
  "endant": 7203,
  "Ġhistor": 7204,
  "Ġchem": 7205,
  "rew": 7206,
  "Ġcop": 7207,
  "----------------": 7208,
  "ĠRed": 7209,
  "å¹³": 7210,
  "Ġanything": 7211,
  "vement": 7212,
  "ÙĴ": 7213,
  "sen": 7214,
  "Ġlig": 7215,
  "Õ½": 7216,
  "ĠHen": 7217,
  "ivil": 7218,
  "itional": 7219,
  "alla": 7220,
  "ĠÃ¤": 7221,
  "link": 7222,
  "\".ĊĊ": 7223,
  "Ġareas": 7224,
  "ername": 7225,
  "Ġtom": 7226,
  "âĢ¦âĢ¦ĊĊ": 7227,
  "Ġformer": 7228,
  "Ġê²½": 7229,
  "Ä±l": 7230,
  "éĩĮ": 7231,
  "Ġmarket": 7232,
  "yles": 7233,
  "Ġsans": 7234,
  "blic": 7235,
  "ĠIN": 7236,
  "_F": 7237,
  "mat": 7238,
  "uted": 7239,
  "version": 7240,
  "apy": 7241,
  "à¯įà®Ł": 7242,
  "ìĺĢëĭ¤": 7243,
  "Ġblack": 7244,
  "asse": 7245,
  "æĦ": 7246,
  "CH": 7247,
  "^{\\": 7248,
  "lig": 7249,
  "ĠÎ½": 7250,
  "Ã½ch": 7251,
  "Ġ($": 7252,
  "Ġìĥģ": 7253,
  "Ġfer": 7254,
  "ìļ°": 7255,
  "Ġever": 7256,
  "anged": 7257,
  "book": 7258,
  "Ġevidence": 7259,
  "Ġoccur": 7260,
  "ÙĬØ«": 7261,
  "Ġvie": 7262,
  "Ġwalk": 7263,
  "Client": 7264,
  "iting": 7265,
  "Ġtut": 7266,
  "ĠVol": 7267,
  "isse": 7268,
  "ĠText": 7269,
  "fort": 7270,
  "Ġnos": 7271,
  "Ġgran": 7272,
  "`,": 7273,
  "\\(\\": 7274,
  "ĠJean": 7275,
  "Ġlate": 7276,
  "Ġdraw": 7277,
  "Ġlanguage": 7278,
  "à°¤": 7279,
  "Ġsamples": 7280,
  "ĠÐĹ": 7281,
  "ãĥĨ": 7282,
  "Ġlooking": 7283,
  "ëį°": 7284,
  "Ġlocation": 7285,
  "à¤¾à¤²": 7286,
  "Ġwurden": 7287,
  "Ġaccom": 7288,
  "hand": 7289,
  "!!": 7290,
  "Ġdeveloped": 7291,
  "âĢ²": 7292,
  "Ġactual": 7293,
  "ython": 7294,
  "Ġ:ĊĊ": 7295,
  "cu": 7296,
  ")ĊĊĊ": 7297,
  "ØµØ±": 7298,
  "Ġproperty": 7299,
  "ĠãĢĬ": 7300,
  "ÑīÐµ": 7301,
  "dom": 7302,
  "ĠLog": 7303,
  "Ġsurv": 7304,
  "ÙħØ¯": 7305,
  "mar": 7306,
  "Ġstra": 7307,
  "ford": 7308,
  "Ġfiles": 7309,
  "icles": 7310,
  "rs": 7311,
  "Î¿Ïį": 7312,
  "Ġparameters": 7313,
  "akt": 7314,
  "Ħ°": 7315,
  "Ġstage": 7316,
  "ĠBro": 7317,
  "Ø¨Ø©": 7318,
  "ÐºÑĤ": 7319,
  "Ġhabit": 7320,
  "rec": 7321,
  "adio": 7322,
  "Ġfuer": 7323,
  "Sub": 7324,
  "ĠMore": 7325,
  "Ġfeature": 7326,
  "ampions": 7327,
  "-F": 7328,
  "eller": 7329,
  "Ġquery": 7330,
  "çµ": 7331,
  "Ġaussi": 7332,
  "hline": 7333,
  "Ġminutes": 7334,
  "Ð±Ð°": 7335,
  "ÑĨÐ¸Ð¸": 7336,
  "Ġëĵ¤": 7337,
  "Equ": 7338,
  "¸áĢ": 7339,
  "Ó©": 7340,
  "title": 7341,
  "Ġfactor": 7342,
  "çĦ¶èĢĮ": 7343,
  "ĠDep": 7344,
  "ami": 7345,
  "Ġanti": 7346,
  "used": 7347,
  "ê°ģ": 7348,
  "ĠØ£Ùħ": 7349,
  "ĠÃªtre": 7350,
  "Ã´t": 7351,
  "Su": 7352,
  "Ġquality": 7353,
  "yz": 7354,
  "åķ": 7355,
  "Ġsous": 7356,
  "Ġpersonal": 7357,
  "Ġreleased": 7358,
  "map": 7359,
  "çĶŁ": 7360,
  "Ġpresence": 7361,
  "ë¶": 7362,
  "Ġhimself": 7363,
  "())": 7364,
  "ceed": 7365,
  "ging": 7366,
  "Ġfilter": 7367,
  "path": 7368,
  "ĠStadium": 7369,
  "ĠAc": 7370,
  "ĠLou": 7371,
  "âĢĻll": 7372,
  "fficient": 7373,
  "Ġnoch": 7374,
  "áĥł": 7375,
  "ĠEnt": 7376,
  "Ġwait": 7377,
  "igo": 7378,
  "enta": 7379,
  "ÏĥÏĦ": 7380,
  "Ġà¤ĩ": 7381,
  "Ġcompos": 7382,
  "ĠØ®ÙĦ": 7383,
  "ëįĺ": 7384,
  "ĠFinal": 7385,
  "ords": 7386,
  "Ø§Ø±ÛĮ": 7387,
  "ãĢįï¼Ī": 7388,
  "Ġfunctions": 7389,
  "ungs": 7390,
  "astic": 7391,
  "(st": 7392,
  "ography": 7393,
  ")*": 7394,
  "ieved": 7395,
  "Ð»Ñĭ": 7396,
  "aled": 7397,
  "Ġplayer": 7398,
  "ĠÎŃ": 7399,
  "leep": 7400,
  "Ġconcept": 7401,
  "oro": 7402,
  "íĬ¸": 7403,
  "Ġwindow": 7404,
  "à±įà°¨": 7405,
  "inte": 7406,
  "Ġnucle": 7407,
  "SC": 7408,
  "Ġfig": 7409,
  "ĠHist": 7410,
  "Ġplant": 7411,
  "}+": 7412,
  "Ġà¤ªà¥įà¤°": 7413,
  "pir": 7414,
  "izing": 7415,
  "flow": 7416,
  "ĠDiv": 7417,
  "Ġwrite": 7418,
  "oire": 7419,
  "Ġborder": 7420,
  "light": 7421,
  "çŁ¥": 7422,
  "Ġitself": 7423,
  "ĠTable": 7424,
  "à¸Ķ": 7425,
  "ĠoÃ¹": 7426,
  "Ġtold": 7427,
  "arth": 7428,
  "æĸ¹": 7429,
  "Ġweb": 7430,
  "ĠÙĪØ¨": 7431,
  "airs": 7432,
  "Ġbil": 7433,
  "Ġru": 7434,
  "Ġbehind": 7435,
  "width": 7436,
  "âĢĿãĢĤĊĊ": 7437,
  "Ġ),Ċ": 7438,
  "open": 7439,
  "Ġ×Ļ": 7440,
  "áĥķ": 7441,
  "Ġactually": 7442,
  "ìķĺëĭ¤": 7443,
  "Ġseems": 7444,
  "ĠestÃ¡": 7445,
  "One": 7446,
  "Ġuns": 7447,
  "ĠìĨĮ": 7448,
  "pg": 7449,
  "Ġinstall": 7450,
  "Group": 7451,
  "Ġcommunity": 7452,
  "Ġsense": 7453,
  "response": 7454,
  "Ġsaw": 7455,
  "ĠJames": 7456,
  "ĠãĢİ": 7457,
  "frame": 7458,
  "áĢ¯áĢ": 7459,
  "OD": 7460,
  "ãĥķ": 7461,
  "Ġprincipal": 7462,
  "izer": 7463,
  "Ãºn": 7464,
  "Ġcapt": 7465,
  "ĠAir": 7466,
  "Ã±a": 7467,
  "×ķ×ľ": 7468,
  "Ġmol": 7469,
  "vin": 7470,
  "à¸ķ": 7471,
  "Ġë¬´": 7472,
  "ril": 7473,
  "ĠSa": 7474,
  "_D": 7475,
  "Ġvideo": 7476,
  "Ġclim": 7477,
  "ĠChina": 7478,
  "ĠÐĿÐ°": 7479,
  "lege": 7480,
  "Ġadditional": 7481,
  "Ġfire": 7482,
  "ĠÑĩÐ°": 7483,
  "ĠcÃ¡c": 7484,
  "Ġ:=": 7485,
  "oute": 7486,
  "ĠGeneral": 7487,
  "à¤¡": 7488,
  "iana": 7489,
  "ĠJust": 7490,
  "-G": 7491,
  "ĠBen": 7492,
  "What": 7493,
  "Ġurl": 7494,
  "Ġprevent": 7495,
  "Ġwhite": 7496,
  "Ġteach": 7497,
  "ãĢģĊĊ": 7498,
  "à¤¼": 7499,
  "Ġstress": 7500,
  "ÙģØ±": 7501,
  "Äĥm": 7502,
  "fol": 7503,
  "Ġ(\"": 7504,
  "Ġguer": 7505,
  "ĠSome": 7506,
  "Ġdistribution": 7507,
  "ÑĥÑĢ": 7508,
  ".pro": 7509,
  "Ġmakes": 7510,
  "ĠkÃ¶": 7511,
  "áĢŃ": 7512,
  "ĠID": 7513,
  "Ġinvention": 7514,
  "Ø¹Ùħ": 7515,
  "Ġfelt": 7516,
  "more": 7517,
  "unicip": 7518,
  "enced": 7519,
  "ĠBritish": 7520,
  "Ġë°Ķ": 7521,
  "attle": 7522,
  "Ġrunning": 7523,
  "ĠAus": 7524,
  "áĢ±": 7525,
  "ä¿": 7526,
  "ĠØ§ÙĦÙħÙĨ": 7527,
  "agen": 7528,
  "Ġprobably": 7529,
  "Ġswitch": 7530,
  "Ø³ÛĮ": 7531,
  "_type": 7532,
  "kin": 7533,
  "'ll": 7534,
  "Ġta": 7535,
  "ĠJah": 7536,
  "Ġfoot": 7537,
  "Ġmai": 7538,
  "dev": 7539,
  "Ġinvolved": 7540,
  "ahl": 7541,
  "ÐµÑĢÐ°": 7542,
  "ä½ł": 7543,
  "race": 7544,
  "Ġnothing": 7545,
  "Ã¨res": 7546,
  "ĠÐ¿ÐµÑĢÐµ": 7547,
  "äºĭ": 7548,
  "#define": 7549,
  "ĠÄĲ": 7550,
  "Ġces": 7551,
  "imm": 7552,
  "Ġalla": 7553,
  "ëªħ": 7554,
  "Ġengine": 7555,
  "egen": 7556,
  "how": 7557,
  "Ġpack": 7558,
  "Ġaber": 7559,
  "Ġneeds": 7560,
  "aves": 7561,
  "Â».ĊĊ": 7562,
  "Ġformed": 7563,
  "'in": 7564,
  "è¨Ģ": 7565,
  "Ġstation": 7566,
  "ĠNULL": 7567,
  "åĢ": 7568,
  "Ġvill": 7569,
  "ĠÙĬØ¹": 7570,
  "ĠÐ±Ð°": 7571,
  "ped": 7572,
  ".cl": 7573,
  "ĠOb": 7574,
  "Ġportion": 7575,
  "clus": 7576,
  "à°¡": 7577,
  "ĠÃ©p": 7578,
  "ÎµÏĤ": 7579,
  "Ġ?ĊĊ": 7580,
  "ÃĹ": 7581,
  "ournal": 7582,
  "Ø§Ø±ÙĬ": 7583,
  "Ġà¦®": 7584,
  "formation": 7585,
  "Ġquick": 7586,
  "Ġple": 7587,
  "atives": 7588,
  "adding": 7589,
  "ope": 7590,
  "ring": 7591,
  "Action": 7592,
  "Ġhon": 7593,
  "ĠÐ¿ÑĢÐµÐ´": 7594,
  "Ġdivers": 7595,
  "Ãªte": 7596,
  "ĠMod": 7597,
  "olf": 7598,
  "%B": 7599,
  "ĠDate": 7600,
  "ĠCap": 7601,
  "burg": 7602,
  "ĠsÃ©": 7603,
  "ë§Ī": 7604,
  "Select": 7605,
  "Ġà¤¹à¥ĭ": 7606,
  "Ġgreater": 7607,
  "olic": 7608,
  "à³įà²¤": 7609,
  "ĠFirst": 7610,
  "ĠÃ¥": 7611,
  ")</": 7612,
  "ĠHol": 7613,
  "requ": 7614,
  "context": 7615,
  "Ġbox": 7616,
  "Ġfunc": 7617,
  "LO": 7618,
  "CC": 7619,
  "ÐĲ": 7620,
  "amer": 7621,
  "III": 7622,
  "Ġà²¸": 7623,
  "unn": 7624,
  "Ġassum": 7625,
  "HE": 7626,
  "web": 7627,
  "Õ¡Õ½": 7628,
  "ĠÑģÐ²Ð¾": 7629,
  "nection": 7630,
  "à¤Ł": 7631,
  "à³įà²°": 7632,
  "ĠCr": 7633,
  "Ġáĥĵ": 7634,
  "Ġculture": 7635,
  "eren": 7636,
  "ĠTest": 7637,
  "Ġproblems": 7638,
  "Ð¼Ñĥ": 7639,
  "Ã¡m": 7640,
  "apping": 7641,
  "Ø®Øµ": 7642,
  "ĠJack": 7643,
  "Ġacqu": 7644,
  "Ġperm": 7645,
  "ffect": 7646,
  "time": 7647,
  "Ġgel": 7648,
  "Ġê°Ļ": 7649,
  "ersion": 7650,
  "When": 7651,
  "Ġalthough": 7652,
  "ÑģÐ»Ðµ": 7653,
  "Ġbuilding": 7654,
  "Ġdirectly": 7655,
  "ç´": 7656,
  "uj": 7657,
  "arrow": 7658,
  "idden": 7659,
  "endre": 7660,
  "','": 7661,
  "Ġcomplete": 7662,
  "Rec": 7663,
  "ragment": 7664,
  "Ġë§Į": 7665,
  "Ø¢": 7666,
  "Ġdatabase": 7667,
  "Ġdep": 7668,
  "parent": 7669,
  "amin": 7670,
  "Ġpens": 7671,
  "ĠSub": 7672,
  "áº¥t": 7673,
  "Ġturned": 7674,
  "ĠÐ¼Ð¸": 7675,
  "Ġpopular": 7676,
  "ĠrÃ©s": 7677,
  "Ġê³µ": 7678,
  "à¤¤à¤¾": 7679,
  "anti": 7680,
  "à¸Ĺ": 7681,
  "Ã§Ãµes": 7682,
  "avy": 7683,
  "âĢĻÃ©": 7684,
  "Ġoperation": 7685,
  "ëŀĺ": 7686,
  "iat": 7687,
  "Ġ×ł": 7688,
  "Ġmir": 7689,
  "MP": 7690,
  "cil": 7691,
  "email": 7692,
  "Ġmention": 7693,
  "Ġíķ´": 7694,
  "æľĢ": 7695,
  "ĠØ¨ÙĦ": 7696,
  "now": 7697,
  "Ġjud": 7698,
  "ulations": 7699,
  "Ġhours": 7700,
  "Ä«": 7701,
  "Ġespecially": 7702,
  "Ġìĺ¤": 7703,
  "chi": 7704,
  "Column": 7705,
  "ãģ¤": 7706,
  "ego": 7707,
  "Ġinn": 7708,
  "éĥ": 7709,
  "ÃŃm": 7710,
  "ä¸įè¿ĩ": 7711,
  "Ġble": 7712,
  "Ã¡g": 7713,
  "uff": 7714,
  "ÑĤÐ¸Ð²": 7715,
  "Ġtraining": 7716,
  "Ġgar": 7717,
  "zie": 7718,
  "lik": 7719,
  "Ġfast": 7720,
  "Ġsept": 7721,
  "-a": 7722,
  "ìĨĮ": 7723,
  "ĠMag": 7724,
  "bes": 7725,
  "reich": 7726,
  "Ġpeut": 7727,
  "ÑĶ": 7728,
  "ĠAut": 7729,
  "elling": 7730,
  "Ġmel": 7731,
  "è¡Į": 7732,
  "ĠÐºÐ°Ðº": 7733,
  "uta": 7734,
  "ĠìĽ": 7735,
  "à°Ĥà°²à±ĭ": 7736,
  "Ġmá»Ļt": 7737,
  "à¸°": 7738,
  "Ġcomment": 7739,
  "Ġhyp": 7740,
  "ãģ§ãĤĤ": 7741,
  "Ġegy": 7742,
  "Ð½Ð¾Ð¼": 7743,
  "Ġtransport": 7744,
  "rik": 7745,
  "åİ": 7746,
  "env": 7747,
  "Ġitems": 7748,
  "ä½į": 7749,
  "ĠSchool": 7750,
  "sg": 7751,
  "ĠrÃ©g": 7752,
  "Ġcorrel": 7753,
  "Ġusually": 7754,
  "ĠhabÃŃa": 7755,
  "cis": 7756,
  "update": 7757,
  "ĠFIG": 7758,
  "Ġsound": 7759,
  ".find": 7760,
  "Ġpolitical": 7761,
  "FF": 7762,
  ".Get": 7763,
  "SON": 7764,
  "Ġhan": 7765,
  "Ġmaintain": 7766,
  "sche": 7767,
  "ļĮ": 7768,
  "Ø§ÙĨÛĮ": 7769,
  "ĠUs": 7770,
  "Ġfine": 7771,
  "Ġ})Ċ": 7772,
  "Ġbound": 7773,
  "imer": 7774,
  "atform": 7775,
  "Acc": 7776,
  "ĠUser": 7777,
  "Ð½Ð¾Ð²": 7778,
  "ÑģÑĤÐ²Ð¾": 7779,
  "à±Ĩ": 7780,
  "Ġoffic": 7781,
  "Ġhandle": 7782,
  "Ġglobal": 7783,
  "Ø§Ùĥ": 7784,
  "df": 7785,
  "Ġdistance": 7786,
  "ĠÙĬÙħ": 7787,
  "ĠCons": 7788,
  "etch": 7789,
  "igr": 7790,
  "Ġoptions": 7791,
  "itÃł": 7792,
  "ë¬´": 7793,
  "Ġnumer": 7794,
  "isa": 7795,
  "Ġgetting": 7796,
  "vas": 7797,
  "Ġelectro": 7798,
  "Ġsud": 7799,
  "Î½ÏĦ": 7800,
  "How": 7801,
  "ename": 7802,
  "Ġsolo": 7803,
  "Ġdell": 7804,
  "Ġoutside": 7805,
  "à§įà¦¤": 7806,
  "Ġknowledge": 7807,
  "Ġforma": 7808,
  "ocket": 7809,
  "Ġagre": 7810,
  "Ġfu": 7811,
  "ĠÖĩ": 7812,
  "âĪĴ": 7813,
  "BS": 7814,
  "Ġdurante": 7815,
  "Ġvict": 7816,
  "-\\": 7817,
  "tres": 7818,
  "lation": 7819,
  "Ä±ÅŁ": 7820,
  "Ġtrav": 7821,
  "Ġì¢": 7822,
  "Ð²Ð°Ð½": 7823,
  "à®¯": 7824,
  "sz": 7825,
  "ski": 7826,
  "Ø³Ø±": 7827,
  "à±įà°°à°¾à°®": 7828,
  "åĭ": 7829,
  "ĠDen": 7830,
  "-r": 7831,
  "#####": 7832,
  "Ġà¦¹": 7833,
  "Ġpow": 7834,
  "eline": 7835,
  "PO": 7836,
  ".value": 7837,
  "ĠÐķ": 7838,
  "sa": 7839,
  "Ġ((": 7840,
  "Ã§o": 7841,
  "ikan": 7842,
  "Default": 7843,
  "ĠØ§ÙĦØº": 7844,
  "Ġfore": 7845,
  "ĠEnglish": 7846,
  "Ġdetermined": 7847,
  "True": 7848,
  "Ġ~": 7849,
  "Ġidentified": 7850,
  "ania": 7851,
  "Reg": 7852,
  "istry": 7853,
  "';ĊĊ": 7854,
  "edia": 7855,
  "Ġscore": 7856,
  "iki": 7857,
  "Ġrelative": 7858,
  "ĠFebruary": 7859,
  "iciÃ³n": 7860,
  "Ġinstit": 7861,
  "åĮ": 7862,
  "lections": 7863,
  "ëıĻ": 7864,
  "-L": 7865,
  "Ð²ÐµÑĢ": 7866,
  "Ġgave": 7867,
  "esto": 7868,
  "ĠSi": 7869,
  "ĠsiÃ¨": 7870,
  "ĠTom": 7871,
  "adores": 7872,
  "Ġpaper": 7873,
  "Ġcel": 7874,
  "ĠØªÙĤ": 7875,
  "ĠØ¬Ùħ": 7876,
  "Ġé": 7877,
  "á»Ł": 7878,
  "ĠÐ½Ð¾": 7879,
  "ÑĪÐ°": 7880,
  "Ġbool": 7881,
  "ĠìĬ": 7882,
  "ìĬµ": 7883,
  "Ã¯": 7884,
  "ĠÙħØ¯": 7885,
  "ãģĳ": 7886,
  "Ġca": 7887,
  "aires": 7888,
  "ĠWil": 7889,
  "Å³": 7890,
  "Ġì¹": 7891,
  "Ġà¤ı": 7892,
  "ĠLondon": 7893,
  "idades": 7894,
  "ĠëĦ": 7895,
  "Ġreduced": 7896,
  "tex": 7897,
  "Ġinj": 7898,
  "ĠÙħÙĤ": 7899,
  "Ġaspect": 7900,
  "Ø¸Ø±": 7901,
  "ÐµÐ½ÑĤ": 7902,
  "bal": 7903,
  "Ãī": 7904,
  "Ġtherefore": 7905,
  "soft": 7906,
  "Entity": 7907,
  "ĠResult": 7908,
  "grad": 7909,
  "insi": 7910,
  "height": 7911,
  "Ġtemp": 7912,
  "*),": 7913,
  "ë¥¸": 7914,
  "ÏģÎ¹": 7915,
  "ĠSet": 7916,
  "Ġparent": 7917,
  "fa": 7918,
  "erve": 7919,
  "ĠÙĬØª": 7920,
  "ĠØ§Ùħ": 7921,
  "Ġà¤ļ": 7922,
  "ĠìĿĺ": 7923,
  "Ġnecessary": 7924,
  "à¤¿à¤¤": 7925,
  "Ġinterpret": 7926,
  "rote": 7927,
  "Ð¾Ð»Ð¸": 7928,
  "ioni": 7929,
  "jen": 7930,
  "Util": 7931,
  "eles": 7932,
  "ì§Ħ": 7933,
  "Ġlonger": 7934,
  "igma": 7935,
  "Ġconnection": 7936,
  "ä¸ĩ": 7937,
  "Ġdifferences": 7938,
  "Ġì¶": 7939,
  "àª¨": 7940,
  "ĠTer": 7941,
  "default": 7942,
  "Ġè": 7943,
  "orith": 7944,
  "ØĽ": 7945,
  "Url": 7946,
  "ĠÙĦÙĩ": 7947,
  "Ġgew": 7948,
  "Ġtur": 7949,
  "sl": 7950,
  "Ġrepr": 7951,
  "ĠÙħÛĮÚº": 7952,
  "Ġknew": 7953,
  "ä»£": 7954,
  "liche": 7955,
  "ÙĨØ³": 7956,
  "ĠØ¹ÙĨØ¯": 7957,
  "Ġcast": 7958,
  "db": 7959,
  "Ġapplied": 7960,
  "ìĽĲ": 7961,
  "Ø·Ø©": 7962,
  "lands": 7963,
  "rench": 7964,
  "Ðļ": 7965,
  "Ġsist": 7966,
  "oding": 7967,
  "íĦ°": 7968,
  "Ġannoun": 7969,
  "ĠÑĤÐ¾": 7970,
  "Ġlive": 7971,
  "QL": 7972,
  "ĠFigure": 7973,
  "ĠfÃ¶r": 7974,
  "Ġflex": 7975,
  "ĠMont": 7976,
  "ograf": 7977,
  "Ġpromot": 7978,
  "Ĩµ": 7979,
  "Ġsequence": 7980,
  "Ġmanagement": 7981,
  "Ġfaire": 7982,
  "amma": 7983,
  "Ġê³ł": 7984,
  "MS": 7985,
  "\\),": 7986,
  "iner": 7987,
  "ÎµÎ¯": 7988,
  "rd": 7989,
  "Ġcat": 7990,
  "ĠMit": 7991,
  "nia": 7992,
  "Ġáĥ¡": 7993,
  "ØªÙī": 7994,
  "Ġcomponents": 7995,
  "Ġà¤ķà¤¾": 7996,
  "ĠtambiÃ©n": 7997,
  "ĠDNA": 7998,
  "rane": 7999,
  "Ġprofession": 8000,
  "ĠPC": 8001,
  "atin": 8002,
  "iko": 8003,
  "Ġhands": 8004,
  "-H": 8005,
  "rait": 8006,
  "pite": 8007,
  "Ġvit": 8008,
  "ØªÛĮ": 8009,
  "á»ĭ": 8010,
  "\",\"": 8011,
  "Ġihr": 8012,
  "åł": 8013,
  "Ġcandid": 8014,
  "ĠMo": 8015,
  "ÙĩØ¯": 8016,
  "Ġlost": 8017,
  "ĠInternational": 8018,
  "ez": 8019,
  "Ġboolean": 8020,
  "Ġrelease": 8021,
  "RNA": 8022,
  "itect": 8023,
  "çĿ": 8024,
  "ÑİÑĤ": 8025,
  "arc": 8026,
  "github": 8027,
  "ptions": 8028,
  "gent": 8029,
  "ĠNone": 8030,
  "Ġlimited": 8031,
  "So": 8032,
  "Ġbehavior": 8033,
  "à®ª": 8034,
  "Ġincreasing": 8035,
  "irt": 8036,
  "_B": 8037,
  "ÑģÑĤÐ²Ð°": 8038,
  "Ġminim": 8039,
  "ÅĤa": 8040,
  "rak": 8041,
  "Ġcentury": 8042,
  "à°¾à°¯": 8043,
  "Ġconnect": 8044,
  "oring": 8045,
  "-cont": 8046,
  "ĠMet": 8047,
  "Ġsul": 8048,
  "Ġentr": 8049,
  "ķàµįà´": 8050,
  "eler": 8051,
  "ĠRobert": 8052,
  "Õ¸ÖĤÕ©ÕµÕ¸ÖĤÕ¶": 8053,
  "ìļ´": 8054,
  "ĠThus": 8055,
  "âĢĻve": 8056,
  "å±": 8057,
  "Ġìļ°": 8058,
  "Ġtend": 8059,
  "eli": 8060,
  "Ġimages": 8061,
  "AB": 8062,
  "á»±": 8063,
  "Layout": 8064,
  "ÉĻn": 8065,
  "Ġproducts": 8066,
  "Ġfort": 8067,
  "}{\\": 8068,
  "_list": 8069,
  "Ġvs": 8070,
  "Ġíı": 8071,
  "Ġvariables": 8072,
  "×ķ×ł": 8073,
  "ĠÙħØ´": 8074,
  "ĠOs": 8075,
  "Ġaffect": 8076,
  "Ġproduced": 8077,
  "Instance": 8078,
  "áĥļ": 8079,
  "isf": 8080,
  "inder": 8081,
  "ĠĠĠĠĠĠĠĠĠĠĠĠĠĠ": 8082,
  "Ġì¡°": 8083,
  "last": 8084,
  "Ġdeliver": 8085,
  "æīĢä»¥": 8086,
  "ĠprÃ©": 8087,
  "Ġbuilt": 8088,
  "Ġwaren": 8089,
  "Ø·ÙĦ": 8090,
  "Ġnumbers": 8091,
  "format": 8092,
  "\\\\": 8093,
  "Ġwasn": 8094,
  "à¨¾à¨": 8095,
  "nu": 8096,
  "Ġgenes": 8097,
  "rij": 8098,
  "ãĢģãĢİ": 8099,
  "Ġexcept": 8100,
  "hi": 8101,
  "à±Ī": 8102,
  "Ġfloat": 8103,
  "ocr": 8104,
  "ĠØ§ÙĦÙĬ": 8105,
  "Ġvirt": 8106,
  "Ð¾Ð´Ð°": 8107,
  "Ġther": 8108,
  "Î¾": 8109,
  "aling": 8110,
  "dy": 8111,
  "Ġcolon": 8112,
  "ronic": 8113,
  "Ġconvert": 8114,
  "Ġspeed": 8115,
  "Ġdynam": 8116,
  "Ġvent": 8117,
  "-up": 8118,
  "ously": 8119,
  "ĠGru": 8120,
  "íĻĶ": 8121,
  "Ġmatter": 8122,
  "vey": 8123,
  "Ġà°®": 8124,
  "Ġfit": 8125,
  "vere": 8126,
  "à®µ": 8127,
  "Ġtrou": 8128,
  "---": 8129,
  ".G": 8130,
  "ìĸ": 8131,
  "Ġreach": 8132,
  "ĠØªØ±": 8133,
  "Ã¤ng": 8134,
  "Ġnas": 8135,
  "udo": 8136,
  "Ġphysical": 8137,
  "ÑĻ": 8138,
  "ĠSing": 8139,
  "ĠÐ¥": 8140,
  "Ġstore": 8141,
  "engan": 8142,
  "Ġbad": 8143,
  "Ġalors": 8144,
  "upport": 8145,
  "uses": 8146,
  "ãģ°": 8147,
  "PS": 8148,
  "á»į": 8149,
  "Ġwor": 8150,
  "Ġcart": 8151,
  "ĠUSA": 8152,
  "oli": 8153,
  ".âĢĻ": 8154,
  "Ġchall": 8155,
  "Ġprime": 8156,
  "Ġdisco": 8157,
  "à®¿à®¯": 8158,
  "à¤¹à¥Ģ": 8159,
  "Ġsend": 8160,
  "Ġwherein": 8161,
  "ÑģÑĤÐ°Ð²": 8162,
  "Ġconstru": 8163,
  "Ġstates": 8164,
  "Ã¼nd": 8165,
  "struct": 8166,
  "Ġvolume": 8167,
  "Bar": 8168,
  "ĠDas": 8169,
  "ĠAz": 8170,
  "ĠDi": 8171,
  "duc": 8172,
  "ellen": 8173,
  "Ġformat": 8174,
  "<a": 8175,
  "ĠÚ©Ø±Ø¯": 8176,
  "Ġbran": 8177,
  "Ġlearn": 8178,
  "())Ċ": 8179,
  "à¹Į": 8180,
  "Ġroot": 8181,
  "iler": 8182,
  "Point": 8183,
  "chaft": 8184,
  "aur": 8185,
  "Ġconcentration": 8186,
  "Ġconcentr": 8187,
  "artment": 8188,
  "cope": 8189,
  "ĠgÃ©n": 8190,
  "Ã¤hr": 8191,
  "../../": 8192,
  "ç«ł": 8193,
  "ãĥĵ": 8194,
  ".de": 8195,
  "lu": 8196,
  "Ġà¤ªà¤°": 8197,
  "Ġtaking": 8198,
  "()ĊĊ": 8199,
  "ÑĦÐ¸": 8200,
  "ÐµÐ·": 8201,
  "ÐºÑĸ": 8202,
  ".name": 8203,
  "Ð±Ð¾": 8204,
  "ØŃÙĬ": 8205,
  "ĠTur": 8206,
  "Ġris": 8207,
  "Ġepis": 8208,
  "Ġfavor": 8209,
  "ĠCoun": 8210,
  "ajo": 8211,
  "à®¿à®²": 8212,
  "ĠãĤ": 8213,
  "Ġcontinue": 8214,
  "base": 8215,
  "hol": 8216,
  "abs": 8217,
  "Õ¤": 8218,
  "ë¹": 8219,
  "ĠCount": 8220,
  "Ġnorm": 8221,
  "Ġprovides": 8222,
  "Ġsays": 8223,
  "Ġtax": 8224,
  "ĠMac": 8225,
  "rage": 8226,
  "Ġwoman": 8227,
  "ĠClass": 8228,
  "arter": 8229,
  "Row": 8230,
  "lav": 8231,
  "Ø®ÙĦ": 8232,
  "ĠJos": 8233,
  "aging": 8234,
  "Î½Î¿": 8235,
  "server": 8236,
  "udi": 8237,
  "ĠTor": 8238,
  "Ð°Ð½Ð¸Ñı": 8239,
  "Ġfigure": 8240,
  "Change": 8241,
  "ĠØ§ÙĦØ¢": 8242,
  "rÃ©": 8243,
  "ÐĿ": 8244,
  "Ġà¦ħ": 8245,
  "ĠMichael": 8246,
  "Stream": 8247,
  "Ġtrong": 8248,
  "rip": 8249,
  "ĠUp": 8250,
  "Ġpremier": 8251,
  "eturn": 8252,
  "Ġlors": 8253,
  "!--": 8254,
  "Ġprimer": 8255,
  "Ġtown": 8256,
  "Õ¡Öģ": 8257,
  "ibil": 8258,
  "ãĥŃ": 8259,
  "aciÃ³": 8260,
  ".py": 8261,
  "Ġparts": 8262,
  "Source": 8263,
  "_r": 8264,
  "Ġpreviously": 8265,
  "ÙģØª": 8266,
  "Ġeffort": 8267,
  "Ġnue": 8268,
  "ÑģÐºÐ¾Ð¹": 8269,
  "itud": 8270,
  "ĠÎ±ÏĢÏĮ": 8271,
  "Ġpublished": 8272,
  "/p": 8273,
  "ëŁ°": 8274,
  "ÑĽ": 8275,
  "Ġfinanc": 8276,
  "¼Ķ": 8277,
  "Ġconstant": 8278,
  "Ø§ÙĨÙĬØ©": 8279,
  "áĥ¡": 8280,
  "ĠTV": 8281,
  "ĉthis": 8282,
  "bi": 8283,
  "ĠHigh": 8284,
  "car": 8285,
  "ĠKon": 8286,
  "Link": 8287,
  "Ġinterface": 8288,
  "Ġnegative": 8289,
  "Ġillustr": 8290,
  "Ġadapt": 8291,
  "Ġmehr": 8292,
  "ĠÕ¡Õ": 8293,
  "ãģį": 8294,
  "adre": 8295,
  "ĠMat": 8296,
  "acing": 8297,
  "ÙģØ©": 8298,
  "Ġdomin": 8299,
  "uge": 8300,
  "à°Ł": 8301,
  "aya": 8302,
  "Ġstory": 8303,
  "host": 8304,
  "Ġbutton": 8305,
  "Ġpuis": 8306,
  "ĠpiÃ¹": 8307,
  "Ġplayed": 8308,
  "<div": 8309,
  "ĠWilliam": 8310,
  "ĉfor": 8311,
  "Ãłnh": 8312,
  "ç·": 8313,
  "ishing": 8314,
  "ington": 8315,
  "Ġcompl": 8316,
  "èĢħ": 8317,
  "uten": 8318,
  "ingu": 8319,
  "rot": 8320,
  "ĠÙĤØ¨ÙĦ": 8321,
  "Handler": 8322,
  "ĠGeorge": 8323,
  "×Ļ×Ķ": 8324,
  "ÑĨÐµ": 8325,
  "ĠÎĳ": 8326,
  "Ġzijn": 8327,
  "Ġisol": 8328,
  "ĠÏĦÎ·Î½": 8329,
  "à«Ģ": 8330,
  "Ġinfe": 8331,
  "size": 8332,
  "ĠGroup": 8333,
  "(R": 8334,
  "à¸ª": 8335,
  "Ãły": 8336,
  "ovi": 8337,
  "ĠEt": 8338,
  "Ġprz": 8339,
  "ÑĤÐ¾Ð¼": 8340,
  "ĠÛĮÚ©": 8341,
  "ĠSur": 8342,
  "ĠFrank": 8343,
  "ĠÙĩÙĬ": 8344,
  "ethyl": 8345,
  "×Ļ×¨": 8346,
  "ÃŁen": 8347,
  "Ġesta": 8348,
  "ÐµÑĤÑģÑı": 8349,
  "ç¾İ": 8350,
  "mark": 8351,
  "Ġquestions": 8352,
  "json": 8353,
  "Ġexperi": 8354,
  "Ð¼Ð¾": 8355,
  "click": 8356,
  "Ġnem": 8357,
  "Ð³ÑĢÐ°": 8358,
  "Ġë¹Ħ": 8359,
  "Ġwritten": 8360,
  "Ġfrequency": 8361,
  "Ġexpos": 8362,
  "Ġcontre": 8363,
  "Ġmid": 8364,
  "Ġobj": 8365,
  "Ġcorresponding": 8366,
  "ãĥ¼ãĤ": 8367,
  "à°Ĥà°¡": 8368,
  ".create": 8369,
  "ì¡": 8370,
  "ĠëĪ": 8371,
  "Ġimmedi": 8372,
  "Ġasync": 8373,
  "gar": 8374,
  "aban": 8375,
  "rib": 8376,
  "ĠÙĪÙĬ": 8377,
  "Ġdeep": 8378,
  "times": 8379,
  "Ġbur": 8380,
  "Ġsomeone": 8381,
  "Ġà¦ķà¦°": 8382,
  "mm": 8383,
  "Ġfriend": 8384,
  "Ġregular": 8385,
  "Ġlug": 8386,
  "ÑģÑĥ": 8387,
  "ĠRoy": 8388,
  "Ġlocated": 8389,
  "åŃĲ": 8390,
  "amen": 8391,
  "ĠSen": 8392,
  "agne": 8393,
  "Ġful": 8394,
  "HT": 8395,
  "Per": 8396,
  "arily": 8397,
  "Ġrender": 8398,
  "ÙĪÙĦØ©": 8399,
  "Ġà¤¶": 8400,
  "Ġgirl": 8401,
  "Property": 8402,
  "owie": 8403,
  "Ġgraph": 8404,
  "/or": 8405,
  "Ġgoal": 8406,
  "ĠObject": 8407,
  "Ġtemps": 8408,
  "ĠÕ¿": 8409,
  "à³įà²²": 8410,
  "Ġwa": 8411,
  "Ġlack": 8412,
  "{{": 8413,
  "term": 8414,
  "ĠDu": 8415,
  "Ġveh": 8416,
  "Ġprogress": 8417,
  "Ġstim": 8418,
  "Ä±nda": 8419,
  "eden": 8420,
  "Ġfather": 8421,
  "ĠInstit": 8422,
  "Ġmur": 8423,
  ">>": 8424,
  "Ø¨ØŃ": 8425,
  "TP": 8426,
  "Ġpick": 8427,
  "section": 8428,
  ")=": 8429,
  "atu": 8430,
  "Start": 8431,
  "Str": 8432,
  "ocol": 8433,
  "åı·": 8434,
  "(data": 8435,
  "Ø±ÙĤ": 8436,
  "Ġpriv": 8437,
  "loor": 8438,
  "ulate": 8439,
  "ãĤģ": 8440,
  "Ġprep": 8441,
  "UI": 8442,
  "local": 8443,
  "aker": 8444,
  "Å±": 8445,
  "Ġpub": 8446,
  "Ġantib": 8447,
  "atre": 8448,
  "Builder": 8449,
  "Ġbul": 8450,
  "Ġformation": 8451,
  "rian": 8452,
  "cy": 8453,
  "ãĤ£": 8454,
  "Ġslow": 8455,
  "à°Ĥà°¦à°¿": 8456,
  "ĠJose": 8457,
  "ĠnÃ©": 8458,
  "Am": 8459,
  "Ġpresented": 8460,
  "'il": 8461,
  "Ġwrong": 8462,
  ".jpg": 8463,
  "ĠâĨĴ": 8464,
  "level": 8465,
  "Ġscript": 8466,
  "Ġà®µ": 8467,
  "Ġpsych": 8468,
  "ÙĦÙĩ": 8469,
  "à°¿à°ķ": 8470,
  "Ġunt": 8471,
  "uni": 8472,
  "Ġmys": 8473,
  "ufact": 8474,
  "Ã¡k": 8475,
  "ĠGal": 8476,
  "iche": 8477,
  "cles": 8478,
  "ĠBlack": 8479,
  "Ġhot": 8480,
  "-R": 8481,
  "Ġpractice": 8482,
  "Search": 8483,
  "args": 8484,
  "ĠëıĻ": 8485,
  "ĠaprÃ¨s": 8486,
  "ĠQue": 8487,
  "Ġà°¦": 8488,
  "UE": 8489,
  "'a": 8490,
  "Ġmother": 8491,
  "itting": 8492,
  "wise": 8493,
  "ĠFurther": 8494,
  "can": 8495,
  "lad": 8496,
  "Ġdetermine": 8497,
  "ĠSol": 8498,
  "Ġrecomm": 8499,
  "Ġdark": 8500,
  "Õ¸Õ¾": 8501,
  "Î»Î¿": 8502,
  "]);Ċ": 8503,
  "SP": 8504,
  "ulo": 8505,
  "Ġfeed": 8506,
  "ĠCarl": 8507,
  "èĭ": 8508,
  "ĠtÃ«": 8509,
  "++)": 8510,
  "à³ĩ": 8511,
  "ĠDef": 8512,
  "End": 8513,
  "std": 8514,
  "nost": 8515,
  "Ġsituation": 8516,
  "ĠNet": 8517,
  "Ġki": 8518,
  "å½ĵçĦ¶": 8519,
  "Ġissues": 8520,
  "ATE": 8521,
  "aient": 8522,
  "ØŃØ©": 8523,
  "alled": 8524,
  "ĠLeague": 8525,
  "fil": 8526,
  "Ġhier": 8527,
  "asa": 8528,
  "onal": 8529,
  "ĠíĮ": 8530,
  "Ġrecent": 8531,
  "-de": 8532,
  "Ġchanged": 8533,
  "CL": 8534,
  "ä»¬": 8535,
  "ellow": 8536,
  ")-": 8537,
  "Ġ};Ċ": 8538,
  "æĺŃ": 8539,
  "Ġay": 8540,
  "à¸ļ": 8541,
  "ĠDist": 8542,
  "ì¤": 8543,
  "ĉĉĉĉĉĉĉĉ": 8544,
  "ĠìķĮ": 8545,
  "ĠëĶ": 8546,
  "Äĵ": 8547,
  "Ġbring": 8548,
  "Ġmulti": 8549,
  "ĠØ§ÙĦØ£Ùħ": 8550,
  "Ġmoney": 8551,
  "uster": 8552,
  "ĠST": 8553,
  "Ġoct": 8554,
  "ëĦ": 8555,
  "âĢĿï¼Ī": 8556,
  "equ": 8557,
  "ĠSon": 8558,
  "Ġremove": 8559,
  "æĺİ": 8560,
  "terior": 8561,
  "acht": 8562,
  "Ġrecept": 8563,
  "Ġapproxim": 8564,
  "Õ¸ÖĢ": 8565,
  "Ġreaction": 8566,
  "Ġratio": 8567,
  "OL": 8568,
  "oca": 8569,
  "ĠÙĩÙħ": 8570,
  "aks": 8571,
  "Ġeg": 8572,
  "dated": 8573,
  "Ġinternational": 8574,
  "Ġdre": 8575,
  "atabase": 8576,
  "Ġrealiz": 8577,
  "Ġgrande": 8578,
  "aje": 8579,
  "Ġcouple": 8580,
  "ĠÐ´ÑĢÑĥ": 8581,
  "Ġestablished": 8582,
  "Ġreturned": 8583,
  "CD": 8584,
  "portun": 8585,
  "Label": 8586,
  "Ġjug": 8587,
  "-T": 8588,
  "oir": 8589,
  "Ġtempl": 8590,
  "partial": 8591,
  "Ġdop": 8592,
  "æĺŃåĴĮ": 8593,
  "anning": 8594,
  "ĠOl": 8595,
  "Ð½Ð°Ñı": 8596,
  "ĠÐ¸Ð½": 8597,
  "Ġeffective": 8598,
  "Ð½Ð¸Ðº": 8599,
  "Î¹ÎºÎ®": 8600,
  "-pro": 8601,
  "Ġvoice": 8602,
  "Ġsed": 8603,
  "èª": 8604,
  "Ġeverything": 8605,
  "ieron": 8606,
  "Ġgli": 8607,
  "Ã©tÃ©": 8608,
  "Ġà²ķ": 8609,
  "ĠØ¨ÙĪØ¯": 8610,
  "Ġdesde": 8611,
  "ĠÙĥÙħØ§": 8612,
  "Ġíĥ": 8613,
  "Ġka": 8614,
  "Ġà®ħ": 8615,
  "Ġusers": 8616,
  "Ġsimply": 8617,
  "ĠAlthough": 8618,
  "ĠÑģÐ²": 8619,
  "ãĢįãĢĮ": 8620,
  "æ¬¡": 8621,
  "à¯ģà®®à¯į": 8622,
  "])": 8623,
  "ÑĤÐ¾ÑĢÑĭ": 8624,
  "Ø¹Ø¨": 8625,
  "Ġkar": 8626,
  "Ġsegu": 8627,
  "Ġmoved": 8628,
  "Û³": 8629,
  "%,": 8630,
  "ĠGi": 8631,
  "Ġrepe": 8632,
  "Ġcontract": 8633,
  "Ġmount": 8634,
  "Ð»Ñİ": 8635,
  "Ġlab": 8636,
  "();": 8637,
  "ĠtrÃ¨s": 8638,
  "ãĢĤï¼Ī": 8639,
  "Ġmeasured": 8640,
  "Ġcountries": 8641,
  "éļ": 8642,
  "-re": 8643,
  "Ġkt": 8644,
  "Ġìľł": 8645,
  "Ġstrength": 8646,
  "ëĲľ": 8647,
  "Ġcomputer": 8648,
  "Ġsac": 8649,
  "ÙĪØ§Øª": 8650,
  ".re": 8651,
  "Ġauto": 8652,
  "Ð°Ðº": 8653,
  "umin": 8654,
  "Ð¿Ñĥ": 8655,
  "ĠReport": 8656,
  "Ġ*(": 8657,
  "prime": 8658,
  "After": 8659,
  "Product": 8660,
  "èĩª": 8661,
  "vor": 8662,
  "Ġfacil": 8663,
  "arse": 8664,
  "pload": 8665,
  "ÑĢÐµÐ´": 8666,
  "Ġded": 8667,
  "Http": 8668,
  "schaft": 8669,
  "esso": 8670,
  "Ġdisp": 8671,
  "ä¸ī": 8672,
  "Ġprocessing": 8673,
  "ÑļÐµ": 8674,
  "Ð³Ñĥ": 8675,
  "bin": 8676,
  "ĠíĶ": 8677,
  ">(": 8678,
  "ĠØºÙĬØ±": 8679,
  "ĠCour": 8680,
  "hold": 8681,
  "éĿ¢": 8682,
  "ĠÕ©": 8683,
  "sv": 8684,
  "Âº": 8685,
  "Ġemail": 8686,
  "Ġincor": 8687,
  "Ġcontains": 8688,
  "ĠFrench": 8689,
  "vider": 8690,
  "Ġ\\]ĊĊ": 8691,
  "Ġ^{": 8692,
  "Token": 8693,
  "Ø§ÙĦØ©": 8694,
  "à®±": 8695,
  "comp": 8696,
  "find": 8697,
  "ãģĿãģĹãģ¦": 8698,
  "Ø±ÙĬÙĤ": 8699,
  "à¹ģ": 8700,
  "ìĺ¤": 8701,
  "ĠOut": 8702,
  "à¤£": 8703,
  "Ġsave": 8704,
  "Ġcollection": 8705,
  "iale": 8706,
  "RI": 8707,
  "Ġmatrix": 8708,
  "ãģ§ãģ¯": 8709,
  "tab": 8710,
  "Õ¡Õ®": 8711,
  ".y": 8712,
  "ights": 8713,
  "Õ¥Õ¶": 8714,
  "ĠìŀĪìĹĪëĭ¤": 8715,
  "ĠØªÙĨ": 8716,
  "ÃŃst": 8717,
  "igu": 8718,
  "Ġcontaining": 8719,
  "ĠPeter": 8720,
  "ÛĮÙħ": 8721,
  "ĠØ§ÙĦÙĩ": 8722,
  "assert": 8723,
  "Ġbat": 8724,
  "Ġconserv": 8725,
  "Ġaqu": 8726,
  "Ġability": 8727,
  "ê±°": 8728,
  "Ġquite": 8729,
  "Ġconsum": 8730,
  "xy": 8731,
  "Ġadult": 8732,
  "Ò£": 8733,
  "ĠìĦ¸": 8734,
  "isme": 8735,
  "åľ°": 8736,
  "Activity": 8737,
  "igt": 8738,
  "Ġjan": 8739,
  "odo": 8740,
  "Ġtoward": 8741,
  "Ø§Ø±Ø¯": 8742,
  "Ġ'@": 8743,
  "Ġrapid": 8744,
  "ãģ§ãģĻ": 8745,
  "Ġbra": 8746,
  "Ġsites": 8747,
  "Ġenh": 8748,
  "inger": 8749,
  ".as": 8750,
  "Ġwall": 8751,
  "Û¹": 8752,
  "zia": 8753,
  "ãĤį": 8754,
  "ÏİÎ½": 8755,
  "ĠØ§ÙĦÙħØ¹": 8756,
  "Ġdengan": 8757,
  "Ġaim": 8758,
  "elen": 8759,
  "æľŁ": 8760,
  "ë¯¸": 8761,
  "ëĤ´": 8762,
  "ĠPost": 8763,
  "ĠáĥĲáĥ": 8764,
  "Ġgest": 8765,
  "hes": 8766,
  "ĠÕ£": 8767,
  "Ð°ÑĤ": 8768,
  "Ġtill": 8769,
  "amos": 8770,
  ")$": 8771,
  "NS": 8772,
  "rÃ³": 8773,
  "Ġmeg": 8774,
  "Ġroku": 8775,
  "ĠHouse": 8776,
  "à¦Ł": 8777,
  "Ġaccur": 8778,
  "ĉint": 8779,
  "kom": 8780,
  "Ġdecision": 8781,
  "icol": 8782,
  "Ġplate": 8783,
  ".class": 8784,
  "ogy": 8785,
  "Ġfix": 8786,
  ".N": 8787,
  "×¦": 8788,
  "\");ĊĊ": 8789,
  "Ġnp": 8790,
  "])Ċ": 8791,
  "Ġges": 8792,
  "nder": 8793,
  "/java": 8794,
  "Ġhasta": 8795,
  "ìĦ¸": 8796,
  "ÛĮÚ©": 8797,
  "éĸĵ": 8798,
  "cast": 8799,
  "fin": 8800,
  "gression": 8801,
  "Ġavant": 8802,
  "Ġcit": 8803,
  "Ġaan": 8804,
  "ĠThomas": 8805,
  "Ġgenerally": 8806,
  "Ġallowed": 8807,
  "Ġeffic": 8808,
  "ë£": 8809,
  "ĠCharles": 8810,
  "uen": 8811,
  "ĠìķĪ": 8812,
  "âĢĻÃ©t": 8813,
  "Ġinsert": 8814,
  "ignment": 8815,
  "irk": 8816,
  "Ġdiss": 8817,
  "Ð½ÑĭÐ¼": 8818,
  "iser": 8819,
  "ãĢľ": 8820,
  "akan": 8821,
  "Ġconnected": 8822,
  "phi": 8823,
  "\";ĊĊ": 8824,
  "ĠDet": 8825,
  "Ġpartir": 8826,
  "Ð»ÑģÑı": 8827,
  "rome": 8828,
  "âĳ": 8829,
  "ÏĦÎ¹": 8830,
  "ropri": 8831,
  "Ġmachine": 8832,
  "Ġindividuals": 8833,
  "ĠCe": 8834,
  "roph": 8835,
  "Ð¸Ð½Ð°": 8836,
  "Ġtodo": 8837,
  "Ġphen": 8838,
  "Ġak": 8839,
  "ãģĦãĤĦ": 8840,
  "Â«ĊĊ": 8841,
  "ÙĦØ§Ùħ": 8842,
  "Ġnil": 8843,
  "aries": 8844,
  "jer": 8845,
  "áº¯": 8846,
  "âĢĻune": 8847,
  "Ġforward": 8848,
  "rum": 8849,
  "ĠÎ²": 8850,
  "ĠArray": 8851,
  "Õ¸ÖĢÕ": 8852,
  "argo": 8853,
  "ìĹĲê²Į": 8854,
  "Ġstay": 8855,
  "mal": 8856,
  "state": 8857,
  "à²¡": 8858,
  "Ġ×ŀ": 8859,
  "Ġcos": 8860,
  "igation": 8861,
  "ancy": 8862,
  "ĠGerman": 8863,
  "ç±": 8864,
  "gest": 8865,
  "ĠTeam": 8866,
  "ĠDis": 8867,
  "ĠSl": 8868,
  "emble": 8869,
  "ĠÕ¤": 8870,
  "Ġmess": 8871,
  "rought": 8872,
  "lambda": 8873,
  "uri": 8874,
  "Style": 8875,
  "Ġnamed": 8876,
  "Ġunique": 8877,
  "ĠØ´Ø¯": 8878,
  "Ð·Ñĥ": 8879,
  "ĠnÄĥm": 8880,
  "usqu": 8881,
  "inct": 8882,
  "ÑģÑĤÐ°Ð½": 8883,
  "imento": 8884,
  "ãģĵãĤĮ": 8885,
  "cdot": 8886,
  "Ġlabor": 8887,
  "è©±": 8888,
  "Ġ['": 8889,
  "cons": 8890,
  "Â·": 8891,
  "ë¶Ħ": 8892,
  "Ġmetal": 8893,
  "idas": 8894,
  "ÙĪÙĬØ©": 8895,
  "Ġfond": 8896,
  "(a": 8897,
  "jection": 8898,
  "Ðł": 8899,
  "MA": 8900,
  "ĠÙĪØ¹": 8901,
  "Ġbelieve": 8902,
  "group": 8903,
  "Ġabsol": 8904,
  "Ġmaximum": 8905,
  "ĠJer": 8906,
  "ëł¥": 8907,
  "Ġforces": 8908,
  "ĠØ§ÙĪØ±": 8909,
  "Ð¸Ð·": 8910,
  "ENT": 8911,
  "ĠXV": 8912,
  "pert": 8913,
  "Ġà°ħ": 8914,
  "á»¯": 8915,
  "ãĥŀ": 8916,
  "Ġcru": 8917,
  "embly": 8918,
  "unch": 8919,
  "Ø°ÙĦÙĥ": 8920,
  "Ġìĸ´ë": 8921,
  "ÛĮØª": 8922,
  "ĠMax": 8923,
  "Ġleading": 8924,
  ".[": 8925,
  "images": 8926,
  "Ġbroad": 8927,
  "search": 8928,
  "UN": 8929,
  "ĠØ³ÙĬ": 8930,
  "known": 8931,
  "çŃī": 8932,
  "ĠFile": 8933,
  "Ġcro": 8934,
  "Ġattention": 8935,
  "ĠTime": 8936,
  "!?": 8937,
  "Ø§Ø±Øª": 8938,
  "Ġmodule": 8939,
  "ÑĢÐ°Ð²": 8940,
  "uden": 8941,
  "Ġuses": 8942,
  "ĠÎºÎ±": 8943,
  "Ob": 8944,
  "ugin": 8945,
  "à³įà²¨": 8946,
  "Ġliving": 8947,
  "Ġë¯¸": 8948,
  "Ġprotected": 8949,
  "Ġà®ĩ": 8950,
  "ĠĠĠĠĠĠĠĠĠĠĠĠĠĠĠĠĠĠĠĠĠĠĠĠĠĠĠĠĠĠĠĠĠĠĠĠĠĠĠ": 8951,
  "Ap": 8952,
  "Ġdoc": 8953,
  "ĠmÃ¡": 8954,
  "Ġequip": 8955,
  "ĠFrom": 8956,
  "rows": 8957,
  "Ġà®¤": 8958,
  "ĠÙħÙĪ": 8959,
  ".push": 8960,
  "Ġcapital": 8961,
  "ĠView": 8962,
  "Ã¤l": 8963,
  "Ġparticularly": 8964,
  "ĠëıĦ": 8965,
  "zu": 8966,
  "Ġparty": 8967,
  "Ġvector": 8968,
  "ytes": 8969,
  "\"><": 8970,
  "Ġcontinued": 8971,
  "ĠLin": 8972,
  "Ġvom": 8973,
  "eno": 8974,
  "íķĺê²Į": 8975,
  "Î¶": 8976,
  "Ġinternal": 8977,
  "Ġsolid": 8978,
  "unit": 8979,
  "ĠÎ·": 8980,
  "ĠaÃ±os": 8981,
  "oni": 8982,
  "à¥įà¤µ": 8983,
  ".Add": 8984,
  "'ĊĊ": 8985,
  "puis": 8986,
  "Ġmont": 8987,
  "idge": 8988,
  "ëĵ¤ìĿ´": 8989,
  "area": 8990,
  "Ø®Ø±Ùī": 8991,
  "cut": 8992,
  "bra": 8993,
  "Ġtowards": 8994,
  "ĠHand": 8995,
  "ership": 8996,
  "ributed": 8997,
  "Äĳ": 8998,
  "âĢĿçļĦ": 8999,
  "ĠëįĶ": 9000,
  "éĽ": 9001,
  "ä»Ĭ": 9002,
  "à¤¾à¤®": 9003,
  "Ġconstit": 9004,
  "Ã¬nh": 9005,
  "has": 9006,
  "Ġgod": 9007,
  "Ġkan": 9008,
  "ÙĬÙĨØ©": 9009,
  "ìŀĳ": 9010,
  "Ġfois": 9011,
  "Ġsoon": 9012,
  "ĠØ§Ø¨": 9013,
  "Ġmovement": 9014,
  "ĠIV": 9015,
  "Order": 9016,
  "à¦Ĥ": 9017,
  "×ķ×Ł": 9018,
  "Ð·Ñĭ": 9019,
  "ĠWeb": 9020,
  "ØªØµ": 9021,
  "Ġaj": 9022,
  "Ġrelev": 9023,
  "Ġcab": 9024,
  "py": 9025,
  "ÑģÐºÐ¸Ð¹": 9026,
  "Ġlen": 9027,
  "Ġappropri": 9028,
  "beta": 9029,
  "auth": 9030,
  "ÑĤÑĮÑģÑı": 9031,
  "ĠNow": 9032,
  "Ġcontrast": 9033,
  "itter": 9034,
  "Ġainsi": 9035,
  "ltim": 9036,
  "Ġemerg": 9037,
  "([": 9038,
  "Ġlarger": 9039,
  "Ġkl": 9040,
  "Ġextract": 9041,
  "nÄĽ": 9042,
  "Åĵ": 9043,
  "Ġinfluence": 9044,
  "çĻº": 9045,
  "à²¯": 9046,
  ")**": 9047,
  "Ġsession": 9048,
  "à³įà²¯": 9049,
  "ä¹Ł": 9050,
  "Ã¸r": 9051,
  "ĠÙĦÙĥÙĨ": 9052,
  "×Ļ×ł": 9053,
  "nect": 9054,
  "Ġlearning": 9055,
  "Ġmunicip": 9056,
  "uls": 9057,
  "Ø±ÙĨ": 9058,
  "itable": 9059,
  "};Ċ": 9060,
  "ÅĽci": 9061,
  "Control": 9062,
  "Ġà°°": 9063,
  "Ùį": 9064,
  "Ġscale": 9065,
  "Ġtag": 9066,
  "Ġpes": 9067,
  "erk": 9068,
  "estival": 9069,
  "ĠAuf": 9070,
  "ection": 9071,
  "ÑģÑĤÑĥ": 9072,
  "Ġprepar": 9073,
  "style": 9074,
  "Ġ});ĊĊ": 9075,
  "ĠWhile": 9076,
  "Ġcred": 9077,
  "Ð±Ðµ": 9078,
  "çĤ¹": 9079,
  "Check": 9080,
  "ÃŃas": 9081,
  "à¯įà®±": 9082,
  "ensions": 9083,
  "Ġembodiment": 9084,
  "Ġmotor": 9085,
  "Ġidentify": 9086,
  "hat": 9087,
  "çĲ": 9088,
  "hibang": 9089,
  ".shibang": 9090,
  "Ġrock": 9091,
  "puÃ©s": 9092,
  "ĠOther": 9093,
  "Ġger": 9094,
  "Ġbon": 9095,
  "cin": 9096,
  "íķľëĭ¤": 9097,
  "Ġuit": 9098,
  "à¤§": 9099,
  "Method": 9100,
  "organ": 9101,
  "ÙĪØ±Ø©": 9102,
  ".size": 9103,
  "irit": 9104,
  "summary": 9105,
  "Ġcateg": 9106,
  "Ġëħ": 9107,
  "Ã¡ng": 9108,
  "ampionship": 9109,
  "ĠMais": 9110,
  "Ġfib": 9111,
  "ekt": 9112,
  "Ġuntuk": 9113,
  "ĠAu": 9114,
  "áĥĶáĥļ": 9115,
  "á»©": 9116,
  "Ġà¦¤": 9117,
  "Ġresid": 9118,
  "oin": 9119,
  "Ġ<=": 9120,
  "Ġrecon": 9121,
  "ÙĳØ©": 9122,
  "ÑģÐºÐ¾Ð³Ð¾": 9123,
  "Ġë°ľ": 9124,
  "à¦°à§įà¦": 9125,
  "Ġagr": 9126,
  "Ġroute": 9127,
  "Ġraz": 9128,
  "Ġchannel": 9129,
  "ĠPor": 9130,
  "asion": 9131,
  "Ã¶l": 9132,
  "Î¹Î¿": 9133,
  "Ġnote": 9134,
  "Õ¥Õ¿": 9135,
  "Ġoccup": 9136,
  "ĉprivate": 9137,
  "Ġroz": 9138,
  "band": 9139,
  "ê³Ħ": 9140,
  "åķĬ": 9141,
  "Ġà¦¨": 9142,
  "Ġëĵ±": 9143,
  "ĠTherefore": 9144,
  "quad": 9145,
  "æĸ¯": 9146,
  "Ġcaused": 9147,
  "Ġrespond": 9148,
  "Ġign": 9149,
  "Ġcommunication": 9150,
  "oco": 9151,
  "obj": 9152,
  "ĠSuper": 9153,
  "Ġà²ħ": 9154,
  "selves": 9155,
  "circ": 9156,
  "ienne": 9157,
  "CE": 9158,
  "Ãºs": 9159,
  "Ġradio": 9160,
  "Ġdepart": 9161,
  "ĠÙĬÙĤ": 9162,
  "à¦¿à¦ķ": 9163,
  "Ġcant": 9164,
  "Ġloop": 9165,
  "ierre": 9166,
  "empor": 9167,
  "Ġregister": 9168,
  "Ġprice": 9169,
  "ĠRel": 9170,
  "(){Ċ": 9171,
  "Ġton": 9172,
  "ifest": 9173,
  "Ġreached": 9174,
  "iform": 9175,
  "uman": 9176,
  "Ġcircuit": 9177,
  "Ù¹": 9178,
  "ÙĬØ²": 9179,
  "Me": 9180,
  "ĠØŃØªÙī": 9181,
  "ributes": 9182,
  "ÑģÑĤÐ²ÐµÐ½": 9183,
  "illing": 9184,
  "remove": 9185,
  "ĠÐµÐ³Ð¾": 9186,
  "çĪ": 9187,
  "Ġorient": 9188,
  "augh": 9189,
  "ĠÙĨÙģØ³": 9190,
  "Ġtheory": 9191,
  "ĠCast": 9192,
  "ØªÙĩØ§": 9193,
  "Ġpoor": 9194,
  "¨àµįà´¨": 9195,
  "Ġequal": 9196,
  "TO": 9197,
  "Ð²Ñĭ": 9198,
  "Ġê²ĥìĿ´": 9199,
  "Ġpolicy": 9200,
  "ÑĸÐ½": 9201,
  "ĠÄĳÃ£": 9202,
  "ĠKom": 9203,
  "Ġmargin": 9204,
  "çĽ®": 9205,
  "Ġvisit": 9206,
  "Ġdelle": 9207,
  "(&": 9208,
  "æĽ²": 9209,
  "Ġhighly": 9210,
  "unda": 9211,
  "Ġgeb": 9212,
  "header": 9213,
  "ĠOf": 9214,
  "Ġlay": 9215,
  "Ġactivities": 9216,
  "Ġà°Ĺà±įà°°à°¾à°®": 9217,
  "Ġ>=": 9218,
  "ìĭ¤": 9219,
  "_.": 9220,
  "haps": 9221,
  "otype": 9222,
  "ØªØ§Ø¨": 9223,
  "ĠÐ²ÑģÐµ": 9224,
  "ĠRob": 9225,
  "/*": 9226,
  "Ġweeks": 9227,
  "aan": 9228,
  "Ġupper": 9229,
  "root": 9230,
  "iny": 9231,
  "lia": 9232,
  "à¯ģà®ķ": 9233,
  "aro": 9234,
  "Ġtrop": 9235,
  "Ġplaced": 9236,
  "Õ¸Õ²": 9237,
  "iren": 9238,
  "then": 9239,
  "Menu": 9240,
  "Ġpare": 9241,
  "ĠZeit": 9242,
  "Ġcollect": 9243,
  "Ġdetect": 9244,
  "parse": 9245,
  "ĠLet": 9246,
  "Ġfixed": 9247,
  "ĠØ§ÙĪ": 9248,
  "ĠPrem": 9249,
  "æ¯Ķ": 9250,
  "à¤¿à¤¯à¤¾": 9251,
  "Ġë°©": 9252,
  "Ġconstruction": 9253,
  "ĠØ«Ùħ": 9254,
  "efore": 9255,
  "áĥĵ": 9256,
  "ĠÕ¢": 9257,
  "ÙĦÙĥÙĨ": 9258,
  "Ass": 9259,
  "ĠÐ²ÑĢÐµ": 9260,
  "Ġsatisf": 9261,
  "event": 9262,
  "ecause": 9263,
  "Ġped": 9264,
  "TE": 9265,
  "Ġproteins": 9266,
  "Ã°": 9267,
  "Ġwy": 9268,
  "ĠIndia": 9269,
  "Ġtelev": 9270,
  "Ãºblic": 9271,
  "ifer": 9272,
  "Â»ĊĊ": 9273,
  "elij": 9274,
  "Ġbasis": 9275,
  "Ġparameter": 9276,
  "Ðŀ": 9277,
  "-year": 9278,
  "Create": 9279,
  "Ġtras": 9280,
  "Ġresources": 9281,
  "Repos": 9282,
  "...ĊĊ": 9283,
  "Ġwhose": 9284,
  "Ġclick": 9285,
  "Ġbinding": 9286,
  "Ġstorage": 9287,
  "Ġleave": 9288,
  "ìľĦ": 9289,
  "Ġpil": 9290,
  "à²¤à³įà²¤": 9291,
  "igger": 9292,
  "enne": 9293,
  "Ġcha": 9294,
  "RA": 9295,
  "ĠParty": 9296,
  "(b": 9297,
  "ĠEuropean": 9298,
  "}-": 9299,
  "Ġdemand": 9300,
  "Ġforms": 9301,
  "Ġball": 9302,
  "Ġà¦Ĩ": 9303,
  "ĠìĥĿê°ģ": 9304,
  "Ġsubsequ": 9305,
  "Ãªtre": 9306,
  "Ð°Ð»": 9307,
  "stra": 9308,
  "Ġthemselves": 9309,
  "ĠLouis": 9310,
  "ĠChristian": 9311,
  "ìĹĲëĬĶ": 9312,
  "Ġeducation": 9313,
  "Ġsoftware": 9314,
  "PD": 9315,
  "Ġpartie": 9316,
  "tras": 9317,
  "Ġà®ļ": 9318,
  "ãģĵãģ®": 9319,
  "Ġprocesses": 9320,
  "ãģłãģĮ": 9321,
  "_size": 9322,
  "Ġclosed": 9323,
  "Base": 9324,
  "Ġcounter": 9325,
  "acement": 9326,
  "ells": 9327,
  "ĠÙħØ«ÙĦ": 9328,
  "Ġtous": 9329,
  "uda": 9330,
  "itÃ©s": 9331,
  "-v": 9332,
  "Ġdra": 9333,
  "Update": 9334,
  "CO": 9335,
  "Ã¡z": 9336,
  "ãģ©ãģĨ": 9337,
  "Ġà²ª": 9338,
  "Ġ'./": 9339,
  "Ġimmun": 9340,
  "hood": 9341,
  "ĠRichard": 9342,
  "ardo": 9343,
  "æĦı": 9344,
  "}\\),": 9345,
  "ĠØ¨Ø¹Ø¶": 9346,
  "icture": 9347,
  "ĠØ¨Ø±Ø§ÛĮ": 9348,
  "ãģŃ": 9349,
  "ĠBa": 9350,
  "Ġflu": 9351,
  "ĠFrancis": 9352,
  "Ġindependent": 9353,
  "Ġsono": 9354,
  "lan": 9355,
  "Ġdess": 9356,
  "izes": 9357,
  "ingen": 9358,
  "Ġjou": 9359,
  "ĠÕº": 9360,
  "ê¸Ī": 9361,
  "Ġwieder": 9362,
  "req": 9363,
  "qrt": 9364,
  "ãĥ³ãĤ": 9365,
  "Ġtermin": 9366,
  "Ġliv": 9367,
  "Ġtakes": 9368,
  "Ġarticle": 9369,
  "imiento": 9370,
  "Ġmedical": 9371,
  "á»¥": 9372,
  "Load": 9373,
  "Ġheat": 9374,
  "Ġclean": 9375,
  "å¹³æĪĲ": 9376,
  "Ġpassword": 9377,
  "Ġworked": 9378,
  "ĠëĳĲ": 9379,
  "ĠHere": 9380,
  ".)Ċ": 9381,
  "çŁ¥éģĵ": 9382,
  "udio": 9383,
  "Ġways": 9384,
  "Ġbuffer": 9385,
  "ĠAmerica": 9386,
  "IL": 9387,
  "Ġhous": 9388,
  "Ã³s": 9389,
  "ĠÕ½": 9390,
  "Ã¤h": 9391,
  "Ġtissue": 9392,
  "Ġuno": 9393,
  "orial": 9394,
  "mitted": 9395,
  "rupt": 9396,
  "à¸¸": 9397,
  "ĠÐ¿ÐµÑĢ": 9398,
  "Ġfields": 9399,
  "istas": 9400,
  "illes": 9401,
  "Ġhij": 9402,
  "Ġbrain": 9403,
  "arlier": 9404,
  "Ġcharg": 9405,
  "Ġtoday": 9406,
  "Ġinstr": 9407,
  "Ø¬Ø±": 9408,
  "ĠØŃÙĬØ«": 9409,
  "ÙĬÙĪ": 9410,
  "Ġhospital": 9411,
  "Ġalone": 9412,
  "ĠÎ½Î±": 9413,
  "Factory": 9414,
  "×ķ×ĵ": 9415,
  "Ġcele": 9416,
  "alo": 9417,
  "Ġwest": 9418,
  "otic": 9419,
  "Ã©k": 9420,
  "ĠÐ¾Ð½": 9421,
  "Ġà¦¦": 9422,
  "framework": 9423,
  "ĠØªØ´": 9424,
  "Ġmice": 9425,
  "ä¸»": 9426,
  "pc": 9427,
  "à¦¦": 9428,
  "ĠìĹ°": 9429,
  "Ġà¤īà¤¸": 9430,
  "ĠLuc": 9431,
  "ÎµÏĦ": 9432,
  "ĠClub": 9433,
  "Ġargs": 9434,
  "Ġtouch": 9435,
  "Ġsetting": 9436,
  "ĠPet": 9437,
  "ĠÄ°": 9438,
  ";ĊĊĊ": 9439,
  "Ġeu": 9440,
  "Ġcopy": 9441,
  "ãĢĩ": 9442,
  "Ġtan": 9443,
  "ìĭĿ": 9444,
  "ategy": 9445,
  "Ġwat": 9446,
  "Ġadjust": 9447,
  "\\begin": 9448,
  "Ã¼t": 9449,
  "utt": 9450,
  "ĠMain": 9451,
  "Ġsecret": 9452,
  "ĠOpen": 9453,
  "Ġdomain": 9454,
  "Ġ×Ĺ": 9455,
  "ĠGold": 9456,
  "ming": 9457,
  "Ġtests": 9458,
  "Ġyield": 9459,
  "occ": 9460,
  "Ġalgorith": 9461,
  "Ġhit": 9462,
  "Ø§ÙħÙĦ": 9463,
  "è¿Ļæł·": 9464,
  "ä»ĸè¯´": 9465,
  "à©Ģ": 9466,
  "CA": 9467,
  "Ð¾Ð»Ðµ": 9468,
  "åĦ": 9469,
  "Ġproduce": 9470,
  "Ġrates": 9471,
  "ej": 9472,
  "ĠSil": 9473,
  "IR": 9474,
  "Ġexhib": 9475,
  "Do": 9476,
  "ĠOk": 9477,
  "Ġbottom": 9478,
  "ĠÃ©gal": 9479,
  "Ġroad": 9480,
  "Ġofficial": 9481,
  "à¨¿": 9482,
  "mathbb": 9483,
  "Ġbere": 9484,
  "ÙĨÚ¯": 9485,
  "Ġorigin": 9486,
  "ĠGen": 9487,
  "ĉm": 9488,
  "Ġencore": 9489,
  "Ġmanufact": 9490,
  "Ġopened": 9491,
  "Ġmeng": 9492,
  "Ġbud": 9493,
  "à´°": 9494,
  "Ġonline": 9495,
  "ĠÐ´Ð¸": 9496,
  "Ġ×¤": 9497,
  "ĠÃģ": 9498,
  "aily": 9499,
  "coming": 9500,
  "Ġsymbol": 9501,
  "ĠFin": 9502,
  "Ġtel": 9503,
  "aste": 9504,
  "osto": 9505,
  "à°ª": 9506,
  "otation": 9507,
  "ĠSE": 9508,
  "riter": 9509,
  "Te": 9510,
  "Ġdepuis": 9511,
  "âĢĮØ´": 9512,
  "Repository": 9513,
  "osen": 9514,
  "ĠGrand": 9515,
  "Num": 9516,
  "Ġeasy": 9517,
  "Ð¼Ñı": 9518,
  "Ġtool": 9519,
  "pective": 9520,
  "ĠÐ¼Ñĥ": 9521,
  "Ġ×Ķ×ŀ×": 9522,
  "Ġcarried": 9523,
  ".spring": 9524,
  "iera": 9525,
  "mathcal": 9526,
  "useum": 9527,
  "'.": 9528,
  "à¯Ĩ": 9529,
  "ì²´": 9530,
  "Æ°Æ¡": 9531,
  "}^{\\": 9532,
  "Ġvisual": 9533,
  "ĠÕ«": 9534,
  "ë¦¬ê³ł": 9535,
  "Ġobjects": 9536,
  "çºª": 9537,
  "ĠBest": 9538,
  "à´¯": 9539,
  "ãĤĥ": 9540,
  "ãĥ£": 9541,
  "Char": 9542,
  "Ġdesigned": 9543,
  "àª°": 9544,
  "han": 9545,
  "Ø¨Ùĩ": 9546,
  "Ġvá»Ľi": 9547,
  "Pre": 9548,
  "*)Ċ": 9549,
  "Ġig": 9550,
  "?Ċ": 9551,
  "ãģĤãģĤ": 9552,
  "Ġgenerated": 9553,
  "ĠAv": 9554,
  "Ġjson": 9555,
  "Ġfat": 9556,
  "ĠRepublic": 9557,
  "Ġcual": 9558,
  "ĠDel": 9559,
  "íĶ": 9560,
  "maz": 9561,
  "Ġlip": 9562,
  "×Ļ×ľ": 9563,
  "ÑģÑĭ": 9564,
  "Der": 9565,
  "Ġmedium": 9566,
  "ÑĩÐµÐ½": 9567,
  "ev": 9568,
  "ÙĤØ·": 9569,
  "Call": 9570,
  "ercial": 9571,
  "ĠLi": 9572,
  "ĠEast": 9573,
  "Ġsau": 9574,
  "agy": 9575,
  "Ġdetails": 9576,
  "ĠBre": 9577,
  "Ġsteps": 9578,
  "Ġmac": 9579,
  "ĠSci": 9580,
  "ĠCam": 9581,
  "ĠÙĪÙĤØ¯": 9582,
  "Width": 9583,
  "adow": 9584,
  "(r": 9585,
  "å¥¹": 9586,
  "params": 9587,
  "à§§": 9588,
  "(function": 9589,
  "åº¦": 9590,
  "ĠCanada": 9591,
  ".net": 9592,
  "Ð½Ð¾ÑģÑĤÐ¸": 9593,
  "Ġgames": 9594,
  "ĠLong": 9595,
  "_path": 9596,
  "Ġmg": 9597,
  "à¸¨": 9598,
  "bt": 9599,
  "à¤¿à¤²": 9600,
  "Ø«ÙĬØ±": 9601,
  "çİ°": 9602,
  "ĠÐ³Ð¾Ð´Ñĥ": 9603,
  "ĠÙĩÙĨØ§": 9604,
  "URL": 9605,
  "rent": 9606,
  "'aut": 9607,
  "ÎŃÏĤ": 9608,
  "ĠgÃ©nÃ©r": 9609,
  "ĠÏĥÏħ": 9610,
  "Ġëĺ": 9611,
  "ÑĨÐ¸Ñı": 9612,
  "à¤¶": 9613,
  "Ġproposed": 9614,
  "column": 9615,
  "æ²¡": 9616,
  "Ġresolution": 9617,
  "à²¨à³įà²¨": 9618,
  "Ġshape": 9619,
  "Ġcore": 9620,
  "asons": 9621,
  "Ø¬Ø©": 9622,
  "ĠNon": 9623,
  "æĬ": 9624,
  "ded": 9625,
  "Ġdeal": 9626,
  "Ġmic": 9627,
  "vest": 9628,
  "ĠBay": 9629,
  "Ø§Ø¯Ùĩ": 9630,
  "Ġdb": 9631,
  "Ġuseful": 9632,
  "odies": 9633,
  "Ø¶Ø¹": 9634,
  "Vis": 9635,
  "Ġstru": 9636,
  "ãĤª": 9637,
  "Ġgegen": 9638,
  "Ġunits": 9639,
  "ĠMartin": 9640,
  "ĠØ§ÙĦÙħØŃ": 9641,
  "onia": 9642,
  "ĠId": 9643,
  "æĮ": 9644,
  "Ġcouldn": 9645,
  "à²²à³įà²²": 9646,
  "ĠÐ¸Ð»Ð¸": 9647,
  "ĠCenter": 9648,
  "ursor": 9649,
  "Ġti": 9650,
  "Ġcuando": 9651,
  "è°": 9652,
  "Ġul": 9653,
  "Ġthick": 9654,
  "Ġstar": 9655,
  "Ġprotect": 9656,
  "}/": 9657,
  "à¤¿à¤¨": 9658,
  ".on": 9659,
  "Ð¼Ñĭ": 9660,
  "ahn": 9661,
  "Ġimpl": 9662,
  "ĠIr": 9663,
  "Ġwriting": 9664,
  "âĢĻa": 9665,
  "ĠÐ¼Ð¾Ð¶": 9666,
  "gle": 9667,
  "Ġêµ¬": 9668,
  "ociation": 9669,
  "Frame": 9670,
  "ĠdÃ©s": 9671,
  "Ġwel": 9672,
  "àµįà´¤": 9673,
  "ãĢįï¼Į": 9674,
  "Ġfab": 9675,
  "ĠNach": 9676,
  "ĠDE": 9677,
  "âĢĻen": 9678,
  "ĠìĦł": 9679,
  "Ġsomet": 9680,
  "ĠÎ£": 9681,
  "Ġnation": 9682,
  "ĠMel": 9683,
  "à´Ĥ": 9684,
  "Î»Î»": 9685,
  "ĠØ£ÙĨÙĩ": 9686,
  "íļĮ": 9687,
  "arde": 9688,
  "Ġê¸": 9689,
  "ÅĤo": 9690,
  "ĠÙĪØ§ÙĦÙħ": 9691,
  "ĠÂ»,": 9692,
  "ê°ľ": 9693,
  "Æ°Æ¡ng": 9694,
  "à²Ĺà²³": 9695,
  "à¤¨à¤¾": 9696,
  "arios": 9697,
  "Ġoverall": 9698,
  "Ġpra": 9699,
  "Ġfailed": 9700,
  "Ġmayor": 9701,
  "Ø§ÙĦÙĬØ©": 9702,
  "Ġessential": 9703,
  "à¤¾à¤Ĥ": 9704,
  "Ġunderstanding": 9705,
  "?âĢĿĊĊ": 9706,
  "âĢĻai": 9707,
  "rypt": 9708,
  "Ú¯Ø±": 9709,
  "Ġboard": 9710,
  "ĠÙĦÙĬ": 9711,
  "otes": 9712,
  "Ġtech": 9713,
  "Ġny": 9714,
  "Õ¶Õ¥ÖĢÕ«": 9715,
  "é¦": 9716,
  "×Ł": 9717,
  "ĠRoman": 9718,
  "Ġsurpr": 9719,
  "Ø£Ø³": 9720,
  "Ġresistance": 9721,
  "room": 9722,
  "ĠÑĢÑĥ": 9723,
  "Ġsuiv": 9724,
  "Post": 9725,
  "Ġannounced": 9726,
  "ĠRom": 9727,
  "ĠÐ°ÑĢ": 9728,
  "à¤¿à¤¸": 9729,
  "Ġshare": 9730,
  ")(": 9731,
  "Ġsympt": 9732,
  "ĠBas": 9733,
  "quer": 9734,
  "ĳľ": 9735,
  "ĠCamp": 9736,
  "à±ģà°Ĥà°¡": 9737,
  "ĠØ¨Ø´": 9738,
  "ĠEngland": 9739,
  "nya": 9740,
  "Ġoptim": 9741,
  "Ġmetab": 9742,
  "Ġthroughout": 9743,
  "ëĵł": 9744,
  "ounter": 9745,
  "çķ": 9746,
  "anner": 9747,
  "ĠSince": 9748,
  "isions": 9749,
  "Ġoffice": 9750,
  "ĠLib": 9751,
  "Ġtodos": 9752,
  "ĠPan": 9753,
  "ĠJac": 9754,
  "ÃŁe": 9755,
  "ĠØ§ÙĦÙĦÙĩ": 9756,
  "ĠÐ·Ð½Ð°": 9757,
  "andon": 9758,
  "Ġjusqu": 9759,
  "ä¸ĸçºª": 9760,
  "show": 9761,
  "ÐĶ": 9762,
  "ĠØ§ÙĦØ²": 9763,
  "çľĭ": 9764,
  "Ġà¤ıà¤ķ": 9765,
  "Ġsaf": 9766,
  "inese": 9767,
  "Ð¸Ð½": 9768,
  "ĠÙĪÙĩÙĪ": 9769,
  "ĠSpec": 9770,
  "<String": 9771,
  "Ġik": 9772,
  "ÃŃcul": 9773,
  "ING": 9774,
  "Ġfollows": 9775,
  "Ġëĭ¹": 9776,
  "áĢ¼": 9777,
  "ĠNord": 9778,
  "Ġfinally": 9779,
  "Valid": 9780,
  "Ġearlier": 9781,
  "inci": 9782,
  "Ġliqu": 9783,
  "å§": 9784,
  "ĠPress": 9785,
  "å¾Ĺ": 9786,
  "å®¶": 9787,
  "ä¼ļ": 9788,
  "ëłĩ": 9789,
  "ilo": 9790,
  "ÛĮØ´": 9791,
  "Ġmonitor": 9792,
  "PC": 9793,
  "Ġargument": 9794,
  "pected": 9795,
  "ĠEurop": 9796,
  "Ð¼Ñĸ": 9797,
  "ĠHall": 9798,
  "rad": 9799,
  "ãģ«ãģ¯": 9800,
  "Ġhav": 9801,
  "iciency": 9802,
  "Ġparticipants": 9803,
  ".io": 9804,
  "ìķĪ": 9805,
  "Ġê´Ģ": 9806,
  "iker": 9807,
  "lice": 9808,
  "ĠRem": 9809,
  "Ġcatal": 9810,
  "íĮ": 9811,
  "ĠsiÃ¨cle": 9812,
  "page": 9813,
  "ĠArch": 9814,
  "Ø±Øª": 9815,
  "`.": 9816,
  "Ġfight": 9817,
  "Ġtreated": 9818,
  "Ġpada": 9819,
  "aga": 9820,
  "zz": 9821,
  "node": 9822,
  "isen": 9823,
  "Back": 9824,
  "ĠYour": 9825,
  "à²¾à²Ĺ": 9826,
  "Ġscient": 9827,
  "_N": 9828,
  "Ġempty": 9829,
  "Ð°Ð½Ð¸Ðµ": 9830,
  "Ġbrought": 9831,
  "keit": 9832,
  "Ġregions": 9833,
  "Õ¬": 9834,
  "Ã¼h": 9835,
  "nav": 9836,
  "ĠPerson": 9837,
  "à¯ĩ": 9838,
  "Ġperfect": 9839,
  "ĠAlso": 9840,
  "ãģĺ": 9841,
  "That": 9842,
  "clusion": 9843,
  "Ġrevealed": 9844,
  "ĠpremiÃ¨re": 9845,
  "idente": 9846,
  ".text": 9847,
  "ROM": 9848,
  "Ġadvant": 9849,
  "ĠEsp": 9850,
  "niques": 9851,
  "Ġpassed": 9852,
  "_w": 9853,
  "Ð¾ÐºÐ°": 9854,
  "current": 9855,
  "ĠGame": 9856,
  "Child": 9857,
  "à¦ª": 9858,
  "Ġë¶Ī": 9859,
  "ĠÙĪÙĦÙĥÙĨ": 9860,
  "ĠáĥĴ": 9861,
  "atsapp": 9862,
  "ĠØ§Ø¹": 9863,
  "ÙĥÙħ": 9864,
  "theta": 9865,
  "Ġalter": 9866,
  "ĠMarc": 9867,
  "Ãªt": 9868,
  "à®¿à®©": 9869,
  "Ġeconomic": 9870,
  "ederal": 9871,
  "Ġcompan": 9872,
  "Ġbrit": 9873,
  "Ġtumor": 9874,
  "ĠÐ±ÑĭÐ»": 9875,
  "long": 9876,
  "Ġskin": 9877,
  "ĠName": 9878,
  "Ġinner": 9879,
  "ãĥĩ": 9880,
  "Ġ}}": 9881,
  "Ġmaterials": 9882,
  "çĿĢ": 9883,
  "gel": 9884,
  "oval": 9885,
  "Ġdegree": 9886,
  "Ġê²°": 9887,
  "Ã¡d": 9888,
  "Ġye": 9889,
  "æŀľ": 9890,
  "Ø³Ø©": 9891,
  "Ġ${": 9892,
  "ãĢıĊĊ": 9893,
  "ĠÙĤØ±": 9894,
  "Ġale": 9895,
  "Ġcomes": 9896,
  "isten": 9897,
  "Ġà¦ªà§įà¦°": 9898,
  "ĠÎµÏĢ": 9899,
  "ĠÏĮ": 9900,
  "ĠÃ©galement": 9901,
  "dir": 9902,
  "Ġresulting": 9903,
  ".springframework": 9904,
  "Ġremoved": 9905,
  "Ġìĺģ": 9906,
  "Ã¡p": 9907,
  "Ġtrois": 9908,
  "lang": 9909,
  "Command": 9910,
  "Ðľ": 9911,
  "Ø¯Ø¯": 9912,
  "à¥įà¤Ł": 9913,
  "Ġ(_": 9914,
  "éĹ®": 9915,
  "Ġphone": 9916,
  "Ġtree": 9917,
  "IP": 9918,
  "Ð´ÐµÐ½": 9919,
  "sw": 9920,
  "'ex": 9921,
  "enda": 9922,
  "imi": 9923,
  "Ġwide": 9924,
  "Ġtent": 9925,
  "Ãłn": 9926,
  "ĠÙĬÙħÙĥÙĨ": 9927,
  "Ġnames": 9928,
  "Õ¡Õ£": 9929,
  "Title": 9930,
  "Ġseine": 9931,
  "åħĪ": 9932,
  ".Text": 9933,
  "à²¸": 9934,
  "lÄ±": 9935,
  "à¤¾à¤¯": 9936,
  "osc": 9937,
  "Ġviv": 9938,
  "Ã¡nd": 9939,
  "(),Ċ": 9940,
  "ãĢıï¼Ī": 9941,
  "ĠReact": 9942,
  "Ġcombination": 9943,
  "ĠvÉĻ": 9944,
  "Ġcours": 9945,
  "Ġopportun": 9946,
  "=>": 9947,
  "Æ°á»Ŀi": 9948,
  "Ġmiddle": 9949,
  "aja": 9950,
  "Ġwatch": 9951,
  "elo": 9952,
  "ĠGer": 9953,
  "Ġdeutsch": 9954,
  "orb": 9955,
  "Ġwrote": 9956,
  "ĠÏĥÏĦÎ·": 9957,
  "Ġelev": 9958,
  "ĠOff": 9959,
  "Ġseparate": 9960,
  "ĠÐ¾Ð¿": 9961,
  "Ġsuite": 9962,
  "Ġ×Ĳ×ª": 9963,
  "-N": 9964,
  "à«ĭ": 9965,
  "ĠOur": 9966,
  "Ġdonde": 9967,
  "build": 9968,
  "Init": 9969,
  "ĠLeg": 9970,
  "Ĥ°": 9971,
  "Mode": 9972,
  "?\"ĊĊ": 9973,
  "Ġthread": 9974,
  "ķàµįà´ķ": 9975,
  "Ġtherm": 9976,
  "Ġfam": 9977,
  "Ġsit": 9978,
  "à¦¿à¦¤": 9979,
  "Ġreduce": 9980,
  "orig": 9981,
  "ĠÎľ": 9982,
  "TS": 9983,
  "ĠSk": 9984,
  "Ġallows": 9985,
  "Ġwerd": 9986,
  "Ġjam": 9987,
  "enge": 9988,
  "ìĦł": 9989,
  "Ġdrive": 9990,
  "ĠEll": 9991,
  "ØŃØ±": 9992,
  "vec": 9993,
  "istan": 9994,
  "Ġmars": 9995,
  "ÐºÐ¾Ð½": 9996,
  "Ġsubstr": 9997,
  "áº§n": 9998,
  "Ġnovel": 9999,
  "ĠØ³Ø§ÙĦ": 10000,
  "/t": 10001,
  "Ġek": 10002,
  "udad": 10003,
  "aki": 10004,
  "Ġslight": 10005,
  "Ġcarbon": 10006,
  "ĠMer": 10007,
  "æĹ¥æľ¬": 10008,
  "Ġsupported": 10009,
  "ĠFilm": 10010,
  "note": 10011,
  "Ġpolice": 10012,
  "Ġvu": 10013,
  "ÅĻÃŃ": 10014,
  "Ġcs": 10015,
  "ĠÙħØ®": 10016,
  "ailed": 10017,
  "Ġtrain": 10018,
  "Ġmoins": 10019,
  "Ġgan": 10020,
  "ued": 10021,
  "inh": 10022,
  "ĠIsra": 10023,
  "ĠJoh": 10024,
  "ental": 10025,
  "_pro": 10026,
  "ĠìĦ±": 10027,
  "block": 10028,
  "icrosoft": 10029,
  "Ã¶s": 10030,
  "acters": 10031,
  "Ã©p": 10032,
  "ĠCup": 10033,
  "atro": 10034,
  "Ġavoid": 10035,
  "chÃ©": 10036,
  "prim": 10037,
  "ģ¬": 10038,
  "ĠÃĹ": 10039,
  "ĨĲ": 10040,
  "Ġdelete": 10041,
  "endance": 10042,
  "ëĭ¨": 10043,
  "Õ¥Õ½": 10044,
  "Ġisn": 10045,
  "ãģĤãĤĭ": 10046,
  "ĠkÃ¶n": 10047,
  "ï¼ĮãĢĬ": 10048,
  "Ã¨ne": 10049,
  "mann": 10050,
  "Ġsuggested": 10051,
  "arts": 10052,
  "ĠTu": 10053,
  "Ġcomput": 10054,
  "Ġiniti": 10055,
  "erior": 10056,
  "ĠÙĪÙĦ": 10057,
  "ĠDa": 10058,
  "à±įà°¤": 10059,
  "Ġrang": 10060,
  "à²¾à²°": 10061,
  "isÃ©": 10062,
  "allel": 10063,
  "ĠØ¯ÛĮ": 10064,
  "Ġkaj": 10065,
  "Ġlock": 10066,
  "à°®à±Ģ": 10067,
  "ĠFC": 10068,
  "ĠÐ§": 10069,
  "iforn": 10070,
  "ëĵ¤ìĿĢ": 10071,
  "Õ£": 10072,
  "Ġdari": 10073,
  "aign": 10074,
  ".con": 10075,
  "Ġmilitary": 10076,
  "ç¤": 10077,
  "ĠSee": 10078,
  "ĠÙĪÙģÙĬ": 10079,
  "Task": 10080,
  "_h": 10081,
  "Ø±ÙĥØ©": 10082,
  "undle": 10083,
  "áĥĲáĥĽ": 10084,
  "Ã©v": 10085,
  "ĠØ£ÙĬØ¶": 10086,
  "ĠGeorg": 10087,
  "Ġcivil": 10088,
  "Ð¼ÐµÑĢ": 10089,
  "ãĥĭ": 10090,
  "ĠÐ¿Ðµ": 10091,
  "Ø¦ÙĬØ³": 10092,
  "lymp": 10093,
  "Ġplas": 10094,
  "Å«": 10095,
  "kg": 10096,
  "Ġrule": 10097,
  "Ġsecurity": 10098,
  "ĠÏĩ": 10099,
  "aka": 10100,
  "ÑħÐ°": 10101,
  "áĥĽ": 10102,
  "Ġintent": 10103,
  "Ġconfir": 10104,
  "ns": 10105,
  "Null": 10106,
  "First": 10107,
  "ĠPour": 10108,
  "ĠEvent": 10109,
  "à¥¤ĊĊ": 10110,
  "ĠOper": 10111,
  "Ġfi": 10112,
  "sta": 10113,
  "output": 10114,
  "ĠØ£Ø³": 10115,
  "à®®": 10116,
  "gio": 10117,
  "Ġtherapy": 10118,
  "Ġcoming": 10119,
  "ÅĤy": 10120,
  "Ġcada": 10121,
  "ĠCre": 10122,
  "ĠÙĪÙĥØ§ÙĨ": 10123,
  "overn": 10124,
  "ĠÙħØ³Øª": 10125,
  "ĠStreet": 10126,
  "`ĊĊ": 10127,
  "uma": 10128,
  "ĠRiver": 10129,
  "Ġclasses": 10130,
  "whatsapp": 10131,
  "âĢ¦âĢ¦âĢĿ": 10132,
  "ĠMr": 10133,
  "ĠDies": 10134,
  "ĉf": 10135,
  "Ġparents": 10136,
  "Ġstructures": 10137,
  "Ġmeaning": 10138,
  "ifi": 10139,
  "Options": 10140,
  "ĠØ®ÙĦØ§ÙĦ": 10141,
  "ĠKir": 10142,
  "ĠØ³Ø±": 10143,
  "ĠMusic": 10144,
  "VID": 10145,
  "æĭ": 10146,
  "admin": 10147,
  "Ġexerc": 10148,
  "ÑıÑĤ": 10149,
  "à¤¹à¥Ģà¤Ĥ": 10150,
  "ierte": 10151,
  "Ġutiliz": 10152,
  "Æ°á»Ľ": 10153,
  "Ġdensity": 10154,
  "âĢĻav": 10155,
  "Ġnouve": 10156,
  "æĥ³": 10157,
  "à°¨à±įà°¨": 10158,
  "ĠUK": 10159,
  "Ġai": 10160,
  "ĠìķĦëĭĪ": 10161,
  "Ġcharge": 10162,
  "Ġwebs": 10163,
  "EX": 10164,
  "ĠUm": 10165,
  "Ġ+Ċ": 10166,
  "isiÃ³n": 10167,
  "ĠrÃ©al": 10168,
  "Ġcharacteristics": 10169,
  "ĠĠĠĠĠĠĠĠĠĠĠĠĠĠĠĠĠĠĠĠĠĠĠĠĠ": 10170,
  "ĠCong": 10171,
  "Ġregul": 10172,
  "Ġcz": 10173,
  "Ġnj": 10174,
  "Ġdiam": 10175,
  "Ġkun": 10176,
  "Ġgives": 10177,
  "agon": 10178,
  "ĠÚ©ÙĪ": 10179,
  "íķĺìĹ¬": 10180,
  "Ġautor": 10181,
  "ÑĩÐ½Ð¾": 10182,
  "contr": 10183,
  "while": 10184,
  "Ġcompletely": 10185,
  "Òĵ": 10186,
  "LECT": 10187,
  "Ġhair": 10188,
  "tml": 10189,
  "Ġìĭł": 10190,
  "atas": 10191,
  "Ġtele": 10192,
  "ĠprÃ©c": 10193,
  "ĠGes": 10194,
  "ĠAD": 10195,
  "Ġdifer": 10196,
  "Ġstream": 10197,
  "ĠPop": 10198,
  "ech": 10199,
  "à¤¾à¤¸": 10200,
  "sec": 10201,
  "ĠìĦľ": 10202,
  "Ġexpressed": 10203,
  "Ext": 10204,
  "Ġcomun": 10205,
  "ĠSoci": 10206,
  "ĠìŀĲìĭł": 10207,
  "_IN": 10208,
  "vet": 10209,
  "nik": 10210,
  "ĠÙĨÛĮ": 10211,
  "*/": 10212,
  "Ġjul": 10213,
  "Ø·Ø±": 10214,
  "ĠWork": 10215,
  "Ð¾Ð³Ð¸": 10216,
  "Ġpair": 10217,
  "zione": 10218,
  "Ġ},": 10219,
  "Ġliber": 10220,
  "áĢĦ": 10221,
  "Ġmale": 10222,
  "weight": 10223,
  "Ġanalys": 10224,
  "à°¾à°¨": 10225,
  "âĢĿ,": 10226,
  "à¦¾à¦²": 10227,
  "ĠAccording": 10228,
  "Ġvoc": 10229,
  "à§ĩà¦¨": 10230,
  "Ġtid": 10231,
  "win": 10232,
  "Ġpresident": 10233,
  "Ġbasic": 10234,
  "Ġreflect": 10235,
  "Ġsynth": 10236,
  "ĠÄĳá»Ļ": 10237,
  "client": 10238,
  "ĠØ³Ø¨": 10239,
  "Ġê°ľ": 10240,
  "å¾·": 10241,
  "atar": 10242,
  "ĠAustralia": 10243,
  "aper": 10244,
  "tee": 10245,
  ".v": 10246,
  "Ġperman": 10247,
  "Ġkann": 10248,
  "Ġappears": 10249,
  "ateur": 10250,
  "apa": 10251,
  "ÙĤØ±": 10252,
  "Ġrob": 10253,
  "Ġconfiguration": 10254,
  "ĠØ§ÙĦÙħØ¯": 10255,
  "ãĥĲ": 10256,
  "Ġfindings": 10257,
  "Ġterminal": 10258,
  "ë¬¼": 10259,
  "âĢ¦ĊĊ": 10260,
  "rest": 10261,
  "ĠØ´ÙĬ": 10262,
  "});Ċ": 10263,
  "ĠType": 10264,
  "LA": 10265,
  "iej": 10266,
  "null": 10267,
  "amily": 10268,
  "onio": 10269,
  "ĠëĤ¨": 10270,
  "Ġtab": 10271,
  "Open": 10272,
  "Î±Ïģ": 10273,
  ".âĢĻĊĊ": 10274,
  "æİ": 10275,
  "ãĥł": 10276,
  "phone": 10277,
  "Ġ×§": 10278,
  "Ġphosph": 10279,
  "namespace": 10280,
  "Ġrecorded": 10281,
  "ront": 10282,
  "à®£": 10283,
  "Ġchoice": 10284,
  "Ġinterval": 10285,
  "Ġlu": 10286,
  "ĠÎł": 10287,
  "wood": 10288,
  "_file": 10289,
  "ĠÙħØ¬": 10290,
  "ÑĺÐ¸": 10291,
  "à¨°": 10292,
  "ÎºÎµ": 10293,
  "ĠBet": 10294,
  "Ġdigital": 10295,
  "ÙĶ": 10296,
  "cape": 10297,
  "ĠDay": 10298,
  ".sub": 10299,
  "ĠØ£Øµ": 10300,
  "Ġsleep": 10301,
  "ëĿ¼ê³ł": 10302,
  "ĠØ§ÙĦÙħØ±": 10303,
  "Ġappropriate": 10304,
  "related": 10305,
  "ĠMiss": 10306,
  "ĠSmith": 10307,
  "ÏĥÎµ": 10308,
  "num": 10309,
  "ĠÙĦØª": 10310,
  "Read": 10311,
  "ĠÃ©c": 10312,
  "Úĺ": 10313,
  "Ġedge": 10314,
  "âĢĮÚ©": 10315,
  "à±ģà°Ĥà°¡à°¿": 10316,
  "Ġoperations": 10317,
  "ĠHT": 10318,
  "ĠëĺĲ": 10319,
  "Ø§Ø¹Ø©": 10320,
  "Ġfon": 10321,
  "ĠSecond": 10322,
  "Ġë¬¸": 10323,
  "à©ĩ": 10324,
  "Î¯Î½": 10325,
  "message": 10326,
  "ĠMost": 10327,
  "Ġcommit": 10328,
  "èĭ±": 10329,
  "ĠWhite": 10330,
  "Ġtechnology": 10331,
  "Ġej": 10332,
  "Foot": 10333,
  "Ð¾Ð²Ð¾": 10334,
  "ĠDivision": 10335,
  "åĲĪ": 10336,
  "zet": 10337,
  "Card": 10338,
  "Ġker": 10339,
  "plicit": 10340,
  "Ġshall": 10341,
  "à¤Ń": 10342,
  "Ġbeginning": 10343,
  "ĠTrue": 10344,
  "_ST": 10345,
  "stein": 10346,
  "enen": 10347,
  "Ġstarting": 10348,
  "ĠPresident": 10349,
  "ĠMary": 10350,
  "izont": 10351,
  "ä»Ģ": 10352,
  "âĢĻh": 10353,
  "Ġappeared": 10354,
  "ĠVict": 10355,
  "child": 10356,
  "ĠØªØª": 10357,
  "Ġnella": 10358,
  "cs": 10359,
  "Ġ×¨": 10360,
  "/?": 10361,
  "Ġvida": 10362,
  "uje": 10363,
  "Ø§Ø¦ÙĦ": 10364,
  "ĠktÃ³": 10365,
  "Ġà°¨à±ģà°Ĥà°¡à°¿": 10366,
  "igration": 10367,
  "****************": 10368,
  "ĠíĽĦ": 10369,
  "nel": 10370,
  "ĠMethod": 10371,
  "Ġconducted": 10372,
  "Ø¹Øª": 10373,
  "Ġcritical": 10374,
  "ptr": 10375,
  "_A": 10376,
  "ÑĤÐµÑĢ": 10377,
  "ĠØ§ÙĦÙħØ³": 10378,
  "Filter": 10379,
  "\\,": 10380,
  "à°¿à°¨": 10381,
  "áº·": 10382,
  "/h": 10383,
  "Ġdead": 10384,
  "Ġstudent": 10385,
  "ĠCounty": 10386,
  "Game": 10387,
  "_H": 10388,
  "_RE": 10389,
  "isl": 10390,
  "ĠVan": 10391,
  "vant": 10392,
  "Ġplatform": 10393,
  "Ġà¦ľ": 10394,
  "ØŃÙĪ": 10395,
  "Ġquando": 10396,
  "RL": 10397,
  "¨à¯įà®¤": 10398,
  "Ġremain": 10399,
  "Ð»Ð°Ð½": 10400,
  "Ġroll": 10401,
  "Ġeines": 10402,
  "à®¤à¯ģ": 10403,
  "duction": 10404,
  "Ġanche": 10405,
  "ãĥ¡": 10406,
  "Ġcalculated": 10407,
  "Ġpropos": 10408,
  "iling": 10409,
  "Ġassist": 10410,
  "Ġelimin": 10411,
  "ieren": 10412,
  "à¸«": 10413,
  "oder": 10414,
  "ÑĺÑĥ": 10415,
  "Õ¢": 10416,
  "_re": 10417,
  "Ġtesting": 10418,
  "zte": 10419,
  "ĠTra": 10420,
  "Ġeasily": 10421,
  "åł´": 10422,
  "Ġheard": 10423,
  "ĠKar": 10424,
  "Ã¼k": 10425,
  "íĸĪ": 10426,
  "Ġleurs": 10427,
  "\\in": 10428,
  "Ġthrows": 10429,
  "Ġexisting": 10430,
  "Ġopening": 10431,
  "heit": 10432,
  "'en": 10433,
  "ÙĩØ§ÛĮ": 10434,
  "Ġbtn": 10435,
  "ĠAtt": 10436,
  "æµ": 10437,
  "ĠChurch": 10438,
  "Ġselection": 10439,
  "ì¶": 10440,
  "Whats": 10441,
  "md": 10442,
  "æĪĸ": 10443,
  "ieurs": 10444,
  "IX": 10445,
  "ĠnÃº": 10446,
  "Ġstrateg": 10447,
  "ĠThanks": 10448,
  "arian": 10449,
  "Ġëª»": 10450,
  "-K": 10451,
  "Ġfunctional": 10452,
  "Ã©ho": 10453,
  "ĠÙĪÙĦØ§": 10454,
  "Ġ$(": 10455,
  "æ¸": 10456,
  "Ð²Ñĥ": 10457,
  "Ø§ÙĦØª": 10458,
  "å°±æĺ¯": 10459,
  "start": 10460,
  "Ø§ÙģØ©": 10461,
  "Ġlic": 10462,
  "Ġsometimes": 10463,
  "ĠVir": 10464,
  "Ġzen": 10465,
  "Öĩ": 10466,
  "Ġran": 10467,
  "Module": 10468,
  "Ġrules": 10469,
  "ĠTour": 10470,
  "ĠÏĥÏĦÎ¿": 10471,
  "enty": 10472,
  "ĠDuring": 10473,
  "Ġrank": 10474,
  "Ø§Ø±Ø§Øª": 10475,
  "ĠÃĸ": 10476,
  "Ġreceive": 10477,
  "ĠÐľÐ°": 10478,
  "Ġdefe": 10479,
  "voir": 10480,
  "atrix": 10481,
  "Ġguard": 10482,
  "Ġdevices": 10483,
  "Ġzwei": 10484,
  "Ġpurpose": 10485,
  "Ġkor": 10486,
  "Ġexception": 10487,
  "Po": 10488,
  "rim": 10489,
  "Õ¡Õ¬": 10490,
  "ìłģìĿ¸": 10491,
  "Ġjour": 10492,
  "Ġfemale": 10493,
  "ä»Ģä¹Ī": 10494,
  "ĠLaw": 10495,
  "Ġagent": 10496,
  "oration": 10497,
  "Ġà´ª": 10498,
  "miss": 10499,
  "Ġconfirm": 10500,
  "Ġà²¹": 10501,
  "stream": 10502,
  "Ġstatist": 10503,
  "TC": 10504,
  "Ġentry": 10505,
  "ilon": 10506,
  ".put": 10507,
  "Block": 10508,
  "Ġfeet": 10509,
  "ĠAS": 10510,
  "Ġbacter": 10511,
  "Ste": 10512,
  "Ġrelatively": 10513,
  "âĢĲ": 10514,
  "ĠØ£ÙĥØ«Ø±": 10515,
  "ĠÎļ": 10516,
  "Ġsubs": 10517,
  "ĠBern": 10518,
  "Ġud": 10519,
  "Ġincorpor": 10520,
  "Ġrend": 10521,
  "ĠÐļÐ°": 10522,
  "ĠAPI": 10523,
  "views": 10524,
  "iÄį": 10525,
  "Ġë¬¼": 10526,
  "ĠÃľ": 10527,
  "Õ¸Õ¶": 10528,
  "Ġonto": 10529,
  "âĢĻÃ©tait": 10530,
  "ä½ķ": 10531,
  "Ġremember": 10532,
  "Ġquickly": 10533,
  "ãģŁãģł": 10534,
  "akes": 10535,
  "cial": 10536,
  "Ġwonder": 10537,
  "Ġnam": 10538,
  "ae": 10539,
  "Ġlinear": 10540,
  "Ġà¤¥à¤¾": 10541,
  "Ġ×Ĵ": 10542,
  "perties": 10543,
  "nte": 10544,
  "Ķëĭ¤": 10545,
  "èµ·": 10546,
  "Format": 10547,
  "Ġcurrently": 10548,
  "ãĢĳ": 10549,
  "Ġreduction": 10550,
  "Ġcapacity": 10551,
  "zeich": 10552,
  "gin": 10553,
  "Stack": 10554,
  "?\"": 10555,
  "olit": 10556,
  "ĠMas": 10557,
  "Ġyards": 10558,
  "lock": 10559,
  "status": 10560,
  "ashington": 10561,
  "ĠJes": 10562,
  "Ġils": 10563,
  "Ġverb": 10564,
  "Bo": 10565,
  "VD": 10566,
  "tty": 10567,
  "Ġelectr": 10568,
  "aught": 10569,
  "Ġswe": 10570,
  "ĠØ±ÙĪ": 10571,
  "rÃ¡": 10572,
  "'E": 10573,
  "BA": 10574,
  "Ġdog": 10575,
  "Ġreli": 10576,
  "ping": 10577,
  "(name": 10578,
  "Ġtransl": 10579,
  "Ġanyone": 10580,
  "eten": 10581,
  "ëĭ¹": 10582,
  "Ġseb": 10583,
  "Top": 10584,
  "ãģªãģĦ": 10585,
  "ĠPolit": 10586,
  "Address": 10587,
  "ëħĢ": 10588,
  "Ġpros": 10589,
  "Ġ×¢×ľ": 10590,
  "Ġimprove": 10591,
  "Ġsources": 10592,
  "ÑĨÑĭ": 10593,
  "holder": 10594,
  ")ØĮ": 10595,
  "ĠYear": 10596,
  "Ġdemonstrated": 10597,
  "ugh": 10598,
  "ying": 10599,
  "cert": 10600,
  "Ġtravel": 10601,
  "ians": 10602,
  "Ġhers": 10603,
  "ÐºÐ¾Ð»": 10604,
  "Ġdamage": 10605,
  "Ġital": 10606,
  "ĠìĪ": 10607,
  "Player": 10608,
  "ï¼ļãĢĬ": 10609,
  "ÃŃc": 10610,
  "Ġwid": 10611,
  "çı": 10612,
  "Ġinteraction": 10613,
  "![": 10614,
  "Ġinsp": 10615,
  "Ġgenerate": 10616,
  "oly": 10617,
  "ÑĢÐ¾Ð´": 10618,
  "ĠStadt": 10619,
  "fic": 10620,
  "ieux": 10621,
  "ÙĦÙģ": 10622,
  "Ġkur": 10623,
  "GF": 10624,
  "bur": 10625,
  "Ġhighest": 10626,
  "Header": 10627,
  "æ³ķ": 10628,
  "×ĸ": 10629,
  "ãĥ¬ãĥĵ": 10630,
  "ĠÐºÐ¾ÑĤÐ¾ÑĢÑĭ": 10631,
  "`Ċ": 10632,
  "Ġtechniques": 10633,
  "Ġgold": 10634,
  "ĠGovern": 10635,
  "Ġactions": 10636,
  "Ġlooks": 10637,
  "ĠTwo": 10638,
  "Gener": 10639,
  "Âª": 10640,
  "Ġ(âĢ": 10641,
  "Ġfel": 10642,
  "ifs": 10643,
  "Ġperd": 10644,
  "ĠCa": 10645,
  "Ġneigh": 10646,
  "sqrt": 10647,
  "ensor": 10648,
  "Ã¤ch": 10649,
  "Ġinfection": 10650,
  "Ġsets": 10651,
  "áº¿n": 10652,
  "ĠÅŁ": 10653,
  "aupt": 10654,
  "ĠTechn": 10655,
  "Ġnoted": 10656,
  "Ġcham": 10657,
  "itos": 10658,
  "Je": 10659,
  "anie": 10660,
  "alar": 10661,
  "omic": 10662,
  "yond": 10663,
  "atan": 10664,
  "-term": 10665,
  "Ġcasa": 10666,
  "IM": 10667,
  "ĠëĶ°": 10668,
  "ç±³": 10669,
  "ĠLas": 10670,
  "ÐµÐº": 10671,
  "ĠUnion": 10672,
  "Ġoil": 10673,
  "Ġstatement": 10674,
  "áº§u": 10675,
  "Ġlegal": 10676,
  "Auth": 10677,
  "Ġplease": 10678,
  "Ġletter": 10679,
  "essa": 10680,
  "\"/": 10681,
  "Ø¹Ø±": 10682,
  "like": 10683,
  "å°ı": 10684,
  "Ġproport": 10685,
  "ervices": 10686,
  "ÙĥÙĬ": 10687,
  "Ġà¤¹à¥Īà¤Ĥ": 10688,
  "ĠLo": 10689,
  "Ġmoy": 10690,
  "ĠChe": 10691,
  "Ú¯ÛĮ": 10692,
  "Ġexactly": 10693,
  "eds": 10694,
  "Ġcomposition": 10695,
  "Cell": 10696,
  "Ġprze": 10697,
  "Ð½Ð¸Ñħ": 10698,
  "à¤¤à¥ĩ": 10699,
  "ipped": 10700,
  "Ġà®¨": 10701,
  "ĠÕ¥Õ¶": 10702,
  "ĠNS": 10703,
  "åı¦": 10704,
  "jon": 10705,
  "ĠUnter": 10706,
  "ÙĦØ³": 10707,
  "Ġà¤¨à¥ĩ": 10708,
  "ãĤ«": 10709,
  "ĠØªØµ": 10710,
  "ĠÙĦÙĦÙħ": 10711,
  "ÙĪÚº": 10712,
  "åħĭ": 10713,
  "Ġremains": 10714,
  "ĠÕ¾": 10715,
  "éķ": 10716,
  "];ĊĊ": 10717,
  "Ġreading": 10718,
  "Ø§ÙĨØ¯": 10719,
  "Ãªncia": 10720,
  "Ġreturns": 10721,
  "rig": 10722,
  "ĠHealth": 10723,
  "Attribute": 10724,
  "Hel": 10725,
  "Ġscen": 10726,
  "Ø§Ø°": 10727,
  "à°¾à°¯à°¿": 10728,
  "ÙģØ¶": 10729,
  "ë¹Ħ": 10730,
  "fty": 10731,
  "nek": 10732,
  "iance": 10733,
  "rowser": 10734,
  "Ġdalam": 10735,
  "Ġ..": 10736,
  "Ġpob": 10737,
  "Ġconflic": 10738,
  "Ġcarry": 10739,
  "Ġshift": 10740,
  "Ġrights": 10741,
  "ĠngÆ°á»Ŀi": 10742,
  "Integer": 10743,
  "ÑħÐ¾Ð´": 10744,
  "Å¼e": 10745,
  "Ab": 10746,
  "ÐºÑĢÐ°": 10747,
  "ÑĬÑĢ": 10748,
  "Ġring": 10749,
  "ĉelse": 10750,
  "éĤ£ä¹Ī": 10751,
  "Ġsmaller": 10752,
  "ifically": 10753,
  "under": 10754,
  "Ġneut": 10755,
  "riz": 10756,
  "ĠÐ¶Ðµ": 10757,
  "auc": 10758,
  "ĠBook": 10759,
  "áº¿t": 10760,
  "åıĤ": 10761,
  ":\"": 10762,
  "psilon": 10763,
  "author": 10764,
  "plete": 10765,
  "ĠëĬ": 10766,
  "Edit": 10767,
  "à±Ĥà°°": 10768,
  "Ġdecided": 10769,
  "Ġindicated": 10770,
  "Ġell": 10771,
  "Õ¸ÖĤÕ©ÕµÕ¡Õ¶": 10772,
  "xture": 10773,
  "break": 10774,
  ".$": 10775,
  "Ġlugar": 10776,
  "Ġprocedure": 10777,
  "à±įà°²": 10778,
  "Ã³l": 10779,
  "imens": 10780,
  "ãĥ¥": 10781,
  "àµ½": 10782,
  "Ġnorth": 10783,
  "ĠÐ³ÑĢÐ°": 10784,
  "è¦ģ": 10785,
  "wick": 10786,
  "ĠGermany": 10787,
  "ĠService": 10788,
  "Ġhope": 10789,
  "Ġsoll": 10790,
  "Ġdied": 10791,
  "Ġapplications": 10792,
  "Lo": 10793,
  "Provider": 10794,
  "ĠaÃ±o": 10795,
  "ĠHenry": 10796,
  "ÑģÑĤÐµ": 10797,
  "Ġregist": 10798,
  "ului": 10799,
  "ĠØ¨Ùħ": 10800,
  "Ġexternal": 10801,
  "ĠëķĮë¬¸": 10802,
  "ãģĦãģĨ": 10803,
  "ÑģÐºÐ¾": 10804,
  "Ġpurch": 10805,
  "ĠìłĢ": 10806,
  "Aut": 10807,
  "ĠChinese": 10808,
  "taient": 10809,
  "àµĭ": 10810,
  "obe": 10811,
  "ĠBud": 10812,
  "entity": 10813,
  "ĠRE": 10814,
  "ĠWal": 10815,
  "ĠÐŃ": 10816,
  "àµ¼": 10817,
  "Ã»t": 10818,
  "Part": 10819,
  "_O": 10820,
  "ymbol": 10821,
  "rod": 10822,
  "à¤¿à¤ı": 10823,
  "Ġweak": 10824,
  "uego": 10825,
  "áºŃn": 10826,
  "Ġprotest": 10827,
  "ĉĉĉĉĉĉĉ": 10828,
  "âĢľ,": 10829,
  "Ġrace": 10830,
  "river": 10831,
  "ĠKl": 10832,
  "aman": 10833,
  "inin": 10834,
  "Ġtoken": 10835,
  "printf": 10836,
  "Ã¶g": 10837,
  "à¤ķà¥ĩ": 10838,
  "FIG": 10839,
  "Ġcontro": 10840,
  "Ġfirm": 10841,
  "Ġbond": 10842,
  "Ġ×ª": 10843,
  "Ġing": 10844,
  "adr": 10845,
  "ĠÙĪØ§ØŃ": 10846,
  "ruit": 10847,
  "ĠìĬ¤": 10848,
  "Container": 10849,
  "ville": 10850,
  "åı¯æĺ¯": 10851,
  "ĠSum": 10852,
  "Ġê·": 10853,
  "áĥĲáĥĵ": 10854,
  "values": 10855,
  "Empty": 10856,
  "ĠBur": 10857,
  "FC": 10858,
  "à°Ĺ": 10859,
  "main": 10860,
  "âĢľå": 10861,
  "Ġneur": 10862,
  "à³Ĭ": 10863,
  "ston": 10864,
  "ĠCla": 10865,
  "{tab": 10866,
  "Ġrequires": 10867,
  "ĠMach": 10868,
  "Ġ:Ċ": 10869,
  "ĠØŃØ¯": 10870,
  "Ġsuo": 10871,
  "Ġë¨": 10872,
  "ĠFlor": 10873,
  "ĠBerlin": 10874,
  "çĽ¸": 10875,
  "ĠGreen": 10876,
  "Ġtres": 10877,
  "DA": 10878,
  "Ã¤s": 10879,
  "Ġmand": 10880,
  "-il": 10881,
  "Ġconj": 10882,
  "ìĬµëĭĪëĭ¤": 10883,
  "Icon": 10884,
  "enti": 10885,
  "Ġfully": 10886,
  "Refere": 10887,
  "ĠCu": 10888,
  "ĠCompany": 10889,
  "Ġfailure": 10890,
  "POST": 10891,
  "Ã³d": 10892,
  "Ġzone": 10893,
  "Ġê²ĥìĿ´ëĭ¤": 10894,
  "ÙĪÙī": 10895,
  "ĠØªØ¬": 10896,
  "Height": 10897,
  "pling": 10898,
  "Ð¸Ð»": 10899,
  "Ġreact": 10900,
  "Ġëģ": 10901,
  "ĠÐ²Ð°": 10902,
  "amiento": 10903,
  "Items": 10904,
  "ĠMot": 10905,
  "ĠMaria": 10906,
  "Ġones": 10907,
  "assen": 10908,
  "{tabular": 10909,
  "Ġmentioned": 10910,
  "Ġziren": 10911,
  "Ġimmediately": 10912,
  "ĠCentral": 10913,
  "Ġtechnique": 10914,
  "ìĨį": 10915,
  "Ġnod": 10916,
  "utter": 10917,
  "Ġà²¨": 10918,
  "ĠØ¸": 10919,
  "íĸī": 10920,
  "ĠØ¨Ø£ÙĨ": 10921,
  "ÙĪØ©": 10922,
  "Ġindustry": 10923,
  "bour": 10924,
  "ĠAle": 10925,
  "Ġsoit": 10926,
  "Ø§Ø¯ÙĬ": 10927,
  "Ġmonde": 10928,
  "**ï¼Ī": 10929,
  "embl": 10930,
  "Ġcav": 10931,
  "Ġvac": 10932,
  "$,": 10933,
  "ÃŃnh": 10934,
  "Ġseemed": 10935,
  "ĠBi": 10936,
  "ĠDaniel": 10937,
  "ĠOver": 10938,
  "Ġintroduced": 10939,
  "Ġà¤ĩà¤¸": 10940,
  "Ġsubstant": 10941,
  "ĠÃŃ": 10942,
  "Ġê·¸ëŁ¬": 10943,
  "Ġville": 10944,
  "ango": 10945,
  "inner": 10946,
  "pecific": 10947,
  "ãģµ": 10948,
  "èģ": 10949,
  "ãĥĸ": 10950,
  "ĠÐ¾ÑĢ": 10951,
  "à³Ĥ": 10952,
  "_set": 10953,
  "à¸Ħ": 10954,
  "Ġampl": 10955,
  "ovo": 10956,
  "Ġerrors": 10957,
  "atically": 10958,
  "Ġexpand": 10959,
  "Ġconsequ": 10960,
  "áĥ¢": 10961,
  "à§¦": 10962,
  "ĠMath": 10963,
  "Ġemot": 10964,
  "oup": 10965,
  "Ġzwischen": 10966,
  "áĢŃáĢ¯áĢ": 10967,
  "Ġtemplate": 10968,
  "Ġnut": 10969,
  "Buffer": 10970,
  "})Ċ": 10971,
  "à²¨à³įà²¨à³ģ": 10972,
  "Ġsuccessful": 10973,
  "Ġ};ĊĊ": 10974,
  "Position": 10975,
  "Ġseiner": 10976,
  "Ġ\"/": 10977,
  "yan": 10978,
  "Ġcontroller": 10979,
  "ibly": 10980,
  "Ġsang": 10981,
  "Ġindicate": 10982,
  "Ġlag": 10983,
  "rer": 10984,
  "ìĥĿ": 10985,
  "ĠWindows": 10986,
  "ĠcrÃ©": 10987,
  "Ð»ÐµÐº": 10988,
  "Ġfriends": 10989,
  "ĠMinister": 10990,
  "Ġblue": 10991,
  "Ð¾ÐºÑĥ": 10992,
  "ãģªãĤĵ": 10993,
  "onna": 10994,
  "reshold": 10995,
  "ÑīÐ°": 10996,
  "=True": 10997,
  "wers": 10998,
  "Ġoppos": 10999,
  "åŃĺ": 11000,
  "ãĢĭãĢģ": 11001,
  "àµĩ": 11002,
  "iders": 11003,
  "Ġcoordin": 11004,
  "sigma": 11005,
  "Ġbecomes": 11006,
  "ÑĥÐ´": 11007,
  "aram": 11008,
  "omy": 11009,
  "ĠpaÃŃs": 11010,
  "ĠEv": 11011,
  "ĠÙĪØ±": 11012,
  "\\).": 11013,
  "Ġà¤Ńà¥Ģ": 11014,
  "uis": 11015,
  "ampion": 11016,
  "{ĊĊ": 11017,
  "which": 11018,
  "ÙĪÙĩ": 11019,
  "Å¡t": 11020,
  "Ġaug": 11021,
  "ä»İ": 11022,
  "?.": 11023,
  "Ġcontainer": 11024,
  "Õ¥ÖĢÕ¨": 11025,
  "Ġprimera": 11026,
  "ĠCollege": 11027,
  "Ûµ": 11028,
  "osoph": 11029,
  "(_": 11030,
  "ĠÙĪØ³": 11031,
  "ÑģÐºÐ¸Ñħ": 11032,
  "Ġmoi": 11033,
  "à¤¾à¤¹": 11034,
  "Ġglass": 11035,
  "à°¿à°Ĥà°": 11036,
  "Ġku": 11037,
  "Ø§ÙĬØ©": 11038,
  "åħ¨": 11039,
  "Ġkont": 11040,
  "Sche": 11041,
  "Connection": 11042,
  "íĥĢ": 11043,
  "ãģ»": 11044,
  "Ġsab": 11045,
  "ĠØ§ÙĦØ¹Ø§ÙĦÙħ": 11046,
  "Ġchurch": 11047,
  "ĠdespuÃ©s": 11048,
  "&k": 11049,
  "Ġshowing": 11050,
  "Ġsaying": 11051,
  "Ġnun": 11052,
  "Ġdelay": 11053,
  "éł": 11054,
  "iring": 11055,
  "ested": 11056,
  "eto": 11057,
  "ÛĮÙĦ": 11058,
  "nych": 11059,
  "Ġimpos": 11060,
  "ÕĿ": 11061,
  "Ġbomb": 11062,
  "Ġverd": 11063,
  "Ġà¤¨à¤¹à¥Ģà¤Ĥ": 11064,
  "ĠÎ¤": 11065,
  "ifornia": 11066,
  "ĠMex": 11067,
  "Î¹ÎºÏĮ": 11068,
  "Ġë°Ľ": 11069,
  "edit": 11070,
  "ĠResearch": 11071,
  "Ġfur": 11072,
  "ikt": 11073,
  "Ġdistinct": 11074,
  "apon": 11075,
  "ĠDeutsch": 11076,
  "à°¯": 11077,
  "ãģĦãĤĭ": 11078,
  "ÑħÐ¾Ð´Ð¸": 11079,
  "Ġsowie": 11080,
  "ettings": 11081,
  "font": 11082,
  "Ġactivation": 11083,
  "Ġcharacters": 11084,
  "ç¥": 11085,
  "ĠBes": 11086,
  "ĠNav": 11087,
  "à´Ł": 11088,
  "items": 11089,
  "Ġmoving": 11090,
  "ĠØ§ÙĨØª": 11091,
  "Ġremained": 11092,
  "Ġdetection": 11093,
  "Ġihm": 11094,
  "Ġ-->Ċ": 11095,
  "ĠÙĨÙħ": 11096,
  "etzt": 11097,
  "IF": 11098,
  "ĠÐ¿Ð¾ÑģÐ»Ðµ": 11099,
  "Ġconvers": 11100,
  "Ġextrem": 11101,
  "Dialog": 11102,
  "ì°¨": 11103,
  "Ġhogy": 11104,
  "Ġbank": 11105,
  "Ġcourt": 11106,
  "itted": 11107,
  "Ġ],Ċ": 11108,
  "ĠÑįÑĤÐ¾": 11109,
  "Ġcompleted": 11110,
  "Å¡ÃŃ": 11111,
  "ĠTop": 11112,
  "Ð»Ð°Ð²": 11113,
  "Ġlleg": 11114,
  "Ġanimals": 11115,
  "Ġdetected": 11116,
  "ifications": 11117,
  "Ġzero": 11118,
  "Ġcycle": 11119,
  "etime": 11120,
  "æį": 11121,
  "Off": 11122,
  "illo": 11123,
  "ĠdiffÃ©r": 11124,
  "icate": 11125,
  "ologie": 11126,
  "\\[\\": 11127,
  "Ð¸Ñģ": 11128,
  "Ġemp": 11129,
  "PT": 11130,
  "Ġintr": 11131,
  "êµ°": 11132,
  "ifying": 11133,
  "Ġdieser": 11134,
  "OM": 11135,
  "Ġresource": 11136,
  "Ġcombined": 11137,
  "ĠÔ±": 11138,
  "Case": 11139,
  "istes": 11140,
  "Ġkept": 11141,
  "anel": 11142,
  "ĠØ³ÛĴ": 11143,
  "Ġwave": 11144,
  "Ġapply": 11145,
  "Ġhem": 11146,
  "Ġcategory": 11147,
  "Json": 11148,
  "ëĳĲ": 11149,
  "ĠSin": 11150,
  "Ġchrom": 11151,
  "ç®": 11152,
  "\\({}^{\\": 11153,
  "Ġminor": 11154,
  "aza": 11155,
  "ĠØ§Øª": 11156,
  "Ġrelevant": 11157,
  "yy": 11158,
  "Ġ.ĊĊ": 11159,
  "ģu": 11160,
  "Ġprepared": 11161,
  "à¤¨à¥įà¤": 11162,
  "à²®": 11163,
  "ĠTim": 11164,
  "ĠÃĢ": 11165,
  "Delta": 11166,
  "-k": 11167,
  "Ġtrab": 11168,
  "Ī¬": 11169,
  "æ³¨": 11170,
  "ĠPD": 11171,
  "Ġà°¬": 11172,
  "ìĪ": 11173,
  "ï¼į": 11174,
  "à²¿à²¸": 11175,
  "sm": 11176,
  "ustomer": 11177,
  "ÅŁt": 11178,
  "endar": 11179,
  "ĠâĢ¦": 11180,
  "ï¼ĳ": 11181,
  "Ġkg": 11182,
  "à¸²à¸£": 11183,
  "Ġantes": 11184,
  "/icon": 11185,
  "Output": 11186,
  "ĠChampionship": 11187,
  ".go": 11188,
  "ÙĨÙĬØ©": 11189,
  "Ġolder": 11190,
  "Ġrare": 11191,
  "ĠÐºÑĥ": 11192,
  "Ġanalyz": 11193,
  "ë¡Ŀ": 11194,
  "Ø³ØªØ§ÙĨ": 11195,
  "Ġsea": 11196,
  "oche": 11197,
  "ĠSeg": 11198,
  "Thread": 11199,
  "Äħc": 11200,
  "ĠpolÃŃt": 11201,
  "Ġà²µ": 11202,
  "Ġarms": 11203,
  "Fe": 11204,
  "Ġpackage": 11205,
  "Ġë©": 11206,
  ".cont": 11207,
  "àµįà´°": 11208,
  "à´®": 11209,
  "Ġtip": 11210,
  "rapper": 11211,
  "Ġstaff": 11212,
  "EL": 11213,
  "nej": 11214,
  "ÙĥØª": 11215,
  "Ġgal": 11216,
  "ĠannÃ©es": 11217,
  "aden": 11218,
  "Ġoverride": 11219,
  "Ġvirtual": 11220,
  "_v": 11221,
  ",'": 11222,
  "Ġgreen": 11223,
  "Ġequival": 11224,
  "war": 11225,
  "ĠCommun": 11226,
  "ĠPublic": 11227,
  "ĠRod": 11228,
  "ĠHo": 11229,
  "à¯ĭ": 11230,
  "Ġautres": 11231,
  "ÙĬØ´": 11232,
  "Ġ<!--": 11233,
  "only": 11234,
  "Ġconver": 11235,
  "urer": 11236,
  "Ġfloor": 11237,
  "ĠWashington": 11238,
  "Ġnord": 11239,
  "Ġpoder": 11240,
  "ĠØ¹ÙħÙĦ": 11241,
  "Ġvas": 11242,
  "Ġnaj": 11243,
  "Ġspread": 11244,
  "ĠProf": 11245,
  "reci": 11246,
  "Î¼Î¿": 11247,
  "Ġexperiments": 11248,
  "Ġdefine": 11249,
  "Ġassociation": 11250,
  "ĠDirect": 11251,
  "èĥ": 11252,
  "áĥľ": 11253,
  "vier": 11254,
  "Ġrelation": 11255,
  "ecute": 11256,
  "Down": 11257,
  "Ġvoltage": 11258,
  "Ġmyself": 11259,
  "Ġavoir": 11260,
  "Ġnap": 11261,
  "Ã¡ch": 11262,
  "Ġeight": 11263,
  "ÙĩÙĪØ¯": 11264,
  "Ġsouth": 11265,
  "Ġole": 11266,
  "Ġapproximately": 11267,
  "çī¹": 11268,
  "Ġà¤ĸ": 11269,
  ".*Ċ": 11270,
  "ë¦°": 11271,
  ")\\)": 11272,
  "illet": 11273,
  "chat": 11274,
  "Ġwhereas": 11275,
  "Ġserie": 11276,
  "Ġexamples": 11277,
  "ĠHa": 11278,
  "/P": 11279,
  "anal": 11280,
  "ĠÐ°Ð²": 11281,
  "Ġseven": 11282,
  "íķĻ": 11283,
  "options": 11284,
  "Ã«r": 11285,
  "Ġtransition": 11286,
  "zent": 11287,
  "Ð¢": 11288,
  "ĠÑī": 11289,
  "uno": 11290,
  "ĠØ£Ø¨": 11291,
  "àª¿": 11292,
  "ä¸Ķ": 11293,
  "Ġbeaut": 11294,
  "issance": 11295,
  "áº£i": 11296,
  "ĠOp": 11297,
  "styles": 11298,
  "Ġsupply": 11299,
  "Ġ×¡": 11300,
  "Ġliquid": 11301,
  "Ġtoute": 11302,
  "faces": 11303,
  "Ġserious": 11304,
  "éĺ": 11305,
  "Ġplayers": 11306,
  "à²¿à²¦": 11307,
  "Ġ>Ċ": 11308,
  "Max": 11309,
  "ket": 11310,
  "\\end": 11311,
  "^{-": 11312,
  "Eng": 11313,
  "Ġauthors": 11314,
  "ĠØ¥ÙĦÙĬ": 11315,
  "Ð·Ð½Ð°": 11316,
  "Ġez": 11317,
  "Ġpays": 11318,
  "ĠProgram": 11319,
  "ĠíĿ": 11320,
  "atura": 11321,
  "asis": 11322,
  "ãĢįãĢĤ": 11323,
  "ÙİÙĳ": 11324,
  "ãĤ¦": 11325,
  "Ø¯Ø§Ùħ": 11326,
  "(l": 11327,
  "-time": 11328,
  "Ġlibrary": 11329,
  "!Ċ": 11330,
  "ĠFern": 11331,
  "_time": 11332,
  "ĠJosÃ©": 11333,
  "ĠÏĦÎ¿Î½": 11334,
  "Ġeing": 11335,
  "Sp": 11336,
  "Ġconfigure": 11337,
  "ĠÐ²Ð¾Ð·": 11338,
  "false": 11339,
  "ialize": 11340,
  "à®¿à®²à¯į": 11341,
  "£½": 11342,
  "Ġresist": 11343,
  "Ġbehavi": 11344,
  "edi": 11345,
  "Ø¨Ø§Ø±": 11346,
  "'Ã©t": 11347,
  "Ġadministration": 11348,
  "iverse": 11349,
  "omain": 11350,
  "ìĭ¬": 11351,
  "ĻáĢ": 11352,
  "ĠÐ¨": 11353,
  "Ġpush": 11354,
  "ieler": 11355,
  "Ð°Ð»ÑĮ": 11356,
  "ĠÏĢÎ¿Ïħ": 11357,
  "ĠTod": 11358,
  "ĠlÃŃ": 11359,
  "ÏĦÎ¬": 11360,
  "edy": 11361,
  "ĠÙĪÙħÙĨ": 11362,
  "ĉvar": 11363,
  "IO": 11364,
  "YPE": 11365,
  "Grid": 11366,
  "ĠVor": 11367,
  "Ġdivision": 11368,
  "ĠHel": 11369,
  "Ġnovembre": 11370,
  "Ġcentre": 11371,
  "Ġhund": 11372,
  "Ġpull": 11373,
  "ĠSanta": 11374,
  "ĠMur": 11375,
  "Ã¡v": 11376,
  "abet": 11377,
  "ĠGro": 11378,
  "ÑĥÐ½": 11379,
  "msg": 11380,
  "rican": 11381,
  "ĠÑŀ": 11382,
  "Ġstated": 11383,
  "ĠPlay": 11384,
  "ĠStat": 11385,
  "Ġanimal": 11386,
  "Ġadopt": 11387,
  "PP": 11388,
  "++;Ċ": 11389,
  "].ĊĊ": 11390,
  "Ġà°īà°¨à±įà°¨": 11391,
  "à´µ": 11392,
  "olid": 11393,
  "osta": 11394,
  "iced": 11395,
  "Ġmobile": 11396,
  "ä¾ĭå¦Ĥ": 11397,
  "(-": 11398,
  "Ġmant": 11399,
  "emy": 11400,
  "Ġmolecular": 11401,
  "¯¼": 11402,
  "olar": 11403,
  "Ġsido": 11404,
  "Ġvec": 11405,
  "Ġê³Ħ": 11406,
  "Ø§ÛĮÛĮ": 11407,
  "Ġworden": 11408,
  "Ã¤Ã¤": 11409,
  "ìłģìľ¼ë¡ľ": 11410,
  "});ĊĊ": 11411,
  "Ġelection": 11412,
  "angan": 11413,
  "Ġini": 11414,
  ".ap": 11415,
  "Ġveloc": 11416,
  "Ġkilled": 11417,
  "ÑĥÐ²Ð°": 11418,
  "Ġhaben": 11419,
  "ĠWay": 11420,
  "âĢĬ": 11421,
  "-V": 11422,
  "rey": 11423,
  "'e": 11424,
  "âĢĻelle": 11425,
  "Pos": 11426,
  "Window": 11427,
  "+\\": 11428,
  "æŃ£": 11429,
  "ÙģØ¹": 11430,
  "ammen": 11431,
  "Ġcomparison": 11432,
  "ĠØ£ØŃØ¯": 11433,
  "ĠÐºÑĢÐ°": 11434,
  "Ð´Ð¾": 11435,
  "Ð½Ð¾Ðµ": 11436,
  "Ð´Ð¸Ð½": 11437,
  "Ġaxis": 11438,
  "menu": 11439,
  "Ġbill": 11440,
  "Ġà¤ķà¤¿": 11441,
  "Ġpy": 11442,
  "Ð¿Ð¾": 11443,
  "Ġwife": 11444,
  "Ġpolic": 11445,
  "ĠDur": 11446,
  "irection": 11447,
  "asc": 11448,
  "æĸĩ": 11449,
  "Û¸": 11450,
  "gery": 11451,
  "Ġov": 11452,
  "ĠÏĦÏīÎ½": 11453,
  "Ġë§İ": 11454,
  "ĠScott": 11455,
  "Ġdil": 11456,
  "ycl": 11457,
  "UM": 11458,
  "Ġcultural": 11459,
  "Ġnad": 11460,
  "ĠBon": 11461,
  "Ġincreases": 11462,
  "Ã§ais": 11463,
  "Ø§Ø±Ø³": 11464,
  "estra": 11465,
  "Ġtanto": 11466,
  "Ġexperimental": 11467,
  "ĠÕ¸ÖĢ": 11468,
  "Ð»Ð¸ÑģÑĮ": 11469,
  "ĠSy": 11470,
  "++)Ċ": 11471,
  "olt": 11472,
  "Server": 11473,
  "bool": 11474,
  "Ġë°ĺ": 11475,
  "Ġsurround": 11476,
  "áº£n": 11477,
  "ĠCreate": 11478,
  "ÃŃo": 11479,
  "Ġdrop": 11480,
  ".user": 11481,
  "Ġliterature": 11482,
  "Ġthinking": 11483,
  "à®ªà¯įà®ª": 11484,
  "Ġvariety": 11485,
  "iza": 11486,
  "Password": 11487,
  "TV": 11488,
  "Ġstored": 11489,
  "ÏīÏĤ": 11490,
  "Ġvehicle": 11491,
  "ìŀ¬": 11492,
  "ĠJoseph": 11493,
  "itate": 11494,
  "Ġproviding": 11495,
  "ĠXX": 11496,
  "Ġsuffer": 11497,
  "ĠÙĬØŃ": 11498,
  "\"),": 11499,
  "Ġruns": 11500,
  "ĠCouncil": 11501,
  "ÙĪÙĥ": 11502,
  "ĠEven": 11503,
  "Ġmouth": 11504,
  "itis": 11505,
  "ÑĢÐ°Ð·": 11506,
  "beit": 11507,
  "reme": 11508,
  "stell": 11509,
  "Ġtiem": 11510,
  "ĠAtl": 11511,
  "ĠModel": 11512,
  "rog": 11513,
  "Ġmuy": 11514,
  "Ġcollected": 11515,
  "stall": 11516,
  "first": 11517,
  "Ġnone": 11518,
  "endif": 11519,
  "ĠvÃło": 11520,
  "Ġstraight": 11521,
  "Ġarchitect": 11522,
  "ĠRNA": 11523,
  "ĠÙĪØŃ": 11524,
  "Ġvillage": 11525,
  "uso": 11526,
  "ĠArmy": 11527,
  "template": 11528,
  "ĠØ¬ÙĨ": 11529,
  "Ġshared": 11530,
  "adata": 11531,
  "plot": 11532,
  "ĠIndian": 11533,
  "Ġcareer": 11534,
  "Ġkoj": 11535,
  "ÐºÐ¾Ð¼": 11536,
  "ĠLeb": 11537,
  "á»ĵ": 11538,
  "('/": 11539,
  "ocs": 11540,
  "avas": 11541,
  "ĠMann": 11542,
  "Ġbatt": 11543,
  "ãģ¯ãģĦ": 11544,
  "zten": 11545,
  "Ġtraditional": 11546,
  "Web": 11547,
  "ieg": 11548,
  "ĠFra": 11549,
  "Õ¥Öģ": 11550,
  "Ġprofile": 11551,
  "ĠRoyal": 11552,
  "Ġkap": 11553,
  "ĠRa": 11554,
  "Ġtub": 11555,
  ".\\": 11556,
  "ĠJew": 11557,
  "ums": 11558,
  "Ġalternative": 11559,
  "ĠGreat": 11560,
  "ÙĪØ±Ø¯": 11561,
  "ĠØ¨ØŃ": 11562,
  "}}{": 11563,
  "well": 11564,
  "Ġfle": 11565,
  "omer": 11566,
  "Ġsucc": 11567,
  "-ex": 11568,
  "ĠmÃ©d": 11569,
  "ĠCourt": 11570,
  "Ġ×Ķ×Ĳ": 11571,
  "unque": 11572,
  "Ġbirth": 11573,
  "ĠIL": 11574,
  "izontal": 11575,
  "Ġnan": 11576,
  "Ġsust": 11577,
  "android": 11578,
  "efined": 11579,
  "ØŃØ¯Ø©": 11580,
  "ierung": 11581,
  "æĺ¯çļĦ": 11582,
  "ĠUI": 11583,
  "Ġserve": 11584,
  "à¯įà®ķà®³": 11585,
  "Ð±Ð»Ð¸": 11586,
  "Es": 11587,
  "ç½": 11588,
  "Ġgaz": 11589,
  "ĠÐ¶Ð¸": 11590,
  "Ġbor": 11591,
  "ãģĵãģ¨": 11592,
  "Ġmedic": 11593,
  "ĠÐ²ÑĸÐ´": 11594,
  "larÄ±": 11595,
  "Ġà°Ĩ": 11596,
  "greg": 11597,
  "eln": 11598,
  "ĠSS": 11599,
  "à¸Ľ": 11600,
  "ÙĤØ§ÙĦ": 11601,
  "âĢ¦âĢ¦ãĢĤ": 11602,
  "ì§ģ": 11603,
  "Ġmismo": 11604,
  "Ġcamb": 11605,
  "Ġihre": 11606,
  "Ġhypoth": 11607,
  "Ġfinished": 11608,
  "oven": 11609,
  "å²": 11610,
  "Ġchance": 11611,
  "('#": 11612,
  "Resource": 11613,
  "×Ļ×§": 11614,
  "Ġìŀ¥": 11615,
  "Ġedit": 11616,
  "Ø¸Ø§Ùħ": 11617,
  "Ġsecondary": 11618,
  "Ġseus": 11619,
  "Õ«Öģ": 11620,
  ".**": 11621,
  "æ²»": 11622,
  "ĠAny": 11623,
  "ÙĨÛĮ": 11624,
  "}>Ċ": 11625,
  "eda": 11626,
  "Main": 11627,
  "ymph": 11628,
  "ĠÙģØ¥ÙĨ": 11629,
  "ĠBill": 11630,
  "NAME": 11631,
  "ĠMill": 11632,
  "Ã¼d": 11633,
  "ĠCalifornia": 11634,
  "Ġplural": 11635,
  "Ġgior": 11636,
  "ĠLee": 11637,
  "Ġhop": 11638,
  "attr": 11639,
  "Ġìĭ¤": 11640,
  "ĠÎ³Î¹Î±": 11641,
  "raint": 11642,
  "jours": 11643,
  "emple": 11644,
  "æŃ¤å¤ĸ": 11645,
[...]
