{"!":3,"\"":4,"#":5,"$":6,"%":7,"&":8,"'":9,"(":10,")":11,"*":12,"+":13,",":14,"-":15,".":16,"/":17,"0":18,"1":19,"2":20,"3":21,"4":22,"5":23,"6":24,"7":25,"8":26,"9":27,":":28,";":29,"<":30,"=":31,">":32,"?":33,"@":34,"A":35,"B":36,"C":37,"D":38,"E":39,"F":40,"G":41,"H":42,"I":43,"J":44,"K":45,"L":46,"M":47,"N":48,"O":49,"P":50,"Q":51,"R":52,"S":53,"T":54,"U":55,"V":56,"W":57,"X":58,"Y":59,"Z":60,"[":61,"\\":62,"]":63,"^":64,"_":65,"`":66,"a":67,"b":68,"c":69,"d":70,"e":71,"f":72,"g":73,"h":74,"i":75,"j":76,"k":77,"l":78,"m":79,"n":80,"o":81,"p":82,"q":83,"r":84,"s":85,"t":86,"u":87,"v":88,"w":89,"x":90,"y":91,"z":92,"{":93,"|":94,"}":95,"~":96,"¡":97,"¢":98,"£":99,"¤":100,"¥":101,"¦":102,"§":103,"¨":104,"©":105,"ª":106,"«":107,"¬":108,"®":109,"¯":110,"°":111,"±":112,"²":113,"³":114,"´":115,"µ":116,"¶":117,"·":118,"¸":119,"¹":120,"º":121,"»":122,"¼":123,"½":124,"¾":125,"¿":126,"À":127,"Á":128,"Â":129,"Ã":130,"Ä":131,"Å":132,"Æ":133,"Ç":134,"È":135,"É":136,"Ê":137,"Ë":138,"Ì":139,"Í":140,"Î":141,"Ï":142,"Ð":143,"Ñ":144,"Ò":145,"Ó":146,"Ô":147,"Õ":148,"Ö":149,"×":150,"Ø":151,"Ù":152,"Ú":153,"Û":154,"Ü":155,"Ý":156,"Þ":157,"ß":158,"à":159,"á":160,"â":161,"ã":162,"ä":163,"å":164,"æ":165,"ç":166,"è":167,"é":168,"ê":169,"ë":170,"ì":171,"í":172,"î":173,"ï":174,"ð":175,"ñ":176,"ò":177,"ó":178,"ô":179,"õ":180,"ö":181,"÷":182,"ø":183,"ù":184,"ú":185,"û":186,"ü":187,"ý":188,"þ":189,"ÿ":190,"Ā":191,"ā":192,"Ă":193,"ă":194,"Ą":195,"ą":196,"Ć":197,"ć":198,"Ĉ":199,"ĉ":200,"Ċ":201,"ċ":202,"Č":203,"č":204,"Ď":205,"ď":206,"Đ":207,"đ":208,"Ē":209,"ē":210,"Ĕ":211,"ĕ":212,"Ė":213,"ė":214,"Ę":215,"ę":216,"Ě":217,"ě":218,"Ĝ":219,"ĝ":220,"Ğ":221,"ğ":222,"Ġ":223,"ġ":224,"Ģ":225,"ģ":226,"Ĥ":227,"ĥ":228,"Ħ":229,"ħ":230,"Ĩ":231,"ĩ":232,"Ī":233,"ī":234,"Ĭ":235,"ĭ":236,"Į":237,"į":238,"İ":239,"ı":240,"Ĳ":241,"ĳ":242,"Ĵ":243,"ĵ":244,"Ķ":245,"ķ":246,"ĸ":247,"Ĺ":248,"ĺ":249,"Ļ":250,"ļ":251,"Ľ":252,"ľ":253,"Ŀ":254,"ŀ":255,"Ł":256,"ł":257,"Ń":258,"Ġt":259,"Ġa":260,"in":261,"ĠĠ":262,"he":263,"er":264,"on":265,"re":266,"en":267,"at":268,"Ġs":269,"Ġthe":270,"ĊĊ":271,"or":272,"es":273,"Ġc":274,"ä¸":275,"an":276,"Ġo":277,"is":278,"it":279,"Ġp":280,"Ġw":281,"al":282,"Ġd":283,"ed":284,"Ġf":285,"ï¼":286,"ar":287,"ing":288,"nd":289,"ĠĠĠĠ":290,"Ġb":291,"Ġm":292,"ou":293,"Ġof":294,"Ġin":295,"ion":296,"ic":297,"ãĢ":298,"çļ":299,"âĢ":300,"çļĦ":301,"le":302,"ï¼Į":303,"Ġto":304,"Ġand":305,"as":306,"ro":307,"äº":308,"ent":309,"Ġh":310,"ct":311,"Ġe":312,"Ġn":313,"Ġl":314,"Ġth":315,"om":316,"el":317,"st":318,"et":319,"ãĢĤ":320,"il":321,"Ġre":322,"ä»":323,"åı":324,"æľ":325,"à¸":326,"ĠS":327,"im":328,"id":329,"ĠT":330,"ol":331,"ĠÐ":332,"ut":333,"ĠA":334,"åħ":335,"Ġg":336,"ra":337,"å¤":338,".ĊĊ":339,"iv":340,"ation":341,"ĠI":342,"Ġ(":343,"Ġis":344,"ĠC":345,"ur":346,"ot":347,"ch":348,"us":349,"ig":350,"è¿":351,"åĪ":352,"ce":353,"æĺ":354,"Ð¾":355,"am":356,"ä½":357,"å®":358,"ow":359,"ad":360,"ĠĠĠ":361,"Ġfor":362,"ul":363,"åĲ":364,"åľ":365,"Ġbe":366,"ly":367,"Ðµ":368,"Ġ|":369,"Ġst":370,"un":371,"##":372,"ĠM":373,"Ġv":374,"ä¹":375,"os":376,"Ġon":377,"ä¸Ģ":378,"Ð°":379,"ĠP":380,"em":381,"çĶ":382,"Ġy":383,"æĪ":384,"ĠĠĠĠĠĠĠĠ":385,"ay":386,"ers":387,"ir":388,"æĺ¯":389,"à¦":390,"Ø§":391,"Ġde":392,"Ð¸":393,"if":394,"um":395,"Ġthat":396,"20":397,"å°":398,"Ġcon":399,"ith":400,"od":401,"ter":402,"qu":403,"ç»":404,"åĬ":405,"ĠB":406,"ÑĤ":407,"è¯":408,"ag":409,"ãĢģ":410,"Ġan":411,"Ġas":412,"Ġpro":413,"her":414,"ãģ":415,"est":416,"æĸ":417,"Ġwith":418,"Ð½":419,"ĠD":420,"åŃ":421,"ä¸į":422,"Ġal":423,"åĽ":424,"ab":425,"..":426,"ve":427,"âĢľ":428,"äºĨ":429,"âĢĿ":430,"æĹ":431,"ver":432,"ĠR":433,"ate":434,"ist":435,"Ġit":436,"ĠH":437,"Ġ=":438,"ac":439,"Ġyou":440,"æĿ":441,"âĢĻ":442,"res":443,"Ñģ":444,"åľ¨":445,"ĠE":446,"ĠF":447,"ĠW":448,"ess":449,"æľī":450,"è®":451,"ÑĢ":452,"åį":453,"ect":454,"ĠThe":455,"pp":456,"ä¼":457,"and":458,"Ġwh":459,"ri":460,"æī":461,"ĠL":462,"th":463,"å¹":464,"Ġcom":465,"Ð¾Ð":466,"se":467,"Ġhe":468,"Ġor":469,"äºº":470,"ĠN":471,"Ġex":472,"Ġk":473,"å¾":474,"ill":475,"op":476,"Ġare":477,"ãĢĤĊĊ":478,"ant":479,"ak":480,"ity":481,"ort":482,"å·":483,"oc":484,"éĩ":485,"åĩ":486,"å¼":487,"Ġse":488,"ĠG":489,"ment":490,"ht":491,"ore":492,"èĢ":493,"Ġr":494,"ÙĦ":495,"rom":496,"åº":497,"Ġsu":498,"ain":499,"ie":500,"è¡":501,"æķ":502,"éĢ":503,"00":504,"ive":505,"åĨ":506,"å¸":507,"ĠØ":508,"Ġat":509,";Ċ":510,"19":511,"å¯":512,"Ġby":513,"ld":514,"Ġwas":515,"å¥":516,"ies":517,"ĥ½":518,"ud":519,"og":520,"art":521,"Ġne":522,"end":523,"æĢ":524,"ä¸Ń":525,"çĽ":526,"åĴ":527,"ĠĠĠĠĠĠĠ":528,"pt":529,"è§":530,"æĪĳ":531,"Ġle":532,"nt":533,"ure":534,"Ġha":535,"ial":536,"Ġch":537,"Ġfrom":538,"ĠĊ":539,"pl":540,"ĠO":541,"åĮ":542,"æł":543,"ĠÙ":544,"ä¸º":545,"å¿":546,"å¤§":547,"åĴĮ":548,"Ġu":549,"Ġus":550,"our":551,"ĠJ":552,"10":553,"Ġnot":554,"ang":555,"è¿Ļ":556,"æĬ":557,"ä¸ª":558,"pe":559,"ine":560,"è¦":561,"èµ":562,"æŃ":563,"ight":564,"Ġ-":565,"Ġthis":566,"per":567,"Ġsh":568,"çİ":569,"åİ":570,"iz":571,"ä¸Ĭ":572,"ç§":573,"ell":574,"Ð»":575,"Ġen":576,"ction":577,"all":578,"Ġwe":579,"ä»¥":580,"ber":581,"Ġ\"":582,"ust":583,"çľ":584,"æ°":585,"éĹ":586,"èĩ":587,"Ġcan":588,"è¦ģ":589,"å±":590,"are":591,"te":592,"ard":593,"éĿ":594,"ical":595,"å½":596,"Ġj":597,"æĶ":598,"æ³":599,"è´":600,"ia":601,"ost":602,".Ċ":603,"ub":604,"çī":605,"out":606,"ult":607,"à¹":608,"æ²":609,"--":610,"Ġhave":611,"Ġun":612,"çĶŁ":613,"ue":614,"age":615,"ich":616,"ff":617,"åĳ":618,"Ã©":619,"rou":620,"åĪ°":621,"æĥ":622,"Ø±":623,"ass":624,"æĹ¶":625,"ä»ĸ":626,"éĻ":627,"ĠU":628,"æŀ":629,"ap":630,"ould":631,"ip":632,"ok":633,"ans":634,"ik":635,"ÙĨ":636,"æĿ¥":637,"ated":638,"Ġab":639,"orm":640,"Ġim":641,"çĶ¨":642,"201":643,"æİ":644,"Ġqu":645,"Ġpl":646,"Ġwor":647,"ast":648,"Ñĥ":649,"int":650,"act":651,"éģ":652,"åı¯":653,"åĩº":654,"ind":655,"çº":656,"ĠK":657,"Ðº":658,"èĥ½":659,"ĠIn":660,"ome":661,"åŃ¦":662,"ĠâĢ":663,"du":664,"ãĤ":665,"**":666,"Ġcl":667,"Ġad":668,"Ġ×":669,"cl":670,"The":671,"å°±":672,"ä¼ļ":673,"ĠØ§":674,"Ġcomp":675,"Ġres":676,"ence":677,"Ġme":678,"able":679,"Ġ{":680,"ide":681,")Ċ":682,"ä¿":683,"ous":684,"ions":685,"ib":686,"ire":687,"Ġint":688,"æµ":689,"hen":690,"ame":691,"cc":692,"å¯¹":693,"ä½ľ":694,"å¹´":695,"Ġdo":696,"ÙĬ":697,"port":698,"ary":699,"ong":700,"æĦ":701,"ther":702,"æ¯":703,"é¢":704,"ge":705,"ations":706,"ear":707,"çŃ":708,"è¾":709,"Ġall":710,"å¦":711,"Ġcont":712,"ä¸ĭ":713,"ack":714,"à§":715,"Ġper":716,"ere":717,"åľ°":718,"è¡Į":719,"çĲ":720,"ĠV":721,"ice":722,"ime":723,"av":724,"fer":725,"ase":726,"ru":727,"ä¹Ł":728,"con":729,"ance":730,"æĮ":731,"åī":732,"Ð²":733,"'s":734,"ä»¬":735,"12":736,"åĽ½":737,"Ñı":738,"à¤":739,"åıĳ":740,"æĭ":741,"Ð¼":742,"æĪĲ":743,"ry":744,"Ùħ":745,"ä¾":746,"ÙĪ":747,"èĩª":748,"ents":749,"åĵ":750,"åĪĨ":751,"åĢ":752,"ign":753,"),":754,"ep":755,"ach":756,"ov":757,"lic":758,"Ġwill":759,"åŃĲ":760,"æĸ¹":761,"....":762,"ord":763,"Ġ[":764,"Ñĭ":765,"äºİ":766,"ens":767,"ï¼ļ":768,"Ġhas":769,"ç«":770,"ĠTh":771,"gh":772,"è½":773,"ĠSt":774,"ĠĠĠĠĠĠĠĠĠĠĠ":775,"åĲİ":776,"éĺ":777,"Ġwhich":778,"11":779,"çĤ":780,"ress":781,"Ġyour":782,"Øª":783,"Ġpr":784,"Ġar":785,"Ġtheir":786,"Ġdis":787,"ç¬":788,"çĿ":789,"Ġbut":790,"one":791,"200":792,"Ġhis":793,"form":794,"###":795,"è¿ĩ":796,").":797,"Ġout":798,"å¤ļ":799,"ä¹ĭ":800,"ÛĮ":801,"Ġapp":802,"ne":803,"ä½ł":804,"ace":805,"ile":806,"Ġgo":807,"ors":808,"ç®":809,"ition":810,"ĠâĢľ":811,"å·¥":812,"ks":813,"ual":814,"Ùĩ":815,"Ø¯":816,"å®¶":817,"Ġ<":818,"çĲĨ":819,"éĤ":820,"so":821,"åŁ":822,"Ġte":823,"æ³ķ":824,"ĠØ§ÙĦ":825,"Ġsa":826,"èĤ":827,"Ð´":828,"xt":829,"åĬ¨":830,"Ġà¦":831,"Ġso":832,");Ċ":833,"Ġone":834,"//":835,"Ġman":836,"Ġ}":837,"ä¸ļ":838,"ÑģÑĤ":839,"æ¬":840,"Ġtr":841,"å®ļ":842,"æ±":843,"å°ı":844,"ite":845,"ĠÐ¿":846,"Ġla":847,"__":848,"urn":849,"Ġmore":850,"Ġthey":851,"Ġpre":852,"å¥½":853,"ook":854,"Ġif":855,"15":856,"éĿ¢":857,"vel":858,"å¾Ĺ":859,"æ´":860,"çŁ":861,"ll":862,"ose":863,"18":864,"çĦ":865,"ph":866,"èĢĮ":867,")ĊĊ":868,"ory":869,"ount":870,"åģ":871,"è¯´":872,"é¡":873,"Ġ\\":874,"Ġ{Ċ":875,"ãĢĤĊ":876,"ake":877,"Ġsp":878,"ail":879,"å¿ĥ":880,"Ġwere":881,"éĥ½":882,"å¦Ĥ":883,"ç¨":884,"æ¸":885,"ÑĮ":886,"è·":887,"çİ°":888,"é«":889,"Ġup":890,"ely":891,"Ġpart":892,"Ġnum":893,"ĠY":894,"ci":895,"éģĵ":896,"ces":897,"æīĢ":898,"ĠCh":899,"è¿Ľ":900,"ath":901,"çĿĢ":902,"å®ŀ":903,"Ġdes":904,"Ġ'":905,"ree":906,"13":907,"erv":908,"ater":909,"åĬĽ":910,"éĥ":911,"ãĥ":912,"åĲĮ":913,"éķ":914,"Ġother":915,"Ġinter":916,"æľ¬":917,"ata":918,"éĽ":919,"Ġro":920,"Ñĩ":921,"ys":922,"æĽ":923,"ob":924,"ç»ı":925,"16":926,"Ġev":927,"de":928,"14":929,"æĻ":930,"ÐµÐ½":931,"Ġund":932,"ä½ĵ":933,"yst":934,"ä¸»":935,"Ġhad":936,"é«ĺ":937,"çľĭ":938,"202":939,"Ġ+":940,"ç½":941,"å¼Ģ":942,"Ġabout":943,"Ġ_":944,"æı":945,"æĢ§":946,"ä¸İ":947,"âĢĿĊĊ":948,"now":949,"åħ¶":950,"è°":951,"ound":952,"ç¤":953,"å¤©":954,"çŃī":955,"çĦ¶":956,"Ġ$":957,"ew":958,"äºĭ":959,"Ġag":960,"Ġz":961,"ple":962,"ĠRe":963,"ject":964,"âĢĶ":965,"ram":966,"oll":967,"com":968,"Ġher":969,"åĮĸ":970,"we":971,"ric":972,"Ã¡":973,"åīį":974,"ild":975,"ian":976,"cre":977,"æĸĩ":978,":ĊĊ":979,"Ġem":980,"ring":981,"Ġ*":982,"ĠIt":983,"åħ¨":984,"çĤ¹":985,"ific":986,"åĲĪ":987,"åħ¬":988,",Ċ":989,"Ġalso":990,"éļ":991,"ng":992,"éĤ£":993,"ish":994,"Ġwho":995,"æķ°":996,"ert":997,"ĉĉ":998,"ck":999,"ĠÐ²":1000,"éĥ¨":1001,"17":1002,"erm":1003,"ĠĊĊ":1004,"olog":1005,"×Ļ":1006,"aus":1007,"Ġi":1008,"Ġits":1009,"Ġì":1010,"ä¹Ī":1011,"reat":1012,"ark":1013,"Ġtime":1014,"wo":1015,"ays":1016,"Ġnew":1017,">Ċ":1018,"è¿ĺ":1019,"ÑĢÐ°":1020,"ft":1021,"Ġtra":1022,"å§":1023,"Ġcomm":1024,"ĠÑģ":1025,"Ġmy":1026,"èĢħ":1027,"rit":1028,"åº¦":1029,"Ġam":1030,"Ġthere":1031,"ĠĠĠĠĠĠĠĠĠĠĠĠĠĠĠĠ":1032,"ÃŃ":1033,"che":1034,"ari":1035,"here":1036,"åĿ":1037,"æį":1038,"ont":1039,"ike":1040,"å»":1041,".,":1042,"æĸ°":1043,"lect":1044,"ings":1045,"çĻ":1046,"Ġbeen":1047,";ĊĊ":1048,"æĥħ":1049,"ystem":1050,"Ġ&":1051,"éĹ´":1052,"ç¾":1053,"ons":1054,"Ġinto":1055,"ç¬¬":1056,"ä¸Ģä¸ª":1057,"×ķ":1058,"30":1059,"Ġover":1060,"irst":1061,"åħ³":1062,"åİ»":1063,"èī":1064,"pec":1065,"Ġthem":1066,"ĠÃ":1067,"elf":1068,"25":1069,"iew":1070,"é£":1071,"row":1072,"éĩĮ":1073,"ates":1074,"Ð¾Ð²":1075,"äº§":1076,"è¶":1077,"èµ·":1078,"Ø³":1079,"æĹ¥":1080,"éĩį":1081,"Ġwhen":1082,"èģ":1083,"ç©":1084,"æŁ":1085,"Ġacc":1086,"ç§į":1087,"à¸²":1088,"eth":1089,"Ġdif":1090,"Ð·":1091,"åºĶ":1092,"Ġsome":1093,"Ġret":1094,"ss":1095,"çķ":1096,"rib":1097,"Ġpe":1098,"Ġthan":1099,"æĦı":1100,"ally":1101,"èĬ":1102,"æľĢ":1103,"clud":1104,"Ġstud":1105,"Ġbet":1106,"åĬł":1107,"æ²¡":1108,"Ã³":1109,"ond":1110,"und":1111,"ublic":1112,"ç³":1113,"Ġwould":1114,"cess":1115,"Ġwork":1116,"Ġany":1117,"ç´":1118,"Ġno":1119,"Ġcons":1120,"éĩı":1121,"éķ¿":1122,"ĠÙħ":1123,"In":1124,"Ġob":1125,"Ġind":1126,"âĢĵ":1127,"Ġass":1128,"old":1129,"ĠÐ¸":1130,"ä¸ī":1131,"Ġour":1132,"get":1133,"æĥ³":1134,"Ġrel":1135,"à®":1136,":Ċ":1137,"ood":1138,"åĽł":1139,"å½ĵ":1140,"Ġyear":1141,"Ġmay":1142,"ink":1143,"éĢļ":1144,"Ø¨":1145,"è¡¨":1146,"æľº":1147,"ï¼Ł":1148,"ps":1149,"çĽ¸":1150,"iss":1151,"Ñħ":1152,"Ġknow":1153,"les":1154,"----":1155,"ement":1156,"red":1157,"åĪ¶":1158,"Ġpo":1159,"çĪ":1160,"Ġval":1161,"ĠThis":1162,"Ġra":1163,"own":1164,"ah":1165,"ĠHe":1166,"Ġnumber":1167,"å¾Ī":1168,"äºĽ":1169,"æĺİ":1170,"æģ":1171,"æ°´":1172,"24":1173,"à¸²à¸":1174,"ï¼ģ":1175,"åĨħ":1176,"å¢":1177,"Ġget":1178,"Ġform":1179,"ç¥":1180,"ener":1181,"ular":1182,"Ø¹":1183,"ode":1184,"hat":1185,"ĠÐ½":1186,"ced":1187,"ning":1188,"ty":1189,"ä½į":1190,"åħ¥":1191,"Ġhow":1192,"ick":1193,"igh":1194,"å¸Ĥ":1195,"çī©":1196,"Ġpos":1197,"æ¶":1198,"ied":1199,"io":1200,"Ġbl":1201,"Ġunder":1202,"ĠÂ":1203,"Ġ.":1204,"Ġwhat":1205,"Ġexp":1206,"ä½Ĩ":1207,"Ġfl":1208,"ities":1209,"éľ":1210,"èĭ":1211,"ery":1212,"æīĭ":1213,"Ġact":1214,"åķ":1215,"èº":1216,"ating":1217,"Ġco":1218,"ics":1219,"çł":1220,"æıĲ":1221,"èĪ":1222,"è¢":1223,"à¦¾":1224,"Ġshe":1225,"ise":1226,"ï¼ī":1227,"æķĻ":1228,"Ġel":1229,"Ð¿":1230,"Ġet":1231,"ĠÐ¾":1232,"Ġfe":1233,"Ġtwo":1234,"ility":1235,"æŀľ":1236,"ï¼Ī":1237,"ef":1238,"cy":1239,"?ĊĊ":1240,"Ġsub":1241,"fter":1242,"Ġprov":1243,"å¤ĸ":1244,"å»º":1245,"ative":1246,"ĠÎ":1247,"âĢ¦":1248,"×ķ×":1249,"Ġreg":1250,"ç¨ĭ":1251,"å£":1252,"pr":1253,"çŁ¥":1254,"ä»İ":1255,"ĠâĢĵ":1256,"Ġfirst":1257,"Ġadd":1258,"ract":1259,"oy":1260,"åıĬ":1261,"Ø©":1262,"åı¯ä»¥":1263,"é¢ĺ":1264,"æĹł":1265,"æľĪ":1266,"Ġmod":1267,"å¥¹":1268,"ug":1269,"Ġrec":1270,"Ġbec":1271,"ange":1272,"ational":1273,"æŃ¤":1274,"å°Ĩ":1275,"Ġinv":1276,"Ġlike":1277,"Ġcol":1278,"çĶµ":1279,"ĠCom":1280,"=\"":1281,"ble":1282,"rough":1283,"èĦ":1284,"ade":1285,"ient":1286,"æŃ£":1287,"å·±":1288,"ex":1289,"als":1290,"å±ķ":1291,"ç³»":1292,"æ¬¡":1293,"ĠUn":1294,"æł·":1295,"èĲ":1296,"pro":1297,"Ġdi":1298,"åıª":1299,"æĪĳä»¬":1300,"æľŁ":1301,"22":1302,"its":1303,"äºĮ":1304,"Ġthese":1305,"Ġeff":1306,"×Ļ×":1307,"ause":1308,"Ġneed":1309,"ments":1310,"eng":1311,"Ġclass":1312,"Ġ:":1313,"tern":1314,"çĽ®":1315,"æĪĸ":1316,"ĠPro":1317,"æ¯Ķ":1318,"Ġph":1319,"000":1320,"ç®¡":1321,"èĥ":1322,"æ·":1323,"èº«":1324,"ax":1325,"è®¾":1326,"Ġâ":1327,"50":1328,"éħ":1329,"èĩªå·±":1330,"Ġtrans":1331,"ution":1332,"éĶ":1333,"ä½¿":1334,"è§£":1335,"mer":1336,"Ġsc":1337,"ãĢĭ":1338,"ç±":1339,"ç¡":1340,"Ġset":1341,"ãĢĬ":1342,"æ¡":1343,"ower":1344,"Ġsuch":1345,"Ġdiffer":1346,"Ġuse":1347,"æ°ĳ":1348,"23":1349,"ĠWe":1350,"Ġdef":1351,"å¹³":1352,"Ġonly":1353,"Ġreturn":1354,"ock":1355,"å¼ı":1356,"199":1357,"çģ":1358,"Ġsaid":1359,"æ´»":1360,"çĹ":1361,"å¸¸":1362,"ople":1363,"_{":1364,"ä¿Ŀ":1365,"ec":1366,"à¥":1367,"åĵģ":1368,"åĮº":1369,"ove":1370,"ĠÙĪ":1371,"ĠØ¨":1372,"round":1373,"ier":1374,"Ġoff":1375,"åĸ":1376,"cept":1377,"à¸Ļ":1378,"ç¼":1379,"å¹¶":1380,"ased":1381,"ren":1382,"Ġpar":1383,"Ð½Ð¸":1384,"çĸ":1385,"è®¡":1386,"ize":1387,"itt":1388,"Ġinclud":1389,"èµĦ":1390,"å®ī":1391,"Ġprodu":1392,"()":1393,"oth":1394,"æĽ´":1395,"Ġac":1396,"ĠÐº":1397,"ÑĢÐµ":1398,"ures":1399,"St":1400,"ç²":1401,"çĥ":1402,"Ð±":1403,"Ġfun":1404,"Ġatt":1405,"very":1406,"Ġthrough":1407,"put":1408,"åĬ¡":1409,"ç»ĵ":1410,"eg":1411,"ä¸¤":1412,"éĹ®":1413,"æİ¥":1414,"è¢«":1415,"velop":1416,"ĠAn":1417,"ä¿¡":1418,"Ã¤":1419,"Ġest":1420,"ween":1421,"ull":1422,"ix":1423,"ten":1424,"up":1425,"........":1426,"åĲĳ":1427,"ä»£":1428,"ible":1429,"Ġpres":1430,"ey":1431,"Ġsur":1432,"é»":1433,"iel":1434,"ict":1435,"åĪ©":1436,"æĦŁ":1437,"Ġjust":1438,"éĴ":1439,"Ġhim":1440,"==":1441,"à¦°":1442,"Ð¹":1443,"uch":1444,"ĠĠĠĠĠ":1445,"ough":1446,"ues":1447,"ork":1448,"28":1449,"26":1450,"Ġresp":1451,"Ġdet":1452,"çī¹":1453,"åĽŀ":1454,"ident":1455,"Ġrem":1456,"100":1457,"ool":1458,"ivers":1459,"åģļ":1460,"wn":1461,"hed":1462,"åľº":1463,"}\\":1464,"ek":1465,"èį":1466,"Ġpol":1467,"åĳĺ":1468,"Ġbetween":1469,"Ġent":1470,"åįģ":1471,"å·¥ä½ľ":1472,"Ġmost":1473,"Ġpers":1474,"åŁº":1475,"è£":1476,"27":1477,"ism":1478,"Ġwhere":1479,"ym":1480,"å·²":1481,"Ġpeople":1482,"sp":1483,"40":1484,"Ġspec":1485,"fore":1486,"Ġsystem":1487,"ìĿ":1488,"ĠÐ´":1489,"Ð³":1490,"ä»¶":1491,"Ġ/":1492,"ife":1493,"Ġcould":1494,"to":1495,"ÐµÑĤ":1496,"uc":1497,"Ġsupp":1498,"Ġdata":1499,"èĢģ":1500,"arch":1501,"uring":1502,"åĲį":1503,"ollow":1504,"Ġused":1505,"Ġhel":1506,"ĠĠĠĠĠĠĠĠĠĠĠĠĠĠĠ":1507,"gan":1508,"ins":1509,"éĩĳ":1510,"cond":1511,"Ġ\\(":1512,"æĶ¿":1513,"der":1514,"éª":1515,"çĶ±":1516,"ç¦":1517,"ful":1518,"à§ĩ":1519,"Ġsign":1520,"az":1521,"Ġend":1522,"Ð¾Ð»":1523,"é¦":1524,"Ġë":1525,"Ġque":1526,"Ġx":1527,"Ġpublic":1528,"Ġresult":1529,"æ²¡æľī":1530,"Ġshould":1531,"åİŁ":1532,"ç¾İ":1533,"inal":1534,"ection":1535,"####":1536,"Ġ,":1537,"erg":1538,"Ġthen":1539,"Ùģ":1540,"ÑĪ":1541,"åıĺ":1542,"Ġdel":1543,"ĠAr":1544,"å½¢":1545,"Ġinst":1546,"æ°Ķ":1547,"èĻ":1548,"à§į":1549,"Ġmin":1550,"æº":1551,"tt":1552,"æ»":1553,"Ġ}Ċ":1554,"æĬĬ":1555,"ä»Ģ":1556,"29":1557,"ÑĢÐ¸":1558,"Ġback":1559,"ious":1560,"Ġafter":1561,"alth":1562,"ÙĤ":1563,"å¤´":1564,"åĲĦ":1565,"Ġsim":1566,"Ġsm":1567,"à¹Ī":1568,"ruct":1569,"è¨":1570,"Ð¾Ð´":1571,"ages":1572,"åı£":1573,"Ġty":1574,"iqu":1575,"ãģ®":1576,"Ġfact":1577,"Ġrequ":1578,"ited":1579,"formation":1580,"ÑĨ":1581,"ĠAl":1582,"ĠSe":1583,"çľŁ":1584,"Ġwell":1585,"ily":1586,"aj":1587,"æ¨":1588,"pos":1589,"ale":1590,"cent":1591,"ann":1592,"ices":1593,"ien":1594,"chn":1595,"æ®":1596,"çĽ´":1597,"à¸£":1598,"ctions":1599,"Ġconst":1600,"vent":1601,"21":1602,"à¸Ń":1603,"Ġexper":1604,"Ġfollow":1605,"Ġlong":1606,"åŀ":1607,"ç»Ħ":1608,"æĤ":1609,"led":1610,"Ø§Ø":1611,"èī²":1612,"...":1613,"ural":1614,"ven":1615,"æį®":1616,"ung":1617,"ature":1618,"ran":1619,"åĽ¾":1620,"ç»Ļ":1621,"tic":1622,"Ġmany":1623,"Ġvari":1624,"ward":1625,"æĮĩ":1626,"Ġdevelop":1627,"Â²":1628,"è·¯":1629,"Ġequ":1630,"any":1631,"Ġdist":1632,"Ġcur":1633,"Ġcor":1634,"Ġmake":1635,"Th":1636,"ä»»":1637,"ider":1638,"Ġche":1639,"Ġed":1640,"ç¤¾":1641,"Ġdec":1642,"Ġpat":1643,"åįķ":1644,"æ±Ĥ":1645,"ĠQ":1646,"ER":1647,"ts":1648,"aw":1649,"Ġes":1650,"å¤Ħ":1651,"Ð½Ñĭ":1652,"ĠZ":1653,"å°ĳ":1654,"é©":1655,"ines":1656,"Ð½Ð°":1657,"oci":1658,"è¯Ŀ":1659,"Ġeach":1660,"ç«ĭ":1661,"Ġimport":1662,"Ġsol":1663,"'t":1664,"uth":1665,"Ġcar":1666,"Ð½Ð¾":1667,"fl":1668,"Ġhigh":1669,"å¼º":1670,"33":1671,"other":1672,"åħĥ":1673,"hip":1674,"ĠDe":1675,"ern":1676,"ology":1677,"Ñİ":1678,"Ġchar":1679,"åıĪ":1680,"éĵ":1681,"à¸ģ":1682,"60":1683,"æµģ":1684,"Ġmed":1685,"____":1686,"Ġdid":1687,"Ġdifferent":1688,"Ġbu":1689,"aking":1690,"Ġstr":1691,"co":1692,"Ġext":1693,"Ġhelp":1694,"imes":1695,"Ġgener":1696,"ets":1697,"(\"":1698,"Ġprocess":1699,"è®©":1700,"æłĩ":1701,"æīĵ":1702,"è´¨":1703,"Ð¾Ð¼":1704,"Ùĥ":1705,"Ġmem":1706,"ÑĤÐµ":1707,"Ġexam":1708,"ants":1709,"ä»Ģä¹Ī":1710,"äº¤":1711,"Ø§ÙĦ":1712,"els":1713,"éľĢ":1714,"-s":1715,"ting":1716,"è¥":1717,"</":1718,"ness":1719,"Ġop":1720,"ever":1721,"Ġway":1722,"à¹Ģ":1723,"è§ģ":1724,"åĪ«":1725,"æĶ¶":1726,"Ġbel":1727,"çº¿":1728,"æĶ¾":1729,"ĠHow":1730,"Ð»Ð¸":1731,"ield":1732,"Ġread":1733,"Ġmon":1734,"åħĪ":1735,"day":1736,"Ġyears":1737,"å°±æĺ¯":1738,"åı¸":1739,"ç¤º":1740,"ator":1741,"è§Ħ":1742,"sw":1743,"ved":1744,"ç»Ł":1745,"åıĹ":1746,"Ġlook":1747,"Ġright":1748,"Ġeven":1749,"Ġevery":1750,"au":1751,"Ġpoint":1752,"Î±":1753,"Ġbecause":1754,"ç¥ŀ":1755,"à¦¾à¦":1756,"æľ¯":1757,"Ġgra":1758,"åĨį":1759,"\",":1760,"-b":1761,"Ġsee":1762,"ethod":1763,"view":1764,"ĠEx":1765,"ized":1766,"å¸Ī":1767,"éĹ¨":1768,"ives":1769,"ÐµÐ½Ð¸":1770,"ĠÐ¼":1771,"è¥¿":1772,"ript":1773,"å®Į":1774,"let":1775,"ç§ĳ":1776,"è½¦":1777,"}Ċ":1778,"air":1779,"',":1780,"Ġmat":1781,"ute":1782,"Ġfind":1783,"å¯¼":1784,"yn":1785,"åĽĽ":1786,"æīį":1787,"Ġeffect":1788,"par":1789,"Ð¾Ð³":1790,"ĠCon":1791,"è±":1792,"ä¹¦":1793,"à¦¿":1794,"read":1795,"ional":1796,"oid":1797,"æ£":1798,"Ø§ÙĨ":1799,"rent":1800,"Ġshow":1801,"Ġserv":1802,"æľį":1803,"Ġav":1804,"the":1805,"ÏĦ":1806,"ms":1807,"ined":1808,"198":1809,"35":1810,"Ġmet":1811,"Ġusing":1812,"Ġincre":1813,"æĮģ":1814,"à§įà¦":1815,"gram":1816,"å¥³":1817,"à¹ī":1818,"Ġser":1819,"Ġagain":1820,"é£İ":1821,"sc":1822,"Ġ#":1823,"è¿Ľè¡Į":1824,"åĦ":1825,"ner":1826,"app":1827,"éĢī":1828,"vers":1829,"æĬĢ":1830,"land":1831,"èĮ":1832,"æ¯ı":1833,"ç®Ĺ":1834,"ave":1835,"line":1836,"åħī":1837,"Ġstat":1838,"]ĊĊ":1839,"Ġmain":1840,"ivid":1841,"rol":1842,"Ġer":1843,"ash":1844,"Â·":1845,"é¡¹":1846,"ï¼Ľ":1847,"èĢĥ":1848,"Ġloc":1849,"å±±":1850,"æł¼":1851,"Ġpartic":1852,"ä¼ł":1853,"cul":1854,"Ġvery":1855,"Ġperson":1856,"ĠÐ½Ð°":1857,"Ġappro":1858,"uss":1859,"æĢ»":1860,"ĠØ§ÙĦØ":1861,"åĭ":1862,"è°ĥ":1863,"eb":1864,"ç±»":1865,"Î¿":1866,"ron":1867,"èĩ³":1868,"åĻ":1869,"æĢĿ":1870,"oun":1871,"36":1872,"ential":1873,"ray":1874,"ically":1875,"ox":1876,"å®ĥ":1877,"ization":1878,"val":1879,"æµ·":1880,"Ġsk":1881,"çĻ½":1882,"45":1883,"ĠFor":1884,"Ġcent":1885,"Ð¾ÑĢ":1886,"åħ·":1887,"Ġchild":1888,"Ú©":1889,"ĠAnd":1890,"Ġsl":1891,"80":1892,"Ġhand":1893,"Ġgood":1894,"Ġcount":1895,"arm":1896,"import":1897,"arg":1898,"Ġgu":1899,"Ġ)":1900,"Ġwhile":1901,"Ġbeing":1902,"çĭ":1903,"Ġstart":1904,"è¿Ĳ":1905,"è®¤":1906,"chool":1907,"ĠAd":1908,"ä»ĸä»¬":1909,"Ġdown":1910,"ital":1911,"irect":1912,"æķ´":1913,"Ġcre":1914,"Ġ//":1915,"åıĸ":1916,"å½±":1917,"Ġdoes":1918,"å®¹":1919,"åıį":1920,"ç¡®":1921,"IN":1922,"æĿ¡":1923,"ĠAs":1924,"ety":1925,"Ġcall":1926,"æ¸ħ":1927,"Ġnow":1928,"ather":1929,"min":1930,"åŀĭ":1931,"ÑģÐº":1932,"ars":1933,"bers":1934,"roup":1935,"Ġbefore":1936,"arn":1937,"çĬ":1938,"è®º":1939,"Ġgl":1940,"Ð¶":1941,"37":1942,"ä¹ī":1943,"çı":1944,"æ²»":1945,"Ġplay":1946,"ared":1947,"Ġthose":1948,"Ġmuch":1949,"Ġtest":1950,"Ġinformation":1951,"Ġboth":1952,"åĥ":1953,"æķĪ":1954,"Ġ>":1955,"Ġown":1956,"Ġsecond":1957,"åıĳå±ķ":1958,"è¿Ļä¸ª":1959,"Ġmade":1960,"éĻ¢":1961,"ross":1962,"à¸±":1963,"ON":1964,"çłĶ":1965,"èİ":1966,"è®°":1967,"ä¸ľ":1968,"ision":1969,"Ġwant":1970,"ÑĤÐ°":1971,"çħ":1972,"Ġexpl":1973,"ä½ķ":1974,"Ġsame":1975,"hes":1976,"99":1977,"å²":1978,"à¸ĩ":1979,",âĢĿ":1980,"ank":1981,"ä»·":1982,"éŁ":1983,"ä¸ĸ":1984,"ral":1985,"ases":1986,"æĬ¥":1987,"Ġlife":1988,"oad":1989,"Ġvalue":1990,"èĳ":1991,"åĶ":1992,"Ġins":1993,"èµ°":1994,"æŃ¥":1995,"çľ¼":1996,"ince":1997,"Ġrep":1998,"ĠWhat":1999,"è¯¥":2000,"iven":2001,"Ķ×":2002,"ody":2003,"Ġword":2004,"stand":2005,"Ġfound":2006,"ected":2007,").ĊĊ":2008,"ĠSh":2009,"ĠNew":2010,"ton":2011,"34":2012,"Ġfam":2013,"anc":2014,"iness":2015,"ember":2016,"áĥ":2017,"íķ":2018,"Ġfunction":2019,"oh":2020,"^{":2021,"åĢ¼":2022,"gg":2023,"åŃĹ":2024,"à¯":2025,"ĠØª":2026,"éĿŀ":2027,"ĠCl":2028,"çº§":2029,"amp":2030,"ired":2031,"åĪĻ":2032,"ĠLe":2033,"Ġconf":2034,"æ¼":2035,"èĤ²":2036,"Ġcommun":2037,"Ġthree":2038,"ä¼ģ":2039,"åĩł":2040,"Ġreal":2041,"ĠYou":2042,"åĦ¿":2043,"èħ":2044,"èĬĤ":2045,"ght":2046,"ij":2047,"ES":2048,"ateg":2049,"å¸¦":2050,"ç½ĳ":2051,"ĠIf":2052,"æĶ¹":2053,"{Ċ":2054,"éĢł":2055,"éĹ®é¢ĺ":2056,"Ġquest":2057,"Ġworld":2058,"Ġtem":2059,"Ġanal":2060,"Ã¶":2061,"æ¢":2062,"AT":2063,"èª":2064,"ole":2065,"åķĨ":2066,"text":2067,"Ġfin":2068,"ä¸ŃåĽ½":2069,"Ġlead":2070,"ĠInd":2071,"Ġele":2072,"åĻ¨":2073,"Ġdep":2074,"åħ±":2075,"å¢ŀ":2076,"way":2077,"ä¹ł":2078,"Ð»ÑĮ":2079,"38":2080,"å¤ª":2081,"è½¬":2082,"me":2083,"ç©º":2084,"Ġsom":2085,"åħ¬åı¸":2086,"åŁİ":2087,"à¸¡":2088,"éĽĨ":2089,"Ġdon":2090,"ina":2091,"Ġder":2092,"urs":2093,"æģ¯":2094,"Ð¾Ð¹":2095,"ĠâĢĺ":2096,"æŁ¥":2097,"ĠÑ":2098,"ä¸įæĺ¯":2099,"ŀ×":2100,"ret":2101,"æħ":2102,"æł¹":2103,"uk":2104,"->":2105,"Î¹":2106,"It":2107,"çĹħ":2108,"è¯ģ":2109,"ames":2110,"32":2111,"Ġterm":2112,"--------":2113,"Ġtechn":2114,"ä¸ĩ":2115,"39":2116,"alk":2117,"Ġthink":2118,"ually":2119,"æ¥":2120,"Ġmark":2121,"70":2122,"Ġsupport":2123,"Ġke":2124,"ç²¾":2125,"åĩĨ":2126,"ĠRes":2127,"ving":2128,"ior":2129,"æĹ¶éĹ´":2130,"Ġdem":2131,"Ġcour":2132,"ists":2133,"Ã¼":2134,"ãĢĤâĢĿ":2135,"ĠâĢĶ":2136,"ĠX":2137,"arly":2138,"æ³¨":2139,"åĢĻ":2140,"åŃĺ":2141,"Ġmethod":2142,"ĠĠĊ":2143,"è¯Ĩ":2144,"Ġprovid":2145,"Ġposs":2146,"Ð²Ð°":2147,".\"":2148,"æºĲ":2149,"ences":2150,"Ġimp":2151,"vern":2152,"äºĶ":2153,"of":2154,"Ġhere":2155,"çª":2156,"ä»Ĭ":2157,"çİĭ":2158,"Ġgr":2159,"man":2160,"self":2161,"Âł":2162,"å¿«":2163,"ason":2164,"Ø´":2165,"ãĢĤâĢĿĊĊ":2166,"Re":2167,"æĪĺ":2168,"åĮħ":2169,"48":2170,"Ġà¤":2171,"åįĹ":2172,"Ġday":2173,"Ġhum":2174,"raph":2175,"ration":2176,"è¾ĥ":2177,"ability":2178,"à¸µ":2179,"å¿ħ":2180,"31":2181,"acter":2182,"ĠØ¯":2183,"Ġduring":2184,"Ġproble":2185,"åį³":2186,"ense":2187,"Ġtake":2188,"æł¡":2189,"âĪ":2190,"æŀĦ":2191,"Ġlevel":2192,".com":2193,"ĠÙģ":2194,"Ġhealth":2195,"ify":2196,"ç½®":2197,"li":2198,"Ð»Ð°":2199,"æ·±":2200,"\\)":2201,"è§Ĥ":2202,"ocial":2203,"å¦Ĥæŀľ":2204,"iron":2205,"âĢĶâĢĶ":2206,"Ġactiv":2207,"åĪĽ":2208,"ä¾¿":2209,"ÅĤ":2210,"meric":2211,"ØŃ":2212,"æİ¨":2213,"èĬ±":2214,"ished":2215,"ä¸ĵ":2216,"æĳ":2217,"å£°":2218,"à¹Ģà¸":2219,"è¾¹":2220,"Ø§Ø±":2221,"Ġorgan":2222,"Î½":2223,"åĨ³":2224,"90":2225,"Ø²":2226,"å¤ĩ":2227,"è¾¾":2228,"ä¼ģä¸ļ":2229,"à²":2230,"Ġmust":2231,"à°":2232,"è¯Ń":2233,"çķĮ":2234,"æĸĻ":2235,"Ġpresent":2236,"Ġwater":2237,"ai":2238,"Ġimportant":2239,"44":2240,"æĿĥ":2241,"ĠTe":2242,"å¤į":2243,"Ġlos":2244,"oot":2245,"ãģĦ":2246,"ience":2247,"ee":2248,"å§ĭ":2249,"åł":2250,"for":2251,"ĠÑĥ":2252,"Ġcell":2253,"197":2254,"Ġconsider":2255,"æĶ¯":2256,"ç©¶":2257,"ma":2258,"Ġcontin":2259,"tain":2260,"Ġmult":2261,"Ø¬":2262,"Ġdr":2263,"çļĦäºº":2264,".[":2265,"ç®¡çĲĨ":2266,"è¿ĳ":2267,"ĠSp":2268,"åĬŁ":2269,"ÐµÑĢ":2270,"AR":2271,"://":2272,"æ¡Ī":2273,"Ġfil":2274,"ĠBut":2275,"cript":2276,"Ùī":2277,"dition":2278,"Ġoper":2279,"Ġself":2280,"Ġpass":2281,"ĠWh":2282,"/s":2283,"ï¼ļâĢľ":2284,"×¨":2285,"Ġstudy":2286,"lex":2287,"itive":2288,"ĠPh":2289,"äºĨä¸Ģ":2290,"imal":2291,"('":2292,"Ġcal":2293,"åıĤ":2294,"çİĩ":2295,"]Ċ":2296,"Ġê":2297,"ãģ«":2298,"åĥı":2299,"èģĶ":2300,"iversity":2301,"åĳ¨":2302,"Ġbus":2303,"be":2304,"Ġprogram":2305,"Ġprof":2306,".âĢĿ":2307,"ÑĤÐ¸":2308,"åħļ":2309,"Ġlist":2310,"æ¨¡":2311,"Ġcare":2312,"att":2313,"ote":2314,"55":2315,"uro":2316,"ze":2317,"itions":2318,"ource":2319,"Ã³n":2320,"ÑĤÑĮ":2321,"ouse":2322,"ĠÐ±":2323,"ĠPl":2324,"Ġperform":2325,"åĳ½":2326,"ium":2327,"×ľ":2328,"Ġname":2329,"è§ī":2330,"iving":2331,"Ġvis":2332,"Ġpower":2333,"Ġgrow":2334,"ccess":2335,"Ġlast":2336,"This":2337,"éļ¾":2338,"Ġbook":2339,"ients":2340,"Ã§":2341,"Ġcap":2342,"lish":2343,"è¨Ģ":2344,"duct":2345,"ves":2346,"swer":2347,"æ¶Ī":2348,".s":2349,"ality":2350,"Ġwrit":2351,"Ġcase":2352,"å¼ł":2353,"oint":2354,"ĠIs":2355,"ww":2356,"akes":2357,"ene":2358,"ĠThey":2359,"å¨":2360,"åĨµ":2361,"Ġref":2362,"é¢Ĩ":2363,"-t":2364,"}ĊĊ":2365,"::":2366,"ining":2367,"Ġopt":2368,"ä¸Ķ":2369,"å¹²":2370,"æļ":2371,"46":2372,"Ġmov":2373,"ĠEng":2374,"Ġbre":2375,"Ġ}ĊĊ":2376,"ç¤¾ä¼ļ":2377,"çİ¯":2378,"rid":2379,"iver":2380,"ument":2381,"bs":2382,"Ġpot":2383,"à¸§":2384,"eter":2385,"éľĢè¦ģ":2386,"å¼ķ":2387,"éĸ":2388,"EN":2389,"Ġ@":2390,"ively":2391,"ĠÐ·":2392,"ç´ł":2393,"yl":2394,"Ġsmall":2395,".S":2396,"ĠâĢ¢":2397,"åĮĹ":2398,"ified":2399,"Ġcle":2400,"è¯ķ":2401,"75":2402,"ploy":2403,"vert":2404,"Ġgreat":2405,"Ġdisc":2406,"atic":2407,"Ġnon":2408,"à¦¿à¦":2409,"-f":2410,"Ġpost":2411,"é¥":2412,"Ġstill":2413,"åĬŀ":2414,"çĪ±":2415,"ä½ı":2416,"-d":2417,"Ñī":2418,"ived":2419,"Ġmen":2420,"è±¡":2421,"ĠÐ³":2422,"nal":2423,"éĢĻ":2424,"Ch":2425,"åı°":2426,"è§Ĩ":2427,"son":2428,"ĠAmeric":2429,"Ġdesign":2430,"åı¯èĥ½":2431,"æĺĵ":2432,"ulation":2433,"Ã£":2434,"éĺ²":2435,"Ġprot":2436,"ØĮ":2437,"ke":2438,"ination":2439,"æĢģ":2440,"Ġadv":2441,"ä¾ĭ":2442,"Ġproper":2443,"æĸ½":2444,"Ġplace":2445,"Ġreport":2446,"ĠØ¹":2447,"Ġaround":2448,"åı·":2449,"orn":2450,"å¸ĥ":2451,"less":2452,"ST":2453,"ĠThere":2454,"Ġbest":2455,"è´¹":2456,"ÑĤÐ¾":2457,"ç¢":2458,"right":2459,"Ġelect":2460,"ĠEn":2461,"ä¾Ľ":2462,"ada":2463,"Ġdie":2464,"viron":2465,"Ġstand":2466,"ä½İ":2467,"****":2468,"irc":2469,"Ġrese":2470,"atch":2471,"Ġinf":2472,"æĵ":2473,"Ġhist":2474,"ÑģÑı":2475,"uthor":2476,"Ġless":2477,"éªĮ":2478,"ãĤĭ":2479,"åĨĽ":2480,"conom":2481,"Ġpop":2482,"ĠOn":2483,"æ®µ":2484,"éĺŁ":2485,"Ġmil":2486,"ç«ł":2487,"Ġident":2488,"Ġbeh":2489,"éĢļè¿ĩ":2490,"47":2491,"ror":2492,"ought":2493,"æµİ":2494,"ãģ¨":2495,"Ġorder":2496,"Pro":2497,"ÐµÐ¼":2498,"Ġproduct":2499,"aterial":2500,"Ġstate":2501,"Ġfollowing":2502,"Ġwithout":2503,"med":2504,"49":2505,"resent":2506,"Ġsay":2507,"OR":2508,"ç¦»":2509,"èı":2510,"Ġexample":2511,"div":2512,"Ġlet":2513,"å¢ĥ":2514,"æĸŃ":2515,"çŁ¥éģĵ":2516,"ament":2517,"ID":2518,"æĬķ":2519,"Îµ":2520,"ends":2521,"æĴ":2522,"ird":2523,"åĽłä¸º":2524,"ÐºÐ°":2525,"Ġopen":2526,"åĮ»":2527,"à¸¥":2528,"éĢŁ":2529,"omen":2530,"ĠComm":2531,"è¶Ĭ":2532,"str":2533,"Ġallow":2534,"Ã£o":2535,"gen":2536,"å±Ģ":2537,"Ġvol":2538,"ãģ§":2539,"åĳĬ":2540,"ä½¿çĶ¨":2541,"))":2542,"ä¸ŃçļĦ":2543,"æŀĹ":2544,"angu":2545,"Ġpract":2546,"ique":2547,"Ġspe":2548,"Ġwithin":2549,"è¡Ģ":2550,"AN":2551,"ĠTr":2552,"à¸¢":2553,"âĢ¦âĢ¦":2554,"è£ħ":2555,"æľª":2556,"Ġtri":2557,"agn":2558,"çĮ":2559,"çīĩ":2560,"ane":2561,"Ġline":2562,".âĢĿĊĊ":2563,"è®®":2564,"Ġinterest":2565,"ĠShe":2566,"Ġ×Ķ×":2567,"ta":2568,"éº":2569,"AL":2570,"rist":2571,"Ġunderstand":2572,"Ġcurrent":2573,"66":2574,"éĻ¤":2575,"................":2576,"æŀģ":2577,"Ġhead":2578,"åŃ¦çĶŁ":2579,"Ġinvest":2580,"We":2581,"arge":2582,"ÑĨÐ¸":2583,"apt":2584,"ission":2585,"undred":2586,"por":2587,"æĹ¶åĢĻ":2588,"rac":2589,"Ġbas":2590,"Ġrest":2591,"Ġdev":2592,"ãģĹ":2593,"ertain":2594,"Ġsum":2595,"!ĊĊ":2596,"78":2597,"çĥŃ":2598,"ger":2599,"ĠTo":2600,"åĤ":2601,"Ġiss":2602,"çłĶç©¶":2603,"Ġstudents":2604,"):":2605,"Ġ==":2606,"Ġmill":2607,"æİ§":2608,"é©¬":2609,"ention":2610,"Ø§Øª":2611,"áĢ":2612,"Ġtype":2613,"Â°":2614,"Ġris":2615,"01":2616,"ysis":2617,"åŃ©":2618,"Ġ**":2619,"æĢİ":2620,"æĪ¿":2621,"Ġincluding":2622,"ÑĢÐ¾":2623,"Ġdirect":2624,"å§Ķ":2625,"Ġaff":2626,"ways":2627,"yd":2628,"èĲ¥":2629,"ength":2630,"Ġbo":2631,"Ġrun":2632,"Ġocc":2633,"iter":2634,"æĮī":2635,"æīĢä»¥":2636,"ividual":2637,"ris":2638,"Ġmeas":2639,"ains":2640,"-m":2641,"05":2642,"å·²ç»ı":2643,"igure":2644,"Ġmodel":2645,"Ġdiv":2646,"Ġredu":2647,"éħį":2648,"Ïģ":2649,"çħ§":2650,"äººçļĦ":2651,"arent":2652,"ately":2653,"ç¬ĳ":2654,"].":2655,"Ġtop":2656,"å¹¿":2657,"Ġanother":2658,"à¸´":2659,"æľĽ":2660,"å¤±":2661,"Ġschool":2662,"æĲ":2663,"æĺ¾":2664,"à¸Ķ":2665,"Ã¨":2666,"Ġaut":2667,"amb":2668,"Ġopp":2669,"åĲĥ":2670,"è¿ŀ":2671,"ĠĠĠĠĠĠĠĠĠĠĠĠĠĠĠĠĠĠĠ":2672,"rad":2673,"Ġide":2674,"ittle":2675,"umber":2676,"An":2677,"ĠÃ©":2678,"æµĭ":2679,"Ġhome":2680,"æĬ¤":2681,"ĠÙĦ":2682,"æĸ¯":2683,"è¿Ļæł·":2684,"èĲ½":2685,"roll":2686,"ples":2687,"çļĦä¸Ģ":2688,"Ġfour":2689,"rop":2690,"ç»Ń":2691,"Ġmanag":2692,"åĪĩ":2693,"Ġchang":2694,"é£Ł":2695,"Ġsignific":2696,"å¾Ģ":2697,"ĠPr":2698,"face":2699,"Ex":2700,"\"Ċ":2701,"åĲ¬":2702,"Ġcontrol":2703,"cur":2704,"Ġ=>":2705,"ãģ¦":2706,"åĵį":2707,"ç»ıæµİ":2708,"ĠOr":2709,"go":2710,"çĬ¶":2711,"åĪĹ":2712,"iment":2713,"ëĭ":2714,"é¾":2715,"Ġmean":2716,"åİĭ":2717,"Ġmus":2718,"ression":2719,"na":2720,"åħĭ":2721,"196":2722,"çĻ¾":2723,"å¡":2724,"ott":2725,"AS":2726,"Ġtoo":2727,"Ġ</":2728,"åĬ©":2729,"æĪ·":2730,"/m":2731,"ergy":2732,"éĻħ":2733,"Ġtimes":2734,"une":2735,"ç§¯":2736,"Com":2737,"65":2738,"work":2739,"Ġgroup":2740,"æ»¡":2741,"ards":2742,"den":2743,"éŁ³":2744,"();Ċ":2745,"iod":2746,"ãĤĴ":2747,"ç»Ĩ":2748,"æĿĳ":2749,"itu":2750,"ĠBl":2751,"ä¼ĺ":2752,"Ġcost":2753,"Ġunt":2754,"?Ċ":2755,"æķĻèĤ²":2756,"Ġchange":2757,"raw":2758,"Ġhundred":2759,"ats":2760,"ling":2761,"ule":2762,"ãģĻ":2763,"Ġapplic":2764,"Ġagainst":2765,"æ¸¸":2766,"Ġfew":2767,"×Ķ":2768,"inc":2769,"ä¿®":2770,"Ġstruct":2771,"Ġlim":2772,"å¾·":2773,"æİĴ":2774,"Ġproject":2775,"ĠÑĢÐ°":2776,"Ġprint":2777,"Ġeng":2778,"ï¿":2779,"è®¸":2780,"Ïĥ":2781,"æĥħåĨµ":2782,"Ġart":2783,"æ£Ģ":2784,"çľģ":2785,"Ġmight":2786,"éļı":2787,"è¯·":2788,"ĠØ£":2789,"Ġleg":2790,"vironment":2791,"çİ°åľ¨":2792,"é¦ĸ":2793,"åĪ°äºĨ":2794,"Ġver":2795,"è¶³":2796,"af":2797,"åħ»":2798,"Ġsocial":2799,"-l":2800,"æŃ»":2801,"====":2802,"ä½Ĩæĺ¯":2803,"ÄĻ":2804,"Ġpur":2805,"ĠâĨ":2806,"ado":2807,"ï¿½":2808,"ÑģÑĤÐ°":2809,"Äħ":2810,"Ġindividual":2811,"åĨľ":2812,"åĽ¢":2813,"Ġgre":2814,"çĶŁæ´»":2815,"by":2816,"à¸Ĺ":2817,"Ġbusiness":2818,"erc":2819,"ĠÑĩ":2820,"æĸ¹æ³ķ":2821,"Ġcome":2822,"æĬĢæľ¯":2823,"ĠApp":2824,"Ð¾ÑĤ":2825,"Ġmonth":2826,"å±Ĥ":2827,"Ð¾Ð³Ð¾":2828,"pon":2829,"Ġrece":2830,"Ġplan":2831,"çĲĥ":2832,"æľįåĬ¡":2833,"Ġdeterm":2834,"ering":2835,"Ġsever":2836,"requ":2837,"ference":2838,"new":2839,"Ġles":2840,"ãģ¯":2841,"Ġgovern":2842,"éĩĩ":2843,"åį´":2844,"Ġchildren":2845,"-c":2846,"Øµ":2847,"IC":2848,"ething":2849,"ording":2850,"88":2851,"name":2852,"ĠQu":2853,"ours":2854,"Ġimpro":2855,"çº¢":2856,"org":2857,"ç§°":2858,"Ġturn":2859,"éĿĴ":2860,"crib":2861,"æ´»åĬ¨":2862,"ĠÃĹ":2863,"Ġpa":2864,"ially":2865,"ĠBe":2866,"å®¢":2867,"hem":2868,"not":2869,"ĠCol":2870,"Ġinc":2871,"èģĮ":2872,"Ġobject":2873,"ĠSch":2874,"95":2875,"è´£":2876,"è§Ĵ":2877,"å¾®":2878,"ç¬¬ä¸Ģ":2879,"Ġview":2880,"ubl":2881,"èĩ´":2882,"Ġhuman":2883,"ware":2884,"ait":2885,"ification":2886,"Ġgoing":2887,"ivate":2888,"Ġtot":2889,"æ¹":2890,"åĺ":2891,"64":2892,",ĊĊ":2893,"Ġnext":2894,"Ġcult":2895,"éĻĲ":2896,"ä¸»è¦ģ":2897,"Ġeas":2898,"ĠAll":2899,"Ġlight":2900,"åįİ":2901,"math":2902,"urther":2903,"çģ«":2904,"èĳĹ":2905,"Ġbuild":2906,"IS":2907,"Ð´Ð°":2908,"ograph":2909,"Ġgiven":2910,"ä¹Ĳ":2911,"Ġlog":2912,"}\\)":2913,"ency":2914,"Ġoften":2915,"ä¸įèĥ½":2916,"Ġden":2917,"Ġsince":2918,"Con":2919,"è¿ĻäºĽ":2920,"Ġtreat":2921,"èĩªå·±çļĦ":2922,"ĠSystem":2923,"Ġthings":2924,"à¸°":2925,"ä¼Ĺ":2926,"ç¿":2927,"ny":2928,"Ġfeel":2929,"Ġben":2930,"Ġeduc":2931,"cer":2932,"ser":2933,"Ġdevelopment":2934,"åĨĻ":2935,"ãģĮ":2936,"Ġdu":2937,"Ġhapp":2938,"ries":2939,"Ġtyp":2940,"Ð»Ñı":2941,"ãģª":2942,"Ġconn":2943,"olution":2944,"Ġda":2945,"åĢĭ":2946,"aut":2947,"ister":2948,"ä¾Ĩ":2949,"Ġlaw":2950,"Ġbased":2951,"à¸ª":2952,"Ġcommon":2953,"Ø·":2954,"ources":2955,"ems":2956,"icro":2957,"Ġresearch":2958,"çµ":2959,"outh":2960,"Ġlittle":2961,"Ø³Øª":2962,"ask":2963,"ently":2964,"ury":2965,"plic":2966,"uf":2967,"Ġteam":2968,"ream":2969,"èĮĥ":2970,"ç³»ç»Ł":2971,"æī¾":2972,"68":2973,"åİĨ":2974,"æ±Ł":2975,"æķħ":2976,"ĠWor":2977,"çŁ³":2978,"ype":2979,"éĢĤ":2980,"Ġartic":2981,"è·Ł":2982,"ustom":2983,"Ġworks":2984,"æĿİ":2985,"ope":2986,"ised":2987,"Ð¾Ð±":2988,"åıĭ":2989,"ches":2990,"As":2991,"IT":2992,"Ġbetter":2993,"Ġfield":2994,"Ġorig":2995,"åĲ§":2996,"Ġask":2997,"ĠGod":2998,"vious":2999,"ĠÐ½Ðµ":3000,"Ġleft":3001,"Ġcho":3002,"æĺ¯ä¸Ģ":3003,"ĠUniversity":3004,"åįĩ":3005,"Ġelse":3006,"ä¸įåĲĮ":3007,"arning":3008,"utes":3009,"Ġsal":3010,"ĠNo":3011,"Ġaddition":3012,"ç»´":3013,"][":3014,"rap":3015,"ĠSo":3016,"ĠØ§ÙĦÙħ":3017,"AC":3018,"08":3019,"åĪĴ":3020,"çº¦":3021,"Ġmaterial":3022,"ĠIm":3023,"èŃ":3024,"ÑĢÑĥ":3025,"play":3026,"Ġfac":3027,"åŃ¦ä¹ł":3028,"ories":3029,"åĽ½å®¶":3030,"],":3031,"ological":3032,"á»":3033,"ĠÃł":3034,"iÃ³n":3035,"éĩįè¦ģ":3036,"sh":3037,"aim":3038,");ĊĊ":3039,"Ð»Ðµ":3040,"ume":3041,"ĳ×":3042,"åı²":3043,"Ġprom":3044,"77":3045,"ä¾Ŀ":3046,"Ġtry":3047,"è¯Ħ":3048,"å£«":3049,"tr":3050,"Ġtext":3051,"Ġprovide":3052,"Ġcharacter":3053,"To":3054,"yle":3055,"ĠÚ©":3056,"ç»ĩ":3057,"ailable":3058,"Ġant":3059,"ãģŁ":3060,"Ġsomething":3061,"ĠMan":3062,"over":3063,"ãĢĮ":3064,"Ġput":3065,"Ġsing":3066,"ç«Ļ":3067,"pect":3068,"}{":3069,"è¿ĺæĺ¯":3070,"ìĹ":3071,"Ġold":3072,"ãĢį":3073,"thing":3074,"à¸ķ":3075,"ĠUS":3076,"Ġkey":3077,"Ġarea":3078,"å¾ĭ":3079,"Ġfree":3080,"å±ŀ":3081,"æĭī":3082,"Ġresults":3083,"åľŁ":3084,"What":3085,"à¸ļ":3086,"Ø®":3087,"ances":3088,"ĠAb":3089,"ush":3090,"ÙĬØ©":3091,"rm":3092,"èĪ¬":3093,"yp":3094,"-p":3095,"Ġfamily":3096,"rain":3097,"print":3098,"è¦ģæ±Ĥ":3099,"ga":3100,"anguage":3101,"Ġbelie":3102,"use":3103,"Ġ%":3104,"è¯¾":3105,"lease":3106,"Ġshort":3107,"...ĊĊ":3108,"ĠThese":3109,"èĤ¡":3110,"ÏĢ":3111,"ç¾¤":3112,"å©":3113,"idence":3114,"çļĦæĺ¯":3115,"enc":3116,"à¦¨":3117,"åĪĿ":3118,"Ġna":3119,"Ð¼Ð¸":3120,"ç±³":3121,"ĠMar":3122,"Ġgen":3123,"äº²":3124,"Ġve":3125,"Ġinte":3126,"ffic":3127,"ðĿ":3128,"èį¯":3129,"09":3130,"å¸Ĥåľº":3131,"Ġstep":3132,"æ¸©":3133,"cience":3134,"rite":3135,"ĠÐ¿Ð¾":3136,"Ġdays":3137,"æŀĲ":3138,"éĥ½æĺ¯":3139,"åºķ":3140,"ÙĩØ§":3141,"æĹ©":3142,"å·®":3143,"Ġkeep":3144,"ÄĽ":3145,"Ġreally":3146,"é¢Ħ":3147,"è¿ľ":3148,"à¯į":3149,"Ġnet":3150,"Ġbro":3151,"Ġsi":3152,"ots":3153,"è¯»":3154,"Ġland":3155,"åŃ©åŃĲ":3156,"Ġlow":3157,"He":3158,"åĳ¢":3159,"åįĬ":3160,"ÑģÑĤÐ²":3161,"Ad":3162,"ä¸ĬçļĦ":3163,"éĺ³":3164,"Ġalways":3165,"[i":3166,"ĠAm":3167,"Ġsignificant":3168,"ogn":3169,"ä¹Łæĺ¯":3170,");":3171,"fic":3172,"Ġtre":3173,"rag":3174,"58":3175,"Ġinfl":3176,"Ġsw":3177,"åĸľ":3178,"Ġkm":3179,"42":3180,"ides":3181,"ĠÙĩ":3182,"Ġter":3183,",\"":3184,"è¶ħ":3185,"67":3186,"Ġbeg":3187,"ably":3188,"Ġmeans":3189,"è½»":3190,"Ġparticular":3191,"Õ¡":3192,"å¤Ł":3193,"Ġmarket":3194,"ended":3195,"ä»ĸçļĦ":3196,"Ġbody":3197,"action":3198,"ocus":3199,"Ð¾Ð²Ð°":3200,"Ġvers":3201,"æĸ¹éĿ¢":3202,"å°Ķ":3203,"atural":3204,"Ġsqu":3205,"lection":3206,"å·ŀ":3207,"ables":3208,"ĠÐ°":3209,"ĠAss":3210,"ĠHowever":3211,"Ġinvol":3212,"åºľ":3213,"Ġnever":3214,"ills":3215,"ãĢĲ":3216,"Ġexperience":3217,"èĭ±":3218,"åĬ¿":3219,"ãĢĳ":3220,"Ãł":3221,"çĨ":3222,"Ġwhe":3223,"æĻĤ":3224,".p":3225,"Ġlarge":3226,"ids":3227,"ura":3228,"Ġhig":3229,"ĠÐ·Ð°":3230,"ĠÙĨ":3231,"éŃ":3232,"åºı":3233,"ched":3234,"osp":3235,"itle":3236,"ĠÑĤ":3237,"ĠMed":3238,"Ar":3239,"Name":3240,"Ġthought":3241,"Ġbi":3242,"çŃĶ":3243,"Ġsuccess":3244,"ĠWhen":3245,"à¸Ħ":3246,"åİ¿":3247,"reg":3248,"æ¬¾":3249,"ajor":3250,"Ġdig":3251,"Ġcalled":3252,"itor":3253,"ĠâĪ":3254,"EC":3255,"ĠAt":3256,"å¼Ģå§ĭ":3257,"å®īåħ¨":3258,"69":3259,"å¿Ĺ":3260,"ending":3261,"ape":3262,"ohn":3263,"abor":3264,"åĽ´":3265,"åķĬ":3266,"ÑĩÐµ":3267,"éĻ©":3268,"ux":3269,"æĿĲ":3270,"Ġeconom":3271,"ler":3272,"ych":3273,"Ġfore":3274,"Ġrad":3275,"éł":3276,"Ġlocal":3277,"Ġaccess":3278,"è¿Ļç§į":3279,"ĠSu":3280,"Ġlearn":3281,"Ġess":3282,"Ġpotential":3283,"set":3284,"Ġperiod":3285,"41":3286,"Ġanswer":3287,"ãģ¾":3288,"\\(":3289,"æĻ¯":3290,"Ġrange":3291,"Ġtrue":3292,"Ġrepresent":3293,"å¿µ":3294,"Ġproblem":3295,"à¥į":3296,"Ġvan":3297,"195":3298,"ÏĤ":3299,"çĽĬ":3300,"oph":3301,"orth":3302,"ä¿¡æģ¯":3303,"Ġassoci":3304,"\".":3305,"Ġemploy":3306,"Ġcond":3307,"Ĳ×":3308,"ica":3309,"æĭ©":3310,"ĠØ³":3311,"++":3312,"à¸«":3313,".l":3314,"07":3315,"ED":3316,"Ġside":3317,"59":3318,"Ã©s":3319,"\">":3320,"clus":3321,"å»ºè®¾":3322,"èİ·":3323,"åı¤":3324,"çŃĸ":3325,"æĺŁ":3326,"add":3327,"Ø§Ùħ":3328,"åŁŁ":3329,"Ġlo":3330,"que":3331,"ka":3332,"Ġpress":3333,"Ġpatients":3334,"\\.":3335,"ledge":3336,"osed":3337,"Ġpossible":3338,"rie":3339,"arget":3340,"Ġang":3341,"Ġenergy":3342,"éĥ¨åĪĨ":3343,"Ġfood":3344,"Ġwords":3345,"Cl":3346,"ç»Ī":3347,"åıĮ":3348,"cient":3349,"à¤¾":3350,"57":3351,"oor":3352,"Ġpay":3353,"43":3354,"ç»Ħç»ĩ":3355,"aster":3356,"å¤§çļĦ":3357,"Ġmot":3358,"ĠInt":3359,"åħħ":3360,"ĠÂ·":3361,"\":":3362,"Ġcomb":3363,"Ġfri":3364,"emb":3365,"çĶŁäº§":3366,"Ġmar":3367,"æ¿":3368,"Å¼":3369,"à´":3370,"Ġphys":3371,"Id":3372,"za":3373,"æķ°æį®":3374,"Ġhard":3375,"Ð¾Ð½":3376,"åħŃ":3377,"çĶ·":3378,"ilar":3379,"rodu":3380,"ĠCont":3381,"Ġarg":3382,"ither":3383,"comm":3384,"æĿ¿":3385,"Ġport":3386,"ows":3387,"ued":3388,"alse":3389,"()Ċ":3390,"æĢİä¹Ī":3391,"ĠĠĠĠĠĠĠĠĠ":3392,"ana":3393,"Ġinclude":3394,"):Ċ":3395,"Ġleast":3396,"Ġcorre":3397,"06":3398,"ortun":3399,"Ġrelations":3400,"ĠGo":3401,"ET":3402,"ÐºÐ¸":3403,"Ġut":3404,"ext":3405,"arl":3406,"ousand":3407,"ones":3408,"äºī":3409,"utions":3410,"çīĪ":3411,"å½±åĵį":3412,"æī¿":3413,"èµ·æĿ¥":3414,"æĸĩåĮĸ":3415,"Ġpercent":3416,"Ġquestion":3417,"Ġstring":3418,"verage":3419,".m":3420,"ili":3421,"Î»":3422,"Ġfr":3423,"earch":3424,"02":3425,"ift":3426,"ä¸ĸçķĮ":3427,"ĠMe":3428,"ley":3429,"ÑģÑĤÐ¸":3430,"Ġenvironment":3431,"II":3432,"enn":3433,"æ²¹":3434,"é»Ħ":3435,"ĠChrist":3436,"åĲĮæĹ¶":3437,"Ġens":3438,"Ġenc":3439,"ä»ħ":3440,"col":3441,"åħ¶ä»ĸ":3442,"çªģ":3443,"ara":3444,"Ġcontent":3445,"iet":3446,"Ġinit":3447,"æł¸":3448,"ç®Ģ":3449,"ured":3450,"åĿĩ":3451,"Ġtotal":3452,"ÑĦ":3453,"à¹ģ":3454,"Ġprim":3455,"äºĳ":3456,"ľ×":3457,"Ġsam":3458,"Ġknown":3459,"ĠMay":3460,"éĢīæĭ©":3461,"à¥įà¤":3462,"èŀ":3463,"194":3464,"def":3465,"çķĻ":3466,"åĲĹ":3467,"Ġcrit":3468,"Ġweek":3469,"uture":3470,"aps":3471,"yt":3472,"ault":3473,"lete":3474,"Ġgive":3475,"You":3476,"Ġoffer":3477,"Îº":3478,"ç¼ĸ":3479,"Ġcertain":3480,"è¿°":3481,"Ġdescrib":3482,"å®¤":3483,"Ïħ":3484,"æĹı":3485,"è®²":3486,"isc":3487,"ä¸Ģå®ļ":3488,"ites":3489,"Ġmaking":3490,"åĩ»":3491,"ä¸¥":3492,"Ġil":3493,"ä»½":3494,"Ġable":3495,"é»ĳ":3496,"æŁĲ":3497,"serv":3498,"Ġanalysis":3499,"é¡¹çĽ®":3500,"Ġey":3501,"Ġdiscuss":3502,"rict":3503,"Ġdue":3504,"âĢĺ":3505,"Ġrequire":3506,"ered":3507,"âĢ¢":3508,"Al":3509,"Ġavailable":3510,"Î·":3511,"Ġindust":3512,"Ġaccount":3513,"Ġuntil":3514,"ä»¥åıĬ":3515,"æ¯į":3516,"Ġ\\(\\":3517,"Ġlove":3518,"Ġsym":3519,"åħ³ç³»":3520,"Ġprob":3521,"Ġarr":3522,"è¿ĩç¨ĭ":3523,"String":3524,"Ġair":3525,"Äį":3526,"omet":3527,"Ġindic":3528,"Ġbenef":3529,"Ġfull":3530,"è´Ł":3531,"è©":3532,".C":3533,"æ¦":3534,"iple":3535,"List":3536,"rand":3537,"ournal":3538,"Ġcalcul":3539,"ais":3540,"bo":3541,"èĥ½åĬĽ":3542,"Ġaway":3543,"Ġhtt":3544,"Ġpolit":3545,"Ġlik":3546,"iol":3547,"pre":3548,"Ġspecific":3549,"cont":3550,"Ġcreate":3551,"ĠPol":3552,"ĠDes":3553,"Ġabove":3554,"back":3555,"Ð¼Ð°":3556,"Ġgot":3557,"Ú¯":3558,"sel":3559,"ĠÙħÙĨ":3560,"×Ļ×Ŀ":3561,"ett":3562,"åįĥ":3563,"Ġcirc":3564,"98":3565,"Ġcr":3566,"no":3567,"Ġfocus":3568,"imate":3569,"arr":3570,"ored":3571,"aring":3572,"Ġcreat":3573,"ðŁ":3574,"If":3575,"Ġkind":3576,"æ¼Ķ":3577,"ival":3578,"ION":3579,"obal":3580,"ivity":3581,"ibility":3582,"Ġpara":3583,"Ġcourse":3584,"è¾ĵ":3585,"Ġseveral":3586,"ho":3587,".g":3588,"ĠÑį":3589,"Ġge":3590,"ĠSc":3591,"ä½ľä¸º":3592,"ĠÐ¾Ð±":3593,"âĢĿ,":3594,"icy":3595,"etic":3596,"åĪ»":3597,"ÐµÐ½Ð¸Ñı":3598,"æīĢæľī":3599,"03":3600,"åħ«":3601,"ava":3602,"inter":3603,"ĠCent":3604,"Ġcolor":3605,"æĸ¹å¼ı":3606,"Ġlearning":3607,"Ġ`":3608,"Ġposition":3609,"é¸":3610,"Ġamong":3611,"å®³":3612,"äº§åĵģ":3613,"htt":3614,"Ġrole":3615,"zy":3616,"istic":3617,"Ġpath":3618,"ç¯":3619,"inary":3620,"________":3621,"çĽĳ":3622,"ector":3623,"Ġvarious":3624,"/h":3625,"abel":3626,"å¤§å®¶":3627,"Ġothers":3628,"èĹ":3629,"ä¼¼":3630,"Ġmajor":3631,"ĠÂ«":3632,"ĠØ±":3633,"Å¾":3634,"Ġgovernment":3635,"åĲ¦":3636,"å±ħ":3637,"Ġhaving":3638,"è¿Ļä¸Ģ":3639,"Ð¾Ð¶":3640,"äººæ°ĳ":3641,"aken":3642,"åĵª":3643,"Ġbecome":3644,"Ġsure":3645,"Ġmillion":3646,"æ¬¢":3647,"å¥½çļĦ":3648,"Ġí":3649,"åįı":3650,"ĠEuro":3651,"alf":3652,"ators":3653,"cle":3654,"æł¹æį®":3655,"å¯Ĩ":3656,"éĢģ":3657,"àª":3658,"ained":3659,"å¯¹äºİ":3660,"56":3661,"lement":3662,"04":3663,"ĉĉĉĉ":3664,"gether":3665,"Ð¾Ðº":3666,"Ġsent":3667,"å®Ŀ":3668,"Ġpast":3669,"stit":3670,"à§ĩà¦":3671,"Ġtogether":3672,"Ġexist":3673,"RO":3674,"pped":3675,"Ġrecord":3676,"çıŃ":3677,"Ġrespect":3678,"ĠPer":3679,"Ġann":3680,"ĠCal":3681,"_t":3682,"Ġimpact":3683,"æŃ¢":3684,"ude":3685,"ĠÐ¿ÑĢÐ¸":3686,"Ġfactors":3687,"Ġum":3688,"Ġpor":3689,"oney":3690,"kt":3691,"ober":3692,"ato":3693,"lev":3694,"éĻį":3695,"Ġdoc":3696,"ians":3697,"é¡»":3698,"LL":3699,"ste":3700,"Ġsize":3701,"ĠUnited":3702,"ä»¤":3703,"Ġsens":3704,"Ġcaus":3705,"Ġfar":3706,"ĠAmerican":3707,"arth":3708,"Res":3709,"ĠWith":3710,"Ġrate":3711,"500":3712,"br":3713,"ĠEm":3714,"ĠBy":3715,"åı¥":3716,"Ġthousand":3717,"ĠFl":3718,"Ġmom":3719,"ights":3720,"ĠCan":3721,"èĭ¥":3722,"å¾Īå¤ļ":3723,"©×":3724,"Ġauthor":3725,"oss":3726,"ilities":3727,"æĪĳçļĦ":3728,"Ġprivate":3729,"._":3730,"ĠGu":3731,"Ġdom":3732,"ores":3733,"Ġbig":3734,"æ²³":3735,"cription":3736,"Ġnumbers":3737,"opy":3738,"atory":3739,"çĶ»":3740,"Ð´Ðµ":3741,"Ġneg":3742,"leg":3743,"æĩ":3744,"ä¸ĢäºĽ":3745,"ä½ľçĶ¨":3746,"ĠGe":3747,"hers":3748,"Ġ;":3749,"å®ĺ":3750,"ĠStud":3751,"asing":3752,"ĠCo":3753,"åĳ³":3754,"Ø§Ø¯":3755,"Ġaddress":3756,"{\\":3757,"Ġalong":3758,"Ġrespons":3759,"ails":3760,"ìĿ´":3761,"è²":3762,"Ġsugg":3763,"×ķ×ª":3764,"æį¢":3765,"çļĦæĹ¶åĢĻ":3766,"class":3767,"à¸²à¸£":3768,"ÙĪØ±":3769,"Ġsaf":3770,"ÅĽ":3771,"Ġamount":3772,"Ġfund":3773,"è®¾è®¡":3774,"åĩı":3775,"Ġmeet":3776,"Ġsuper":3777,"bl":3778,"this":3779,"Ġfurther":3780,"ĠÙĬ":3781,"Ġdise":3782,"Ġarticle":3783,"Õ¡Õ":3784,"Ġvalues":3785,"oms":3786,"ĠÙģÙĬ":3787,"ĠĠĠĠĠĠĠĠĠĠĠĠĠĠĠĠĠĠĠĠĠĠĠĠĠĠĠĠĠĠĠĠ":3788,"ney":3789,"ication":3790,"åħ´":3791,"Ġnecess":3792,"ready":3793,"NA":3794,"å°½":3795,"æıĲä¾Ľ":3796,"Ġsuggest":3797,"ump":3798,"Ġap":3799,"éĶĻ":3800,"ä¹Łä¸į":3801,"éĨ":3802,"åĪĨæŀĲ":3803,"èµĽ":3804,"elt":3805,"åģ¥":3806,"Â»":3807,"Ġearly":3808,"ption":3809,"Ġgeneral":3810,"Ġbase":3811,"rem":3812,"odel":3813,"ae":3814,"Ġvoid":3815,"\">Ċ":3816,"Ġcompany":3817,"Ġfive":3818,"äººåĳĺ":3819,"Ġ--":3820,"ëĬ":3821,"ÑĩÐ¸":3822,"aces":3823,"äº¬":3824,"Ġsat":3825,"çĸĹ":3826,"RE":3827,"Ġstrong":3828,"Ġnorm":3829,"ception":3830,"}}":3831,"åŁ¹":3832,"çł´":3833,"æľĥ":3834,"ä¸ĢèĪ¬":3835,"bre":3836,":âĢľ":3837,"å¾ħ":3838,"ç´§":3839,"ĠSte":3840,"ĠThat":3841,"èĻ½":3842,"Ġwomen":3843,"Ġdat":3844,".d":3845,"head":3846,"apter":3847,"åĿļ":3848,"atures":3849,"urch":3850,"Ġrisk":3851,"Ġchall":3852,"Ġtw":3853,"ç¬¬äºĮ":3854,"èīº":3855,"elling":3856,"ä¹°":3857,"ĠAct":3858,"Ġlater":3859,"ements":3860,"Ġpain":3861,"Ġreview":3862,"Ġsubject":3863,"åĪļ":3864,"US":3865,"é¾Ļ":3866,"ĠÐ¡":3867,"éĶĢ":3868,"ties":3869,"For":3870,"aff":3871,"),Ċ":3872,"ino":3873,"ëĭ¤":3874,"Ġstrateg":3875,"Ġstre":3876,"æ¤":3877,"ä¸¤ä¸ª":3878,"ih":3879,"ĠJohn":3880,"Ġacross":3881,"ĠÐ»":3882,"åĽŃ":3883,"ero":3884,"193":3885,"Ø§ÛĮ":3886,"Ġemb":3887,"ĠÐŁ":3888,"åı¦":3889,"æĿ¥çļĦ":3890,"Ġje":3891,"essage":3892,"ï¼ĮâĢľ":3893,"Ġpred":3894,"wards":3895,"åĸĦ":3896,"ĠIntern":3897,"Ġconc":3898,"word":3899,"ogle":3900,"Cont":3901,"ĠMin":3902,"æĭ¬":3903,"Ġprofess":3904,"éĴ±":3905,"epend":3906,"éĿŀå¸¸":3907,"Ġexc":3908,"ĠEl":3909,"åĲ«":3910,"Ġdeg":3911,"uly":3912,"(n":3913,"æĻ®":3914,"å¤«":3915,"return":3916,"Ġgame":3917,"èĨ":3918,"Ġuna":3919,"Ġwhether":3920,"plement":3921,"ĠRet":3922,"éħĴ":3923,"Ġcountry":3924,"çİ¯å¢ĥ":3925,"acy":3926,"chie":3927,"Ġmind":3928,"Ġlot":3929,"è´¢":3930,"though":3931,"load":3932,"Ġcustom":3933,"æ¿Ģ":3934,"Ġmor":3935,"Î¼":3936,"atter":3937,"å¯Ł":3938,"Ġwhy":3939,"Ġcontrib":3940,"Ġabs":3941,"åĢĳ":3942,"åº·":3943,"Ġcomput":3944,"äºĴ":3945,"Ġworking":3946,"ĠEnglish":3947,"ĠÐ¾ÑĤ":3948,"const":3949,"å¸®":3950,"uck":3951,"çĤº":3952,"Ġspecial":3953,"Å¡":3954,"\",Ċ":3955,"ä¸¾":3956,"ml":3957,"ä¸ĥ":3958,"Ġhold":3959,"ĠCO":3960,"eral":3961,"ï¼ģĊĊ":3962,"Ã¥":3963,".org":3964,"erson":3965,"idd":3966,"Ġuser":3967,"ä¸ºäºĨ":3968,"Ġinteg":3969,"umn":3970,"ĠNe":3971,"Ãª":3972,"AP":3973,"åıĳçĶŁ":3974,"åĨħå®¹":3975,"ison":3976,"Ġsystems":3977,"public":3978,"Ġmax":3979,"Ġhistory":3980,"79":3981,"(s":3982,"ä¼¤":3983,"Ġclaim":3984,"ĠØ´":3985,"Ġreason":3986,"Ġspace":3987,"Ġfuture":3988,"Ġdone":3989,"Ġtemper":3990,"chan":3991,"unt":3992,"ÅĻ":3993,"oman":3994,"ĠâĨĳ":3995,"éĤ£ä¹Ī":3996,"Ġlay":3997,"Ġrelationship":3998,"Ġterms":3999,"AD":4000,".c":4001,"Ġdidn":4002,"åĩºçİ°":4003,"é¦Ļ":4004,"Ġdou":4005,"Ġalready":4006,"åıĳçİ°":4007,"Ġservice":4008,"åĽłæŃ¤":4009,"order":4010,"Ġcells":4011,"ÙĪÙĨ":4012,"ĠJan":4013,"side":4014,"frac":4015,"do":4016,"èĽ":4017,"Ġevent":4018,"åı«":4019,"Ġpri":4020,"ç¶":4021,"Ġcommunity":4022,"âĪĴ":4023,"æŃ¦":4024,"è¿ĺæľī":4025,"Ġobserv":4026,"ÙĬÙĨ":4027,"ales":4028,"æĪĸèĢħ":4029,"Ð²Ð¸":4030,"Ġsingle":4031,"Ġsimilar":4032,"Ġselect":4033,"Ġlarg":4034,"å¼Ĥ":4035,"çĽ´æİ¥":4036,"çļ®":4037,"Ð¾Ð»ÑĮ":4038,"Ġur":4039,"æĺ¥":4040,"ç¦ı":4041,"(x":4042,"å½ķ":4043,"ï¼İ":4044,"ãĥ¼":4045,"atal":4046,"Ġyoung":4047,"ê³":4048,"iam":4049,"Ġ!":4050,"ä¹Ŀ":4051,"Ġbehav":4052,"Ġson":4053,"Ġ?":4054,"è¯į":4055,"sk":4056,"Ġlas":4057,"æĶ¿åºľ":4058,"ha":4059,"ruction":4060,"cing":4061,"ried":4062,"Ġlanguage":4063,"Ġintern":4064,"ëĬĶ":4065,"Ð´Ð¸":4066,"Ġappear":4067,"åĨ·":4068,"ÂłÂł":4069,"most":4070,"å®¡":4071,"Ġrequired":4072,"ibr":4073,"åħį":4074,"alu":4075,"à¸Ī":4076,"Ġhigher":4077,"åĲ¸":4078,"using":4079,"}^{":4080,"Ġsitu":4081,"Ġheart":4082,"é£ŀ":4083,"_d":4084,"Ġcheck":4085,"Ġneeds":4086,"Ġfinal":4087,"é¼":4088,"On":4089,"Ġapproach":4090,"ios":4091,"æ½":4092,"Ġstory":4093,"å¸Į":4094,"Ġnatural":4095,"Ġgrowth":4096,"Ã§Ã£o":4097,"Ø¶":4098,"Ġid":4099,"Qu":4100,"ç«¯":4101,"æĻļ":4102,"ä»ĭ":4103,"Ġsix":4104,"Ġtool":4105,"ĠStates":4106,"åŁºæľ¬":4107,"à¸Ľ":4108,"Ġage":4109,"èĴ":4110,"izing":4111,"çķ¥":4112,"å¯Į":4113,"ĠOne":4114,"æĭ¿":4115,"Ġ×ŀ×":4116,"How":4117,"ìĿĺ":4118,"ç§»":4119,"my":4120,"Ġste":4121,"èī¯":4122,"Ġchanges":4123,"ening":4124,"Ġjob":4125,"pper":4126,"Ġcame":4127,"Ġenough":4128,"Ð¾Ñģ":4129,"AM":4130,"iction":4131,"Ġconditions":4132,"à¹ĥ":4133,"Ġknowledge":4134,"Ġtreatment":4135,"Ð½Ðµ":4136,"onse":4137,"Ġincrease":4138,"uff":4139,"çĪ¶":4140,"ros":4141,"ising":4142,"èŀį":4143,"_,":4144,"à§ģ":4145,"But":4146,"ĠDo":4147,"ìł":4148,"View":4149,"era":4150,"ÙĪÙĦ":4151,"çĵ":4152,"åħ·æľī":4153,"hold":4154,"éĿ©":4155,"å·¦":4156,"52":4157,"ĠÐºÐ°":4158,"Ġvir":4159,"Ġill":4160,"Ġdistrib":4161,"åŃĺåľ¨":4162,"çĭ¬":4163,"å¦Ī":4164,"ĠNot":4165,"ender":4166,"Ġbelow":4167,"Ġ×ľ×":4168,"ä½Ļ":4169,"Ġbegin":4170,"ula":4171,"èªª":4172,"å¾ģ":4173,"ĠEurope":4174,"Ġoffic":4175,"ĠLa":4176,"Ġparticip":4177,"ione":4178,"ges":4179,"Ãº":4180,"Ġcode":4181,"æıĲé«ĺ":4182,"Ġservices":4183,"Ġtable":4184,"artment":4185,"çģµ":4186,"ç»§":4187,"æī§":4188,"Ġbreak":4189,"Ġcomplex":4190,"ä¹İ":4191,"Ġà®":4192,"é²":4193,"ervice":4194,"And":4195,"ãģĭ":4196,"Ġperformance":4197,"ips":4198,"ìĦ":4199,"Ġhouse":4200,"ounds":4201,"uit":4202,"opt":4203,"Ġthough":4204,"place":4205,"ĠIN":4206,"ĠMy":4207,"èĦ¸":4208,"à¹Ħ":4209,"ancial":4210,"è¡¨ç¤º":4211,"Ġimm":4212,"Ġwind":4213,"fect":4214,"192":4215,"Ġtarget":4216,"----------------":4217,"Ġquestions":4218,"Ġface":4219,"ãĤĮ":4220,"ficult":4221,"Ġparent":4222,"ĠÕ":4223,"åı¶":4224,"èĢĮä¸Ķ":4225,".get":4226,"Ġmanagement":4227,"ĠPar":4228,"æ³¢":4229,"Ġsays":4230,"âĢĿï¼Į":4231,"ç»Ŀ":4232,".;":4233,"ĠReg":4234,"à¤¾à¤":4235,"roups":4236,"unction":4237,"èĭı":4238,"æľ¨":4239,"åı³":4240,"ires":4241,"éĵ¶":4242,"Ð½ÑĭÑħ":4243,"Ġestab":4244,"Ġfile":4245,"There":4246,"hel":4247,"hib":4248,"ules":4249,"åĮħæĭ¬":4250,"è³":4251,"ä¹ĭåĲİ":4252,"/Ċ":4253,"list":4254,"åĿĲ":4255,"Ġresponse":4256,"ÑĩÐ°":4257,"Ùİ":4258,"sych":4259,"iber":4260,"Ġinflu":4261,"duc":4262,"Ġlower":4263,"Ġ×ĳ×":4264,"çĩ":4265,"Ã½":4266,"à¸·":4267,"ii":4268,"po":4269,"æ¯Ķè¾ĥ":4270,"Ġaction":4271,"çĦ¶åĲİ":4272,"Ġmass":4273,"];Ċ":4274,"ĠPart":4275,"ĠNov":4276,"Ð½Ð¾Ð²":4277,"ĠAf":4278,"ä¸Ńå¿ĥ":4279,"iff":4280,"rug":4281,"olar":4282,"Ġcou":4283,"Ð¾Ð·":4284,"Ġce":4285,"wh":4286,"51":4287,"aching":4288,"åį¡":4289,"iting":4290,"Wh":4291,"Ġyang":4292,"çºª":4293,"ĠØ¯Ø±":4294,"ged":4295,"æĢ¥":4296,"ublished":4297,"ension":4298,"æĭħ":4299,"clude":4300,"De":4301,"æĦ¿":4302,"Ġdan":4303,"empt":4304,"ä¹ĭéĹ´":4305,"-g":4306,"76":4307,"Ã¢":4308,"Ġprime":4309,"Ġtook":4310,"éģİ":4311,"Ġmembers":4312,"ÑģÐºÐ¸":4313,"300":4314,"imum":4315,"Ġtoday":4316,"ico":4317,"æİ§åĪ¶":4318,"arc":4319,"éĻĪ":4320,"Ġconvert":4321,"ç¨İ":4322,"Ġpersonal":4323,"ÙĨØ¯":4324,"Ġespec":4325,"Ġseen":4326,"çŁŃ":4327,"æľĿ":4328,"åĿĹ":4329,"å¿ħé¡»":4330,".\"ĊĊ":4331,"Ġred":4332,"Ġinde":4333,"è§Ħå®ļ":4334,"ĠComp":4335,"arb":4336,"Ġpositive":4337,"Ġeither":4338,"è®¡ç®Ĺ":4339,"è´§":4340,"ï¿½ï¿½":4341,"Ġeducation":4342,"Ġhours":4343,"æłĳ":4344,"istics":4345,"Ġinput":4346,"Ġachie":4347,"Ġopportun":4348,"ìĹĲ":4349,"åįķä½į":4350,"é¢Ŀ":4351,"åģľ":4352,"aining":4353,"å®ŀçİ°":4354,"ç£":4355,"è¡¥":4356,"Î¯":4357,"èĥĮ":4358,"ĠÐµ":4359,"è®Ń":4360,"à¥¤":4361,"89":4362,"èĥ½å¤Ł":4363,"54":4364,"Ġpoints":4365,"Ġpage":4366,"date":4367,"Ġthing":4368,"HE":4369,"ilt":4370,"ened":4371,"è¿Ļæĺ¯":4372,"nder":4373,"Se":4374,"çľĭåĪ°":4375,"åį°":4376,"èĩªçĦ¶":4377,"En":4378,"Ġbring":4379,"Ð½Ð¾Ð¹":4380,"å¤§åŃ¦":4381,"å¦Ĥä½ķ":4382,"æī¹":4383,"à¦¾à¦°":4384,"çĽ¸åħ³":4385,"æĻº":4386,"Ġonce":4387,"Ġphot":4388,"çĶ±äºİ":4389,"éķĩ":4390,"ithm":4391,"LE":4392,"å¾Į":4393,".t":4394,"aciÃ³n":4395,"ĠAg":4396,"Ġcompet":4397,"å¤ĦçĲĨ":4398,"å®£":4399,"åºĹ":4400,"Ġdifficult":4401,"Ġcompon":4402,"ades":4403,"ĠYork":4404,"ĠÐĴ":4405,"æĪĲä¸º":4406,"è¿ĻéĩĮ":4407,"anced":4408,"irm":4409,"Ġà¦ķ":4410,"ground":4411,"Ġprevious":4412,"å·¥ç¨ĭ":4413,"53":4414,"ç¡Ģ":4415,"Ð²Ð¾":4416,"åıªæĺ¯":4417,"æĵį":4418,"rel":4419,"raft":4420,"uj":4421,"amm":4422,"Ġdeb":4423,"ä¸»ä¹ī":4424,"åºĶè¯¥":4425,"ĠState":4426,"ä¸ªäºº":4427,"ĠÏĦ":4428,"åŃ¦æł¡":4429,"Ð¾Ð´Ð¸":4430,"ç²¾ç¥ŀ":4431,"Ġfrequ":4432,"Ġsurface":4433,"ĠØŃ":4434,"åŁºç¡Ģ":4435,"ÑģÐ¸":4436,"Un":4437,"itted":4438,"æĽ¾":4439,"Ġein":4440,"eters":4441,"Ġfail":4442,"Ġblood":4443,"ÐµÐ½Ð¸Ðµ":4444,"Ġwhole":4445,"ä»ĺ":4446,"Ġmonths":4447,"gress":4448,"Ġtalk":4449,"oud":4450,"è¯ī":4451,"çŀ":4452,"atus":4453,"Ġproblems":4454,"ç½Ĺ":4455,"Ġstructure":4456,"ĠHis":4457,"itation":4458,"Ð·Ð°":4459,"101":4460,"sequ":4461,"Ġdire":4462,"string":4463,"ĠAng":4464,"Ġupon":4465,"ĠOct":4466,"äºļ":4467,"Ġpaper":4468,"æĬĹ":4469,"191":4470,"ĠPa":4471,"Ġmeasure":4472,"Ġvo":4473,"Ġquality":4474,"Ġsem":4475,"Ġshown":4476,"åľ°æĸ¹":4477,"ä¹ħ":4478,"éĺ¶":4479,"ĠLet":4480,"å¥ĩ":4481,"æĤ¨":4482,"åī¯":4483,"No":4484,"Ġcomplet":4485,"Ġobtain":4486,"éĺ¿":4487,"-h":4488,"********":4489,"ken":4490,"Ġmakes":4491,"æĬķèµĦ":4492,"IP":4493,"Ġtax":4494,"ĠWorld":4495,"Ġprovided":4496,"ï¼ŁĊĊ":4497,"ç»ĵæŀľ":4498,"Ġhowever":4499,"Ġsoft":4500,"Ġareas":4501,"Ġonline":4502,"ä¹¡":4503,"éĿĻ":4504,"ociety":4505,"AB":4506,"å¤ľ":4507,"Ġcover":4508,"Ġaccording":4509,"Äĩ":4510,"Ġassess":4511,"ä¸Ģèµ·":4512,"çĸ«":4513,"Ġplant":4514,"Ġassociated":4515,"medi":4516,"ony":4517,"çĶļ":4518,"çŁ¥è¯Ĩ":4519,"åĢĴ":4520,"Ġclear":4521,"ese":4522,"Ġcoll":4523,"Ġrelated":4524,"itch":4525,"UR":4526,"ĠRep":4527,"Ø°":4528,"Ġdivis":4529,"æ¶²":4530,"ÛĮÙĨ":4531,"Data":4532,"?âĢĿ":4533,"ä¸įè¿ĩ":4534,"pose":4535,"åĬ³":4536,"ella":4537,"è®¤ä¸º":4538,"çļĦäºĭ":4539,"Ġshall":4540,"Ġever":4541,"ÙĦÙī":4542,"à¯įà®":4543,"å·´":4544,"ĠNational":4545,"By":4546,"Ġeffic":4547,"åį«":4548,"ãģĵ":4549,"ĠTra":4550,"èĸ":4551,"bol":4552,"ãĤĬ":4553,"}_{":4554,"ä¸įä¼ļ":4555,"Ġseem":4556,"/(":4557,"la":4558,"Ġwar":4559,"ĠEd":4560,"Ñĺ":4561,"Ġrather":4562,"Ġlevels":4563,"ĉĉĉ":4564,"mit":4565,"à¸Ńà¸ĩ":4566,"íķĺ":4567,"ç´¢":4568,"åħ¶ä¸Ń":4569,"Ġstudies":4570,"'m":4571,"ç»ĵæŀĦ":4572,"åĪ¤":4573,"ä¸´":4574,"Ġtell":4575,"-st":4576,"Ġactivity":4577,"Ġparam":4578,"istance":4579,"bb":4580,"Ø«":4581,"Ġcy":4582,"asc":4583,".A":4584,"illed":4585,"-w":4586,"Ġconsum":4587,"Ġ...":4588,"left":4589,"ils":4590,"ãģĨ":4591,"è´Ń":4592,"Ġcity":4593,"åģĩ":4594,"Type":4595,"ç¬¦":4596,"ä½łçļĦ":4597,"ê°":4598,"Ġcases":4599,"Ġrefer":4600,"Ġmoney":4601,"åıªæľī":4602,"ĠString":4603,"åĽº":4604,"Ġmicro":4605,"Ġproduction":4606,"cem":4607,"Ġfall":4608,"Ġimage":4609,"72":4610,"type":4611,"avor":4612,"åĨ²":4613,"Sh":4614,"Ġsy":4615,"atur":4616,"Val":4617,"æłĩåĩĨ":4618,"Ġcut":4619,"ĠNumber":4620,"èĻ½çĦ¶":4621,"èįī":4622,"da":4623,"ief":4624,"Ġdefin":4625,"zen":4626,"Ġvar":4627,"eds":4628,"Ġflow":4629,"Ġsolution":4630,"æľīäºĽ":4631,"Ġoriginal":4632,"ç»ĥ":4633,"æ¯Ĵ":4634,"selves":4635,"æĢķ":4636,"Ġfactor":4637,"Ġprote":4638,"ĠAug":4639,"Ġdam":4640,"Ġdeath":4641,"æĹħ":4642,"minist":4643,"ç«Ł":4644,"à¸¸":4645,"Ġpractice":4646,"Ġunderstanding":4647,"ĠApr":4648,"ĠMon":4649,"ida":4650,"Ġexpress":4651,"pri":4652,"Ġissues":4653,"Ġsimple":4654,"ĠÐ²Ñĭ":4655,"æħ¢":4656,"Ġrecogn":4657,".f":4658,"EL":4659,"ë¡":4660,"Ġwent":4661,"ãĤĤ":4662,"ï¼ŁâĢĿĊĊ":4663,"Ġconvers":4664,"(t":4665,"Ġnight":4666,"ius":4667,"éħ¸":4668,"Ġbit":4669,"×ª":4670,"Ġyet":4671,"çİ©":4672,"è½½":4673,"æĿ¡ä»¶":4674,"raction":4675,"off":4676,"çīĮ":4677,"Ġimplement":4678,"uted":4679,"Ġeffects":4680,"Ġconduct":4681,"Ġground":4682,"åº§":4683,"çĹĽ":4684,"å°į":4685,"ĠÐ¸Ð·":4686,"OS":4687,"Ġsource":4688,"Ġways":4689,"At":4690,"Ġgroups":4691,"ises":4692,"è¡£":4693,"ĠĠĠĠĠĠ":4694,"à¸µà¹Ī":4695,"alt":4696,">ĊĊ":4697,"Ġmo":4698,"ama":4699,"èĦĳ":4700,"ĠPre":4701,"inn":4702,"æĽ²":4703,"comes":4704,".M":4705,"åĩºæĿ¥":4706,"\"ĊĊ":4707,"idth":4708,"pping":4709,"rt":4710,"Ġkg":4711,"Ġmoment":4712,"UT":4713,"Ġdest":4714,"å®ĮæĪĲ":4715,"kan":4716,"ental":4717,"ä¸Ģæł·":4718,"ÑģÑĤÑĮ":4719,"å³":4720,"Ġloss":4721,"uel":4722,"èŃ¦":4723,"ĠGl":4724,"aging":4725,"æĤ£":4726,"Ø§Ø¨":4727,"ano":4728,"ynam":4729,"IG":4730,"_s":4731,"Ð¾Ð¿":4732,"èĤī":4733,"Ġod":4734,"Ġlooking":4735,"ĠTrans":4736,"Ġtaken":4737,"Ġconcept":4738,"61":4739,"é½":4740,"ç§ĳåŃ¦":4741,"åħµ":4742,"æ¦Ĥ":4743,"Ġ×ķ":4744,"Ġdisease":4745,"cover":4746,"Ġhalf":4747,"ĠPM":4748,"Ġevalu":4749,"'re":4750,"iques":4751,"ĠVal":4752,"ĠCor":4753,"æ³¨æĦı":4754,"æľĢåĲİ":4755,"ĠIS":4756,"',Ċ":4757,"Ġbar":4758,"ops":4759,"ĠÙĥ":4760,"Ġunit":4761,"Ġapplication":4762,"ÑĤÐµÐ»ÑĮ":4763,"ĠÐ¿ÑĢÐ¾":4764,"Ġexpect":4765,"Ġinvestig":4766,"-in":4767,"Ġactivities":4768,"Ġsepar":4769,"è´¨éĩı":4770,"www":4771,"Ġroom":4772,"æķ£":4773,"63":4774,"rown":4775,"Ġcause":4776,"ĠDis":4777,"ideo":4778,"where":4779,"èĵ":4780,"cret":4781,"Ġprovides":4782,"Ġà¦¸":4783,"ĠØ¬":4784,"à¦¤":4785,"Ġminutes":4786,"Ġquick":4787,"aling":4788,"ya":4789,"é¤":4790,"ĠDep":4791,"ÃĹ":4792,"åĬŁèĥ½":4793,"lying":4794,"uary":4795,"Int":4796,"ante":4797,"Ġroot":4798,"MM":4799,"Ġcannot":4800,"å°Ħ":4801,"Tr":4802,",\\":4803,"Ġmechan":4804,"osis":4805,"hing":4806,"Ġtechnology":4807,"Ġintrodu":4808,"Ġpropos":4809,"è§īå¾Ĺ":4810,"pen":4811,"à¦ķ":4812,"Ġcorrect":4813,"nÃŃ":4814,"Ġtypes":4815,"Col":4816,"ÙĪØ¯":4817,"Ð½Ð¾Ð³Ð¾":4818,"Ġprevent":4819,"ĠInter":4820,"icht":4821,"èĭ¦":4822,"When":4823,"Ġthird":4824,"ãĥ»":4825,"Ġliter":4826,"Ġteac":4827,"èıľ":4828,"Ġconcern":4829,"oper":4830,"ç¾İåĽ½":4831,"ç¼º":4832,"ĠÙĤ":4833,"iation":4834,"book":4835,"Ġmethods":4836,"ĠCar":4837,"ĠÑĦ":4838,"ki":4839,"Ã¡s":4840,"éģĩ":4841,"ĠHealth":4842,"Ġdoing":4843,"Ġneeded":4844,"ðĿĳ":4845,"EM":4846,"Ġregard":4847,"otal":4848,"Ġshows":4849,"å²ģ":4850,"Ġnear":4851,"à¸Ĥ":4852,"aves":4853,"Ġnetwork":4854,"è¡Įä¸º":4855,"ìŀ":4856,"åįł":4857,"62":4858,"ç¨³":4859,"å®Ī":4860,"Ġespecially":4861,"ita":4862,"Ġshare":4863,"adem":4864,"ĠDr":4865,"Ġwritten":4866,"é¡¾":4867,"Ġsection":4868,"Ġasked":4869,"120":4870,"ĠSouth":4871,"éĢĢ":4872,"Ð½ÑĭÐµ":4873,"Ġaud":4874,"log":4875,"ĠÑĢÐµ":4876,"ä¸ĢæŃ¥":4877,"ĠFran":4878,"æŁĵ":4879,"Ġsense":4880,"æľĭ":4881,"è°¢":4882,"ĠĠĠĠĠĠĠĠĠĠĠĠĠĠĠĠĠĠĠĠĠĠĠ":4883,"Ġexperien":4884,"Ġelement":4885,"é¡º":4886,"éĵģ":4887,"Ġlikely":4888,"å½¢æĪĲ":4889,"-based":4890,"çłģ":4891,"Ġlength":4892,"umb":4893,"OT":4894,"ĠMore":4895,"åĶ®":4896,"ĠPe":4897,"éĥ¨éĹ¨":4898,"å®ŀéĻħ":4899,"åĵ¥":4900,"vis":4901,"Ġà¦ª":4902,"irl":4903,"Ġaccept":4904,"ìĿĦ":4905,"Ġsus":4906,"æ¥¼":4907,"pond":4908,"Ġoccur":4909,"Is":4910,"Ġstatic":4911,"Ġlink":4912,"\");Ċ":4913,"-S":4914,"ä¸Ģä¸ĭ":4915,"ä¸įè¦ģ":4916,"Ġhab":4917,"ounter":4918,"ãĥ³":4919,"iddle":4920,"ster":4921,"Ġfram":4922,"Ġseries":4923,"Ġmi":4924,"met":4925,"ç©¿":4926,"æĭĽ":4927,"ND":4928,"ä»£è¡¨":4929,"Ġessential":4930,"Ġclos":4931,"ï¼ģâĢĿĊĊ":4932,"Ġevidence":4933,"men":4934,"Ġpressure":4935,"Ġnature":4936,"ç»ľ":4937,"æķĻåŃ¦":4938,"Ġequal":4939,"Ġdocument":4940,"_c":4941,"come":4942,"æįŁ":4943,"Ġeight":4944,"ĠãĢģ":4945,"Ġinform":4946,"åĩºäºĨ":4947,"çĳ":4948,"éļľ":4949,"ects":4950,"ING":4951,"éĤĦ":4952,"åĪ©çĶ¨":4953,"ÏĮ":4954,"åŃ£":4955,"Ġà¦¬":4956,"è¿Ļä¹Ī":4957,"ä¸ĵä¸ļ":4958,"ĠSim":4959,"à¸¹":4960,"Ġwalk":4961,"Ġtold":4962,"Ġskills":4963,"ãģ£":4964,"ership":4965,"uild":4966,"è¯Ĺ":4967,"æİ¢":4968,"aced":4969,"ãĤī":4970,"Ġcamp":4971,"éĽ¨":4972,"çĽĺ":4973,"ackage":4974,"Ġalmost":4975,"ä¸ĢçĽ´":4976,"æŃĮ":4977,"Ñĸ":4978,"lo":4979,"150":4980,"ini":4981,"ÐµÐ¹":4982,"ĠBo":4983,"ocal":4984,"Ġwriting":4985,"itude":4986,".e":4987,"åŁİå¸Ĥ":4988,"key":4989,"Ġmultiple":4990,"Ġ\\\\":4991,"ä¸Ģç§į":4992,"ÑİÑĤ":4993,"rieved":4994,"Ġlive":4995,"Ġhom":4996,"Ġmaintain":4997,"è§£åĨ³":4998,"âĢĿãĢĤ":4999,"à¨":5000,"åĹ":5001,"Ġmove":5002,"åĵĪ":5003,"Ġaverage":5004,"ì§":5005,"áº":5006,"ando":5007,"èĢģå¸Ī":5008,"ply":5009,"Ġclose":5010,"Ġbal":5011,"ĠìĿ":5012,"---":5013,"Ġeffort":5014,"estion":5015,"ui":5016,"iles":5017,"Ġmit":5018,"Le":5019,"Ø£":5020,"ĠBrit":5021,"oring":5022,"ditional":5023,"Ġfinancial":5024,"ĠØ¨Ùĩ":5025,"Ġtraining":5026,"ĠØ®":5027,"è°Ī":5028,"Ġseason":5029,"Ġpattern":5030,"äº«":5031,"ptember":5032,"Ġnecessary":5033,"ĠEr":5034,"Ġfa":5035,"Ġmatter":5036,"Ġsite":5037,"åĪĺ":5038,"Ġproducts":5039,"rix":5040,"rim":5041,"Ġhttps":5042,"Ĥ¬":5043,"ref":5044,"Ġdate":5045,"Ġcross":5046,"(int":5047,"æ±ī":5048,"uration":5049,"å¼Ģå±ķ":5050,"joy":5051,"à¸ģà¸²à¸£":5052,"ixed":5053,"urg":5054,"CO":5055,"Ġindustry":5056,"ĠAfter":5057,"é¢ĳ":5058,"Ġquant":5059,"å§Ĳ":5060,"Ġseg":5061,"Ġfalse":5062,"ille":5063,"ĠAfric":5064,"aint":5065,"ĠAust":5066,"éª¨":5067,"ĠCons":5068,"uments":5069,"ĠWill":5070,"[]":5071,"åºŃ":5072,"çİī":5073,"æ²Ĵ":5074,"ä¸Ģæ¬¡":5075,"Ġresources":5076,"ĠMarch":5077,"çĽ®æłĩ":5078,"Ġmer":5079,"Ġsquare":5080,"Ġreading":5081,"æĿĢ":5082,"Ġconsidered":5083,"Ġago":5084,"Ġwrite":5085,"Ġchalleng":5086,"CH":5087,"mon":5088,"Ġep":5089,"Ġidea":5090,"æ¯Ľ":5091,"ç¥¨":5092,"äº§çĶŁ":5093,"========":5094,"Ġcomes":5095,"cal":5096,"Ġdemand":5097,"ided":5098,".j":5099,"Ġnull":5100,"ĠMark":5101,"ĠMr":5102,"Ġstandard":5103,"æľĭåıĭ":5104,"æĪı":5105,"97":5106,"çº³":5107,"ĠAc":5108,"å¸ĮæľĽ":5109,".#":5110,"ctor":5111,"Ġ<<":5112,"ENT":5113,"æĿ¾":5114,"Ġprior":5115,"à¦²":5116,"Ġeyes":5117,"Ġrequest":5118,"Ã±":5119,"çĽ®åīį":5120,"åª":5121,"nes":5122,"(f":5123,"Or":5124,"äºĨè§£":5125,"400":5126,"ĠEduc":5127,"lege":5128,"è¿½":5129,"åºĶçĶ¨":5130,"Ġphysical":5131,"ĠFeb":5132,"å¢ŀåĬł":5133,"just":5134,"å¸Ŀ":5135,".)":5136,"éĿł":5137,"å¤ı":5138,"Ġrat":5139,"Ġdraw":5140,"curity":5141,"fully":5142,"à¸ŀ":5143,"Ġadded":5144,"Ġinn":5145,"Ġmusic":5146,"Ġten":5147,"Ġcontext":5148,"åħ³äºİ":5149,"ä½łä»¬":5150,"190":5151,"Ġsil":5152,"cember":5153,"ja":5154,"Ġhet":5155,"Ġnov":5156,"Ġmiles":5157,"mod":5158,"Ġblack":5159,"astic":5160,"Ġfront":5161,"Im":5162,"åİĨåı²":5163,"Ġma":5164,"_id":5165,"ĠMc":5166,"Ġincreased":5167,"gor":5168,"Ġtemperature":5169,"éĴĪ":5170,"ras":5171,"Ġspecies":5172,"×¨×":5173,"æ©":5174,"fo":5175,"Ð³Ð¾":5176,"Ġtaking":5177,"ĠØ¢":5178,"åįļ":5179,"#####":5180,"Ġregion":5181,"Ġcollect":5182,"ĠSome":5183,"Ġconsist":5184,"Ġpopulation":5185,"lied":5186,"æĹ¢":5187,"Go":5188,"ï¼ļĊĊ":5189,"äº®":5190,"ĠĠĠĠĊ":5191,"çĶ³":5192,"va":5193,"Ġpie":5194,"à¹ĩ":5195,".h":5196,"value":5197,"87":5198,"à§įà¦°":5199,"-y":5200,"èµĦæºĲ":5201,"ÑģÐ¿":5202,"))Ċ":5203,"agement":5204,"à¦¬":5205,"ÐºÐ¾":5206,"ua":5207,"Ø§Ø¹":5208,"çļĦå¤§":5209,"ĠJune":5210,"include":5211,"Ġdeep":5212,"æ¥ļ":5213,"Ġnational":5214,"ĠGerm":5215,"æ²ī":5216,"Ġglobal":5217,"Ġpolitical":5218,"ĠGener":5219,"Ġprice":5220,"Ġentire":5221,"åī§":5222,"){Ċ":5223,"_p":5224,"\")Ċ":5225,"ensive":5226,"Ġdecision":5227,"mar":5228,"à±":5229,"``":5230,"Ġitself":5231,"ceed":5232,"iat":5233,"110":5234,"åłĤ":5235,"è´£ä»»":5236,"ä»Ĭå¤©":5237,"Ġoutput":5238,"çı¾":5239,"à³":5240,"var":5241,"Ġpolicy":5242,"æĢĿæĥ³":5243,"Ġindividuals":5244,"ĠPost":5245,"ached":5246,"ÙĬØ±":5247,"rast":5248,".D":5249,"Ġsequ":5250,"Ph":5251,"/c":5252,"IM":5253,"æĶ»":5254,"ydro":5255,"æĸĹ":5256,"éĸĵ":5257,"odes":5258,"mary":5259,"Ġincludes":5260,"Ġensure":5261,"æľīåħ³":5262,"data":5263,"ĠNorth":5264,"user":5265,"çļĩ":5266,"Ġìŀ":5267,"anks":5268,"Ġchem":5269,"'ve":5270,"Ġstarted":5271,"CT":5272,"acc":5273,"stract":5274,"æ´¾":5275,"ÑĢÐµÐ´":5276,"ĠCount":5277,"Ġworkshe":5278,"åĸľæ¬¢":5279,"ĠPress":5280,"Ġmeaning":5281,"ÖĢ":5282,"oved":5283,"ä¸įæĸŃ":5284,"ĠRetrieved":5285,"Ġ*/Ċ":5286,"ira":5287,"Ġweight":5288,"å¾ĹåĪ°":5289,"ĠFin":5290,"Ġdevice":5291,"Ġusually":5292,"ä»»ä½ķ":5293,"çľŁçļĦ":5294,"ç·":5295,"light":5296,"eks":5297,"Ġrecomm":5298,"Ġvon":5299,"Ġactually":5300,"æĿĤ":5301,"æ°´å¹³":5302,"ä¿ĥ":5303,"Ġability":5304,"Ġscre":5305,"ĠAcc":5306,"Ġdemon":5307,"à¸³":5308,"ĠãĢĤ":5309,"Ġcontact":5310,"éĸĭ":5311,"ming":5312,"ager":5313,"Ind":5314,"IV":5315,"Ġune":5316,"ports":5317,"Ġjud":5318,"çļĦè¯Ŀ":5319,"ĠSub":5320,"Ġpour":5321,"éĩĬ":5322,"aving":5323,"çĹĩ":5324,"åħ¸":5325,"é¢Ĩå¯¼":5326,"æ¹ĸ":5327,"So":5328,"-M":5329,"Ġrev":5330,"reed":5331,"çĸĳ":5332,"td":5333,"ĠHer":5334,"Ġdifference":5335,"ĠUs":5336,"vey":5337,"ography":5338,"bject":5339,"ĠCour":5340,"hr":5341,"igen":5342,"æĴŃ":5343,"ĠÐļ":5344,"Ġbuilding":5345,"apan":5346,"Ġstudent":5347,"ections":5348,"................................":5349,"clusion":5350,"Ġsearch":5351,"è°ģ":5352,"éĶ®":5353,"Ġdoesn":5354,"actions":5355,"from":5356,"é¡µ":5357,"åį·":5358,"ë¡ľ":5359,"lin":5360,"85":5361,"ĠResearch":5362,"Ġmodels":5363,"={":5364,"å¥Ĺ":5365,"ł×":5366,"**ĊĊ":5367,"åĭķ":5368,"mission":5369,"ĠSchool":5370,"ares":5371,"åĲĦç§į":5372,"æĭį":5373,"Ġnormal":5374,"ĠYour":5375,"èĹı":5376,"Ġcompan":5377,"andom":5378,"Ġeffective":5379,"Ġmedia":5380,"Ġfeatures":5381,"åĽ°":5382,"ĠApril":5383,"å½Ĵ":5384,"ĠHist":5385,"åĪ¶åº¦":5386,"à§ĩà¦°":5387,"èģļ":5388,"Ġeconomic":5389,"Ġbill":5390,"è®¡åĪĴ":5391,"Ġstyle":5392,"Ġdecl":5393,"çĶļèĩ³":5394,"https":5395,"ë¥":5396,"åĽ½éĻħ":5397,"ĠÐľ":5398,"Sub":5399,"ĠdÃ©":5400,"Ġexec":5401,"æĺ¯åĲ¦":5402,"Ġwhite":5403,"ample":5404,"Ġeen":5405,"oke":5406,"Ġcountries":5407,"ç¬Ķ":5408,"ï¼ŁâĢĿ":5409,"lim":5410,"irit":5411,"éľ²":5412,"ln":5413,"åħ°":5414,"Ġhor":5415,"uz":5416,"Ġdivid":5417,"Ġeasy":5418,"ession":5419,"ĠâĪĴ":5420,"Ã¼r":5421,"åıĺåĮĸ":5422,"Ġhistor":5423,"Ġregul":5424,"ĠII":5425,"ging":5426,"ĠChe":5427,"($":5428,"Ġbelieve":5429,"ech":5430,"æİĮ":5431,"ĠPat":5432,"çī¹åĪ«":5433,"Ġstay":5434,"ĠØ§ÙĦØª":5435,"ÐµÑĤÑģÑı":5436,"äº§ä¸ļ":5437,"px":5438,"cz":5439,"ham":5440,"Ð°Ð½":5441,"æĿĲæĸĻ":5442,"ĠSm":5443,"(m":5444,"éĻĦ":5445,"Ġfriends":5446,"ults":5447,"Ġcontinue":5448,"ilit":5449,"ç¬¬ä¸ī":5450,"><":5451,"Ġissue":5452,"ĠRead":5453,"åĳ¼":5454,"With":5455,"hern":5456,"-e":5457,"è¼":5458,"upp":5459,"itting":5460,"æĮ¥":5461,"swers":5462,"Ġunique":5463,"æ¯ķ":5464,"Ġenjoy":5465,"Ġengine":5466,"å®Įåħ¨":5467,"ä¸ľè¥¿":5468,"å»ºç«ĭ":5469,"Ġproperties":5470,"Ġflu":5471,"ä»į":5472,"æ³ķå¾ĭ":5473,"Ġcard":5474,"ĠØ¥":5475,"Ġcourt":5476,"Ġpen":5477,"Ġforce":5478,"Ġmiss":5479,"All":5480,"ball":5481,"Ġprec":5482,"ko":5483,"osition":5484,"Ġfilm":5485,"Ġelements":5486,"âĸ":5487,"å®Ĺ":5488,"è¸":5489,"åľĭ":5490,"Ġsch":5491,"çĶ²":5492,"\";Ċ":5493,"param":5494,"ĠSer":5495,"ÑģÑĤÐ¾":5496,".P":5497,"Ġstreng":5498,"Ġgetting":5499,"å¼Ł":5500,"ĠØ§ÙĦØ£":5501,"ç½ª":5502,"åģ¥åº·":5503,"à¸Ĭ":5504,"Ġstress":5505,"èĦļ":5506,"leep":5507,"Ġindex":5508,"Ġconcent":5509,"ĠÙĪØ§ÙĦ":5510,"èĮ¶":5511,"ĠList":5512,"ĠJanuary":5513,"Ġdisplay":5514,"éĴŁ":5515,"Ġevents":5516,"éĹ»":5517,"ÑīÐ¸":5518,"istry":5519,"lation":5520,"Ġsett":5521,"¯à¦":5522,"inate":5523,"Ġsomeone":5524,"oles":5525,"Ġmach":5526,"æķĳ":5527,"äº¿":5528,"enty":5529,"Ġliving":5530,"ÑģÐµ":5531,"ĠâĢ¦":5532,"çĨŁ":5533,"ÃŃa":5534,"ĠHar":5535,"ronic":5536,"éĽª":5537,"Ġproperty":5538,"Ġfoot":5539,"ĠScience":5540,"ĠÐ¿ÑĢ":5541,"çĶ°":5542,"Ġ×Ĳ×":5543,"lig":5544,"ĠÑģÑĤÐ°":5545,"ught":5546,"à¹Į":5547,"ĠAugust":5548,"çĻ¼":5549,"rial":5550,"ä¿ĿæĬ¤":5551,"ĠTechn":5552,"Ġcomplete":5553,"Ġarray":5554,"ç½ĳç»ľ":5555,"Ġqual":5556,"å®ģ":5557,"åľ°åĮº":5558,"Ġwebs":5559,"=\\":5560,"Ġmagn":5561,"ĉreturn":5562,"Î¬":5563,"CC":5564,"ĠÑĤÐµ":5565,"Ġvia":5566,"ding":5567,"eta":5568,"Ġpan":5569,"ĠGra":5570,"respond":5571,"Ġcreated":5572,"Ġbehind":5573,"è¯¯":5574,"ĠWeb":5575,"Ġdrug":5576,"dom":5577,"è½¯":5578,"×ĳ":5579,"roy":5580,"å¹´çļĦ":5581,"Ġplus":5582,"Ïī":5583,"çĻ»":5584,"ä½įç½®":5585,"Ð»Ð¾":5586,"ä¸Ŀ":5587,"Ġcred":5588,"å°ģ":5589,"Ġjo":5590,"Î³":5591,"ĠHere":5592,"Ġsec":5593,"Ġrecent":5594,"æĶ¿çŃĸ":5595,"Ġenh":5596,"Ġsecurity":5597,"_f":5598,"ä»·åĢ¼":5599,"inical":5600,"Ð¼ÐµÐ½":5601,"ĠWar":5602,"Ġblock":5603,"Ġexpected":5604,"ĠPres":5605,"Ġgas":5606,"Ġheld":5607,"è»":5608,"Ġsubst":5609,"Ġerror":5610,"-n":5611,"åºĵ":5612,"Ġarch":5613,"Ġviol":5614,"hic":5615,"åİŁåĽł":5616,"cial":5617,"Ġq":5618,"Ġhimself":5619,"Ġdas":5620,"ä¹ĭåīį":5621,"ĠJuly":5622,"åĢŁ":5623,"ogen":5624,"ĠInternational":5625,"ĠFr":5626,"ucle":5627,"ba":5628,"ĠDec":5629,"ependent":5630,"ĠÙħÛĮ":5631,"ï¼ģĊ":5632,"è¿ĲåĬ¨":5633,"íķľ":5634,"sub":5635,"je":5636,"Ġmember":5637,"room":5638,"change":5639,"æ£ĢæŁ¥":5640,"åľĨ":5641,"Ġmother":5642,"Ġrights":5643,"Ġcru":5644,"Ġwin":5645,"Ġwon":5646,"aries":5647,"çīĽ":5648,"åºĬ":5649,"æĬĵ":5650,"ĠData":5651,"å½©":5652,"æ°¸":5653,"Ġdescribed":5654,"Ġetc":5655,"Ġpod":5656,"Ġanything":5657,"å©ļ":5658,"è·ĳ":5659,"æľīæķĪ":5660,"çŃĳ":5661,"Ġdim":5662,"xim":5663,"Ġcondition":5664,"Ġmulti":5665,"Ġdivisors":5666,"æĵįä½ľ":5667,"éĢĲ":5668,"Ġcm":5669,"oe":5670,"Ġattention":5671,"¸°":5672,"ĠOf":5673,"sum":5674,"Ġeverything":5675,"æĸ°çļĦ":5676,"(Ċ":5677,"éĩĩçĶ¨":5678,"Ġnumer":5679,"ç¯ĩ":5680,"æĥĬ":5681,"Ġattack":5682,"è½®":5683,"æľºæŀĦ":5684,"à¤¿":5685,"Ġquite":5686,"à¦®":5687,"Ġos":5688,"à¸Ĺà¸µà¹Ī":5689,"Ġproced":5690,"ĠÐ¶":5691,"SC":5692,"Ð³Ð°":5693,"åį±":5694,"hens":5695,"ï¼ģâĢĿ":5696,"æĦŁè§ī":5697,"aily":5698,"ÑĪÐµ":5699,"Î¿Ïħ":5700,"ky":5701,"Ġprinc":5702,"oul":5703,"Ġcontinu":5704,"rated":5705,"Ġsound":5706,"ĠAnt":5707,"ç§¯æŀģ":5708,"Ġload":5709,"rapy":5710,"Ġvisit":5711,"ban":5712,"à§ĭ":5713,"åİĤ":5714,"ĠThen":5715,"åħ¶å®ŀ":5716,"Pl":5717,"Let":5718,"ç»§ç»Ń":5719,"Ġbehavior":5720,"æīĺ":5721,"isf":5722,"æĢĢ":5723,"Ġcompared":5724,"ç²ī":5725,"ĠJournal":5726,"Ġpp":5727,"verse":5728,"æ²Ļ":5729,"Ġreceived":5730,"ĠRel":5731,"Ġperfect":5732,"ĉif":5733,"å¨ģ":5734,"eful":5735,"fficient":5736,"App":5737,"ÑĥÑİ":5738,"ä»¥ä¸Ĭ":5739,"ãģı":5740,"è·Ŀ":5741,"æı¡":5742,"AG":5743,"Ġthemselves":5744,"gl":5745,"ç§Ģ":5746,"rong":5747,"orks":5748,"}(":5749,"Ġbecame":5750,"Ġzu":5751,"Ð¡":5752,"Ġox":5753,"Ġaspect":5754,"ç¹":5755,"Ġstates":5756,"atively":5757,"Ġcapac":5758,"Ġaccom":5759,"Ġnothing":5760,"ç»¼":5761,"æĸ¼":5762,"Ġbad":5763,"æ··":5764,"ategory":5765,"Ġir":5766,"Ġincreasing":5767,"Ġreported":5768,"102":5769,"-C":5770,"èİ·å¾Ĺ":5771,").Ċ":5772,"ĠSeptember":5773,"éģ¿":5774,"';Ċ":5775,"æĢ§çļĦ":5776,"ternal":5777,"abase":5778,"Ġbr":5779,"hemat":5780,"ĠDav":5781,"Ġfem":5782,"è´µ":5783,"Ġidentify":5784,"Ġculture":5785,"Ġdans":5786,"ni":5787,"å¥ĸ":5788,"Ġavoid":5789,"pace":5790,"æĸĩä»¶":5791,"æŀ¶":5792,"Ġexpression":5793,"ĠChina":5794,"ĠFrom":5795,")(":5796,"æ¤į":5797,"Ġgreater":5798,"ĠVol":5799,"yth":5800,"mp":5801,"éĤ£äºĽ":5802,"Ġsort":5803,"Ġbeaut":5804,"onal":5805,"Ġpublished":5806,"Ġcapt":5807,"uh":5808,"\\n":5809,"æĿŁ":5810,"ensity":5811,"èĻĳ":5812,"aches":5813,"Ø§Ø³":5814,"Ġsche":5815,"è¿Ľåħ¥":5816,"73":5817,"æľīä¸Ģ":5818,")\\":5819,"ä»·æł¼":5820,"part":5821,"111":5822,"Ġdoor":5823,"Ġtou":5824,"âĢ²":5825,"Â³":5826,"Ġlonger":5827,"Ġpatient":5828,"Ġwanted":5829,"äºĪ":5830,"Ġimprove":5831,"'Ċ":5832,"Ġincluded":5833,"ruary":5834,"éĢı":5835,"Ġregular":5836,"ĠIndia":5837,"fig":5838,"åįĪ":5839,"New":5840,"æĿ¥è¯´":5841,"æĶ¿æ²»":5842,"è¡¨çİ°":5843,"84":5844,"atform":5845,"Õ¸":5846,"Ġsaw":5847,"Ð²Ðµ":5848,"bt":5849,"ĠRuss":5850,"airs":5851,"æĶ¯æĮģ":5852,"Ġheav":5853,"Ġoutside":5854,"çĺ":5855,"Ġinstit":5856,"ĠOctober":5857,"Ġful":5858,"çĿ£":5859,"é±":5860,"ora":5861,"ridge":5862,"71":5863,"_m":5864,"Ġfeed":5865,"**Ċ":5866,"ĠBi":5867,"IL":5868,"è®¨":5869,"å½¢å¼ı":5870,"-B":5871,"net":5872,"Ġdeveloped":5873,"Ġpict":5874,"æľīçļĦ":5875,"ube":5876,"ç»¿":5877,"pan":5878,"ï½":5879,"Ġsimply":5880,"æ´Ĺ":5881,"Ġinsp":5882,"ead":5883,"æ¢¦":5884,"Ġpopular":5885,"ç¤¼":5886,"but":5887,"æķ¢":5888,"çľĭçĿĢ":5889,"ÐŁ":5890,"inks":5891,"æĪĳåĽ½":5892,"éĿ¢çļĦ":5893,"Ġutil":5894,"180":5895,"OL":5896,"Ġprep":5897,"-se":5898,"ĠDecember":5899,"Ġsex":5900,"Ġtravel":5901,"Ġfire":5902,".T":5903,"Med":5904,"quest":5905,"~~":5906,"isions":5907,"Ġhost":5908,"Ġmaterials":5909,"åı¯æĺ¯":5910,"ãģ¾ãģĻ":5911,"Ġexerc":5912,"ivil":5913,"ufact":5914,"Ġscient":5915,"gy":5916,"æķĻå¸Ī":5917,"fort":5918,"åĨ³å®ļ":5919,"df":5920,"Ġhy":5921,"'ll":5922,"Ġestim":5923,"script":5924,"\")":5925,"86":5926,"SS":5927,"Ġaltern":5928,"81":5929,"ĠSpec":5930,"Ġmedical":5931,"ĠÑĢÐ°Ð·":5932,"åĲĪä½ľ":5933,"Ġappropri":5934,"rat":5935,"96":5936,"ĠWest":5937,"ìĭ":5938,"Ġcancer":5939,"äººä»¬":5940,"ondon":5941,"ĠCity":5942,".âĢĿĊ":5943,"å´":5944,"empl":5945,"wa":5946,"ãģĤ":5947,"ĠVer":5948,"Ġparts":5949,"Ġemerg":5950,"ä½Ľ":5951,"ocation":5952,"å«":5953,"å¹¸":5954,"Ġcomo":5955,"Ġanim":5956,">>":5957,"Ġtrying":5958,"Ġemot":5959,"çĲĨè®º":5960,"åĩĨå¤ĩ":5961,"à§įà¦¯":5962,"sole":5963,"Ġ×©":5964,"Ġaim":5965,"Øº":5966,"ĠÐĿ":5967,"çļĦå°ı":5968,"Ġwond":5969,"Ġmodern":5970,"æİī":5971,"Ġrelig":5972,"Node":5973,"Ġadditional":5974,"vest":5975,"pi":5976,"ados":5977,"ĠFirst":5978,"ä»¥ä¸ĭ":5979,"_n":5980,"è«":5981,"cos":5982,"anger":5983,"Ġinvolved":5984,"Ġorganiz":5985,"equ":5986,"ĠSw":5987,"éĺµ":5988,"\\({":5989,"unch":5990,"Ġfigure":5991,"ĠAmerica":5992,"ees":5993,"é±¼":5994,"iency":5995,"Ġprefer":5996,"ĠNovember":5997,"åħ·ä½ĵ":5998,"Ġdemonstr":5999,"bit":6000,"ĠWhile":6001,"mm":6002,"Ġdecre":6003,"Ġpsych":6004,"-to":6005,"Ġbegan":6006,"åīĤ":6007,"Ġappe":6008,"Ġpick":6009,"ĠOF":6010,"à¥ĩ":6011,"ponse":6012,"Ġversion":6013,"ÑĪÐ¸":6014,"ç¡®å®ļ":6015,"ĠDef":6016,"Ð½ÑĭÐ¹":6017,"input":6018,"span":6019,"é¡¶":6020,"è¡Įä¸ļ":6021,"ìľ":6022,"ĠÂµ":6023,"OD":6024,"Ġhot":6025,"Ġtakes":6026,"åŃ¸":6027,"Ġcarb":6028,"Ġsun":6029,"zi":6030,"omin":6031,"æĪĲåĬŁ":6032,"Ġknew":6033,"è®¾å¤ĩ":6034,"å¿Ļ":6035,"(a":6036,"ford":6037,"èĥľ":6038,"çĬ¯":6039,"ÙĦÙĬ":6040,"Ġattempt":6041,"Ġdouble":6042,"ä¼ļè®®":6043,"ĠNet":6044,"ĠMat":6045,"lick":6046,"dis":6047,"74":6048,"Ã©e":6049,"ĠØ§Ø³Øª":6050,"rought":6051,"ç»į":6052,"æ²»çĸĹ":6053,"ä¸°":6054,"aker":6055,"ĠÎ±":6056,"igned":6057,"Ġforward":6058,"Ġlat":6059,"pat":6060,"è¡Ĺ":6061,"ework":6062,"æĺ¯åľ¨":6063,"ç¨ĭåºı":6064,"och":6065,"ĠÑģÑĤ":6066,"Ġist":6067,"Ð¼Ðµ":6068,"Ġinitial":6069,"urt":6070,"é¦Ĩ":6071,"Ġwall":6072,"Ġgraph":6073,"Ġprimary":6074,"Ġcorrespond":6075,"ido":6076,"å¦ĤæŃ¤":6077,"82":6078,"ĠÑĤÐ°":6079,"ä¾§":6080,"ç¶ĵ":6081,"æĸ¹åĲĳ":6082,"amin":6083,"omy":6084,"Ġcontract":6085,"Ġhon":6086,"Ġcu":6087,"bf":6088,"['":6089,"Ġfelt":6090,"oma":6091,"Ð½Ð¸Ñı":6092,"Ġreflect":6093,"ç»ĵåĲĪ":6094,"èĽĭ":6095,"åĶĲ":6096,"Ġbuy":6097,"ä¸įå¾Ĺ":6098,"Ġhands":6099,"cast":6100,"Ġqui":6101,"Ġcapital":6102,"Ġoil":6103,"Ġtowards":6104,"Ġ]":6105,"rench":6106,"Ġcommand":6107,"ospital":6108,"Ġpas":6109,"æĿ¨":6110,"One":6111,"arter":6112,"ĠÄ":6113,"éĻĨ":6114,"DF":6115,"çĦ¡":6116,"Ġfriend":6117,"ĠĠĠĠĠĠĠĠĠĠĠĠĠ":6118,"Ġdetermine":6119,"pha":6120,"ĠForm":6121,"roller":6122,"amed":6123,"éĽ·":6124,"ĠBook":6125,"à¸£à¸°":6126,"åĮĹäº¬":6127,"Ġinternational":6128,"Ġtheory":6129,"ä¸½":6130,"83":6131,"ias":6132,"å»¶":6133,"ĠØ§Ø²":6134,"with":6135,"Ã¶r":6136,"Ġcompanies":6137,"Ġber":6138,"OC":6139,"arily":6140,"ìļ":6141,"../":6142,"éĽ¶":6143,"Ġautom":6144,"Time":6145,"ario":6146,"åĩºçļĦ":6147,"ĠArch":6148,"inct":6149,"itte":6150,"é¹":6151,"92":6152,"ĠClass":6153,"æĮīçħ§":6154,"ãģį":6155,"Ġlives":6156,"Ġni":6157,"åĲ¯":6158,"ederal":6159,"ously":6160,"æıĲåįĩ":6161,"Ġprobably":6162,"ç§ĳæĬĢ":6163,"Ð¸Ñģ":6164,"ĠÑģÐ¾":6165,"Ġ×¢":6166,"Ġweeks":6167,"Ġlack":6168,"å¥¹çļĦ":6169,"Ġseven":6170,"æ±½":6171,".E":6172,"à¹Īà¸²à¸":6173,"index":6174,"urance":6175,"resh":6176,"Ġfunctions":6177,"elle":6178,"Ġseems":6179,"BN":6180,"à¯ģ":6181,"å®¹æĺĵ":6182,"ika":6183,"çĮ®":6184,"cil":6185,"æİª":6186,"rate":6187,"irth":6188,"ä¸ĭæĿ¥":6189,"æķĪæŀľ":6190,"ibrary":6191,"Ġled":6192,"Ġnews":6193,"èĦ±":6194,"ĠHigh":6195,"AA":6196,"æ¸Ĳ":6197,"oz":6198,"ective":6199,"¯à¦¼":6200,"#include":6201,"æİĪ":6202,"More":6203,"SE":6204,"ĠTest":6205,"æīįèĥ½":6206,"91":6207,"Ø§Ùĩ":6208,"à¹Ĥ":6209,"èľ":6210,"Ġprop":6211,"Ġheat":6212,"åįĸ":6213,"çĥĪ":6214,"åĬłå¼º":6215,"ç§ĭ":6216,"Ġvideo":6217,"Ġlate":6218,"Ġclean":6219,"æĽ´å¤ļ":6220,"æī§è¡Į":6221,"ÐµÑĢÐµ":6222,"Î¹Îº":6223,"coming":6224,"å·¨":6225,"?âĢĿĊĊ":6226,"åħ¨åĽ½":6227,"Ġcompl":6228,".b":6229,"éĩİ":6230,"ä¸įä»ħ":6231,"ç«ŀ":6232,"å¼Ģåıĳ":6233,"ĠCommun":6234,"Ġpredict":6235,"Ġsust":6236,"gn":6237,"Ġmag":6238,"ader":6239,"Ġinstead":6240,"ĠOther":6241,"Ġcontain":6242,"Ġlines":6243,"éĺ´":6244,"Ġconstant":6245,"Ľ×":6246,"ĠRed":6247,"Ġ->":6248,"èĻļ":6249,"ä»¥åĲİ":6250,"Ġ×ķ×":6251,"Ġreduce":6252,"Ġtherefore":6253,"ç¿»":6254,"ĠSupp":6255,"pa":6256,"vement":6257,"Ġcommunication":6258,"ĠST":6259,"Ġreve":6260,"atives":6261,"Ġscience":6262,"å®«":6263,"ĠGre":6264,"aged":6265,"ĠWorks":6266,"ĠØ§ÙĦØ¹":6267,"è¶£":6268,"Ġ!=":6269,"åĩ½":6270,"Ġdetail":6271,"ĠKing":6272,"Ġlooked":6273,"_{\\":6274,"egin":6275,"Ġspeed":6276,"////":6277,"Ġìł":6278,"usion":6279,"ä¸įåı¯":6280,"åĬª":6281,"åıĤåĬł":6282,"term":6283,"ä¼ĳ":6284,"èĤ¯":6285,"Ġbenefits":6286,"Get":6287,"uman":6288,"Ġcompar":6289,"IR":6290,"æļĹ":6291,"Ġfast":6292,"idad":6293,"Ġgrand":6294,"é¥Ń":6295,"ãģķ":6296,"ĠEducation":6297,"å¾Ħ":6298,"Ġsituation":6299,"orage":6300,"Ġacid":6301,"Ġfeet":6302,"éĤ£ä¸ª":6303,"Ġmessage":6304,"ĠDevelop":6305,"lt":6306,"Ġstra":6307,"Ã¸":6308,"ria":6309,"ĠJapan":6310,"Des":6311,"ĠAnal":6312,"ĠSum":6313,"ĠÐ¼Ð°":6314,"Ġdirection":6315,"Ġpack":6316,"Ġstatus":6317,"Ġbott":6318,"Ġexact":6319,"Ġom":6320,"len":6321,"ç©ºéĹ´":6322,"Ġsignal":6323,"des":6324,"ĠAustral":6325,"Ġaw":6326,"èĥŀ":6327,"ĊĊĊ":6328,"Ġcosts":6329,"ç»ıèĲ¥":6330,"Ġexperiment":6331,"ĠEst":6332,"rest":6333,"çĬ¶æĢģ":6334,"é¬":6335,"rab":6336,"Ġroad":6337,"94":6338,"Ã¡n":6339,"Add":6340,"Ġcomputer":6341,"çĿ¡":6342,"Not":6343,"lor":6344,"Ġhope":6345,"éº¼":6346,"ÐµÐº":6347,"ë¦":6348,"åĪĽæĸ°":6349,"ÙħØ§":6350,"-P":6351,"Ġinside":6352,"ĠØ¨Ø±":6353,"Ġcenter":6354,"èĶ":6355,"pite":6356,"oly":6357,"ette":6358,"Ġcry":6359,"Ġremember":6360,"Ġwait":6361,"Ġnames":6362,"Ä±":6363,"à®¿":6364,"è®¸å¤ļ":6365,"hi":6366,"ĠTHE":6367,"Ġpal":6368,"Ġfather":6369,"èĮĥåĽ´":6370,"æĬĺ":6371,"èĪª":6372,"èº«ä½ĵ":6373,"')Ċ":6374,"ç§¦":6375,"åģı":6376,"Ġau":6377,"ãģ¦ãģĦ":6378,"oo":6379,"Ġdistribution":6380,"ä¼°":6381,"Ġallows":6382,"Ã³w":6383,"ev":6384,"Ã©n":6385,"ĠSol":6386,"ĠÐŀ":6387,"Ġdeal":6388,"é»ŀ":6389,"Ġparents":6390,"600":6391,"æĹ¥æľ¬":6392,"roid":6393,"Ġbooks":6394,"ĠMus":6395,"ĠFebruary":6396,"Ġdog":6397,"Ġimmedi":6398,"å¸®åĬ©":6399,"Ġsn":6400,"icon":6401,"ÑĤÑĥ":6402,"Ġmap":6403,"à§Ģ":6404,"Ġvalid":6405,"Ġdark":6406,"Ġtitle":6407,"ÐĴ":6408,"Ġstop":6409,"è¿Ľä¸ĢæŃ¥":6410,"ala":6411,"ï¼īĊĊ":6412,"esus":6413,"|ĊĊ":6414,"Ġsoon":6415,"Ġmut":6416,"Ġmole":6417,"Ġtransfer":6418,"çĤİ":6419,"93":6420,"ãĤ¹":6421,"Ġbed":6422,"Ġnut":6423,"mat":6424,"Ġpurpose":6425,"ç¼ĵ":6426,"ĠScholar":6427,"Ġdefined":6428,"Ġinj":6429,"âĳ":6430,"Ġmid":6431,"189":6432,"aur":6433,"(c":6434,"haps":6435,"éĺ»":6436,"Ġdiagn":6437,"omb":6438,"more":6439,"Ġparticularly":6440,"çĶ¨äºİ":6441,"Ġadminist":6442,"Ġthroughout":6443,"è¿İ":6444,"ä¹±":6445,"PS":6446,"å¯Ĵ":6447,"rig":6448,"æ±ĩ":6449,"Ġdepend":6450,"ä½ľèĢħ":6451,"pret":6452,"Ðŀ":6453,"è¿ĩåİ»":6454,"001":6455,"nown":6456,"ali":6457,"å®ŀæĸ½":6458,"FF":6459,"Ġsoftware":6460,"Ġlimit":6461,"alle":6462,"ĠLear":6463,"Ġmemory":6464,"ĠArt":6465,"àµ":6466,"%,":6467,"ä¸įçŁ¥éģĵ":6468,"ç¡¬":6469,"Ġslow":6470,"='":6471,"è·µ":6472,"Ġthus":6473,"Å¯":6474,"asons":6475,"Ġrespond":6476,"çĽĸ":6477,"Ġwer":6478,"æĹ§":6479,"Ġwebsite":6480,"éķ·":6481,"Ġgirl":6482,"void":6483,"Form":6484,"Ġbox":6485,"Ġprogress":6486,"éĵ¶è¡Į":6487,"Ġca":6488,"Ġsuff":6489,"Ġcritical":6490,".R":6491,"Ġoverall":6492,"æ¸¯":6493,"ä¸ļåĬ¡":6494,"Ġfavor":6495,"Ġnm":6496,"used":6497,"ani":6498,"iverse":6499,"Ġple":6500,"Ġwhose":6501,"å°ļ":6502,"Ġnga":6503,"ĠPhys":6504,"Ġeth":6505,"ç«¥":6506,"edia":6507,"æ¨¡å¼ı":6508,"èīºæľ¯":6509,"Ġemp":6510,"å¼±":6511,"æī©":6512,"board":6513,"ponent":6514,"bar":6515,"ĠOur":6516,"Ġdigital":6517,"Ġtas":6518,"çŃ¾":6519,"Ġdistance":6520,"Ġmis":6521,"åĨ°":6522,"ÑīÐµ":6523,"×ķ×¨":6524,"æĹłæ³ķ":6525,"-A":6526,".âĢĻ":6527,"')":6528,"ĠAre":6529,"izes":6530,"Ġsteps":6531,"Ġapplications":6532,"ä»»åĬ¡":6533,"see":6534,"ç»©":6535,"Ġoptions":6536,"Ġlegal":6537,"quare":6538,"cia":6539,"Ġcoming":6540,"html":6541,"å¼¹":6542,"Ġlimited":6543,"ca":6544,"Ġweb":6545,"Ġ&&":6546,".L":6547,"erve":6548,"æ·¡":6549,"Ġequation":6550,"å°¼":6551,"ULL":6552,"Ġax":6553,"ÉĻ":6554,"Ġsafety":6555,"Ġbound":6556,"Ġsurv":6557,"Ġdesigned":6558,"Ġleave":6559,"aren":6560,"éľĢæ±Ĥ":6561,"å®ľ":6562,"Ø±ÙĬ":6563,"Ġinstall":6564,"à¸²à¸¡":6565,"å¤®":6566,"Ġdro":6567,"Ġvehic":6568,"Ġbasic":6569,"Ġog":6570,"Äģ":6571,"éĩįçĤ¹":6572,"ç®Ģåįķ":6573,"Ġdynam":6574,"ĠSee":6575,"ç»¼åĲĪ":6576,"Ġtal":6577,"Ġdirectly":6578,"Ġprocesses":6579,"exp":6580,"à¤¿à¤":6581,"oon":6582,"ĠNow":6583,"Ġbasis":6584,"Ġspect":6585,"ĠInstit":6586,"vention":6587,"BC":6588,"vo":6589,"ocks":6590,"Ġsociety":6591,"åĬªåĬĽ":6592,"vol":6593,"Ùĳ":6594,"éļĲ":6595,"ords":6596,"Õ«":6597,"éĺħ":6598,"Ġwatch":6599,"(i":6600,"Ġenter":6601,"çĴ":6602,"itable":6603,"æ¾":6604,"ĠCourt":6605,"åĲĽ":6606,"ĠDel":6607,"rew":6608,"Ġsin":6609,"Ġlic":6610,"ĠFe":6611,"Ġalgor":6612,"ĠMod":6613,"Ġmatch":6614,"active":6615,"Ġball":6616,"çĲĨè§£":6617,"oken":6618,"è§¦":6619,"ĠÐĲ":6620,"cd":6621,"Ġou":6622,"Ġuses":6623,"ç§ģ":6624,"ĠDi":6625,"Ġwoman":6626,"Ġê°":6627,"Ġusers":6628,"ellow":6629,"Ġstru":6630,"è¾ĳ":6631,"Ġstage":6632,"Ø§Ø¡":6633,"ache":6634,"Google":6635,"ĠDet":6636,"ashing":6637,"Ġemail":6638,"Ġacqu":6639,"çĶ¨æĪ·":6640,"é»ĺ":6641,"å¨ĺ":6642,"åĸĿ":6643,"Ġlost":6644,"Ġremain":6645,"Ġleading":6646,"å±ĭ":6647,"ku":6648,"Ġdiscover":6649,"103":6650,"Ġvolume":6651,"Ġpret":6652,"Ġadvant":6653,"Ġassum":6654,"ĠÐł":6655,"ä¸ºä»Ģä¹Ī":6656,"ä»ĭç»į":6657,"æ¬§":6658,"iers":6659,"Ġeveryone":6660,"âĨ":6661,"çĪ¸":6662,"è¡ĮæĶ¿":6663,"èĪ¹":6664,"ĠÐ¿Ð¾Ð»":6665,"(self":6666,"Ġmm":6667,"è´Łè´£":6668,"Ġdos":6669,"é¤Ĳ":6670,"Ġrates":6671,"Ġcentral":6672,"ags":6673,"Ġcook":6674,"Ġcit":6675,"ì§Ģ":6676,"ĠEarth":6677,"è®¿":6678,"dated":6679,"-year":6680,"lands":6681,"ĠÙ¾":6682,"Ġcentury":6683,"Ġones":6684,"Value":6685,"Ġ×©×":6686,"Ġprofessional":6687,"ĠJust":6688,"Pr":6689,"Ġactive":6690,"æĢª":6691,"ï¼ŁĊ":6692,"ĠLondon":6693,"iring":6694,"next":6695,"åĪº":6696,"ĠDepartment":6697,"Ġcas":6698,"Ġrelev":6699,"gar":6700,"å·Ŀ":6701,"æĦıè¯Ĩ":6702,"Ġanaly":6703,"Ġtools":6704,"pid":6705,"Ġproviding":6706,"Ġstri":6707,"Ġadapt":6708,"ĠÑħ":6709,"ä¿ĿæĮģ":6710,"ÎŃ":6711,"Ġextra":6712,"']":6713,"ĠÑģÐ°":6714,"æĺ¯ä¸Ģä¸ª":6715,"èĦī":6716,"......":6717,"Ġgave":6718,"Ġrandom":6719,"åĺ´":6720,"Ġparty":6721,"éĢłæĪĲ":6722,"Ġdefault":6723,"ÑĤÑĭ":6724,"ÙĪÙħ":6725,"Ġgreen":6726,"åĩĢ":6727,"ancy":6728,"EE":6729,"éŃĶ":6730,"Ġmention":6731,"ĠØ¹ÙĦÙī":6732,"Ġmob":6733,"Ġerr":6734,"é½Ĳ":6735,"ĠFact":6736,"She":6737,"åĬ³åĬ¨":6738,"è¿ĩç¨ĭä¸Ń":6739,"Ġnegative":6740,"Figure":6741,"éĢŁåº¦":6742,"uge":6743,"Ġdetails":6744,"ê³ł":6745,"ati":6746,"ĠÙħØ¹":6747,"Ġsomet":6748,"Ġchoice":6749,"æ¶Īè´¹":6750,"ê°Ģ":6751,"Ġstaff":6752,"åĿı":6753,"Ab":6754,"Ġà¦ı":6755,"User":6756,"ĠGet":6757,"Ġnode":6758,"My":6759,"iful":6760,"/d":6761,"Ġband":6762,"ä¼´":6763,"Ġcos":6764,"å¥¶":6765,"ÐºÑĥ":6766,"Ġseek":6767,"Īëĭ¤":6768,"Ġimag":6769,"æ´²":6770,"estern":6771,"è¾¾åĪ°":6772,"Ġbrain":6773,"inder":6774,"æŃ£ç¡®":6775,"ĠĠĊĊ":6776,"mitted":6777,"æĪĲæľ¬":6778,"Ġtransform":6779,"().":6780,"Ġtrack":6781,"Ġord":6782,"Ġprograms":6783,"ĠMor":6784,"æľ«":6785,"å»ºçŃĳ":6786,"ĠâĨĴ":6787,"ä¸ĢçĤ¹":6788,"Õ¥":6789,"ĠJe":6790,"Ġboard":6791,"TO":6792,"250":6793,"ague":6794,"éļıçĿĢ":6795,"ÃŁ":6796,"isation":6797,"Ġappropriate":6798,"Ġbur":6799,"ĠÐ´Ð»Ñı":6800,"ëı":6801,"ses":6802,"Ġapplied":6803,"çĽ®çļĦ":6804,"Ġofficial":6805,"MP":6806,"èĪĩ":6807,"Ġorigin":6808,"Ġstatement":6809,"Ġsample":6810,"åĬĽéĩı":6811,"Ð´Ñĥ":6812,"item":6813,"Ġtour":6814,"olic":6815,"Ġexcept":6816,"Î¸":6817,"Ġturned":6818,"Ġencou":6819,"ĠReview":6820,"ä¼łç»Ł":6821,"Ġmechanism":6822,"Ġforms":6823,"Ġplatform":6824,"Ġsatisf":6825,"ecause":6826,"éº»":6827,"åİļ":6828,"attle":6829,"Ġlocation":6830,"åĪĨåĪ«":6831,"ocol":6832,"Ġtim":6833,"angle":6834,"ĠDay":6835,"Ð¿Ð°":6836,"åŃĶ":6837,"ĠÐ±Ñĭ":6838,"rote":6839,"Ġentre":6840,"aled":6841,"Ġhyp":6842,"uy":6843,"Ġtransport":6844,"Ġtrust":6845,"ente":6846,"åıªè¦ģ":6847,"ena":6848,"Ġstd":6849,"éĨĴ":6850,".W":6851,"èĪŀ":6852,"Ġinfluence":6853,"ç³ĸ":6854,"Ġtree":6855,"è¿Ļæł·çļĦ":6856,"Ġhour":6857,"èĢ³":6858,"enge":6859,"188":6860,"ç´¯":6861,"Ġcand":6862,"å¤ļå°ĳ":6863,"ĠPublic":6864,"Ġpresence":6865,"Ġing":6866,"itary":6867,"ums":6868,"à§Ł":6869,"berg":6870,"è®¤è¯Ĩ":6871,"æĦıä¹ī":6872,"Ġplants":6873,"Ġbud":6874,"Ġpet":6875,"Ġult":6876,"Ġround":6877,"State":6878,"Ġjour":6879,"ona":6880,"ä¹ĭä¸Ģ":6881,"Ġpurch":6882,"Ġ~":6883,"800":6884,"illing":6885,"Ġprotein":6886,"åŃ¦éĻ¢":6887,"æĹ¶ä»£":6888,"Ġquickly":6889,"Ġvariety":6890,"ĠProgram":6891,"Ġthinking":6892,"é²ľ":6893,"ë¥¼":6894,"123":6895,"Ġmanufact":6896,"-D":6897,"ç¦ģ":6898,"ç¾¤ä¼Ĺ":6899,"http":6900,"UN":6901,"ĠLaw":6902,"Ġft":6903,"ĠOver":6904,"ouncil":6905,"ìĦľ":6906,"ª×":6907,"reement":6908,"!!":6909,"ĠJesus":6910,"å¯¼èĩ´":6911,")=":6912,"ÛĮØ¯":6913,"æĽ´åĬł":6914,"Ġreference":6915,"ams":6916,"186":6917,"rief":6918,"ĠEuropean":6919,"à¦¸":6920,"rc":6921,"wise":6922,"Ġuseful":6923,"108":6924,"mes":6925,"Ġstrength":6926,"æĤ£èĢħ":6927,"Ø§Ø¦":6928,"æ§":6929,"çĸ¾":6930,"ĠÏĥ":6931,"Of":6932,"æľīäºº":6933,"Ġrunning":6934,"ĠSan":6935,"hood":6936,"çĥŁ":6937,"ĠPark":6938,"Ġbank":6939,"agram":6940,"plit":6941,"å¸Ń":6942,"Ġdoi":6943,"åĩ¡":6944,"isher":6945,"Ġrow":6946,"åıªèĥ½":6947,"ĠUse":6948,"Ġtown":6949,"Īĺ":6950,"Ġbackground":6951,"ĠOut":6952,"ĠGovern":6953,"Ġdegree":6954,"çĪ·":6955,"Ð»Ñĥ":6956,"ÑĢÑĭ":6957,"Ġ×Ĳ":6958,"å½ĵçĦ¶":6959,"æĭ¥":6960,"Ġcam":6961,"Em":6962,"çİ°ä»£":6963,"éłŃ":6964,"iding":6965,"åĪĢ":6966,"éĢ²":6967,"Ġideas":6968,"Õ¶":6969,"160":6970,"bor":6971,"×ĵ":6972,"Er":6973,"éĻ¤äºĨ":6974,"_ĊĊ":6975,"æģ¶":6976,"è¯´æĺİ":6977,"Ġpow":6978,"åĲĮåŃ¦":6979,"((":6980,"cho":6981,"ĠTime":6982,"ĠBar":6983,"./":6984,"ä¸ĭçļĦ":6985,"å°±ä¼ļ":6986,"annel":6987,"position":6988,"},":6989,"Ġaffect":6990,"å®¶åºŃ":6991,"105":6992,"ĠAssoci":6993,"inese":6994,"å¢ŀéķ¿":6995,"Ã©t":6996,"é£İéĻ©":6997,"ä¸įåĪ°":6998,"çº¸":6999,"æĺ¾ç¤º":7000,"Ġworth":7001,"ears":7002,"ilos":7003,"Ġ+=":7004,"ĠProf":7005,"Ġcomment":7006,"é¡¿":7007,"Ġopportunity":7008,"Ġproduce":7009,"Ġletter":7010,"(b":7011,"åįģåĪĨ":7012,"130":7013,"ĠÏĢ":7014,"Î®":7015,"æ¯«":7016,"Ġformer":7017,"æĬ¥åĳĬ":7018,"fe":7019,"Ġwasn":7020,"));Ċ":7021,"Ġcompre":7022,"Ġhydro":7023,"å³°":7024,"init":7025,"ECT":7026,"Ġrules":7027,"ĉĊ":7028,"ãĤĪ":7029,"ĠÐ¿Ð¾Ð´":7030,"ç¨ĭåº¦":7031,"Ġoffice":7032,"å¹³åı°":7033,"lished":7034,"rack":7035,"à®¿à®":7036,"ÑĨÐ¸Ð¸":7037,"pert":7038,"Ġheight":7039,"chen":7040,"éĵ¾":7041,"CE":7042,"ĠAdd":7043,"åľĪ":7044,"å®ļçļĦ":7045,"éĺ¶æ®µ":7046,"Ġgives":7047,"unk":7048,"Ġvirt":7049,"Ġwide":7050,"çģ¯":7051,"uthors":7052,"Ġsleep":7053,"From":7054,"ç¼©":7055,"rage":7056,"à¦¾à¦¨":7057,"Ġaware":7058,"Ġswe":7059,"force":7060,"ìķ":7061,"Ð½Ñı":7062,"ji":7063,"å·¥ä¸ļ":7064,"Ġspeak":7065,"Ġpoor":7066,"æĶ¹éĿ©":7067,"Ġbrought":7068,"ĠÑĩÑĤÐ¾":7069,"Ġoffers":7070,"ĠÐ´Ð¾":7071,"æĹģ":7072,"Ġconstruct":7073,"æľīéĻĲ":7074,"Ġtraditional":7075,"Ġgoal":7076,"æķ´ä¸ª":7077,"iments":7078,"jo":7079,"Ġfeature":7080,"ĠInc":7081,"unc":7082,"Ġobtained":7083,"eria":7084,"å½ĵæĹ¶":7085,"åĩłä¸ª":7086,"åĿļæĮģ":7087,"Ġhar":7088,"ĠAP":7089,"è·³":7090,"å®ĭ":7091,"omas":7092,"(p":7093,"åĩ½æķ°":7094,"åĤ¨":7095,"Ġfight":7096,"Ġsometimes":7097,"å¯»":7098,"Ġaf":7099,"Ġmovement":7100,"ologies":7101,"è¦ĭ":7102,"åħ±åĲĮ":7103,"Ġlayer":7104,"éĴ¢":7105,"Ġkil":7106,"ellig":7107,"Ġmys":7108,"æ´ĭ":7109,"Ġphase":7110,"Ġshowed":7111,"è®¾ç½®":7112,"éģį":7113,"cles":7114,"Key":7115,"Ġfamil":7116,"amente":7117,"éģĹ":7118,"æŃ£å¸¸":7119,"ĠGeneral":7120,"åħĪçĶŁ":7121,"ĠSci":7122,"è¡¡":7123,"à¹ģà¸¥":7124,"usiness":7125,"åıĹåĪ°":7126,"alam":7127,"Ġfollowed":7128,"mo":7129,"Ġunits":7130,"ĠOff":7131,"asi":7132,"Ġcolumn":7133,"Ġlabor":7134,"Ġgames":7135,"ao":7136,"åĽłç´ł":7137,"èģĶç³»":7138,"Ġwrong":7139,"Ġvoice":7140,".print":7141,"Ġchallenges":7142,"å°¤":7143,"æ¥Ń":7144,"æĪĳä»¬çļĦ":7145,"èĥ¡":7146,"Ġskin":7147,"ĠUp":7148,"å¿ĥçĲĨ":7149,"urb":7150,"ivo":7151,"ĠDem":7152,"Be":7153,"cks":7154,"Ġnote":7155,"ãĢĤâĢľ":7156,"èĢĥèĻĳ":7157,"ingu":7158,"Ġhighly":7159,"Ġlett":7160,"å¸ģ":7161,"Ġserious":7162,"104":7163,"(d":7164,"Ġexamples":7165,"iny":7166,"ĠAM":7167,"å¯¦":7168,"Ġpages":7169,"iance":7170,"ìĬ":7171,"Ġrequirements":7172,"ĠBen":7173,"å®ĥä»¬":7174,"Ġgenerally":7175,"Ġimportance":7176,"Ġbey":7177,"Ġimages":7178,"ĠTable":7179,"ìĿĢ":7180,"ady":7181,"ãĥĪ":7182,"otes":7183,"Ġtend":7184,"æĸ¹æ¡Ī":7185,"Ġeasily":7186,"çķ¶":7187,"Ġrot":7188,"Ġtechniques":7189,"SP":7190,"å¹ħ":7191,".st":7192,"body":7193,"ĠWork":7194,"Ġorganization":7195,"èİ«":7196,"iva":7197,"inding":7198,"Ġobserved":7199,"æ¨£":7200,"187":7201,"ĠrÃ©":7202,"Ġdivided":7203,"Ġvict":7204,"ç§ĺ":7205,"ç»ıè¿ĩ":7206,"125":7207,"Ġbeyond":7208,"arlier":7209,"éĩĮçļĦ":7210,"Ġsympt":7211,"Ġtoward":7212,"ĠFrench":7213,"ĠMet":7214,"ØªØ±":7215,"mi":7216,"Ġthreat":7217,"ĠBritish":7218,"çĶŁåĳ½":7219,"ãģĻãĤĭ":7220,"ito":7221,"ĠDate":7222,"Ġsong":7223,"XX":7224,"å®½":7225,"Ġfollows":7226,"avig":7227,"nie":7228,"Ġpull":7229,"That":7230,"Ġtask":7231,"ĠWilliam":7232,"Text":7233,"xx":7234,"åıįåºĶ":7235,"Ġsources":7236,"è¯¢":7237,"Ġchoose":7238,"OM":7239,"ulated":7240,"ä¸Ĭæµ·":7241,"å¹¶ä¸Ķ":7242,"uan":7243,"Ġfra":7244,"ãĤĵ":7245,"Ġillust":7246,"Ð½Ð¾ÑģÑĤÐ¸":7247,"ĠDist":7248,"package":7249,"ĠPaul":7250,"ĠChar":7251,"Ġinnov":7252,"×ľ×":7253,"Ġalthough":7254,"Ġamb":7255,"à¸²à¸ģ":7256,"Ġcomponents":7257,"ĠPort":7258,"åķı":7259,"è°ĵ":7260,"åħ¨éĿ¢":7261,"Ð³Ð¸":7262,"Ġapply":7263,"åĲĪåĲĮ":7264,"Ùĭ":7265,"Ġspirit":7266,"Ġcultural":7267,"çīĻ":7268,"ĠÃ¨":7269,"Ġà¦®":7270,"ä¹Łæľī":7271,"Ġcontains":7272,"å®ŀè·µ":7273,"Ġdaily":7274,"itory":7275,"ĠMich":7276,"äº¦":7277,"utive":7278,"itect":7279,"ĠMicro":7280,"çĽĽ":7281,"èµµ":7282,"Ġhttp":7283,"Ġoption":7284,"Ð½Ð¸Ðµ":7285,"Ġkids":7286,"arrow":7287,"ĠView":7288,"cular":7289,"ĠItal":7290,"æĶ¶åħ¥":7291,"Î´":7292,"Ð¾ÑĤÐ¾ÑĢ":7293,"Ġlarger":7294,"ĠÐĶ":7295,"Rep":7296,"ä½³":7297,"çļĦéĹ®é¢ĺ":7298,"Ġdead":7299,"ructure":7300,"zer":7301,"_P":7302,"Ø§Ùģ":7303,"ç»Ĩèĥŀ":7304,"èµĦéĩĳ":7305,"Ġreceive":7306,"abet":7307,"ÑģÑģ":7308,"ittee":7309,"çªģçĦ¶":7310,"å¹¼":7311,"Ġorg":7312,"åĢº":7313,"Ġlab":7314,"æĺİæĺ¾":7315,"Ġitems":7316,"orge":7317,"ä»ª":7318,"Service":7319,"ĠPal":7320,"encies":7321,"');Ċ":7322,"Ġpi":7323,"è¿Ŀ":7324,"à¸¶":7325,"mathrm":7326,"Ġfif":7327,"ipal":7328,"Ġpoly":7329,"Ġdeliver":7330,"140":7331,"Ġmal":7332,"ests":7333,"æ¶¦":7334,"109":7335,"106":7336,"Ġnucle":7337,"iones":7338,"></":7339,"Ġsold":7340,"Ġnine":7341,".B":7342,"osure":7343,"å¯¹è±¡":7344,"æĺł":7345,"é¦ĸåħĪ":7346,"hesis":7347,"hest":7348,"êµ":7349,"åıĤä¸İ":7350,"ĠðŁ":7351,"Ġsolutions":7352,"box":7353,"çªĹ":7354,"kl":7355,"Ø¸":7356,"Ã´":7357,"è¯´éģĵ":7358,"éĩıçļĦ":7359,"Ð»ÐµÐ½":7360,"ëĵ":7361,"æģ©":7362,"Ġprojects":7363,"ĠUK":7364,"èį£":7365,"Table":7366,"Ġisn":7367,"åĩĿ":7368,"ferences":7369,"Ġfair":7370,"Ð½Ð°Ñı":7371,"vi":7372,"Ġjava":7373,"ç»ıéªĮ":7374,"Ġ:=":7375,"Ġsupply":7376,"Ġfit":7377,"æĬ½":7378,"Ġbuilt":7379,"Ġsymbol":7380,"ancing":7381,"å°Ĭ":7382,"å»ºè®®":7383,"äºĭæĥħ":7384,"Ġ×Ļ":7385,"array":7386,"\\\\":7387,"åł´":7388,"Ġitem":7389,"ä½ľåĵģ":7390,"Ġrequires":7391,"åĮ»éĻ¢":7392,"çĸ«æĥħ":7393,"ulations":7394,"ulture":7395,"éļĶ":7396,"Ġflex":7397,"ML":7398,"ista":7399,"iling":7400,"åĩºçīĪ":7401,"æİ¥åıĹ":7402,"ĠÂ»":7403,"æī¬":7404,"Ġyourself":7405,"ç¥ĸ":7406,"Ġbeginning":7407,"Ġoperation":7408,"Ġinstance":7409,"Ste":7410,"ê¸°":7411,"band":7412,"Ġ},Ċ":7413,"(-":7414,"æĬ±":7415,"æıı":7416,"ï¼īï¼Į":7417,"ÑĨÐµ":7418,"ĠHouse":7419,"(\\":7420,"ĠÐ²Ð¸":7421,"åħ¨éĥ¨":7422,"Ġalt":7423,"ael":7424,"Ġmeeting":7425,"Ġharm":7426,"Ġprotect":7427,"Ġë°":7428,"ãĥ«":7429,"æıĲåĩº":7430,"Ġheard":7431,"-term":7432,"ige":7433,"iot":7434,"ê²":7435,"ĠPresident":7436,"åŃĻ":7437,"¤×":7438,"æĿ¥äºĨ":7439,"ä»Ļ":7440,"éľĩ":7441,"Ġbes":7442,"icine":7443,"Ġproduced":7444,"Ġestablish":7445,"éĢĶ":7446,"Ġmas":7447,"å¦ĩ":7448,"export":7449,"Ġcollection":7450,"Ġperformed":7451,"Ġclinical":7452,"irt":7453,"ĠSen":7454,"ĠÐ¾Ð´":7455,"æ»ĳ":7456,"Ġcarry":7457,"wer":7458,"å®£ä¼ł":7459,"æĮĳ":7460,"é¢ľ":7461,"æĶ¹åıĺ":7462,"ĠMal":7463,"à¹Īà¸Ń":7464,"rees":7465,"Ġded":7466,"rupt":7467,"ĠGr":7468,"Ġmorning":7469,"CD":7470,"ä½ĵç³»":7471,"Ġalone":7472,".out":7473,"åħħåĪĨ":7474,"çº·":7475,"åºĨ":7476,"Ð·Ð¸":7477,"aa":7478,"ĠBlack":7479,"åŃĲçļĦ":7480,"Ġblog":7481,"ÏĨ":7482,"Ġcharacteristics":7483,"Ġmiddle":7484,"'d":7485,"Ġadjust":7486,"Ġgi":7487,"ipment":7488,"è´¥":7489,"\\[":7490,"Ġcurrently":7491,"ĠWhy":7492,"çľŁæŃ£":7493,"ania":7494,"å¿ĺ":7495,"Ø¨Ø±":7496,"æļ´":7497,"Ġrule":7498,"Ġdetermined":7499,",_":7500,"Number":7501,"ĠIndian":7502,"Ġpractices":7503,"hol":7504,"-F":7505,"é¼ĵ":7506,"ĠChem":7507,"Sc":7508,"ĠId":7509,"Ġincor":7510,"åħ³éĶ®":7511,"Ġteaching":7512,"âĢ¦ĊĊ":7513,"ruit":7514,"Ġvariable":7515,"åªĴ":7516,"ĠÚ©Ùĩ":7517,"ago":7518,"Item":7519,"æ°ĳæĹı":7520,"æ©Ł":7521,"ĠBer":7522,"é¥®":7523,"ï¼ļĊ":7524,"ĠCenter":7525,"char":7526,"Ġsolid":7527,"ä¿Ŀè¯ģ":7528,"La":7529,"Ġconnection":7530,"Ġhelps":7531,"Ġrele":7532,"åľ£":7533,"112":7534,"Ġbul":7535,"Ġfish":7536,"Ġenvironmental":7537,"Ġà¦Ĩ":7538,"Ġcat":7539,"æł¹æľ¬":7540,"unn":7541,"oat":7542,"ĠAut":7543,"oto":7544,"ĠDiv":7545,"eration":7546,"Object":7547,"standing":7548,"-re":7549,"-up":7550,"Ġgrowing":7551,"Ġcomponent":7552,"Ġmental":7553,"ĠAND":7554,"osite":7555,"èµĦäº§":7556,"ä¸įåĲĮçļĦ":7557,"ĠDavid":7558,"äº¤æĺĵ":7559,"ÛĮØ±":7560,"Ġreach":7561,"ds":7562,"å±ŀäºİ":7563,"ĠCur":7564,"ìĸ":7565,"ĠWik":7566,"Ġauf":7567,"akan":7568,"Ġcarbon":7569,"ĠBro":7570,"æİªæĸ½":7571,"Ġsignificantly":7572,"é¢ĨåŁŁ":7573,"Ġoperations":7574,"ĠÑı":7575,"æģĲ":7576,"åīĳ":7577,"æĥ³è¦ģ":7578,"Mod":7579,"Ġstore":7580,"ÐĿ":7581,"åıĳå¸ĥ":7582,"æĪĲäºĨ":7583,"works":7584,"Ġrepe":7585,"ĠLife":7586,"Ġstrategies":7587,"Ð½Ð¾Ð²Ð½Ð¸":7588,"Ġpresented":7589,"è°ĥæķ´":7590,"Ġgrade":7591,"cons":7592,"185":7593,"Ġconv":7594,"bra":7595,"å®ŀéªĮ":7596,"ç¨®":7597,"åŁ¹è®Ń":7598,"æĦıæĢĿ":7599,"ĠSal":7600,"èĢĮæĺ¯":7601,"Ġinterpret":7602,"åĬ±":7603,"Ġincome":7604,"phas":7605,"æķħäºĭ":7606,"çĪĨ":7607,"æĥ³åĪ°":7608,"Ġcareer":7609,"Ġcopy":7610,"áŀ":7611,"ĠNews":7612,"ĠMill":7613,"èĨľ":7614,"Ġfarm":7615,"Man":7616,"Ġscale":7617,"Ġgradu":7618,"ĠRev":7619,"à¸±à¸Ļ":7620,"ola":7621,"Ġestablished":7622,"è©±":7623,"çŃĶæ¡Ī":7624,"æ¸¸æĪı":7625,"ÐĲ":7626,"ĠID":7627,"ounced":7628,"Ġtrade":7629,"Ġmel":7630,"Ġdiss":7631,"ync":7632,"Ġshape":7633,"Ġearth":7634,"æĮģç»Ń":7635,"æŃ£åľ¨":7636,"Ġsen":7637,"ocr":7638,"Ġelectric":7639,"Ġ|Ċ":7640,"åģļå¥½":7641,"ayer":7642,"ĠSk":7643,"Ġsurpr":7644,"ĠLi":7645,"ĠHistory":7646,"Ġguid":7647,"Ġcrucial":7648,"ifying":7649,"éĶĢåĶ®":7650,"ä¸Ńå¤®":7651,"èıĮ":7652,"Ġmyself":7653,"ĠÐ¢":7654,"Ġratio":7655,"Ġsurround":7656,"Ref":7657,"Ġchemical":7658,"éĹŃ":7659,"zo":7660,"çĿĽ":7661,"ĠRec":7662,"Ġkom":7663,"äº¤æµģ":7664,"ultural":7665,"lication":7666,"ĠInformation":7667,"æĹħæ¸¸":7668,"Ġà¦¹":7669,"Ġspread":7670,"å·¦åı³":7671,"à¤°":7672,"æ¶ī":7673,"ĠAnn":7674,"comp":7675,"Ġcreating":7676,"Ġcaused":7677,"ä¼Ļ":7678,"Ġmount":7679,"Ùı":7680,"Ġsafe":7681,"åŁ¹åħ»":7682,"åı¬":7683,"sec":7684,"rael":7685,"Ð»Ð¾Ð²":7686,"Ġcele":7687,"augh":7688,"urity":7689,"Ġhop":7690,"RA":7691,"Ġready":7692,"ĠSocial":7693,"âĹ":7694,"ĠÎ¼":7695,"ÑĩÐµÑģÐºÐ¸":7696,"ĠOpen":7697,"æ±ł":7698,"Ġinteresting":7699,"Ġrob":7700,"Ġanswers":7701,"å§Ķåĳĺ":7702,"ĠAI":7703,"Ġmath":7704,"ela":7705,"Ġbecomes":7706,"å°ıæĹ¶":7707,"ĠRem":7708,"Up":7709,"%)":7710,"ĠBr":7711,"éĥ½æľī":7712,"Ġvisual":7713,"è¯Ĭ":7714,"äº¤éĢļ":7715,"ĠMath":7716,"Ġactual":7717,"å°ĩ":7718,"Ġwel":7719,"MS":7720,"Ġ{ĊĊ":7721,"Ġwarm":7722,"Ġrelevant":7723,"Ġproposed":7724,"Ðļ":7725,"ĠEast":7726,"ĠGroup":7727,"Ġearlier":7728,"ĠÑģÐ¸":7729,"å¹¶ä¸į":7730,"lam":7731,"åĮºåŁŁ":7732,"/j":7733,"è´´":7734,"à¹Ģà¸Ľ":7735,"point":7736,"ÑĢÐ¾Ð²":7737,"åĬŀæ³ķ":7738,"Ġbroad":7739,"ĠDon":7740,"inci":7741,"Ð½Ð¾Ð¼":7742,"](":7743,"å¼ķèµ·":7744,"Ġcool":7745,"Ġhear":7746,"mark":7747,"çĶµè¯Ŀ":7748,"ĠKe":7749,"Ġesc":7750,"Ġperspect":7751,"Ġdifferences":7752,"sch":7753,"å¦¹":7754,"_l":7755,"èī²çļĦ":7756,"Ġmonitor":7757,"åħ³æ³¨":7758,"','":7759,"å¹²éĥ¨":7760,"ĉpublic":7761,"Ġfat":7762,"Ġdamage":7763,"éĩĳèŀį":7764,"Ġopportunities":7765,"æĮĩå¯¼":7766,"Ġdecimal":7767,"Ġcapacity":7768,"Ġclimate":7769,"ded":7770,"umer":7771,"het":7772,"SU":7773,"æ¡¥":7774,"scrib":7775,"Ð¾Ð´Ð°":7776,"ÙĲ":7777,"Date":7778,"è´·":7779,"reate":7780,"ĠPlan":7781,"rical":7782,"ÑĪÑĤ":7783,"-th":7784,"ATION":7785,"æļĸ":7786,"pm":7787,"ÑģÑĤÐ²Ð°":7788,"ĠSam":7789,"æĸĩç«ł":7790,"Ġfrequency":7791,"107":7792,"Ġapproxim":7793,"ĠThus":7794,"rd":7795,"Ġrepl":7796,"Ġmg":7797,"ĠUnder":7798,"-pro":7799,"Ġgoals":7800,"ĠLord":7801,"è¿·":7802,"äº¡":7803,"æĿ¥æºĲ":7804,"Answer":7805,"Ð¶Ðµ":7806,"ï¼īĊ":7807,"aÃ§Ã£o":7808,"Ġmeasures":7809,"ĠÐĺ":7810,"èµ¶":7811,".F":7812,"å±Ĭ":7813,"ĠSur":7814,"_.":7815,"abil":7816,"Ġadopt":7817,"Ġdrive":7818,"OP":7819,"Ġhous":7820,"ÚĨ":7821,"Ġstrategy":7822,"Ġresource":7823,"åıĸå¾Ĺ":7824,"known":7825,"çĶ³è¯·":7826,"Äĥ":7827,"dy":7828,"acters":7829,"abilities":7830,"è¯Ńè¨Ģ":7831,"æ°ı":7832,"128":7833,"ĠØ£ÙĨ":7834,"...Ċ":7835,"Ð½Ð¾Ðµ":7836,"Ġallowed":7837,"Ġplayers":7838,"éķľ":7839,"Ġlocated":7840,"Ãµ":7841,"Ġsoil":7842,"ĠâĢŀ":7843,"ÙĬØ¯":7844,"Ġdevices":7845,"åİŁåĪĻ":7846,"aby":7847,"ester":7848,"æ¯ıä¸ª":7849,"ç®±":7850,"ĠDirect":7851,"reci":7852,"Over":7853,"Ġ__":7854,"Ġfields":7855,"Ġ×Ķ":7856,"Ġlif":7857,"è®¢":7858,"åĲİçļĦ":7859,"ãģĹãģŁ":7860,"âĶ":7861,"æľºä¼ļ":7862,"Ġmemb":7863,"ä¿Ŀéļľ":7864,"æ´Ľ":7865,"å¹ķ":7866,"åĲī":7867,"è¿Ķ":7868,"Ġmarg":7869,"Ġresid":7870,"Ġpolic":7871,"Ġconnect":7872,"åĨ¬":7873,"Ġplanning":7874,"Ġta":7875,"åĨł":7876,"Ġsuccessful":7877,"Ġselected":7878,"à§įà¦¤":7879,"Ġwat":7880,"Ġgoes":7881,"æ¯Ķå¦Ĥ":7882,"èĵĿ":7883,"pty":7884,"à¸²à¸Ļ":7885,"Bl":7886,"bal":7887,"Ġsetting":7888,"ĠGoogle":7889,"Ġsynt":7890,"ĠChinese":7891,"Ġplaces":7892,"rier":7893,"çĥ§":7894,"Ġsustain":7895,"ĠGen":7896,"Ġthrow":7897,"Exception":7898,"åºĶå½ĵ":7899,"Ġroll":7900,"éĽĨåĽ¢":7901,"irty":7902,"åĽ½åĨħ":7903,"æµª":7904,"ende":7905,"ĠEv":7906,"_name":7907,"ĠØµ":7908,"ãĤ¤":7909,"ĠØ§ÙĦØ³":7910,"Ġworked":7911,"Ġworksheets":7912,"à¸±à¸ļ":7913,"Ġplans":7914,"Ġuns":7915,"url":7916,"Ġrelease":7917,"Ġanyone":7918,"down":7919,"Ġals":7920,"Ġneigh":7921,"Ġcoord":7922,"/l":7923,"ä¿ĿéĻ©":7924,"è¡ĮåĬ¨":7925,"Ġremains":7926,"ogue":7927,"ĠWorkshe":7928,"èµĦæĸĻ":7929,"ĠsiÄĻ":7930,"Ġarm":7931,"ÐºÐ¾Ð²":7932,"field":7933,"é«Ķ":7934,"Ã¤r":7935,"Ġnovel":7936,"Ġkn":7937,"miss":7938,"æĮ¯":7939,"ĠMult":7940,"Ġbalance":7941,"Ġwww":7942,"ĠMart":7943,"Ġoptim":7944,"Ġcommunic":7945,"ĠCounty":7946,"Ġreaction":7947,"IF":7948,"ĠSun":7949,"ÙĦÙħ":7950,"Ġanimals":7951,"ä¸īä¸ª":7952,"çļĦæĥħåĨµ":7953,"Ġschools":7954,"-H":7955,"Ġchanged":7956,"Åĳ":7957,"test":7958,"/or":7959,"Ġstock":7960,"ĠDevelopment":7961,"äºĮåįģ":7962,"Ġbond":7963,"ademic":7964,"184":7965,"å½»":7966,"ĠManagement":7967,"qrt":7968,"olid":7969,"Ġtiss":7970,"éĽĦ":7971,"ĠÎµ":7972,"ĠMost":7973,"åİ»äºĨ":7974,"UL":7975,"à¹ĥà¸Ļ":7976,"riday":7977,"çĶµåŃĲ":7978,"Ġliqu":7979,"åĲ´":7980,"åıĬæĹ¶":7981,"Ġinternal":7982,"ĠĠĠĠĠĠĠĠĠĠĠĠĠĠĠĠĠĠĠĠĠĠĠĠĠĠĠ":7983,"Ġbirth":7984,"ĠStat":7985,"è¯Ŀé¢ĺ":7986,"raz":7987,"eline":7988,"EP":7989,"à¸Ķà¹ī":7990,"ĠBas":7991,"Ġbeautiful":7992,"ç±»åŀĭ":7993,"illa":7994,"à¸²à¸¢":7995,"æ¢ģ":7996,"oute":7997,"çŁ¿":7998,"ĠSund":7999,"ĮĢ":8000,"ãģĵãģ¨":8001,"CR":8002,"Ġguide":8003,"iled":8004,"å¿½":8005,"éĽħ":8006,"Ġstream":8007,"ä¹¦è®°":8008,"åĩıå°ĳ":8009,"ashington":8010,"à¬":8011,"Ġsummer":8012,"Ġexpand":8013,"ĠØ§ÙĦØŃ":8014,"ĠCompany":8015,"Ġopin":8016,"std":8017,"ĠEqu":8018,"aign":8019,"itter":8020,"ĠÐ¼Ðµ":8021,"å£°éŁ³":8022,"-L":8023,"cel":8024,"ĠfÃ¼r":8025,"æĲŃ":8026,"rip":8027,"Ġrecently":8028,"Ġstarting":8029,"¡×":8030,"Ġconstruction":8031,"Per":8032,"Ġplease":8033,"æ°§":8034,"çī¹çĤ¹":8035,"è¹":8036,"Ġprocessing":8037,"æ±¡":8038,"Ġcharge":8039,"ä¾ĭå¦Ĥ":8040,"Do":8041,"Ġsav":8042,"Ġdecided":8043,"åĨĮ":8044,"Ġidentified":8045,"ride":8046,"ä¹ĺ":8047,"åĪĳ":8048,"Ġexisting":8049,"Ġrout":8050,"-G":8051,"Ġcollabor":8052,"åħ©":8053,"Ġwa":8054,"ĠÎº":8055,"ä¸¥éĩį":8056,"iforn":8057,"Ġcounter":8058,"115":8059,"Ġ...ĊĊ":8060,"|---":8061,"Ġvs":8062,"Ġcomfort":8063,"Ġcompletely":8064,"ÑĭÐµ":8065,"ners":8066,"Ġmoving":8067,"Ġfully":8068,"ander":8069,"%ĊĊ":8070,"ĠFree":8071,"iable":8072,"é¸¡":8073,"ĠSince":8074,"ĠWed":8075,"orial":8076,"ĠChapter":8077,"Ġhair":8078,"Ñį":8079,"à¯ģà®":8080,"å¥¥":8081,"cious":8082,"ĠAlthough":8083,"xi":8084,"util":8085,"vec":8086,"zie":8087,"DA":8088,"isk":8089,"æ®Ĭ":8090,"ima":8091,"Ġwood":8092,"çĶ¨çļĦ":8093,"Ġinvestment":8094,"Us":8095,"duction":8096,"ĠìĿ´":8097,"ãģĿ":8098,"åİħ":8099,"Ġrecommend":8100,"æ²Ĵæľī":8101,"Ġactions":8102,"Ø§Ø²":8103,"file":8104,"Ġconsequ":8105,"Ed":8106,"Ð½Ð¾ÑģÑĤÑĮ":8107,"å®ĩ":8108,"æľŁéĹ´":8109,"æľĢå¤§":8110,"iveness":8111,"Ġhealthy":8112,"ĠAtt":8113,"ÙĬÙĩ":8114,"æĳĦ":8115,"Ġmig":8116,"Ġconflic":8117,"Ġwid":8118,"})":8119,"ç»ĦæĪĲ":8120,"ä¸ĩåħĥ":8121,"åĢį":8122,"])":8123,"rum":8124,"ãĢĭ,":8125,"Ġmachine":8126,"æİ¨è¿Ľ":8127,"Ð¼Ð¾":8128,"Ġìķ":8129,"Ġreduced":8130,"Ġpun":8131,"æ±½è½¦":8132,"Î²":8133,"å²Ľ":8134,"âĢĶâĢĶâĢĶâĢĶ":8135,"è´«":8136,"emp":8137,"Ġcontroll":8138,"-T":8139,"æ¬²":8140,"éĮ":8141,"èĩªçĶ±":8142,"roph":8143,"åĳĬè¯ī":8144,"ĠMethod":8145,".n":8146,"Ġcold":8147,"ĠFigure":8148,"ĠChristian":8149,"ython":8150,"ä»ĸä»¬çļĦ":8151,"å¥ĭ":8152,"åĬĽçļĦ":8153,"Ġà¦¨":8154,"roduction":8155,"Ġbrand":8156,"è¶ħè¿ĩ":8157,"Read":8158,"çľ¼çĿĽ":8159,"hematics":8160,"ä¿ĥè¿Ľ":8161,"çº¯":8162,"Ġbillion":8163,"ront":8164,"å·§":8165,"Ġtom":8166,"!âĢĿ":8167,"à¸µà¸¢":8168,"ä½ĵçļĦ":8169,"×Ļ×ª":8170,"éĥ½ä¸į":8171,"æĪĳåĢĳ":8172,"Ġmaximum":8173,"Ġsaying":8174,"ĠSl":8175,"Ġgiving":8176,"ĠDan":8177,"Ġplayed":8178,"Ġexperiences":8179,"Ġhit":8180,"Ġindependent":8181,"ä¼¸":8182,"Ġeye":8183,"åĨľä¸ļ":8184,"Ïĩ":8185,"ĠBel":8186,"una":8187,"atin":8188,"ello":8189,"Ġattrib":8190,"care":8191,"ä¸¹":8192,"Ġmilitary":8193,"Ġwonder":8194,"api":8195,"ulate":8196,"Now":8197,"æīĢç¤º":8198,"Ġfig":8199,"Ġbenefit":8200,"':":8201,".log":8202,"cher":8203,"ĠÐºÐ¾ÑĤÐ¾ÑĢ":8204,"Ġsequence":8205,"ĠÛĮ":8206,"ĠFig":8207,"å¾Ĳ":8208,"Ġfine":8209,"à¹īà¸Ļ":8210,"ĠÐĳ":8211,"å¿ħè¦ģ":8212,"Ġconversion":8213,"Ġdry":8214,"à¹ĩà¸Ļ":8215,"Ġformed":8216,"Ġà¦¤":8217,"Ġreasons":8218,"Post":8219,"engan":8220,"ë¦¬":8221,"Ġinterview":8222,"Ġtrou":8223,"Ġconfig":8224,"Ġê²":8225,"ÑĢÐ°Ð²":8226,"ĠText":8227,"ĠElect":8228,"After":8229,"åĶ¯":8230,"Ġpriv":8231,"ç¸":8232,"Ġassist":8233,"æľºåħ³":8234,"Ġwild":8235,"æĽ¿":8236,"ubMed":8237,"åĵģçīĮ":8238,"ĠEven":8239,"å¡ŀ":8240,"Acc":8241,"Ã©m":8242,"Ã¤n":8243,"åĭĩ":8244,"121":8245,"Ġteachers":8246,"Ø±Ø¯":8247,"Ġstrugg":8248,"ÑĬ":8249,"Ġdistinct":8250,"Ġphen":8251,"Ġparameters":8252,"Ġfirm":8253,"è®ĵ":8254,"ç¼ĺ":8255,"ÑĭÑħ":8256,"æĩĤ":8257,"å¿į":8258,"Ġtried":8259,"eger":8260,"Ġchapter":8261,"ãģ§ãģĻ":8262,"Ġnie":8263,"rick":8264,"ÖĤ":8265,"è§ĦåĪĴ":8266,"ĠAS":8267,"Ð½Ñĥ":8268,"ĠSet":8269,"Par":8270,"doi":8271,"CL":8272,"Ġtesting":8273,"Ð½Ð¾Ð²Ð½Ð¸ÑĪÑĤ":8274,"Am":8275,"php":8276,"begin":8277,"rome":8278,"ĠSecond":8279,"æ°£":8280,"Ġefficient":8281,"Ġpromot":8282,"æķ°åŃĹ":8283,"Ġmort":8284,"Ġvel":8285,"efore":8286,"åĿĢ":8287,"ete":8288,"Ġfresh":8289,"****************":8290,"çĶŁçī©":8291,"Ġign":8292,"ĠStre":8293,"lections":8294,"Ġblue":8295,"Ġworkers":8296,"ĠDie":8297,"ĠÐ¸Ð½":8298,"CM":8299,"ÑģÐºÐ°":8300,"å®ĥçļĦ":8301,"113":8302,"ibly":8303,"ĠEngland":8304,"IA":8305,"Ġfeeling":8306,"Ġtrial":8307,"code":8308,"OW":8309,"Ġefforts":8310,"ĠLand":8311,"ervices":8312,"ildren":8313,"Ġanti":8314,"ĠCong":8315,"Ð°Ðº":8316,"Ġsyn":8317,"Ø±Ùģ":8318,"è´¦":8319,"gu":8320,"Ġrelative":8321,"time":8322,"ĠAfrica":8323,"TS":8324,"struct":8325,"å®īæİĴ":8326,"venue":8327,"è¯ĳ":8328,"Ġprepar":8329,"ĠSec":8330,"Ġstories":8331,"æĺ¯ä¸Ģç§į":8332,"Ġinstr":8333,"ĠAir":8334,"Ġdin":8335,"ami":8336,"-time":8337,"ben":8338,"alpha":8339,"Ġdella":8340,"Ġtruth":8341,"èĤ¯å®ļ":8342,"Ġsea":8343,"ĠSing":8344,"EF":8345,"Ġtwenty":8346,"err":8347,"Ġfamilies":8348,"onday":8349,"enses":8350,"ä¹ĭéĹ´çļĦ":8351,".app":8352,"çĦ¶èĢĮ":8353,"Ã©r":8354,"-le":8355,"æł·çļĦ":8356,"Ġdeveloping":8357,"ervation":8358,"Ġslight":8359,"Ġgain":8360,"Ġcontinued":8361,"ÑĢÐ°Ð·":8362,"ĠNULL":8363,"Ð½Ð¾Ð²Ð½Ð¸ÑĪÑĤÐ²Ð¾":8364,"Ġrapid":8365,"rane":8366,"ĠEngine":8367,"Ġresponsible":8368,"Ġchance":8369,"Ġrespectively":8370,"Ġpretty":8371,"ĠØ²":8372,"Ġfaith":8373,"ifornia":8374,"System":8375,"ãĢģâĢľ":8376,"Ġfinally":8377,"Ġearn":8378,"CP":8379,"mas":8380,"ticle":8381,"çİ°åľº":8382,"ĠØĮ":8383,"Ġlaws":8384,"èĤĮ":8385,"Set":8386,"ĠCH":8387,"osing":8388,"Ġmes":8389,"Ġzero":8390,"fs":8391,"Ġcredit":8392,"çļĦäºĭæĥħ":8393,"Ġmess":8394,"Ġemployees":8395,".w":8396,"Ġformula":8397,"Ġwrote":8398,"ĠMac":8399,"æĻ®éĢļ":8400,"116":8401,"ĠRober":8402,"çľĭçľĭ":8403,"è¯¦":8404,"########":8405,"Ð°ÑĢ":8406,"ç¤¾åĮº":8407,"oi":8408,"Ġvariables":8409,"itar":8410,"Ġwidth":8411,"Ġstorage":8412,"ãģĹãģ¦":8413,"å¡Ķ":8414,"ĠJames":8415,"ota":8416,"Ġcouple":8417,"arithm":8418,"Ġpoll":8419,"Count":8420,"Ġtrend":8421,"à¤¤":8422,"Pre":8423,"ĠÐºÐ¾":8424,"erved":8425,"Inter":8426,"ĠTherefore":8427,"Ġpassed":8428,"à¹ģà¸¥à¸°":8429,"Ġpul":8430,"odies":8431,"Ġsales":8432,"anation":8433,"Ġconnected":8434,"Ġobjects":8435,"ema":8436,"ikan":8437,"Ġclient":8438,"Ġabsol":8439,"èĲ½å®ŀ":8440,"si":8441,"gra":8442,"mente":8443,"Ġtherapy":8444,"ĠÐ¾Ñģ":8445,"äºİæĺ¯":8446,"Ġsymptoms":8447,"Ġcandid":8448,"Model":8449,"orrow":8450,"éĿ¢ç§¯":8451,"Ġmatrix":8452,"bi":8453,"Ġcharacters":8454,"Ġ///":8455,"zt":8456,"è°ĥæŁ¥":8457,"æ£®":8458,"å¢Ļ":8459,"å®¢æĪ·":8460,"Ġsave":8461,"Ġà²":8462,"Ġserve":8463,"ä¸įå°ĳ":8464,"æķı":8465,"ĠIsrael":8466,"ç¨³å®ļ":8467,"apping":8468,"Ġplayer":8469,"Ġexplain":8470,"wood":8471,"Ġscore":8472,"Ġcomprehens":8473,"They":8474,"Ïį":8475,"Ġdatabase":8476,"æĥ¯":8477,"Ġcivil":8478,"Ġforeign":8479,"Array":8480,"Ġsend":8481,"é¬¼":8482,"æľªæĿ¥":8483,"æ®ĭ":8484,"ï¼ĮĊĊ":8485,"æµĵ":8486,"NS":8487,"ä¸ĢåĪĩ":8488,"æ²Ī":8489,"ĠÂ°":8490,"183":8491,"rs":8492,"ĠMarket":8493,"ä»İèĢĮ":8494,"Ġgold":8495,"ĠâĢĿ":8496,"Ġexplore":8497,"èģĮä¸ļ":8498,"Ġtests":8499,"Ġyield":8500,"à¶":8501,"ici":8502,"apers":8503,"å°¾":8504,"Ġprotection":8505,"éĺħè¯»":8506,"ĠCollege":8507,".add":8508,"Ġexercise":8509,"Ġpron":8510,"ĠÚ¯":8511,"æķĮ":8512,"ters":8513,"çµ¦":8514,"çļĦåıĳå±ķ":8515,"ĠEnd":8516,"();ĊĊ":8517,"Ã¡l":8518,"122":8519,"soft":8520,"Ġpiece":8521,"çĦ¦":8522,",âĢľ":8523,"VID":8524,"æĳĩ":8525,"ijn":8526,"åĶ±":8527,"Ð¸Ð·":8528,"å¾ª":8529,"Ġconstit":8530,"Ġpolice":8531,"ç³»åĪĹ":8532,"CA":8533,"ying":8534,"Ðĺ":8535,"Ġeconomy":8536,"å¦Īå¦Ī":8537,"arden":8538,"åĳĪ":8539,"Ġcommunities":8540,"Ġachieve":8541,"è±Ĩ":8542,"æĭŁ":8543,"ressed":8544,"ç§Ł":8545,"Request":8546,"ĠÐ¾Ð¿":8547,"ormal":8548,"æīĭæľº":8549,"Ġstraight":8550,"Ġhospital":8551,"æ¯ıå¤©":8552,"æ¡£":8553,"Ġemphas":8554,"-R":8555,"Ġdecisions":8556,"ĠExpl":8557,"èµĦæľ¬":8558,"ĠIP":8559,"Ġanimal":8560,"Ġrelationships":8561,"èĴĻ":8562,"æľĢç»Ī":8563,"MA":8564,"amily":8565,"ographic":8566,"!Ċ":8567,"Ġvector":8568,"çĭĹ":8569,"æķ°åŃ¦":8570,"Ġtouch":8571,"Ġjourney":8572,"Ġcompris":8573,"çī¹å¾ģ":8574,"à¸·à¸Ń":8575,"åķĨåĵģ":8576,"Ġsmaller":8577,"ĠÐºÐ°Ðº":8578,"çĽ¸ä¿¡":8579,"çĤ¼":8580,"Ġassessment":8581,"current":8582,"åħĦ":8583,"Ġà¦ķà¦°":8584,"EST":8585,"Ġà°":8586,"El":8587,"orb":8588,"Ġnation":8589,"Ġhref":8590,"èĢħçļĦ":8591,"ker":8592,"Ġ<=":8593,"114":8594,"ĠMa":8595,"ĠØ±Ø§":8596,"eld":8597,"åı¦ä¸Ģ":8598,"Ġmoved":8599,"Ġtypically":8600,"inated":8601,"ĠÐ´Ðµ":8602,"table":8603,"hal":8604,"Ġeat":8605,"ĠIT":8606,"æľ±":8607,"ĠLog":8608,"èĪĴ":8609,"118":8610,"Ġdiet":8611,".println":8612,"Ġsecret":8613,"è½´":8614,"è£¡":8615,"adi":8616,"ÑģÐ°":8617,"style":8618,"Ġcustomer":8619,"å·¥åħ·":8620,"éĢĴ":8621,"Ġequipment":8622,"æĩī":8623,"RI":8624,"Ġbra":8625,"Ġpeace":8626,"æĺ¯ä¸į":8627,"Ġpicture":8628,"Ġdoll":8629,"Ġrock":8630,"è£Ĥ":8631,"iden":8632,"çļĦéĩįè¦ģ":8633,"ä¼¼ä¹İ":8634,"åºĦ":8635,"å¼ĥ":8636,"rations":8637,"Ġchurch":8638,"Ġcircuit":8639,"ĠGerman":8640,"cm":8641,"ĠCanada":8642,"reme":8643,"Ã²":8644,"Ø§ÙĤ":8645,"ĠCouncil":8646,"ĠMany":8647,"æ¹¿":8648,"åıĳæĮ¥":8649,"æ»¡è¶³":8650,"Ġsurg":8651,"éĽ»":8652,"bert":8653,"è¾Ĩ":8654,"EG":8655,"ĠJos":8656,"Ġportion":8657,"æĹ¶æľŁ":8658,".length":8659,"ç«ŀäºī":8660,"ĠDNA":8661,"Ðł":8662,"indows":8663,"éŀ":8664,"è¯¸":8665,"Ġbottom":8666,"Ġwindow":8667,"Ġcore":8668,"à«":8669,"ASA":8670,"Ġcircum":8671,"cimal":8672,"æĺİç¡®":8673,"âĨĴ":8674,"ä¸ģ":8675,"èĤ¥":8676,"ä»Ĭå¹´":8677,"Ġplaying":8678,"like":8679,"Ġstim":8680,"Ġaspects":8681,"Ġcombination":8682,"ĠØ§ÛĮÙĨ":8683,"è¯ļ":8684,"åı¦å¤ĸ":8685,"oding":8686,"porary":8687,"à¹Īà¸ĩ":8688,"æ²¿":8689,"unic":8690,"ĠInstitute":8691,"å¡«":8692,"Ġ×ĳ":8693,"æ´ģ":8694,"Ġclasses":8695,"ĠJew":8696,"Ġphone":8697,"BA":8698,"ĠExp":8699,"ĠÐ»Ð¸":8700,"function":8701,"oration":8702,"ĠWashington":8703,"è§ĦèĮĥ":8704,"kin":8705,"è°·":8706,"Test":8707,"à¸ĸ":8708,"äººç±»":8709,"å¾ŀ":8710,"à·":8711,"Ġbehavi":8712,"Ġlogarithm":8713,"à¥Ģ":8714,"Ġlabel":8715,"Ġcontrast":8716,"117":8717,"Ġcauses":8718,"Ġassert":8719,"æĳĨ":8720,"acing":8721,"ãģĳ":8722,"Ġ.ĊĊ":8723,"cipl":8724,"çĽ¸å¯¹":8725,"ĠÐ¼Ð¾Ð¶":8726,"æ´ŀ":8727,"Ġplaced":8728,"uv":8729,"Ġdiff":8730,"ilosoph":8731,"Ġsusp":8732,"Ġcast":8733,"Ġmetal":8734,"Ġimpos":8735,"ç¹ģ":8736,"Ġcustomers":8737,"è¿Ĳè¡Į":8738,"Ġexpert":8739,"Ġhighest":8740,"ÑĤÐ¸Ð²":8741,"Ġsto":8742,"Ġseemed":8743,"ranch":8744,"æ¡Ĩ":8745,"Ġtum":8746,"æĨ":8747,"ifier":8748,"Ġpresident":8749,"zym":8750,"Ġá":8751,"æıĴ":8752,"Ġforces":8753,"omic":8754,"trans":8755,"ĠRich":8756,"ungen":8757,"Ġvert":8758,"ĠFore":8759,"ĠFrance":8760,"Ġteacher":8761,"ĠAD":8762,"å§ĵ":8763,"Ġcatch":8764,"å¯¹æĸ¹":8765,"éī":8766,"ç¬¦åĲĪ":8767,"è£ģ":8768,"ĠIl":8769,"________________":8770,"Ġreplace":8771,"perty":8772,"Ġreports":8773,"anguages":8774,"asion":8775,"éĹľ":8776,"Ġlooks":8777,"170":8778,"ĠFriday":8779,"{{":8780,"ivalent":8781,"ERT":8782,"æ·±åħ¥":8783,"Ãµes":8784,"Ġcomments":8785,"Ġformat":8786,"ĠSection":8787,"ĠOrgan":8788,"èº«ä¸Ĭ":8789,"æľīäºĨ":8790,"Ġnearly":8791,"Ø§ØŃ":8792,"×©":8793,"zed":8794,"Ġprem":8795,"ĠProject":8796,"Ġcert":8797,"ĠAv":8798,"åĨľæĿĳ":8799,"âĢĿ.":8800,"æ³½":8801,"ĠÄĳ":8802,"è´¸":8803,"Ġpatterns":8804,"embly":8805,"Ġnotice":8806,"well":8807,"Ġperhaps":8808,"Ġbrother":8809,"å²Ĺ":8810,"??":8811,"tes":8812,"æ³Ľ":8813,"ĠService":8814,"åİĭåĬĽ":8815,"Base":8816,"Ġimmediately":8817,"Ġvit":8818,"ĠTwo":8819,"nic":8820,"names":8821,"æķ¬":8822,"çļĦå·¥ä½ľ":8823,"ĠCheck":8824,"Ġ(Ċ":8825,"Index":8826,"à¸ľ":8827,"Ġfear":8828,"ĠEach":8829,"ĠMain":8830,"æ¢ħ":8831,"ĠHel":8832,"reek":8833,"999":8834,"TP":8835,"ĠCalifornia":8836,"Ġdescription":8837,"Ġlearned":8838,"ĠTw":8839,"TH":8840,"Ã¹":8841,"æ¨¡åŀĭ":8842,"Ġstructures":8843,"æ¸ħæ¥ļ":8844,"itis":8845,"Ġhappy":8846,"ĠFurther":8847,"while":8848,"oday":8849,"ĠStep":8850,"Ġchallenge":8851,"Ġcouldn":8852,"ĠpÅĻ":8853,"Õ¸ÖĤ":8854,"Ġstandards":8855,"ĠPower":8856,"Ġclick":8857,"gest":8858,"Ã¨re":8859,"Ġresistance":8860,"æ¶¨":8861,"å¹³åĿĩ":8862,"ye":8863,"å¢¨":8864,"æ¨ª":8865,"]#":8866,"inger":8867,"ãģł":8868,"Ġ^":8869,"127":8870,"inciples":8871,"åį«çĶŁ":8872,"çĩĥ":8873,"ä¼Ĭ":8874,"ä¹Ļ":8875,"Ġpurs":8876,"è¿ħ":8877,"ÑģÑĤÐ²ÐµÐ½":8878,"è¯Ħä»·":8879,"æĿ¯":8880,"aft":8881,"Ġdies":8882,"Ġmode":8883,"åĪĨéĴŁ":8884,"æ²Ł":8885,"Ġgene":8886,"æĬµ":8887,"ĠCD":8888,"olve":8889,"ĠÐ¿ÑĢÐµÐ´":8890,"áĥĲ":8891,"Ġscen":8892,"isa":8893,"ÑĤÐ¾Ð¼":8894,"Ġuma":8895,"Ġast":8896,"asure":8897,"Ġvolt":8898,"ç¦»å¼Ģ":8899,"Ġshared":8900,"mathbf":8901,".:":8902,"rams":8903,"Ġ()":8904,"èļ":8905,"ĠEconom":8906,"ĠSunday":8907,"plications":8908,"-on":8909,"azione":8910,"ĠBusiness":8911,"Ġadvantage":8912,"Ġmais":8913,"ersion":8914,"ĠTer":8915,"è®°å½ķ":8916,"ensions":8917,"å®¶çļĦ":8918,"Ð²ÐµÑĤ":8919,"ĠComput":8920,"Ġà¦¦":8921,"^{\\":8922,"ÑģÑĮ":8923,"estic":8924,"åľŁåľ°":8925,"Ġsites":8926,"ĠCalcul":8927,"è¿ĩæĿ¥":8928,"Ġcommit":8929,")/":8930,"æº¶":8931,"Ġ||":8932,"ditionally":8933,"anging":8934,"éĿ©åĳ½":8935,"Ġà¦ħ":8936,"Ġkin":8937,"ville":8938,"181":8939,"Ð½ÑĭÐ¼":8940,"å¿ĥéĩĮ":8941,"(String":8942,"ãģ¤":8943,"ìľ¼":8944,"Ġliterature":8945,"Ġunf":8946,"Ġclearly":8947,"GB":8948,"è¬":8949,"æĮĤ":8950,"Ġauthors":8951,"çĪ¶æ¯į":8952,"Ġswitch":8953,"Ġrich":8954,"åĲĪçĲĨ":8955,"oom":8956,"åģ¿":8957,"han":8958,"Ġpowerful":8959,"Ġaccur":8960,"182":8961,"Ġsud":8962,"Ġ*Ċ":8963,"éĻįä½İ":8964,"Ġvent":8965,"Ġtro":8966,"Ġexcell":8967,"ãģĪ":8968,"ownload":8969,"gal":8970,"ĠType":8971,"ä¸»ä»»":8972,"ĠChurch":8973,"è¡¨è¾¾":8974,"åĮĸçļĦ":8975,"ãģ©":8976,"Ġfailure":8977,"å¦ĤåĽ¾":8978,"è¾ĵåħ¥":8979,"Ġinterface":8980,"sl":8981,"Ġlov":8982,"éŁ©":8983,"Ġmotion":8984,"ÂłÂłÂłÂł":8985,"Ġdownload":8986,"Ġpm":8987,"uer":8988,"itÃ©":8989,".set":8990,"ëĤ":8991,"ĠÐ¸Ð»Ð¸":8992,"çį":8993,"ĠÑģÐ¿":8994,".G":8995,"700":8996,"çĶŁçļĦ":8997,"Ġrestrict":8998,"Ø±Ø¨":8999,"Error":9000,"result":9001,"antic":9002,"Ġviews":9003,"Ġunivers":9004,"Ġsich":9005,"124":9006,"anged":9007,"itors":9008,"osph":9009,"ç»ª":9010,"ÙĩÙħ":9011,"osen":9012,"æī¾åĪ°":9013,"æŁĶ":9014,"Ġconsult":9015,"æİ¨åĬ¨":9016,"åĪ¸":9017,"ä¾µ":9018,"Ġdra":9019,"íķ´":9020,"Ð¶Ð°":9021,"EX":9022,"Ġcarried":9023,"Ġnin":9024,"æľºåĪ¶":9025,"Ġkept":9026,"Ġdengan":9027,"Ġbelong":9028,"ç»ķ":9029,"é«ĺçļĦ":9030,"çĶŁæĢģ":9031,"åĪĽéĢł":9032,"onic":9033,"olf":9034,"ĠFind":9035,"ĠFound":9036,"æĪĲç«ĭ":9037,"Line":9038,"ĠZe":9039,"ç»Łä¸Ģ":9040,"Ġregarding":9041,"ä¼¯":9042,"Ġvill":9043,"æĿ¥è¶Ĭ":9044,"Ġexactly":9045,"conn":9046,"max":9047,"è§Ħæ¨¡":9048,"131":9049,"ĠØ§ÙĨ":9050,"Ġstar":9051,"ĠDig":9052,"å½ĵåīį":9053,"ëł":9054,"Ġelectro":9055,"root":9056,"Ġvot":9057,"Ġfinding":9058,"Ġrise":9059,"OST":9060,"ÑĢÐ¾Ð²Ð°":9061,"Ġefficiency":9062,"ĠBank":9063,"à¹Ģà¸£":9064,"èĢĲ":9065,"áĥĺ":9066,"ignment":9067,"è§£éĩĬ":9068,"Ġpair":9069,"Ġwife":9070,"è´¯":9071,"ĠCap":9072,"ypes":9073,"æī¶":9074,"ĠKey":9075,"rian":9076,"Ġorganizations":9077,"Ġfraction":9078,"ĠHuman":9079,"Ġlen":9080,"ĠAfrican":9081,"Ġthr":9082,"ä¸įå¥½":9083,"æĳ©":9084,"ĠAlso":9085,"çıł":9086,"Ø§Ø´":9087,"Ġinhib":9088,"ifically":9089,"åĽŀçŃĶ":9090,"éĩįè¦ģçļĦ":9091,"è¶ĬæĿ¥è¶Ĭ":9092,"Ð¢":9093,"à¤¨":9094,"inking":9095,"Ġformation":9096,"Ġimpl":9097,"æĸ½å·¥":9098,"èħ¹":9099,"Ġtu":9100,"Ġclosed":9101,"ÑĦÐ¸":9102,"imb":9103,"Ġoz":9104,"].ĊĊ":9105,"Ã©d":9106,"135":9107,"à¹Ģà¸Ľà¹ĩà¸Ļ":9108,"Ġok":9109,"itud":9110,"Ġenhance":9111,"çģŃ":9112,"Ġrelatively":9113,"ĠSociety":9114,"æ¼«":9115,"Ġdefinition":9116,"Ġsector":9117,"Ġpaid":9118,"èĩªèº«":9119,"Ġleaves":9120,"ÙĩØ§ÛĮ":9121,"Ġsz":9122,"Te":9123,"TC":9124,"related":9125,"Ġoccup":9126,"119":9127,"äºĨä¸Ģä¸ª":9128,"ĠCommission":9129,"Me":9130,"äººæīį":9131,"Ġinteger":9132,"aturday":9133,"ĠAssociation":9134,"å°º":9135,"Ġcommerc":9136,"çļĦåľ°æĸ¹":9137,"uesday":9138,"æł¸å¿ĥ":9139,"ns":9140,"osa":9141,"nesday":9142,"Ġpray":9143,"è§Ĥå¯Ł":9144,"Ġbird":9145,"203":9146,"à¦ª":9147,"ä¸°å¯Į":9148,"ä¸»é¢ĺ":9149,"Ġremove":9150,"ĠÑĤÐ¾":9151,"Ġlargest":9152,"åĪ©çĽĬ":9153,".J":9154,"126":9155,"ç´«":9156,"ĠGovernment":9157,"å°¤åħ¶":9158,"mu":9159,"izer":9160,"åŁºéĩĳ":9161,"Ġdiscussion":9162,"ĠStand":9163,"å°±åľ¨":9164,"Ġeine":9165,"ÙĬÙħ":9166,"ĠUN":9167,"éĢļå¸¸":9168,"cycl":9169,"ambda":9170,"--------------------------------":9171,"ç»ĵæĿŁ":9172,"Class":9173,"Ġinsurance":9174,"Ġfol":9175,"Ġmaster":9176,"ĠÑĪ":9177,"èĢĥè¯ķ":9178,"Ġexhib":9179,"ĠLeg":9180,"_b":9181,"ĠIts":9182,"èĤº":9183,"çī¹æ®Ĭ":9184,"Ġspent":9185,"240":9186,"è¿¹":9187,"ãĢĤâĢĿĊ":9188,"Ġextrem":9189,"èĻİ":9190,"aan":9191,"iliar":9192,"ische":9193,"Out":9194,"ÅĦ":9195,"Ġweak":9196,"ãĤĦ":9197,"ĠEvery":9198,"å¦»":9199,"Ġaus":9200,"å¿Ĩ":9201,"Ġdream":9202,"978":9203,"tre":9204,"Trans":9205,"Ġsets":9206,"ĠìĹ":9207,"itz":9208,"éģ¿åħį":9209,"ĠIns":9210,"lem":9211,"ĠĠĠĠĠĠĠĠĠĠĠĠ":9212,"çİ°è±¡":9213,"ĠGreen":9214,"çľī":9215,"aks":9216,"Ġseparate":9217,"Ð¾Ð»Ðµ":9218,"ĠMonday":9219,"Ġglass":9220,"ĠSy":9221,"ÙĬÙĦ":9222,"Sp":9223,"aria":9224,"Ġcycle":9225,"ĠDesign":9226,"ìĸ´":9227,"ç£¨":9228,"éķ¿æľŁ":9229,"å£ģ":9230,"hent":9231,"æĪª":9232,"Ġcir":9233,"Ġinterested":9234,"Ġalternative":9235,"Ġtherm":9236,"$$":9237,"Ġappears":9238,"idden":9239,"Ġisol":9240,"Õ¡Õ¶":9241,"lies":9242,"aughter":9243,"Ġembod":9244,"Ġpark":9245,"Ġfundament":9246,"ĠÐ³Ð¾Ð´Ð¸":9247,"Ġìĭ":9248,"onym":9249,"133":9250,"Ġtrain":9251,"åħ¨çĲĥ":9252,"ador":9253,"ĠØ¨Ø§ÙĦ":9254,"Ġincorpor":9255,"Ð¾Ð³Ð¸":9256,"Ġresulting":9257,"Ġcorpor":9258,"PL":9259,"ëıĦ":9260,"ursday":9261,"å°±åı¯ä»¥":9262,"Ġletters":9263,"Ġjournal":9264,"163":9265,"ĠLong":9266,"else":9267,"Ġresearc":9268,"ä¸ĢåĢĭ":9269,"å¦Ĥä¸ĭ":9270,"Ġmix":9271,"Ġsurvey":9272,"fall":9273,"ĠMag":9274,"gi":9275,"ĠUsing":9276,"etric":9277,"ĠHome":9278,"ĠCreat":9279,"Ġcris":9280,"ä»ĸåĢĳ":9281,"File":9282,"åħ§":9283,"ulf":9284,"Ġgets":9285,"Ġmedium":9286,"ako":9287,"Ġborn":9288,"à¸¡à¸µ":9289,"gin":9290,"ãĥª":9291,"'ĊĊ":9292,"Ġproport":9293,"asy":9294,"ĠMem":9295,"Ġbudget":9296,"uses":9297,"åĪ«äºº":9298,"çī©è´¨":9299,"ÅĽci":9300,"çī©çļĦ":9301,"Ġpra":9302,"Ġnom":9303,"èķ":9304,"Ġfixed":9305,"Ġnamed":9306,"ä»¥ä¸º":9307,"ä¹Łåı¯ä»¥":9308,"132":9309,"æĽ¸":9310,"Ġnor":9311,"æ³ķéĻ¢":9312,"æĸĩæĺİ":9313,"Ġcop":9314,"ä¼Ł":9315,"Ġcampaign":9316,"ĠÐĵ":9317,"Ġregister":9318,"Ġfloor":9319,"ãĤģ":9320,"éĥ½ä¼ļ":9321,"æĹĭ":9322,"æĿ¥èĩª":9323,"ĠPan":9324,"anges":9325,"content":9326,"ĠGreat":9327,"è¯ģæĺİ":9328,"Ġvehicle":9329,"ä»¿":9330,"çĽĳçĿ£":9331,"can":9332,"Ġattract":9333,"èµŀ":9334,"Ġdepth":9335,"that":9336,"emic":9337,"ĠAustralia":9338,"è¯º":9339,"Ġpolicies":9340,"Ġthick":9341,"reedom":9342,"çļĦé«ĺ":9343,"prime":9344,"anda":9345,"Ġtransl":9346,"Ġincreases":9347,"Ġprepared":9348,"artic":9349,"-\\":9350,"ĠOb":9351,"Ġcalculate":9352,"Ġgeneration":9353,"Ġvalu":9354,"hetic":9355,"Ġscientific":9356,"how":9357,"ÏĦÎ±":9358,"Ġreached":9359,"å¥³äºº":9360,"ĠAnswer":9361,"Ġwaste":9362,"rect":9363,"Ġforest":9364,"Ġhappen":9365,"ĠÙĦÙĦ":9366,"ĠØ§ÙĦÙĨ":9367,"TER":9368,"à¦¦":9369,"æ½®":9370,"ÙĬØ§":9371,"water":9372,"çļĦæĹ¶éĹ´":9373,"Ġgrant":9374,"ĠRepublic":9375,"åĨħéĥ¨":9376,"è·Ŀç¦»":9377,"orders":9378,"Ġmanner":9379,"Ġrace":9380,"PM":9381,"éĽĨä¸Ń":9382,"éŃĤ":9383,"èĤ¤":9384,"outhern":9385,"ØªÙħ":9386,"æ¯ĶèµĽ":9387,"Ġhappened":9388,"Ġ)ĊĊ":9389,"Ġexternal":9390,"/p":9391,"Ġshap":9392,"ä¹ĭä¸Ń":9393,"å®ļä¹ī":9394,"state":9395,"ĠTop":9396,"ĠNa":9397,"ĠÐ´Ð°":9398,"ĠISBN":9399,"Ġreleased":9400,"oria":9401,"ä»¥æĿ¥":9402,"Ġolder":9403,"ç°":9404,"Ġfiles":9405,"ÐĶ":9406,"åıĳå±ķçļĦ":9407,"ivery":9408,"Ġpercentage":9409,"otic":9410,"Ġtut":9411,"çĽ¸åĲĮ":9412,"é¾Ħ":9413,"æĹłè®º":9414,"Ġconver":9415,"æĺ¯ä»Ģä¹Ī":9416,"ti":9417,"Ġagreement":9418,"yr":9419,"Ġvoor":9420,"Ġscreen":9421,"DP":9422,"igma":9423,"ishing":9424,"ĠSa":9425,"iform":9426,"resents":9427,"Ġshift":9428,"ë³":9429,"æĪĺçķ¥":9430,"ĠLearning":9431,"ori":9432,"ells":9433,"éĿ¢å¯¹":9434,"Ġmeng":9435,"ç»ıå¸¸":9436,"Ã¨s":9437,"Ġsimpl":9438,"éĢĥ":9439,".H":9440,"èĸĦ":9441,"çģ°":9442,"é²ģ":9443,"æ¶Īæģ¯":9444,"Ð±Ð¾":9445,"éĩĩåıĸ":9446,"èĢĹ":9447,"å²©":9448,"Ġedge":9449,"Ġfilter":9450,"134":9451,"+\\":9452,"Ġcorresponding":9453,"ĠÑĤÐ°Ðº":9454,"ĠQuest":9455,"åĬłåħ¥":9456,"Ġliquid":9457,"Ġfederal":9458,"æŃ¤æĹ¶":9459,"endo":9460,"ÑĺÐµ":9461,"é¥°":9462,"ï¼ĮĊ":9463,"ĠBre":9464,"ifications":9465,"Ġstation":9466,"é¡Į":9467,"While":9468,"Ġjoint":9469,"Ġmist":9470,"Ġprofession":9471,"ĠWhite":9472,"plication":9473,"oyal":9474,"Ġmentioned":9475,"Ġcloud":9476,"());Ċ":9477,"åħļåĳĺ":9478,"Ġpreviously":9479,"ĠmÃ¡s":9480,"æİĮæı¡":9481,"Ø±ÙĪ":9482,"æĦıè§ģ":9483,"ä»¥åīį":9484,"è¯¾ç¨ĭ":9485,"äºĭä¸ļ":9486,"Ġsolve":9487,"Ð¶Ð¸":9488,"255":9489,"ooth":9490,"Ġborder":9491,"çĶĺ":9492,"Ġbacter":9493,"æ£Ģæµĭ":9494,"Ġhandle":9495,"çĽĲ":9496,"Ġrare":9497,"ĠAccording":9498,"Ġappreci":9499,"Ġ×©×ľ":9500,"æĶ¾åľ¨":9501,"Ġupdate":9502,"æ¸©åº¦":9503,"ĠEff":9504,"eder":9505,"elta":9506,"ë§":9507,".)ĊĊ":9508,"Ġupper":9509,"iem":9510,"è¿ŀæİ¥":9511,"ĠRob":9512,"ĠJack":9513,"ä¸įçŁ¥":9514,"ungs":9515,"ĠProv":9516,"Ġargument":9517,"èĤ¿":9518,"à®¾":9519,"product":9520,"Ġdied":9521,"Log":9522,"link":9523,"æģ¢":9524,"çĽŁ":9525,"èĻ«":9526,"Ġri":9527,"allel":9528,"iro":9529,"ĠEnt":9530,"æĺİçĻ½":9531,"Ġlegis":9532,"Ġminimum":9533,"åĳĺå·¥":9534,"æ·»":9535,"ĠTechnology":9536,"æ±¤":9537,"Total":9538,"Ġsubstant":9539,"æ³¡":9540,"scribe":9541,"Ġdanger":9542,"/t":9543,"Here":9544,"Ġtransition":9545,"åħ¬åħ±":9546,"check":9547,"Ġlinear":9548,"Ġ\"\"":9549,"æĢĴ":9550,"Ġregions":9551,"-ĊĊ":9552,".html":9553,"æĺ¯æĮĩ":9554,"ĠÐºÐ¾Ð½":9555,"Ġliber":9556,"å°¿":9557,"Ġze":9558,"137":9559,"ĠÑģÑĥ":9560,"ãĤ¯":9561,"ciÃ³n":9562,"ila":9563,"Ġparticipants":9564,"Ġextends":9565,"Ġobvious":9566,"ä¼ĺåĬ¿":9567,"ä¸Ģä¸ªäºº":9568,"ĠMary":9569,"ĠExper":9570,"Ġsamples":9571,"Ġprices":9572,"Ġli":9573,"æ¦Ĥå¿µ":9574,"Ġnotes":9575,"Ġâī":9576,"ĠCare":9577,"CS":9578,"}=":9579,"èĪį":9580,"Ġselection":9581,"ÙĦÙĥ":9582,"åºŁ":9583,"itness":9584,"rame":9585,"Ð²Ð»Ñı":9586,"Ġexchange":9587,"idade":9588,"è®¤çľŁ":9589,"èįĲ":9590,"åĽ°éļ¾":9591,"çĶµå½±":9592,"ĠJul":9593,"then":9594,"note":9595,"ï½ŀ":9596,"æŁ±":9597,"179":9598,"æĹĹ":9599,"Ġhistorical":9600,"èĥ¸":9601,"what":9602,"129":9603,"Ġsac":9604,"Ġwave":9605,"à¸²à¸ĩ":9606,"Ġserver":9607,"iced":9608,"Ġangle":9609,"ÑĩÐµÑģÐº":9610,"ĠGood":9611,"Sum":9612,"Ġarchitect":9613,"ä¸ĬäºĨ":9614,"Ġequals":9615,"Ġfacts":9616,"ä¹³":9617,"èĤĿ":9618,"Ġnas":9619,"ql":9620,"\\(\\":9621,"Ġburn":9622,"Ġspring":9623,"ĠBoard":9624,"ATE":9625,"è¿Ļæ¬¡":9626,"èĩªåĬ¨":9627,"label":9628,"Ġdiscussed":9629,"çģ¾":9630,"Ġintellig":9631,"åĲİæĿ¥":9632,"Ġoperating":9633,"å¤ļçļĦ":9634,"Ġhus":9635,"256":9636,"ĠPeople":9637,"Ġleaders":9638,"Ġidentity":9639,"éĻ·":9640,"Ġrain":9641,"Ġwhom":9642,"Ġgone":9643,"nya":9644,"ivation":9645,"las":9646,"âĢ³":9647,"Ġapproximately":9648,"ĠInst":9649,"olean":9650,"Ġseconds":9651,"åĢ¾":9652,"Ġbatter":9653,"Ġveget":9654,"æ³¥":9655,"Ġeducational":9656,"atever":9657,"ĠReport":9658,"èģĶåĲĪ":9659,"ocument":9660,"++)":9661,"ĠModel":9662,"220":9663,"ë©":9664,"ĠAccess":9665,"ç§°ä¸º":9666,"ÑĨÐ°":9667,"ä¿¡åı·":9668,"åĪ¶éĢł":9669,"Ġweather":9670,"ĠØ·":9671,"Ð·Ñĭ":9672,"Act":9673,"èģ²":9674,"ĠRoman":9675,"Ġonto":9676,"Ġdensity":9677,"æµ®":9678,"136":9679,"Ġconducted":9680,"Ġsubs":9681,"):ĊĊ":9682,"ĠRad":9683,"ĠWater":9684,"Ð»ÐµÐ´":9685,"ÑĤÐ¾ÑĢ":9686,"Ġbreath":9687,"oj":9688,"ĠPract":9689,"ãĥ©":9690,"éĩįæĸ°":9691,"Ġ$\\":9692,"Ġtrees":9693,"Ġotherwise":9694,"mun":9695,"\\({}_{":9696,"ĠØ§ÙĦÙĤ":9697,"ĠIII":9698,"Ĺ×":9699,"175":9700,"å¤įæĿĤ":9701,"Ġpush":9702,"lich":9703,"going":9704,"arp":9705,"Ġprotected":9706,"Ġtn":9707,"Ġbrief":9708,".**":9709,"ĠTheir":9710,"èĭĹ":9711,"ĠìĦ":9712,"version":9713,"ÙĪØ§ÙĨ":9714,"ä¹Łä¼ļ":9715,"Ġencourag":9716,"ä»ģ":9717,"ilter":9718,"Ġmotor":9719,"Ġmeasured":9720,"éĴĪå¯¹":9721,"Ġcitiz":9722,"/*":9723,"Ġmac":9724,"Ġmeant":9725,"éĩĮéĿ¢":9726,"================":9727,"ĠPsych":9728,"à¸¨":9729,"error":9730,"uries":9731,"ĠÂµm":9732,"èħ¿":9733,"Ġdescribe":9734,"Ġconcentration":9735,"Ġbusinesses":9736,"ĠBecause":9737,"ä¸ĸçºª":9738,"Ġja":9739,"ÐµÐ½ÑĤ":9740,"mosp":9741,"è¾Ľ":9742,"ÐºÐµ":9743,"ublisher":9744,"ĠÅ":9745,"Ġdut":9746,"Ø¯Ùĩ":9747,"åĮ»çĸĹ":9748,"adas":9749,"sen":9750,"åħĥç´ł":9751,"ìĿ¸":9752,"æ¡Į":9753,"Ġheavy":9754,"BS":9755,"Ġcollege":9756,"Ġvary":9757,"èį·":9758,"éĿĴå¹´":9759,"ipp":9760,"æĻ¶":9761,"pass":9762,"Ñĳ":9763,"Ġnoted":9764,"é©¾":9765,"orthern":9766,"Ð»Ñİ":9767,"ÙĦÙĩ":9768,"æħ§":9769,"aux":9770,"èĦĤ":9771,"åĩºåİ»":9772,"Ġreality":9773,"olved":9774,"144":9775,"ç²Ĵ":9776,"ĠTH":9777,"Ġcup":9778,"éŁ³ä¹Ĳ":9779,"icks":9780,"ä¼į":9781,"Ass":9782,"à¸Ĥà¸Ńà¸ĩ":9783,"ç¬¬åĽĽ":9784,"ĠWil":9785,"poses":9786,"dd":9787,"Ġcateg":9788,"å¿«éĢŁ":9789,"åĳĢ":9790,"ĠMex":9791,"Ġcov":9792,"Ġspeech":9793,"Ġrepresents":9794,"åĩĮ":9795,"ĠLou":9796,"æĻĵ":9797,"ä¼ĺç§Ģ":9798,"Ð¼Ñĥ":9799,"ouble":9800,"uest":9801,"elines":9802,"elled":9803,"ĠIll":9804,"/ĊĊ":9805,"Ġka":9806,"ĠTom":9807,"which":9808,"æĸ°éĹ»":9809,"Ġju":9810,"Ø§Ø¬":9811,"ÑĢÑı":9812,"ĠUSA":9813,"æ½ľ":9814,"raint":9815,"ç¡®ä¿Ŀ":9816,"ĠVis":9817,"umin":9818,"ĠĠĠĠĠĠĠĠĠĠ":9819,"UM":9820,"ÙĴ":9821,"ĠJo":9822,"æ³°":9823,".-":9824,"ìĥ":9825,"âĢĻ,":9826,"178":9827,"äºĭä»¶":9828,"ĠUnion":9829,"è´¹çĶ¨":9830,"çĭĤ":9831,"Step":9832,"ä¼¦":9833,"anned":9834,"ĠãĢĤĊĊ":9835,"Ent":9836,"ĠÐ²Ðµ":9837,"ĠName":9838,"arts":9839,"æĤī":9840,"mt":9841,"Ġeffectively":9842,"Ġannual":9843,"Ġprocedure":9844,"Ġadding":9845,"Ġgenerated":9846,"imeter":9847,"gs":9848,"è®¯":9849,"å°±ä¸į":9850,"Ġfindings":9851,"ç½ļ":9852,"æķ°éĩı":9853,"```":9854,"-a":9855,"éī´":9856,"crete":9857,"ĠAnalysis":9858,"åķĨä¸ļ":9859,"path":9860,"Ġera":9861,"ê³¼":9862,"ĠHol":9863,"éĸĢ":9864,"ç¤¾ä¼ļä¸»ä¹ī":9865,"ĠThomas":9866,"ç¢İ":9867,"Ġsubt":9868,"è¾ħ":9869,"ãĥĥ":9870,"åĨįæ¬¡":9871,"ructions":9872,"cis":9873,"ĠAlex":9874,"ĠRiver":9875,"])Ċ":9876,"Ãªn":9877,"<<":9878,"ĠÃ¤":9879,"Ã©es":9880,"ĠØ¹ÙĨ":9881,"Ġdial":9882,"è¢ĭ":9883,"sqrt":9884,"organ":9885,"king":9886,"display":9887,"Â¢":9888,"å±ı":9889,"æ¢°":9890,"ç¥Ŀ":9891,"Ġtrig":9892,"ĠAdv":9893,"ë°":9894,"abled":9895,"Eng":9896,"xy":9897,"ĠInternet":9898,"ted":9899,"eles":9900,"ischen":9901,"à¤Ĥ":9902,"æĲŀ":9903,"anish":9904,"Ġinches":9905,"ĠEs":9906,"ìŀĲ":9907,")-":9908,"ĠCode":9909,"Ġcolon":9910,"åĵŃ":9911,"ĠMad":9912,"æĸĩåŃ¦":9913,"Context":9914,"Ġparties":9915,"Ġboy":9916,"Ġspot":9917,"æľīéĻĲåħ¬åı¸":9918,"Ġaffected":9919,"Ġcommercial":9920,"uns":9921,"ĠBase":9922,"à¹ĥà¸«":9923,"Ġmobile":9924,"è¨Ī":9925,"141":9926,"Ġraised":9927,"/b":9928,"æķ¸":9929,"Ġsufficient":9930,"900":9931,"ä¸»åĬ¨":9932,"Ġcelebr":9933,"-of":9934,"Ġoutcomes":9935,"Ġtechnique":9936,"anta":9937,"long":9938,"çļĦæĸ¹æ³ķ":9939,"ãģĬ":9940,"cht":9941,"nce":9942,",'":9943,"Ġmajority":9944,"Code":9945,"å¥½äºĨ":9946,"Ġgro":9947,"osc":9948,"ĠColor":9949,"çĶ·äºº":9950,"open":9951,"ĠNone":9952,".util":9953,"-r":9954,"ĉfor":9955,"èĤł":9956,"Controller":9957,"å¸¦çĿĢ":9958,"PubMed":9959,"Ġrelation":9960,"under":9961,"à®¾à®":9962,"Ġimplementation":9963,"æīİ":9964,"Ġadvanced":9965,"Ġteams":9966,"Ġdefend":9967,"çĭ¬ç«ĭ":9968,"åĪĨä¸º":9969,"ĠĠĠĠĠĠĠĠĊ":9970,"Ġexpressed":9971,"ëĭĪëĭ¤":9972,"ĠSuper":9973,"ĠDen":9974,"cean":9975,"Are":9976,"å¾Ĵ":9977,"Ġton":9978,"ĠMer":9979,"icial":9980,"à¦¯à¦¼":9981,"ä¿Ĺ":9982,"Ġreligious":9983,"ĠPo":9984,"Ġnan":9985,"ŀ×ķ×":9986,"è¯´çļĦ":9987,"Ġbow":9988,"Fig":9989,"ç¾İåħĥ":9990,"Ø¦":9991,"æīĵå¼Ģ":9992,"è¿«":9993,"å©Ĩ":9994,"æĻºèĥ½":9995,"ĠMiss":9996,"æī«":9997,"Ġdomain":9998,"Ġworksheet":9999,"åĪ·":10000,"ÑĢÐ°Ð½":10001,"æĪĲç»©":10002,"Ġuntuk":10003,"Ġhat":10004,"Ġking":10005,"aming":10006,"ramework":10007,"ĠOper":10008,"Reg":10009,"éĹª":10010,"ĠQue":10011,"Ġsed":10012,"enced":10013,"uster":10014,"à¸±à¸ĩ":10015,"inst":10016,"Ġtasks":10017,"ðĿĲ":10018,"rition":10019,"post":10020,"Ġtechnical":10021,"ĠHam":10022,"è¶ĭ":10023,"atan":10024,"ãĢįĊĊ":10025,"nen":10026,"Ġcontaining":10027,"create":10028,"Ġàª":10029,"orld":10030,"Mat":10031,"Your":10032,"eller":10033,"è´Ŀ":10034,"Ġegg":10035,"210":10036,"ĠUser":10037,"Ġfemale":10038,"Ġdisapp":10039,"å¥½åĥı":10040,"Ġbag":10041,"iy":10042,"Ð°Ð»ÑĮ":10043,"ald":10044,"Ġinvolves":10045,"Ġchanging":10046,"Ġgar":10047,"Ġvision":10048,"ĠØ¨Ø§":10049,"åĬŀåħ¬":10050,"è®¨è®º":10051,"ä¸įè¶³":10052,"Ø¯Ø±":10053,"åĪĨäº«":10054,"Ġadvance":10055,"ĠTuesday":10056,"åĪ¥":10057,"ĠSaturday":10058,"Ġwants":10059,"Ġnicht":10060,"ä¸Ģå¹´":10061,"å§ĳ":10062,"uting":10063,"num":10064,"âī":10065,"fol":10066,"ä¸įäºĨ":10067,"ĠWednesday":10068,"Ø¥":10069,"éĶĻè¯¯":10070,"last":10071,"Ġelev":10072,"152":10073,"Ġtit":10074,"Equ":10075,"Ġclaims":10076,"Ġcovered":10077,"Ġconcerns":10078,"å®īè£ħ":10079,"ytes":10080,"155":10081,"Ġhelped":10082,"Ġopening":10083,"åĩłä¹İ":10084,"Page":10085,"teen":10086,"Ġrecords":10087,"azing":10088,"Ġremov":10089,"Ġquarter":10090,"Ġsevent":10091,"151":10092,"çĸ¾çĹħ":10093,"åĪ¤æĸŃ":10094,"164":10095,"ĠStudy":10096,"Ġintroduced":10097,"æĥł":10098,"ĠCle":10099,"ç½²":10100,"çĸ¼":10101,"à¦Ł":10102,"Ġimproved":10103,"èĥĥ":10104,"çŀ¬":10105,"ĠPerson":10106,"flow":10107,".append":10108,"Ġreduction":10109,"æ¯ķä¸ļ":10110,"SA":10111,"æĳ¸":10112,"Ġcub":10113,"å¢ŀå¼º":10114,"ãģĭãĤī":10115,"å·¥ä½ľçļĦ":10116,"æĪ´":10117,"aka":10118,"ĠGlobal":10119,"jet":10120,"à½":10121,"Ġoccurs":10122,"çµĲ":10123,"PP":10124,"ØªÙĩ":10125,"åĪ°åºķ":10126,"è§Ī":10127,"å¿ĥçļĦ":10128,"iner":10129,"aph":10130,"iger":10131,"ç»ĺ":10132,"Ġagric":10133,"ĠHen":10134,"Rec":10135,"à¸Ħà¸§":10136,"These":10137,"Cross":10138,"Ġdw":10139,"Ġhuge":10140,"ĠVir":10141,"ancer":10142,"Ġperspective":10143,"Ġtalking":10144,"ubb":10145,"·¸":10146,"è³ĩ":10147,"×Ŀ":10148,"äºķ":10149,"Ġfib":10150,"Ġ)Ċ":10151,"åķ¦":10152,"ĠÙħÙĪ":10153,"Ġsoci":10154,"ë¬":10155,"Ġcompleted":10156,"åħļçļĦ":10157,"Ġtopic":10158,"Ġalgorithm":10159,"æĹ¦":10160,"ĠMichael":10161,"æľīçĤ¹":10162,"ĠGeorge":10163,"Ġlatest":10164,"Ġcards":10165,"Ġsupported":10166,"Ġë§":10167,"å¹¸ç¦ı":10168,"Ġà¤ķ":10169,"177":10170,"opyright":10171,"è®Ńç»ĥ":10172,"Ġfont":10173,")ãĢĤ":10174,"Ġsentence":10175,"æĭ¥æľī":10176,"\",\"":10177,"ĠJud":10178,"åıĬåħ¶":10179,"Ġhabit":10180,"Ġmanage":10181,"ĠCOVID":10182,"153":10183,"èĩªæĪĳ":10184,"Ġdram":10185,"145":10186,"ãģªãģĦ":10187,"ä¸ĭåİ»":10188,"çıį":10189,"cknow":10190,"ĠThursday":10191,"ĠMo":10192,"142":10193,"ãĤ¢":10194,"ĠNO":10195,"atically":10196,"ÑģÑĤÐ²Ð¾":10197,"ameter":10198,"ç£ģ":10199,"Ġpractical":10200,"ĠSmith":10201,"Ġtreated":10202,"Ġfill":10203,"ìĽ":10204,"Ġappoint":10205,"Ġmission":10206,"\\),":10207,"img":10208,"ä¸Ģå®ļè¦ģ":10209,"Ġsides":10210,"hav":10211,"title":10212,"ocket":10213,"igan":10214,"Path":10215,"çİ°å®ŀ":10216,"ĠStr":10217,"-k":10218,"ĠMass":10219,"Component":10220,"ĠÐ²Ð¾Ð·":10221,"Def":10222,"PA":10223,"Ġcontinues":10224,"Map":10225,"Ġoffered":10226,"âĢĿãĢģâĢľ":10227,"Ġallowing":10228,"riage":10229,"ãĥ¼ãĥ":10230,"à¸ĵ":10231,"Color":10232,"Ġplate":10233,"iki":10234,"å§Ķåĳĺä¼ļ":10235,"Ġfre":10236,"aya":10237,"çļĦå¿ĥ":10238,"à¦¿à¦ķ":10239,"Yes":10240,"Ġunc":10241,"æİ¨èįĲ":10242,"ĠGold":10243,"åĭ¤":10244,"çĶľ":10245,"Ġsel":10246,"çĥ¦":10247,"åģļåĪ°":10248,"iate":10249,"èģĬ":10250,"æµĭè¯ķ":10251,"ĠCentral":10252,"image":10253,"à¹Ħà¸Ķà¹ī":10254,"èĳ£":10255,"æľĹ":10256,"Ŀ¼":10257,"awa":10258,"ME":10259,"Ġfuel":10260,"ĠÑģÐµ":10261,"Ġminor":10262,"à¥ĭ":10263,"è¿ĺè¦ģ":10264,"ĠTV":10265,"Ġmultip":10266,"Ġelim":10267,"ĠPet":10268,"Ġtheore":10269,"Ġshowing":10270,"å®ĮåĸĦ":10271,"ĠDuring":10272,"Size":10273,"Ġreturned":10274,"-N":10275,".\\":10276,"æĪĲéķ¿":10277,"riting":10278,"èĦı":10279,"æĮº":10280,"house":10281,"åĽºå®ļ":10282,"å¤§å¤ļ":10283,"abs":10284,"wide":10285,"}}\\":10286,"å¦Ĥä»Ĭ":10287,"Ġmur":10288,"iant":10289,"ĠTO":10290,"å¹´è½»":10291,"Ġ/>Ċ":10292,"å°ĸ":10293,"ä¹łæĥ¯":10294,"%ï¼Į":10295,"Ġauthority":10296,"ptions":10297,"è§Ĩé¢ĳ":10298,"Ġhusband":10299,"Ġahead":10300,"ç»Łè®¡":10301,"Ġideal":10302,"Ġframework":10303,"Ġevolution":10304,"åĪ¶ä½ľ":10305,"/min":10306,"ESS":10307,"Ġreb":10308,"çļĦå½±åĵį":10309,"ĠAst":10310,"HT":10311,"rence":10312,"Ġdespite":10313,"åģ¶":10314,"Ġwish":10315,"ĠHall":10316,"Ġminute":10317,"First":10318,"æķ´ä½ĵ":10319,"ĠØ§ÙĦØ¨":10320,"éĢļçŁ¥":10321,"ĠGermany":10322,"color":10323,"valu":10324,"object":10325,"åī©":10326,"ĠHand":10327,"èµı":10328,"''":10329,"è½¯ä»¶":10330,"Ðľ":10331,"ĠTur":10332,"cohol":10333,"139":10334,"éĿ¢åīį":10335,"å¼·":10336,"Ġnavig":10337,"hand":10338,"Field":10339,"Ġreturns":10340,"isp":10341,"Ġpurposes":10342,"ethyl":10343,"icit":10344,"æĿ±":10345,"Ġchannel":10346,"Ġbaby":10347,"Ġlinks":10348,"ĠWord":10349,"\\({}^{":10350,"Ð¿Ð¸":10351,"ä¸ĭéĿ¢":10352,"Cal":10353,"itative":10354,"Ġarticles":10355,"rav":10356,"ĠÐ¿ÑĢÐµ":10357,"othing":10358,"iana":10359,"ĠServices":10360,"èħ°":10361,"æģ¢å¤į":10362,"138":10363,"ĠOffice":10364,"oster":10365,"Ġvacc":10366,"Ġserved":10367,"ĠYear":10368,"åĪĽå»º":10369,"Ġtissue":10370,"eph":10371,"Ġpel":10372,"åĪ¶å®ļ":10373,"ä¸įä½ı":10374,"Question":10375,"stitution":10376,"æĿĨ":10377,"uls":10378,"çĽ¸äºĴ":10379,"EO":10380,"Ġcertainly":10381,"-de":10382,"tenance":10383,"ĠPeter":10384,"riend":10385,"-con":10386,"è¨ĺ":10387,"dule":10388,"ictionary":10389,"ÃŃn":10390,"ĠLu":10391,"Ġcontribute":10392,"ÙħØ±":10393,"Ð»ÐµÐ½Ð¸Ñı":10394,"åĨħçļĦ":10395,"Ġaudience":10396,"Ġfunctional":10397,"Supp":10398,"ĠMont":10399,"Ġwherein":10400,"Ġleads":10401,"Ġacademic":10402,"ĠNon":10403,"Ġclub":10404,"ï¸":10405,"Å¼e":10406,"à³į":10407,"ä¸Ńåįİ":10408,"ĠFood":10409,"161":10410,"Ġframe":10411,"ĠBet":10412,"è¿Ľè¡ĮäºĨ":10413,"()ĊĊ":10414,"enth":10415,"Ġáĥ":10416,"anner":10417,"yles":10418,"âĦ":10419,"ogy":10420,"èĩ£":10421,"¨×":10422,"Ġloved":10423,"äº¿åħĥ":10424,"([":10425,"å¾Ģå¾Ģ":10426,"ugh":10427,"Ġped":10428,"æļĤ":10429,"imens":10430,"ez":10431,"Ġcircumst":10432,"ĠAuthor":10433,"Ġsit":10434,"Ġ(-":10435,"Ġinteraction":10436,"176":10437,"Ġsubsequ":10438,"ÑĭÐ¹":10439,"æĲľ":10440,"rend":10441,"æĺ¯ä¸įæĺ¯":10442,"Ġcro":10443,"ĠDO":10444,"Ġdiverse":10445,"eler":10446,"éĢĤåĲĪ":10447,"Ġequivalent":10448,"Ġleadership":10449,"Ġantib":10450,"Ġentry":10451,"Ġprinciples":10452,"raf":10453,"ĠAbout":10454,"ĠÑĩÐ°":10455,"iffer":10456,"æľīä»Ģä¹Ī":10457,"eless":10458,"ometric":10459,"Ġinfection":10460,"Ġmarked":10461,"Ġmale":10462,"Ġnorth":10463,"irk":10464,"Ġalb":10465,"Ġeasier":10466,"ĠSpe":10467,"ĠSpring":10468,"åıĳè¡¨":10469,"002":10470,"æĭľ":10471,"çľĭäºĨ":10472,"oir":10473,"(),":10474,"168":10475,"âĶĢ":10476,"åļ":10477,"See":10478,"Ġsexual":10479,"iler":10480,"æı´":10481,"åºĶçļĦ":10482,"ishes":10483,"Ġtid":10484,"Ġmouth":10485,"ÑĤÑĮÑģÑı":10486,"ĠTex":10487,"165":10488,"asa":10489,"ë¶":10490,"æĪĲåĳĺ":10491,"éģŃ":10492,"è®©äºº":10493,"ERS":10494,"ÙĨØ§":10495,"ĠCommon":10496,"ibilities":10497,"ĠRobert":10498,"count":10499,"enu":10500,"Ġcomprehensive":10501,"Ġagree":10502,"ä¸¥æł¼":10503,"Ġinvention":10504,"ĠDescription":10505,"Ġlandsc":10506,"è®°èĢħ":10507,"æĬĢèĥ½":10508,"æī£":10509,"Ġ/**Ċ":10510,"eding":10511,"ono":10512,"start":10513,"ä¹Į":10514,"ç»ıåİĨ":10515,"ublish":10516,"çĶµè§Ĩ":10517,"ads":10518,"Ġ:ĊĊ":10519,"Ġevaluation":10520,"Ø¹Ø¯":10521,"encia":10522,"ĠÐ²ÑģÐµ":10523,"Ġcash":10524,"DS":10525,"Ġslightly":10526,"Ġfluid":10527,"ĠSquare":10528,"çķª":10529,"Ġcombined":10530,"-by":10531,"Ġextract":10532,"Ġtemp":10533,"ĠCatal":10534,"èĿ":10535,"phone":10536,"Ġexposure":10537,"çĪ¶äº²":10538,"è®©æĪĳ":10539,"æĿľ":10540,"æĸĩåŃĹ":10541,"å°ıçļĦ":10542,"143":10543,"å¦Ļ":10544,"ç»Īäºİ":10545,"alled":10546,"æĬ¬":10547,"pling":10548,"Ġbutton":10549,"ĠSil":10550,"Ġfab":10551,"Ġexperienced":10552,"ĠStreet":10553,"request":10554,"Ġlanguages":10555,"ĠProt":10556,"Ġlie":10557,".N":10558,"Ġgenerate":10559,"ĠCommittee":10560,"Ġsie":10561,"Ġchain":10562,")*":10563,"QL":10564,"-sh":10565,"lock":10566,"à¸±à¸ģ":10567,"Ge":10568,"éĢĻåĢĭ":10569,"Ġexcellent":10570,"uracy":10571,"kg":10572,"ĠPDF":10573,"iene":10574,"Ġinstitutions":10575,"Ġapproaches":10576,"Ġthirty":10577,"ĠCongress":10578,"ĠBa":10579,"é£Łåĵģ":10580,"è·¨":10581,"åľ¨ä¸Ģèµ·":10582,"æĦŁåĪ°":10583,"å¸«":10584,"Ġtele":10585,"æīĢè°ĵ":10586,"ÑĥÐ´":10587,"Ġopinion":10588,"æľĢé«ĺ":10589,"åľ¨è¿Ļ":10590,"è·Į":10591,"ipped":10592,"ĠInvest":10593,"147":10594,"words":10595,"ä¸²":10596,"ä¹Łå°±æĺ¯":10597,"æŁ³":10598,"atu":10599,"Ġradio":10600,"Ġjudg":10601,"åıĤæķ°":10602,"Ġneut":10603,"amma":10604,"ulum":10605,"Ġ[Ċ":10606,"Ġdrop":10607,"ĠPop":10608,"Ġinsert":10609,"Result":10610,"izz":10611,"çĽ¾":10612,"Ġemotional":10613,"è¦Ĩ":10614,"Ġtang":10615,"orter":10616,"js":10617,"ĠProfess":10618,"å²¸":10619,"Ġhypot":10620,"uto":10621,"è»Ĭ":10622,"Ġinterests":10623,"icated":10624,"æĽ°":10625,"è¾ĵåĩº":10626,"ÑģÐ»Ð¸":10627,"stream":10628,"Ġrecept":10629,"ä¹ĥ":10630,"çļĦæīĭ":10631,"Ġjed":10632,"/cm":10633,"True":10634,"Ġaux":10635,"Ġextent":10636,"ijk":10637,"æľ¬èº«":10638,"Ġice":10639,"Ġreact":10640,"Ġindustrial":10641,"è´Ńä¹°":10642,"Ġdynamic":10643,"PE":10644,"èģĮå·¥":10645,"Ġsont":10646,"å¹¾":10647,"Ð±Ð¸":10648,"ĠAny":10649,"156":10650,"ĠEnvironment":10651,"Ã©g":10652,"Ġ>>":10653,"Ġdriving":10654,"æĢĿèĢĥ":10655,"},Ċ":10656,"×Ļ×Ķ":10657,"çļĨ":10658,"Ġdetailed":10659,"åĩŃ":10660,"Ġsand":10661,"Ġplays":10662,"ĠÂ±":10663,"å¼Ħ":10664,"å¯¸":10665,"isms":10666,"ĠìĪĺ":10667,"ĠÐ¿Ð°":10668,"162":10669,"-ch":10670,"Ġexcess":10671,"xture":10672,"ç«¹":10673,"çĽ¸å½ĵ":10674,"adow":10675,".in":10676,"Ġfell":10677,"à§įà¦¬":10678,"èĺ":10679,"Ġthoughts":10680,"Ġrank":10681,"çĳŀ":10682,"ĠLes":10683,"æ³ī":10684,"åıįæĺł":10685,"èĥ¶":10686,"çĮª":10687,"PC":10688,"vector":10689,"Ġcalculated":10690,"kip":10691,"Ġresist":10692,"Ġvac":10693,"Ġalter":10694,"Ġï¼Į":10695,"ç¾Ĭ":10696,"å®¿":10697,"pet":10698,"Ġcalls":10699,"ĠBay":10700,"Some":10701,"é©¶":10702,"Ġsobre":10703,"Ġdegrees":10704,"æĻ¨":10705,"éģĩåĪ°":10706,"ÙĦÛĮ":10707,"Ã¶n":10708,"éĻª":10709,"á½":10710,"ĠObs":10711,"Ġini":10712,"Ġnarr":10713,"ìĬ¤":10714,"Ġtak":10715,"çī¹èī²":10716,"å°±åĥı":10717,"covery":10718,"blem":10719,"Input":10720,"çļĦéĤ£":10721,"Ġnice":10722,"Ser":10723,"Ġmetab":10724,"Ġopened":10725,"Author":10726,"åħ¼":10727,"æĢ»ç»ĵ":10728,"ãģ£ãģ¦":10729,"æķĪçİĩ":10730,"çħ¤":10731,"stead":10732,"æĮĩåĩº":10733,"ĠWestern":10734,"Ġterrit":10735,"],Ċ":10736,"Ġcin":10737,"åĦ¿ç«¥":10738,"166":10739,"çľŁæĺ¯":10740,"Ġtrip":10741,"iento":10742,"Ġble":10743,"Ġinjury":10744,"Info":10745,"Ġfacilit":10746,"ĠÎºÎ±":10747,"Ð¼ÐµÑĢ":10748,"Pa":10749,"PR":10750,"149":10751,"à¸ł":10752,"IST":10753,"ĠOl":10754,"íĻ":10755,"ä¸ĵå®¶":10756,"æľĢè¿ĳ":10757,"360":10758,"ï¸ı":10759,"åĩī":10760,"154":10761,"ãĢĭï¼Į":10762,",âĢĻ":10763,"Ġjoin":10764,"146":10765,"Ġì§":10766,"Ġparameter":10767,"æ¯Ķä¾ĭ":10768,"ĠNor":10769,"ÑħÐ¾Ð´Ð¸":10770,"ectors":10771,"Sim":10772,"ï¬":10773,".x":10774,"Ġdalam":10775,"å¹´ä»£":10776,"Ġdepending":10777,"ä¸ĭéĻį":10778,"ìľ¼ë¡ľ":10779,"åĪĨå¸ĥ":10780,"ounce":10781,"Ġleader":10782,"times":10783,"ismo":10784,"Ġexplained":10785,"åĬłå·¥":10786,"èº«ä»½":10787,"Ġindicate":10788,"eren":10789,"ĠCa":10790,"å°±è¦ģ":10791,"Ġfocused":10792,"ĠIntroduction":10793,"ĠØ§ÙĦÙĥ":10794,"å¾Īå¿«":10795,"Ġmaybe":10796,"å°Ŀ":10797,"áĥĲáĥ":10798,"Ġtechnologies":10799,"akt":10800,"rastructure":10801,"åį³ä½¿":10802,"Ġnone":10803,"åįģäºĮ":10804,"æĪĳæĺ¯":10805,"à¸Ńà¸¢":10806,"ĠÑįÑĤÐ¾":10807,"}{\\":10808,"ç«ŁçĦ¶":10809,"ĠØ§ÙĦØ¬":10810,"iano":10811,"Ġvul":10812,"ä¸¦":10813,"Ġvirtual":10814,"Ġfailed":10815,"ĠPage":10816,"Ġdoctor":10817,"Ġcatal":10818,"ä¹ı":10819,"ìĭľ":10820,"æĿ¥çľĭ":10821,"é¢¨":10822,"iated":10823,"amento":10824,"Ġho":10825,"Ñļ":10826,"Ġwerden":10827,"Ġsouth":10828,"anto":10829,"Ġvoc":10830,"Ð¾Ð»Ð¸":10831,"Ã¤t":10832,"à¸Ľà¸£à¸°":10833,"æ´¥":10834,"Ġoch":10835,"Ġteach":10836,"Ġcogn":10837,"Ð¾ÐºÐ°":10838,"å¿ĥä¸Ń":10839,"ygen":10840,"Ġdiseases":10841,"çļĦä¸Ģä¸ª":10842,"èĥĨ":10843,"Ġstated":10844,"Ġsevere":10845,"æ¯įäº²":10846,"alah":10847,"å¹´æĿ¥":10848,"æ¬£":10849,"åĳ½ä»¤":10850,"åĵ²":10851,"ĠÐ·Ð½Ð°":10852,"Ġfeedback":10853,"ĠEnergy":10854,"å±ħæ°ĳ":10855,"æĥľ":10856,"171":10857,"aten":10858,"åħģ":10859,"ĠEss":10860,"æĢ§èĥ½":10861,"157":10862,"ĠclassName":10863,"åĺī":10864,"map":10865,"ĠÐ¿ÐµÑĢÐµ":10866,"ioni":10867,"å¡ĳ":10868,"Ġconcepts":10869,"Ġcomparison":10870,"Ã¡t":10871,"akers":10872,"è¦º":10873,"owa":10874,"Ġment":10875,"Ġ);Ċ":10876,"çŃīçŃī":10877,"ï¿½ï¿½ï¿½ï¿½":10878,"Ġva":10879,"Book":10880,"Ġfamiliar":10881,"ĠFund":10882,"Ġproperly":10883,"ä½ĵéªĮ":10884,"åĲĮæł·":10885,"ĠBud":10886,"åªĴä½ĵ":10887,"Ġdocuments":10888,"rows":10889,"Ġnos":10890,"ĠØ§ÙĦØ¥":10891,"amples":10892,"é¢Ĺ":10893,"éģĵè·¯":10894,"åıĤèĢĥ":10895,"Ġlock":10896,"äºĭå®ŀ":10897,"ìĤ¬":10898,"ĠMA":10899,"ĠLanguage":10900,"olds":10901,"Ġadults":10902,"ä¸¤ç§į":10903,"Ġdirector":10904,"Ġsuggests":10905,"Ġiron":10906,"istan":10907,"Ġcommonly":10908,"æĮĩæłĩ":10909,"Ã¬":10910,"button":10911,"ĠìĤ¬":10912,"Ġtip":10913,"Foot":10914,"sin":10915,"åĵ¡":10916,"agen":10917,"Ġprocedures":10918,"Point":10919,"Ġsecure":10920,"Ġvoltage":10921,"rency":10922,"Ġdigits":10923,"æŀª":10924,"172":10925,"Ġrom":10926,"ĠEp":10927,"Ġprobability":10928,".next":10929,"second":10930,"[\"":10931,"Ġapparent":10932,"ĠJun":10933,"å¼ĢæĶ¾":10934,"erse":10935,"è¿ĲçĶ¨":10936,"Ġmovie":10937,"Ġatmosp":10938,"faces":10939,"Ġurban":10940,"Ġshot":10941,"åĨĴ":10942,"ĠÃ¼":10943,"ĠValue":10944,"ĠPhil":10945,"å¿ł":10946,"owe":10947,"ĠZh":10948,"ï¼ĽĊĊ":10949,"ĠãĢĬ":10950,"åĩºåı£":10951,"Ġadministration":10952,"Ġà¦ªà§įà¦°":10953,"Ã¦":10954,"irmed":10955,"Ġformal":10956,"Ġsuggested":10957,"è¿ħéĢŁ":10958,"Ġindu":10959,"åģ·":10960,"Ġgod":10961,"à¦¿à¦¤":10962,"æ¹¾":10963,"hips":10964,"Ġspend":10965,"åħĴ":10966,"èªŀ":10967,"ĠSpanish":10968,"159":10969,"Ġï¼Ī":10970,"ä¸Ģå¤©":10971,"namespace":10972,"LO":10973,"ĠBur":10974,"ls":10975,"ÎµÎ¹":10976,"Ġresearchers":10977,"åıĺå¾Ĺ":10978,"ĠKore":10979,"Event":10980,"Ġleaving":10981,"Ġà¦ľ":10982,"ĠMean":10983,"Ġintegr":10984,"Ġê³":10985,"PT":10986,"ĠBill":10987,"ĠMax":10988,"Ġfort":10989,"Ġsudden":10990,"Ġul":10991,"åŀĤ":10992,"_S":10993,"Last":10994,"ĠCamp":10995,"350":10996,"Ġsession":10997,"Ġbecoming":10998,"ĠJapanese":10999,"Ġconclusion":11000,"ĠProduct":11001,"Ġell":11002,"Ġcourses":11003,"Ġmarketing":11004,"Ġdoubt":11005,"define":11006,"Ġvaluable":11007,"éĩįå¤§":11008,"Ġec":11009,"ç¬¬ä¸Ģæ¬¡":11010,"ëĿ¼":11011,"ansion":11012,"HA":11013,"Ġagent":11014,"Ġëĭ":11015,"æĦŁæŁĵ":11016,"Det":11017,"à¤ķ":11018,"ĠÑĺ":11019,"ä¿Ħ":11020,"Ġadult":11021,"æ´ª":11022,"éª¤":11023,"Ġnetworks":11024,"-related":11025,"weight":11026,"Ġrisks":11027,"Î¯Î±":11028,"angan":11029,"output":11030,"emy":11031,"åľ°ä½į":11032,"ãģ£ãģŁ":11033,"éĥ½åľ¨":11034,"è¡ĮçļĦ":11035,"Ġalle":11036,"SN":11037,"çĵ¶":11038,"ĠKnow":11039,"Ðķ":11040,"ĉint":11041,"éĶģ":11042,"èµ°äºĨ":11043,"ÙĦØ§":11044,"fa":11045,"Ġtrad":11046,"ĠBest":11047,"ĠSign":11048,"æĪĲæŀľ":11049,"Ġnumerous":11050,"Ġfrag":11051,"Ġwouldn":11052,"åº¦çļĦ":11053,"åıĶ":11054,"Ġconsistent":11055,"Ġconsole":11056,"Ġdivision":11057,"lu":11058,"LC":11059,"ĠIr":11060,"éº¦":11061,"Ġdisp":11062,"à§ĩà¦¨":11063,"Ġsigns":11064,"148":11065,"ä¼ı":11066,"Ne":11067,"èº«è¾¹":11068,"Att":11069,"ĠSolution":11070,"åĲ¬åĪ°":11071,"à¥įà¤¯":11072,"ĠOh":11073,"çĬ¯ç½ª":11074,"ipedia":11075,"åŃķ":11076,"Ù¾":11077,"Ġot":11078,"spring":11079,"æĭ¼":11080,"ĠÐ¼Ð¸":11081,"${":11082,"edy":11083,"pes":11084,"æľīæīĢ":11085,"è®¾æĸ½":11086,"Ð·Ñĥ":11087,"Ġimmun":11088,"ä»Ģéº¼":11089,"ĠStudies":11090,"Î½Î±":11091,"ç²Ĺ":11092,"etch":11093,"æĿ°":11094,"Ġorient":11095,"Ġtables":11096,"æĢ»æĺ¯":11097,"ĠObject":11098,"ĠDev":11099,"Ġcomposition":11100,"////////":11101,"Ġ×Ľ×":11102,"çļĦæĸ°":11103,"Ġtail":11104,"æĦŁåıĹ":11105,"ffee":11106,"abetes":11107,"cluded":11108,"Ġveloc":11109,"ifies":11110,"ĠParis":11111,"åĪĨç±»":11112,"éĻĲåĪ¶":11113,"Ġoblig":11114,"æ»´":11115,"ĠWell":11116,"Ġtrib":11117,"ĠTor":11118,"umbers":11119,"Ġdelivery":11120,"ĠAR":11121,"×ķ×ľ":11122,"åĽ¢éĺŁ":11123,"Ag":11124,"ĠOR":11125,"rics":11126,"Ġfinished":11127,"Ġsalt":11128,"Ġ×Ľ":11129,"Ġremoved":11130,"ç¨į":11131,"å°ĺ":11132,"ĠCard":11133,"inating":11134,"Ġreducing":11135,"éĥĳ":11136,"Ġrepresentation":11137,"Stud":11138,"mic":11139,"ãģĤãĤĭ":11140,"hline":11141,"ĠColl":11142,"æĬ¢":11143,"ÑĨÐ¸Ñı":11144,"Ġfavorite":11145,"ĠOnce":11146,"Ġconflict":11147,"Ġkan":11148,"ascular":11149,"Ġancient":11150,"àµį":11151,"ĠWhich":11152,"æĶ¯ä»ĺ":11153,"204":11154,"ĠControl":11155,"ithub":11156,"è¨Ń":11157,"ĠÂ£":11158,"ÛĮÙħ":11159,"ttp":11160,"TR":11161,"othe":11162,"æŃ£å¼ı":11163,"ĠMil":11164,"Ġfunds":11165,"æĸ¹ä¾¿":11166,"Ġwire":11167,"Ġmixed":11168,"Response":11169,"asp":11170,"ĠÃº":11171,"éĶħ":11172,"DE":11173,"ÑİÑĤÑģÑı":11174,"à³įà²":11175,"§×":11176,"âĢĿãĢĤĊĊ":11177,"èħĲ":11178,"Ġdari":11179,"Ġauto":11180,"Ġempty":11181,"ç«Ļåľ¨":11182,"ova":11183,"rec":11184,"167":11185,"iration":11186,"ĠBack":11187,"åĩºä¸Ģ":11188,"Ġtruly":11189,"å®¶éķ¿":11190,"Ġsist":11191,"ÅĤa":11192,"Ġjobs":11193,"åĪĬ":11194,"æĥħç»ª":11195,"ç¼ĸè¾ĳ":11196,"Ġconsumption":11197,"Ġconfidence":11198,"åĬ¨ä½ľ":11199,"Ġreferred":11200,"Ġont":11201,"Ġlibrary":11202,"éĹ²":11203,"ĠTim":11204,"Ġpregn":11205,"èĥİ":11206,"Ġauch":11207,"CI":11208,"ëĲ":11209,"ç²®":11210,"ĠProcess":11211,"Ġhumans":11212,"à¸©":11213,"hether":11214,"Fe":11215,"è´¡":11216,"Ġhighlight":11217,"Ġdiagram":11218,"Ġscene":11219,"(l":11220,"Ġkid":11221,"ä½ĵèĤ²":11222,"éļĨ":11223,"çİĦ":11224,"Ġfav":11225,"Ġmeasurement":11226,"ç»Ŀå¯¹":11227,"ĠĠĠĠĠĠĠĠĠĠĠĠĠĠĠĠĠ":11228,"ä¸Ĭè¿°":11229,"ĠSi":11230,"Ġverb":11231,"ĠRussian":11232,"ĠÄį":11233,"Ġcities":11234,"summary":11235,"ä¸įç®¡":11236,"æĻļä¸Ĭ":11237,"orph":11238,"Ġdiscovered":11239,"Ġavec":11240,"Ã«":11241,"Ġrh":11242,"rant":11243,"Ġappeared":11244,"Ã§Ãµes":11245,"ashion":11246,"Ġinvent":11247,"ceived":11248,"158":11249,"Ġsolar":11250,"174":11251,"ĠØ§ÙĦÙģ":11252,"ä¹Łæ²¡æľī":11253,"ĠGrade":11254,"Ġrevealed":11255,"Ġrecip":11256,"ä¼ļè®¡":11257,"åĮĸåŃ¦":11258,"anie":11259,"Ġrepresented":11260,"å½¼":11261,"Ð°Ð»":11262,"Ġsoul":11263,"Ġfundamental":11264,"Ġresponsibility":11265,"Ġderiv":11266,"çº¹":11267,"ä¸ºä¸»":11268,"-cent":11269,"ÐµÐ½ÑĮ":11270,"Dis":11271,"è¡¨éĿ¢":11272,"Ġcolors":11273,"ç§Ĵ":11274,"Ġfreedom":11275,"race":11276,"æĽ´æĸ°":11277,"ĠCON":11278,"æĿĥåĪ©":11279,"Ġpromote":11280,"çĤ¸":11281,"ĠMinister":11282,"adecimal":11283,"Ġfix":11284,"è±ª":11285,"Ġans":11286,"ĠØ¥ÙĦÙī":11287,"Ġsugar":11288,"ĠExt":11289,"clusive":11290,"Ġsho":11291,"Ġgoods":11292,"[j":11293,"cin":11294,"Ġpieces":11295,"Ġvirus":11296,"Ġtroy":11297,"ĠPR":11298,"Ġattend":11299,"Ġfilled":11300,"èĤ©":11301,"éĶĭ":11302,"Ġsan":11303,"Ġarms":11304,"Ġsuitable":11305,"Ġjest":11306,"inations":11307,"arian":11308,"ĠBoth":11309,"éĢĲæ¸Ĳ":11310,"æĤ²":11311,"ÙĪØ³":11312,"..ĊĊ":11313,"Ġscript":11314,"ĠShow":11315,"Ġsmooth":11316,"åı¬å¼Ģ":11317,"LA":11318,"Ġship":11319,"ĠArticle":11320,"stein":11321,"å¼ºè°ĥ":11322,"è¾°":11323,"è¿ģ":11324,"Ġinstitution":11325,"Ġzijn":11326,"å°ıåŃ¦":11327,"Web":11328,"æŃ£æĺ¯":11329,"/**Ċ":11330,"Ø§Ø·":11331,"Ġkit":11332,"ĠOx":11333,"ÃŃt":11334,"éĤ®":11335,"Ġupdated":11336,"ĠStart":11337,"ĠMedical":11338,"Ġgender":11339,"Co":11340,"Ġ×ľ":11341,"230":11342,"ĠWhere":11343,"Ġstuff":11344,"çĮĽ":11345,"Ġë³":11346,"Ġdetection":11347,"Ġdefine":11348,"Ġestimated":11349,"Ġsweet":11350,"erd":11351,"sm":11352,"Ġintended":11353,"icol":11354,"Â¬":11355,"valid":11356,"è¯´è¯Ŀ":11357,"ĠAN":11358,"Ġspecifically":11359,"åĲĲ":11360,"inity":11361,"Ġminim":11362,"ĠFrank":11363,"à¥įà¤°":11364,"ĠØ§ÙĦØ´":11365,"çŁ©":11366,"Ġpure":11367,"Ġdrugs":11368,"Ġwinter":11369,"/S":11370,"ç¥ŀç»ı":11371,"Ġadj":11372,"ĠØ§ÙĦØ¯":11373,"Button":11374,"web":11375,"gency":11376,"è¯ķéªĮ":11377,"ometry":11378,"ĠAbstract":11379,"oses":11380,"Ġherself":11381,"-the":11382,"ĠPoint":11383,"ç¨¿":11384,"Ġlived":11385,"tex":11386,"\"></":11387,"ĠNOT":11388,"Ġadvice":11389,"Ġthank":11390,"ĠIndust":11391,"olit":11392,"Ø°Ø§":11393,"Ġexplanation":11394,"CF":11395,"Ġhappens":11396,"HS":11397,"ativ":11398,"Ġsmart":11399,"nam":11400,"Ġwilling":11401,"ÑıÑĤ":11402,"è®Ĭ":11403,"Ġsubjects":11404,"ç¾½":11405,"lected":11406,"ãģ¦ãģĦãĤĭ":11407,"Ġpartner":11408,"-Ċ":11409,"éĢĨ":11410,"Image":11411,"åĵªäºĽ":11412,"vertis":11413,"nÃ©":11414,"ä¸įçĶ¨":11415,"è§Ĵåº¦":11416,"åŃ¤":11417,"Ġperm":11418,"ÑħÐ¾Ð´":11419,"ifest":11420,"iche":11421,"Ġsou":11422,"Ġgenes":11423,"Ġdigit":11424,"ois":11425,"çļĦæĸ¹å¼ı":11426,"å¹¼åĦ¿":11427,"Our":11428,"Ġpand":11429,"Ãĥ":11430,"_list":11431,"db":11432,"åĵĪåĵĪ":11433,"uilding":11434,"å°±èĥ½":11435,"æĬĳ":11436,"à±ģ":11437,"Ġalleg":11438,"ìłģ":11439,"çĮ«":11440,"çĻĮ":11441,"Ġstudied":11442,"Ġproceed":11443,"atabase":11444,"Ġhealthcare":11445,"Ġguess":11446,"icing":11447,"å¹¶æ²¡æľī":11448,"Ġneuro":11449,"IO":11450,"Ġcircumstances":11451,"agon":11452,"å¥ı":11453,"173":11454,"olars":11455,"æĭĴ":11456,"Ġknows":11457,"æĪĳæĥ³":11458,"ç§»åĬ¨":11459,"ushed":11460,"Box":11461,"Ã®":11462,"äººçĶŁ":11463,"/in":11464,"é¼»":11465,"Ġmanager":11466,"æĸ¹éĿ¢çļĦ":11467,"èĢĮè¨Ģ":11468,"hab":11469,"å¼ķå¯¼":11470,"Ġinstrument":11471,"ìĺ":11472,"ĠON":11473,"è¿ª":11474,"stood":11475,"true":11476,"Ġfrequently":11477,"è²Į":11478,"uma":11479,"ĠConn":11480,"Ð¾Ð½Ð°":11481,"Ġunless":11482,"Ġreject":11483,"burg":11484,"ĠTrue":11485,"æ¡ĥ":11486,"ç±į":11487,"ĠØ¢ÙĨ":11488,"-old":11489,":**":11490,"Ġcrim":11491,"Ġmonitoring":11492,"Ġraise":11493,"Ġreform":11494,"Ð²ÐµÑĢ":11495,"çºµ":11496,"ĠBig":11497,"ĠEngineering":11498,"Ġremaining":11499,"à¦¹":11500,"ĠMot":11501,"Ġhelpful":11502,"ÏĦÎ¿":11503,"çļĦä¸»è¦ģ":11504,"æ¯ķç«Ł":11505,"uing":11506,"actory":11507,"169":11508,"Ġphilosoph":11509,"win":11510,"ĠArab":11511,"ĠÎ´":11512,"æľīä¸Ģä¸ª":11513,"åĲįåŃĹ":11514,"åĩºçīĪç¤¾":11515,"Ġrecorded":11516,"ĠConf":11517,"riz":11518,"ç¢°":11519,"ç¢³":11520,"Ġannounced":11521,"åıĮæĸ¹":11522,"Ġoffering":11523,"æĬķåħ¥":11524,"è¿ŀç»Ń":11525,"çī¢":11526,"Ġcart":11527,"sz":11528,"ł×Ļ":11529,"hy":11530,"(A":11531,"æĭĶ":11532,"Ġbright":11533,"Next":11534,"Ġlb":11535,"Ġcreation":11536,"æŃ¤å¤ĸ":11537,"åĴ±":11538,"Ġcoun":11539,"chi":11540,"éĺ²æİ§":11541,"oral":11542,"-be":11543,"Ġinner":11544,"Ġseeing":11545,"æĹ¥å¸¸":11546,"-v":11547,"Ġgenetic":11548,"çļĦä¸į":11549,"Ġparallel":11550,"Ġdaughter":11551,"Ïİ":11552,"Ġnil":11553,"æĻĤéĸĵ":11554,"å¼µ":11555,"Ġdesc":11556,"æķĻæİĪ":11557,"ĠÐ±Ðµ":11558,"ĠSie":11559,"çŃ¹":11560,"æŀĿ":11561,"×Ļ×¨":11562,"à¸ĺ":11563,"opic":11564,"Ð¾Ðµ":11565,"ĠTimes":11566,"Ġru":11567,"Ġconcerned":11568,"Ġ---":11569,"Ġdelay":11570,"ëŀ":11571,"åı¥è¯Ŀ":11572,"å¤Ħäºİ":11573,"ãĢĶ":11574,"Ġvictim":11575,"å¹»":11576,"ailed":11577,"è¾Ī":11578,"à¸Ħà¸§à¸²à¸¡":11579,"ĠLic":11580,"ymbol":11581,"Ġindepend":11582,"Ġ×Ķ×ŀ×":11583,"è°ĭ":11584,"Ġ<-":11585,"Ġsecondary":11586,"Ġaward":11587,"æĺ¯ä¸ª":11588,"ĠFil":11589,"ĠSecurity":11590,"éĤĬ":11591,"Ġring":11592,"Ð¸Ð½":11593,"Ġhoriz":11594,"ĠTexas":11595,"Ġstack":11596,"ĠÐºÐ¾Ð¼":11597,"reated":11598,"Ġelectron":11599,"æĺ¨":11600,"ĠMel":11601,"Ġwaiting":11602,"ä¸¤äºº":11603,"èĤ¾":11604,"æ®¿":11605,"Ġampl":11606,"ĠAsia":11607,"ĠYes":11608,"ĠSpecial":11609,"Ġprincipal":11610,"Ġrend":11611,"åłĨ":11612,"ãĤı":11613,"Ret":11614,"à¦Ĺ":11615,"ä¸Ģä½į":11616,"ĠDE":11617,"ĠĠĠĠĠĠĠĠĠĠĠĠĠĠĠĠĠĠĠĠĠĠĠĠĠĠĠĠĠĠĠ":11618,"imately":11619,"Ġ>=":11620,"]]":11621,"Ġphenomen":11622,"Ġcoe":11623,"Ġmargin":11624,"Ġapart":11625,"igu":11626,"Ġoxygen":11627,"Vol":11628,"éħįåĲĪ":11629,"Ġholding":11630,"ĠMount":11631,"Ġresponses":11632,"çı¾åľ¨":11633,"à¥ģ":11634,"Ġcontinuous":11635,"å¤§ä¼ļ":11636,"èĻķ":11637,"ĠÐķ":11638,"ä¸Ģè¾¹":11639,"Ġcategory":11640,"Ġaz":11641,"ç¡®å®ŀ":11642,"æĶ¹åĸĦ":11643,"Ġextremely":11644,"åĢ¼å¾Ĺ":11645,"su":11646,"ç»´æĬ¤":11647,"di":11648,"ĠInf":11649,"Click":11650,"Ġreco":11651,"ìĹĲìĦľ":11652,"çĵ¦":11653,"Ġwitness":11654,"######":11655,"ĠDisc":11656,"host":11657,"!âĢĿĊĊ":11658,"cules":11659,"Ġnit":11660,"cluding":11661,"èĥ½æºĲ":11662,"lements":11663,"ÙħÙĪ":11664,"unte":11665,"gypt":11666,"uke":11667,"ĠNatural":11668,"åħ´è¶£":11669,"Ġfruit":11670,"à¦Ĥ":11671,"abe":11672,"ployment":11673,"zing":11674,"case":11675,"010":11676,"ĠDu":11677,"ãĢģãĢĬ":11678,"åĲĮå¿Ĺ":11679,"Ġbinary":11680,"Ġforg":11681,"rich":11682,"èªį":11683,"plete":11684,"è¤":11685,"/f":11686,"Why":11687,"ĠCamb":11688,"antly":11689,"ourse":11690,"åĨľæ°ĳ":11691,"ĠÐ£":11692,"Ġran":11693,"Ġbattle":11694,"Ġkill":11695,"ÑĪÐ°":11696,"ĠHy":11697,"UE":11698,"<int":11699,"ĠMuse":11700,"èĭ±åĽ½":11701,"Ġequations":11702,"æĦĪ":11703,"DR":11704,"ä¸ĢæĿ¡":11705,"mal":11706,"Ġcoast":11707,"(new":11708,"Source":11709,"Ġdestroy":11710,"ĠÐ²Ð°":11711,"greg":11712,"nel":11713,"ading":11714,"×¢":11715,"é©±":11716,"à¸¡à¹Ī":11717,"ĠDigital":11718,"Ġachieved":11719,"ĠFull":11720,"ĠìŀĪ":11721,"333":11722,"Ġorganic":11723,"rog":11724,"åĿ¡":11725,"ĠOld":11726,"-like":11727,"å£®":11728,"Ġdetect":11729,"Ġpayment":11730,"£¼":11731,"èĩ³å°ĳ":11732,"äººåı£":11733,"flu":11734,"Ġcollected":11735,"Ġcompetition":11736,"Ġwidely":11737,"email":11738,"anal":11739,"ĠCy":11740,"uta":11741,"';ĊĊ":11742,"ç»ĻæĪĳ":11743,"å½ĵåľ°":11744,"æĭĵ":11745,"èĽĭçĻ½":11746,"Ġflat":11747,"iti":11748,"Ġpu":11749,"éģµ":11750,"Ġeste":11751,"ĠReferences":11752,"æĹ¶çļĦ":11753,"Ġbelieved":11754,"Ġmostly":11755,"ĠTR":11756,"nÄĽ":11757,"ository":11758,"However":11759,"éĵº":11760,"Ġpool":11761,"ÑģÑĤÐ²Ð¸":11762,"åį³åı¯":11763,"Ġeventually":11764,"Ġci":11765,"è®¡ç®Ĺæľº":11766,"ãĤ¿":11767,"Ġsquared":11768,"è¾ŀ":11769,"æĽ´æĺ¯":11770,"æ¶Ĥ":11771,"Ġcitizens":11772,"205":11773,"Ġ});Ċ":11774,"wi":11775,"Ġdepends":11776,"æĵ¦":11777,"ãĢĤï¼Ī":11778,"Ġkeeping":11779,"ĠWho":11780,"Ġinternet":11781,"Ġwhatever":11782,"×ķ×Ł":11783,"Ġaccurate":11784,"Ġcrisis":11785,"Ġrecommended":11786,"à¦¾à¦²":11787,"Ġpositions":11788,"Ġviolence":11789,"åĮ»çĶŁ":11790,"ĠPrime":11791,"Ġdepartment":11792,"ĠÐ³Ð¾Ð´Ð¸Ð½Ð°":11793,"å§ľ":11794,"ĠëĤ":11795,"ÑīÐ°":11796,"Ġvital":11797,"icious":11798,"åŁºäºİ":11799,"Ġseeking":11800,"Ġkon":11801,".ex":11802,"ĠÐ½Ð¸":11803,"éĩįè§Ĩ":11804,"Che":11805,"áĢº":11806,"Ġmarkets":11807,"Ġgal":11808,"Ġassets":11809,"ĠPrint":11810,"Ġrul":11811,"ego":11812,"Fl":11813,"ãĢķ":11814,"Ġà¹Ģà¸":11815,"èħ¾":11816,"ä¹ĭå¤ĸ":11817,"Ġecho":11818,"emplate":11819,"ĠÐĹ":11820,"emporary":11821,"íĺ":11822,"åĭĴ":11823,"à±į":11824,"rypt":11825,"inition":11826,"ĠðŁĶ":11827,"Ġextended":11828,"ĠUnivers":11829,"Ġdecrease":11830,"ä¸ªæľĪ":11831,"isi":11832,"Ġíķ":11833,"åĸĬ":11834,"Ġconven":11835,"ï¼ĽĊ":11836,"ĠLim":11837,"mathcal":11838,"ĠÐ¿Ð¾Ñģ":11839,"ä¸ĭäºĨ":11840,"çľŁå®ŀ":11841,"éĢ£":11842,"Ġtraffic":11843,";i":11844,"ĠStudents":11845,"æĢ§åĴĮ":11846,"Ġmol":11847,"åĽŀæĿ¥":11848,"Ġgreatest":11849,"displaystyle":11850,"III":11851,"Ġhearing":11852,"_D":11853,"åĵ¦":11854,"etry":11855,"Ġrein":11856,"æĦ¿æĦı":11857,"å¹³è¡¡":11858,"?\"":11859,"Ġdistrict":11860,"Ġcardi":11861,"Ġhelping":11862,"Ġargs":11863,"Ġawait":11864,"å¥ī":11865,"ÙħÙĦ":11866,"ĠIdent":11867,"Ġengineering":11868,"ĠLook":11869,"è§ĦåĪĻ":11870,"Ġfourth":11871,"æĢģåº¦":11872,"itas":11873,"å½¢è±¡":11874,"èµ·äºĨ":11875,"Ġpurchase":11876,"icago":11877,"holders":11878,"èģĺ":11879,"ĠPers":11880,"Ġdf":11881,"æ¤įçī©":11882,"ìłķ":11883,"Ġdomin":11884,"Ġfold":11885,"àµįà´":11886,"ĠSaf":11887,"æħķ":11888,"ĠGal":11889,"rank":11890,"Æ°":11891,"'.":11892,"ĠÐĽ":11893,"iten":11894,"ĠConst":11895,"Ġdebt":11896,"ÙħÙĨ":11897,"oli":11898,"ĠÚĨ":11899,"Ġrid":11900,"åľ°åĿĢ":11901,"ventional":11902,"Ġindicated":11903,"nov":11904,"ĠNote":11905,"ĠFace":11906,"Ġsounds":11907,"cell":11908,"çŁĽ":11909,"IB":11910,"Ġmainly":11911,"åĪĨåŃĲ":11912,"å°ĳå¹´":11913,"æģĴ":11914,"Ġperman":11915,"Ġphr":11916,"Ġrent":11917,"ĠFOR":11918,"ĠJava":11919,"size":11920,"Ġpossess":11921,"çļĦåŁºç¡Ģ":11922,"Ġantic":11923,"æĪĳä¸į":11924,"å¤§éĩı":11925,"ĠÑĢ":11926,"ĠWorksheets":11927,"åĩ¤":11928,"åī²":11929,"Ġdesire":11930,"à¤¸":11931,"OK":11932,"Ġexistence":11933,"ĠSciences":11934,"åĽŀåĪ°":11935,"ç¢į":11936,"ãģķãĤĮ":11937,"Ġplane":11938,"ëħ":11939,"æ®ĸ":11940,"ĠCA":11941,"æĽ¾ç»ı":11942,"vin":11943,"åĲ¹":11944,"æ³ª":11945,"åĦ¿åŃĲ":11946,"æĪĳå°±":11947,"ÙĪØ¨":11948,"ä½ľä¸ļ":11949,"Ġsituations":11950,"ĠRussia":11951,"èĲ¨":11952,"åħ½":11953,"çĶ¢":11954,"éº½":11955,"ayout":11956,"Ġcrow":11957,"mann":11958,"çĬ¶åĨµ":11959,"ĠRichard":11960,"ques":11961,"ĠCarol":11962,"ampions":11963,"Ġmuscle":11964,"Ġdil":11965,"Ġsell":11966,"Ġ($":11967,"Ġstatements":11968,"å¿«ä¹Ĳ":11969,"sible":11970,"uzz":11971,"isch":11972,"encing":11973,"å¥Ķ":11974,"issions":11975,"Hand":11976,"aran":11977,"ĠSuch":11978,"apat":11979,"arsh":11980,"æ±Ĺ":11981,"acher":11982,"ÏģÎ±":11983,"ĠnÃ£o":11984,"Ð»ÐµÐº":11985,"Ã½ch":11986,"è¿Ĳè¾ĵ":11987,"ĠFoundation":11988,"Ġtox":11989,"åł±":11990,"EW":11991,"ĠPlease":11992,"esis":11993,"Ġjustice":11994,"æĢĿç»´":11995,"æľºæ¢°":11996,"ãģĽ":11997,"åĬ¨çī©":11998,"uce":11999,"ahan":12000,"Ġrefers":12001,"åįıè®®":12002,"Ø§Øµ":12003,"ician":12004,"Ġconsists":12005,"gt":12006,"Ġbreast":12007,"èħĶ":12008,"Ġnod":12009,"ĠÃ©t":12010,"Ġclients":12011,"ä»Ķ":12012,"Ġinteractions":12013,"Ġensuring":12014,"Ġsind":12015,"Ġ),":12016,"èĭ±è¯Ń":12017,"Ġaid":12018,"ÑĥÑĤ":12019,"Ġbodies":12020,"ĠIV":12021,"çĹĩçĬ¶":12022,"Ġpersons":12023,"æŀĦæĪĲ":12024,"ĠMake":12025,"ĠSystems":12026,"uts":12027,"config":12028,"xiety":12029,"å·²ç¶ĵ":12030,"Ġ((":12031,"Ġìľ":12032,"Ġchosen":12033,"istical":12034,"Ġkilled":12035,"Ġexists":12036,"é«ĺåº¦":12037,"Ġspecified":12038,"Ġtick":12039,"-W":12040,"uality":12041,"à¦ĩ":12042,"Ġug":12043,"Ġmanaged":12044,"ressive":12045,"çļĦä¸»":12046,"Ġprinciple":12047,"Ġhousing":12048,"ÙĤØ¯":12049,"ĠAmericans":12050,"å¹¿æ³Ľ":12051,"å¤§å°ı":12052,"Ġmilk":12053,"Ġfunding":12054,"Ġsurgery":12055,"ĠPolicy":12056,"Ġwie":12057,"Ġfer":12058,"ĠÅ¾":12059,"Ġaan":12060,"TA":12061,"Ġforty":12062,"ĠIsland":12063,"à¹Īà¸§":12064,"åĬłä¸Ĭ":12065,"query":12066,"/L":12067,"Ġmyst":12068,"Ġalcohol":12069,"Ġmissing":12070,"iÃ³":12071,"åĪĨéħį":12072,"æİ¥è§¦":12073,"\\,":12074,"Ġaccuracy":12075,"ĠConference":12076,"Ġshoot":12077,"à¦£":12078,"è´·æ¬¾":12079,"ROM":12080,"Ġprz":12081,"format":12082,"èĲ§":12083,"Ġcer":12084,"Ġsegment":12085,"å°±ç®Ĺ":12086,"Ġnurs":12087,"èµĭ":12088,"ĠTotal":12089,"Ġol":12090,"Ġproteins":12091,"Ġcontrolled":12092,"Ġprotocol":12093,"à¹ĥà¸«à¹ī":12094,"nership":12095,"iginal":12096,"-E":12097,"yan":12098,"Ġfifty":12099,"åĿ¦":12100,"Ġzone":12101,"à®°":12102,"Ġplot":12103,"perties":12104,"eln":12105,"uilder":12106,"Ġdepos":12107,"åĵªéĩĮ":12108,"æĪĺäºī":12109,"Ġended":12110,"Ġsustainable":12111,"Ġaccompl":12112,"è¿Ł":12113,"æĢ§è´¨":12114,"ĠGrand":12115,"æĴĳ":12116,"Ġà¦¯":12117,"é¸Ł":12118,"Footnote":12119,"Ġregional":12120,"Ġemployee":12121,"Ġruns":12122,"Ġerrors":12123,"Ġmodule":12124,"Ġrepro":12125,"éĹ¹":12126,"Ġpued":12127,"è¡£æľį":12128,"imer":12129,"æĽ¼":12130,"Ġcompare":12131,"Ġìĺ":12132,"adian":12133,"æīĢæľīçļĦ":12134,"à¹Īà¸²à¸ĩ":12135,"ĠIslam":12136,"Ġelectronic":12137,"Ġrecovery":12138,"Ġhyper":12139,"amos":12140,"Ġagreed":12141,"brid":12142,"çĭł":12143,"ĠWH":12144,"éħįç½®":12145,"ãĢĳĊĊ":12146,"è©²":12147,"ĠAdditionally":12148,"}\\),":12149,"enter":12150,"ĠWomen":12151,"å±¥":12152,"Ġconsidering":12153,"Ġmaintenance":12154,"Û±":12155,"aine":12156,"ĠLee":12157,"Ġprev":12158,"PD":12159,"è°±":12160,"ÑĥÐ½":12161,"kins":12162,"urns":12163,"Ġtransmission":12164,"Ġexperimental":12165,"Cur":12166,")ãĢģ":12167,"(e":12168,"ìĦ±":12169,"ĠJer":12170,"olor":12171,"à¸·à¹Īà¸Ń":12172,"æµħ":12173,"Ġcryst":12174,"Ġloop":12175,"parent":12176,"ochem":12177,"à¸į":12178,"Ġtopics":12179,"çĺ¤":12180,"Ġyouth":12181,"åŃ¦ä¼ļ":12182,"æģĭ":12183,"();":12184,"]);Ċ":12185,"å®ı":12186,"Ġmechanisms":12187,"Ġbone":12188,"Ġnoise":12189,"ificial":12190,"å¾ªçİ¯":12191,"é³":12192,"çºł":12193,"chedul":12194,"ĠLos":12195,"Ġcreative":12196,"æª":12197,"ĠÐ´ÑĢÑĥ":12198,"ì²":12199,"CrossRef":12200,"è¯¦ç»Ĩ":12201,"Ġtempl":12202,"åľ¨è¿ĻéĩĮ":12203,"Ġmedic":12204,"ĠFrancis":12205,"itÃł":12206,"imento":12207,"èģĶç½ĳ":12208,"rot":12209,"å¾Īå¥½":12210,"æľīçĿĢ":12211,"Ġacknow":12212,"ĠðŁĶĬ":12213,"Ð¼Ñĭ":12214,"Ġdepart":12215,"à¦¿à¦¨":12216,"azon":12217,"Ġimprovement":12218,"ĠÃ¡":12219,"Ġthin":12220,"ĠCommunity":12221,"}$":12222,"ä»įçĦ¶":12223,"æ¼ı":12224,"ĠÐ¸ÑģÐ¿":12225,"Ġdoct":12226,"Ġsettings":12227,"è´¢æĶ¿":12228,"ĠBrown":12229,"Ġoutcome":12230,"ĠRos":12231,"æł·åŃĲ":12232,"åĪ©æ¶¦":12233,"å¯Ħ":12234,"aire":12235,"Ġopposite":12236,"Õ¸ÖĤÕ":12237,"Ġhomes":12238,"ä¸ĭåĪĹ":12239,"Ġroute":12240,"ĠImp":12241,"ãģ¿":12242,"Ø³Ùħ":12243,"éķ¿çļĦ":12244,"Ġcriteria":12245,"Ġcompens":12246,"éģĵå¾·":12247,"Ġanalys":12248,"Ġfloat":12249,"ingly":12250,"Ġimper":12251,"Ġrecognition":12252,"Ġgirls":12253,"ĠÑĨ":12254,"éĽ£":12255,"ĠAdminist":12256,"erman":12257,"())Ċ":12258,"æĤŁ":12259,"ellect":12260,"Ġêµ":12261,"Can":12262,"æħ¢æħ¢":12263,"×ķ×ĵ":12264,"vas":12265,"èī¾":12266,"æīĭæ®µ":12267,"Ġlinked":12268,"ĠCam":12269,"Ġbool":12270,"Î¼Î±":12271,"âĢĲ":12272,"æ¢¯":12273,"Ġamazing":12274,"Ġprompt":12275,"ĠDirector":12276,"Ġcooper":12277,"éģ¸":12278,"ä¸ĭåįĪ":12279,"åĪĽä¸ļ":12280,"ART":12281,"ĠNetwork":12282,"Ġderived":12283,"oted":12284,"Ġrect":12285,"Ġstanding":12286,"Ġtill":12287,"Ġclar":12288,"Ġ×Ĳ×ª":12289,"indu":12290,"Ġconj":12291,"otype":12292,"Ð¾Ð»ÑĮÐºÐ¾":12293,"é£Łçī©":12294,"çĬ¹":12295,"ĠAff":12296,"Config":12297,"çĤ¹çļĦ":12298,"Product":12299,"Ġà¨":12300,"à¯įà®ķ":12301,"âĢ¦âĢ¦âĢ¦âĢ¦":12302,"Ġsoc":12303,"æ¶īåıĬ":12304,"ĠHT":12305,"Ġcritic":12306,"å¦ĸ":12307,"ÙĥÙĨ":12308,"ä½ĵçİ°":12309,"ä¾Ŀæį®":12310,"Load":12311,"pons":12312,"åĬ¨åĬĽ":12313,"ocratic":12314,"åľ¨åľ°":12315,"Ġlesson":12316,"phi":12317,"Ġsharing":12318,"ĠCr":12319,"ortunately":12320,"211":12321,"close":12322,"æŃ¥éª¤":12323,"rogen":12324,"Ġ(!":12325,"212":12326,"gent":12327,"Ġsignificance":12328,"Status":12329,"å¯¿":12330,"Ġza":12331,"Ġfigures":12332,"Ġstood":12333,"Ġriver":12334,"Ġchief":12335,"icians":12336,"åĭĻ":12337,"pled":12338,"private":12339,"ĠÐĿÐ°":12340,"ĠDer":12341,"Î·ÏĤ":12342,"Ġappearance":12343,"äººéĥ½":12344,"Ġlatter":12345,"è´¸æĺĵ":12346,"å¸¶":12347,"ĠLine":12348,"gr":12349,"æįŁå¤±":12350,"åİŁæĿ¥":12351,"åľ¨äºİ":12352,"inen":12353,"Ġuncertain":12354,"åĲĦé¡¹":12355,"width":12356,"Ġaccord":12357,"åĲ¨":12358,"è«ĸ":12359,"ĠConvert":12360,"Ġresolution":12361,"ĠPass":12362,"Char":12363,"åĲ¸å¼ķ":12364,"rey":12365,"Ġwy":12366,"éĢĤåºĶ":12367,"ĠDistrict":12368,"DB":12369,"ĠRE":12370,"ç©ºæ°Ķ":12371,"ï¼į":12372,"å¤¹":12373,"ĠChristmas":12374,"æ¡Īä»¶":12375,"INE":12376,"Ġdesired":12377,"Ġreceiving":12378,"Ġcaught":12379,"å¿ĹæĦ¿":12380,"eme":12381,"lla":12382,"ĠBal":12383,"ket":12384,"éĤ£éĩĮ":12385,"Search":12386,"Ġaccounts":12387,"ä½įäºİ":12388,"Â«":12389,"has":12390,"æĺĮ":12391,"Ġinvestigation":12392,"ĠPot":12393,"Ġprison":12394,"æ°Ľ":12395,"Ġdefinit":12396,"Ġdiscipl":12397,"222":12398,"äºĨä¸Ģä¸ĭ":12399,"å°½ç®¡":12400,"ÑģÑĤÐ¾Ñı":12401,"ëĵ¤":12402,"py":12403,"rons":12404,"ÑĢÐµÐ´Ðµ":12405,"Ġaren":12406,"Ġrestaur":12407,"Õ¥Õ":12408,"ĠIss":12409,"ĠCharles":12410,"æī¿æĭħ":12411,"Oh":12412,"Ġdispos":12413,"ĠCR":12414,"Ġaccepted":12415,"Ġprofile":12416,"Ġmoral":12417,"Ġinsights":12418,"strong":12419,"æĿ¥åĪ°":12420,"ifts":12421,"æĪĳä¹Ł":12422,"Ġunderstood":12423,"çļĦæľĢ":12424,"åĸ·":12425,"Ġquiet":12426,"agraph":12427,"å®ŀè¡Į":12428,"Ġthousands":12429,"Ġlip":12430,"åĬ²":12431,"irms":12432,"ä¸įéĶĻ":12433,"Ġstability":12434,"ĠÐ¿ÑĢÐ°":12435,"Ã©l":12436,"ĠFun":12437,"Ġcommitment":12438,"Ġchronic":12439,"Ġlisten":12440,"Message":12441,"åĩºæĿ¥çļĦ":12442,"ĠRequ":12443,"Ġstarts":12444,"ĠTem":12445,"aper":12446,"æ°ĳä¸»":12447,"ãĢĤ(":12448,"ĠEth":12449,"Ġprosp":12450,"å¹¿åĳĬ":12451,"Ġsports":12452,"iology":12453,"å§Ĩ":12454,"anz":12455,"rative":12456,"ãģ¡":12457,"åį±éĻ©":12458,"Ġtor":12459,"Ġrelax":12460,"reen":12461,"à©":12462,"Ġdiagnosis":12463,"ï¼Ŀ":12464,"OH":12465,"ĠMach":12466,"ĠĠĠĠĠĠĠĠĠĠĠĠĠĠ":12467,"orough":12468,"Ã§a":12469,"Ġcz":12470,"Ġoccurred":12471,"Ġsignals":12472,"Please":12473,"Ġpreced":12474,"Ġregist":12475,"å¾¡":12476,"Ġsrc":12477,"Ġcout":12478,"claim":12479,"Ġprofit":12480,"aste":12481,"Ġcab":12482,"xty":12483,"Ġemployment":12484,")\\)":12485,"Ġelectrical":12486,"Ġven":12487,"gebra":12488,"pecific":12489,"ÐµÑĢÐ°":12490,"åİī":12491,"km":12492,"æĸľ":12493,"Ġsnow":12494,"å·¡":12495,"-K":12496,"urer":12497,"åħĪè¿Ľ":12498,"003":12499,"ĠMicrosoft":12500,"Manager":12501,"Ġofficials":12502,"kov":12503,"ĠSecret":12504,"Ġstreet":12505,"ĠLeague":12506,"uje":12507,"æĪ°":12508,"ĠCath":12509,"Ġvulner":12510,"Ġtips":12511,"Ġbuff":12512,"ĠAp":12513,"oa":12514,"Ġprimarily":12515,"tÃ³":12516,"è¯Ħä¼°":12517,"èĥĮæĻ¯":12518,"åĮħåĲ«":12519,"Ġwealth":12520,"Conn":12521,"Ġforced":12522,"çļĦä½ľçĶ¨":12523,"à¤®":12524,"Ġlocations":12525,"ĠFlor":12526,"FA":12527,"Dr":12528,"Ġrepeated":12529,"ä¸įåĨį":12530,"æĺ¯æĪĳ":12531,"çĲĨæĥ³":12532,"look":12533,"ä¼ģä¸ļçļĦ":12534,"Ġenable":12535,"×Ļ×Ł":12536,"åı¹":12537,"à²¿":12538,"eting":12539,"ä¸ĬéĿ¢":12540,"Ġdomestic":12541,"(g":12542,"æİ¢ç´¢":12543,"ĠCommons":12544,"Ġdrawing":12545,"åħ¬åı¸çļĦ":12546,"çĩķ":12547,"alls":12548,"Ġindeed":12549,"ï»":12550,"ĠOnline":12551,"ĠPlay":12552,"May":12553,"ĠLike":12554,"Ġlimits":12555,"sis":12556,"à±įà°":12557,"-and":12558,"Ġà¦¶":12559,"Ġcorner":12560,"Ġtight":12561,"å±ķç¤º":12562,"å¸¦æĿ¥":12563,"Ġlose":12564,"ĠThrough":12565,"ç«ĭåį³":12566,"Ġgest":12567,"ÑĥÑĩ":12568,"Ġguar":12569,"Ġstars":12570,".size":12571,"ĠMartin":12572,"Ġtypical":12573,"çĵľ":12574,"ĠCirc":12575,"imm":12576,"Ġconversation":12577,"Ġlit":12578,"ĠfÃ¶r":12579,"å¥³æĢ§":12580,"ĠCost":12581,"Ġevaluate":12582,"Ġjump":12583,"ç»ıçĲĨ":12584,"ĠReading":12585,"Cons":12586,"Ġmagnetic":12587,"|---|---":12588,"Ġoder":12589,"×ŀ×":12590,"Ð¾Ð¼Ð°":12591,"Ġreaders":12592,"éªĳ":12593,"æĺ¯æľī":12594,"æķ°çļĦ":12595,"Ġvast":12596,"Ġgarden":12597,"Ġsupporting":12598,"Ġeating":12599,"Ġbegins":12600,"Ġodd":12601,"Element":12602,"Ġstable":12603,"Ġstored":12604,"ndrome":12605,"ĠOnly":12606,"GR":12607,"Ġafford":12608,"assert":12609,"Ġnerv":12610,"unning":12611,"Ġroles":12612,"Ġnuclear":12613,"ä»ĵ":12614,"Ġhal":12615,"ĠRef":12616,"èµĸ":12617,"áĥĶ":12618,"Ġassistance":12619,"ĠCarl":12620,"Ġdistingu":12621,"iu":12622,"oose":12623,"Ġà¤¸":12624,"Ġthread":12625,"æµĭéĩı":12626,"ĠÙħØŃ":12627,"Ġalign":12628,"ä¸Ģèĩ´":12629,"å°ıè¯´":12630,"ĠCast":12631,"Ġvote":12632,".de":12633,"ä½ıäºĨ":12634,"è¡¨æĺİ":12635,"ë²":12636,"Ġexperiments":12637,"UB":12638,"Ġplural":12639,"èį¡":12640,"Ġaqu":12641,"func":12642,"rape":12643,"Ġpossibility":12644,"å¤º":12645,"Ġhousehold":12646,"Ġregulations":12647,"âĢĿĊ":12648,"Ġindicates":12649,"ĠÐ¶Ðµ":12650,"ĠMen":12651,"Ġremained":12652,"ä¾ĽåºĶ":12653,"åĳ¼åĲ¸":12654,"ĠScott":12655,"Ġcoverage":12656,"å°±ä¸ļ":12657,"æĭĸ":12658,"éĥ½è¦ģ":12659,"-sc":12660,"obe":12661,"ÑĽ":12662,"Ġparticles":12663,"Ð½ÑĥÑİ":12664,"è·ĥ":12665,"Ġfacilities":12666,"\"\"":12667,"ç³Ĭ":12668,"etime":12669,"Gener":12670,"ëĤĺ":12671,"ÐµÐ½Ð¸Ð¸":12672,"ĠLast":12673,"Ġcamera":12674,"-level":12675,"ç½ĳç«Ļ":12676,"æĴŀ":12677,"lines":12678,"Subscribe":12679,"Ġpada":12680,"åīĩ":12681,"ĠÐ¾Ð±ÑĢÐ°Ð·":12682,"éĻ¶":12683,"Ġassociation":12684,"ped":12685,"åĨ³çŃĸ":12686,"Ġhier":12687,"According":12688,"INS":12689,"ä¸´åºĬ":12690,"ĠFederal":12691,"ä¼ļæľī":12692,"Ġagency":12693,"æĦŁæĥħ":12694,"Ġinformed":12695,")[":12696,"Ġskill":12697,"ÙĪÛĮ":12698,"ĠLess":12699,"ston":12700,"å¾Īå¤§":12701,"çº¤":12702,"èĩ³äºİ":12703,"_T":12704,"ĠCell":12705,"Ġdecades":12706,"anti":12707,"ÑħÐ°":12708,"Ġsky":12709,"Ġsv":12710,"éļ¾ä»¥":12711,"ipping":12712,"Ġguard":12713,"çļ®èĤ¤":12714,"320":12715,"æŃ»äº¡":12716,"äººåľ¨":12717,"æ¯ıæ¬¡":12718,"ĠMoreover":12719,"ìĪĺ":12720,"Ġcloser":12721,"ĠCreate":12722,"Ġingred":12723,"Ġpil":12724,"ç»ĻäºĪ":12725,"Inst":12726,"ĠCS":12727,"å¤©çļĦ":12728,"ĠÙħØ§":12729,"itivity":12730,"sv":12731,"éĢ»":12732,"esch":12733,"Ġfamous":12734,"aciones":12735,"Ġentered":12736,"Ġê·¸":12737,"æĦıåĳ³":12738,"è§Ħå¾ĭ":12739,"Ġinstruction":12740,"ĠPri":12741,"ĠQuestion":12742,"_in":12743,"Ġweap":12744,"Ġproof":12745,"ĠChildren":12746,"450":12747,"ä¸ĭä¸Ģ":12748,"orry":12749,"Ġ(_":12750,"à¦°à§įà¦":12751,"vements":12752,"ĠPolit":12753,")+":12754,"èģ½":12755,"Ġintent":12756,"ĠWindows":12757,"Ġfle":12758,"Ġbiggest":12759,"çľĭæĿ¥":12760,"Ġknowing":12761,"æ±¡æŁĵ":12762,"ìĻ":12763,"enda":12764,"Ġear":12765,"ĠLouis":12766,"Ġwear":12767,"ensus":12768,"Ġtheme":12769,"Ġwriter":12770,"è¸ı":12771,"ateral":12772,"à¸´à¸Ķ":12773,"};Ċ":12774,"Ġdistributed":12775,"å®ŀåľ¨":12776,"/n":12777,"theta":12778,"Ġscan":12779,"Ġnur":12780,"iser":12781,"ĠTri":12782,"ĠÐ¡ÑĤÐ°":12783,"icate":12784,"ÑİÑīÐ¸":12785,"å®¶éĩĮ":12786,"Ġpackage":12787,"ĠEU":12788,"Ġdriver":12789,"çŁĽçĽ¾":12790,"Ġreader":12791,"Ġ×Ĺ":12792,"ĠOp":12793,"Ġdiversity":12794,"ĠUr":12795,"ĠTreat":12796,"};ĊĊ":12797,"arse":12798,"æııè¿°":12799,"aven":12800,"Ġobjective":12801,"Ġends":12802,"Ġassume":12803,"Ġinject":12804,"ĠEgypt":12805,"Ġdemonstrated":12806,"Ġinfrastructure":12807,"Then":12808,"çľĭè§ģ":12809,"åį»":12810,"ĠVari":12811,"ribution":12812,"road":12813,"åŃ¦çĶŁçļĦ":12814,"à°¿":12815,"æī°":12816,"Ġchair":12817,"Ġnative":12818,"Ġuniversity":12819,"Ġpou":12820,"iente":12821,"Ġphotos":12822,"Abstract":12823,"Ġneighb":12824,"225":12825,"Ġtab":12826,"Ġprove":12827,"Ġwhereas":12828,"you":12829,"åĴ¨":12830,".id":12831,"Ġmolecular":12832,"_data":12833,"ĠOpt":12834,"aked":12835,"Ġrecognized":12836,"ä»£çłģ":12837,"éĥģ":12838,"ä¸Ĭä¸Ģ":12839,"-day":12840,"ĠLiter":12841,"Ø³Ø¨":12842,"Ġplastic":12843,"ĠÑĺÐµ":12844,"å¯º":12845,"Ġinstructions":12846,"ĠÐ´Ð¸":12847,"Ġgram":12848,"ithms":12849,"çĪ²":12850,"ĠpÃ¥":12851,"Ġstopped":12852,"åĳµ":12853,"../../":12854,"Ġcoffee":12855,"ĠSupport":12856,"Ð¼ÐµÑĤ":12857,"åĬŀçĲĨ":12858,"Ġpictures":12859,"ÖĢÕ":12860,"aneous":12861,"è³ª":12862,"å¤ļäºĨ":12863,"ĠWood":12864,".re":12865,"Ġforth":12866,"ĠLake":12867,"ĠPRO":12868,"åŁºåľ°":12869,"bel":12870,"ĠCorpor":12871,"sa":12872,"ĠExample":12873,"ìļ©":12874,"AV":12875,"UD":12876,"Ġtrav":12877,"Ġelection":12878,"ìłľ":12879,"Ġowner":12880,"Ġlaugh":12881,"äºĭæķħ":12882,"Ġvi":12883,"å¹´åº¦":12884,"å¥¹ä»¬":12885,"å¥Ī":12886,"arten":12887,"Note":12888,"Ø¤":12889,"Ġagents":12890,"éĺŁä¼į":12891,"Oct":12892,"Ġwalking":12893,"Ġconsequences":12894,")ãĢĤĊĊ":12895,"cor":12896,"omes":12897,"å¦Ĥæŀľä½ł":12898,"æłı":12899,"æ°¸è¿ľ":12900,"ademy":12901,"ĠVict":12902,"Ġnarrow":12903,"ested":12904,"Ġclosely":12905,"ĠÃ¤r":12906,"çĸı":12907,"ĠMaterial":12908,"Ġsheet":12909,"armac":12910,"Ġchrom":12911,"Ġgap":12912,"utor":12913,"ĠRoad":12914,"Ġtamb":12915,"ÅĤo":12916,"èªī":12917,"åĿĲåľ¨":12918,"Ġbat":12919,"ĠGreek":12920,"Ġcapable":12921,"ÐµÐ½Ð¸Ð¹":12922,"çĴĥ":12923,"ega":12924,"Ġstret":12925,"Ġ×ĵ":12926,"Ġholds":12927,"Ġchart":12928,"ĠØº":12929,"Ġremark":12930,"ä¸Ģå®ļçļĦ":12931,"alm":12932,"tica":12933,"ĠPen":12934,"ĠÎ³":12935,"Î¹Î±":12936,"å·¥èīº":12937,"æĭ³":12938,"Back":12939,"åĤ³":12940,"ĠVan":12941,"ĠLibrary":12942,"AND":12943,"Ø§Ø±ÛĮ":12944,"æľĢå¤§çļĦ":12945,"åħħæ»¡":12946,"Ġfunc":12947,"Ur":12948,"Ġnu":12949,"Ġdei":12950,"Ġ(\"":12951,"Ġtil":12952,"utt":12953,"Ġpanel":12954,"Ġ[[":12955,"++)Ċ":12956,"Ġà¦°":12957,"âĢĻĊĊ":12958,"å¤ļç§į":12959,"Ġrough":12960,"ĠParty":12961,"ĠÎ²":12962,"åĩĨç¡®":12963,"Ġstick":12964,"roke":12965,"Ġartist":12966,"Ġintelligence":12967,"à¸´à¸Ļ":12968,"éĹ®é¢ĺçļĦ":12969,"icity":12970,"Ġseed":12971,"æľµ":12972,"FL":12973,"kes":12974,"RL":12975,"ĠSearch":12976,"éĥŃ":12977,"ç·ļ":12978,"ĠResults":12979,"ĠØ£ÙĪ":12980,"æ¼Ĥ":12981,"Ġinteract":12982,"ĠGuide":12983,"ws":12984,"Ġion":12985,"Ġdell":12986,"Ġspeaking":12987,"Ġmanufacturing":12988,"æµ©":12989,"æī©å¤§":12990,"ĠÐµÐ³Ð¾":12991,"/A":12992,"main":12993,"Ġarrang":12994,"Ġpounds":12995,"omer":12996,"bsp":12997,"å®¾":12998,"plex":12999,"astern":13000,"çĻ»è®°":13001,".push":13002,"Ġphosph":13003,"Length":13004,"ĠLab":13005,"è¾ī":13006,"Ä«":13007,"èµĶ":13008,"Ġyellow":13009,"Ġlandscape":13010,"ĠNASA":13011,"arbon":13012,"Ġcraft":13013,"ĠÑĢÑĥ":13014,"èµ¤":13015,"èµ¢":13016,"æĥĳ":13017,"Ġclassroom":13018,"ĠSP":13019,"ÃŃm":13020,"reshold":13021,"ĠÐ¿Ðµ":13022,"ĠAnother":13023,"çī¹åĪ«æĺ¯":13024,"ontal":13025,"Ġunknown":13026,"(r":13027,"racy":13028,"æĳĺ":13029,"Ġpaint":13030,"-one":13031,"Part":13032,"obile":13033,"ä¹Łå°±":13034,"223":13035,"å¿§":13036,"QU":13037,"Ġpassion":13038,"ĠGame":13039,"Ġ===":13040,"olo":13041,"ÑĢÐµÐ¼":13042,"áĥĺáĥ":13043,"Ġevening":13044,"é¼ł":13045,"à¯Ī":13046,"Ġdecide":13047,"æĢİæł·":13048,"Ġhem":13049,"hop":13050,"å¤ªéĺ³":13051,"ĠPMID":13052,"æĭĨ":13053,"Ã©c":13054,"Ġconfiguration":13055,"ĠTen":13056,"Ġoperator":13057,"Ġfaster":13058,"ä½¿å¾Ĺ":13059,"çĶµè·¯":13060,"å¹¶ä¸įæĺ¯":13061,"ä¼łæĴŃ":13062,"Ġninety":13063,"èį¯çī©":13064,"Ġsale":13065,"Ġban":13066,"æĻĤåĢĻ":13067,"ĠQuestions":13068,"çĹħæ¯Ĵ":13069,"Ġasking":13070,"å®ŀåĬĽ":13071,"è´¢åĬ¡":13072,"çĽĪ":13073,"Ġ×¢×ľ":13074,"Ġfoods":13075,"éŃı":13076,"lambda":13077,"oda":13078,"Other":13079,"riculum":13080,"åķıé¡Į":13081,"MMMM":13082,"åįĢ":13083,"å»ī":13084,"âĶĢâĶĢ":13085,"åīª":13086,"à¹Īà¸Ļ":13087,"_st":13088,"åĲįçļĦ":13089,"ĠCross":13090,"åĳ¨åĽ´":13091,"æ³ķçļĦ":13092,"prise":13093,"Net":13094,"æīĭæľ¯":13095,"Ð¾Ð´Ñĥ":13096,"å¤ļä¸ª":13097,".is":13098,"Ġadequ":13099,"æģ¨":13100,"?âĢĿĊ":13101,"oni":13102,"ä¹Łè®¸":13103,"Ġcurve":13104,"éĬ":13105,"inds":13106,"è¿½æ±Ĥ":13107,"å¼ºåĮĸ":13108,"ername":13109,"åĲĦä¸ª":13110,"BI":13111,"çī§":13112,"æ²»çĲĨ":13113,"èĲ¥åħ»":13114,"ĠÑģÐ²Ð¾":13115,"Ġly":13116,"Ġroz":13117,"éĺ²æŃ¢":13118,"åĶ¯ä¸Ģ":13119,"Ġscheme":13120,"ymph":13121,"ĠÐ¤":13122,"Ð¶Ð´":13123,"×Ĳ":13124,"ulty":13125,"oking":13126,"å®Ŀå®Ŀ":13127,"Ġprintf":13128,"éĩĳå±ŀ":13129,"èı²":13130,"çļĦä¸ľè¥¿":13131,"Ġtaste":13132,"Ġvess":13133,"ĠãĢĲ":13134,"ÑĤÐµÑĢÐ¸":13135,"Ġeta":13136,"night":13137,"igration":13138,"ĠMiddle":13139,"group":13140,"ĠMexico":13141,"à§§":13142,"Ġgall":13143,"ĠFurthermore":13144,"ĠIndex":13145,"vy":13146,"åįıè°ĥ":13147,"è´¡çĮ®":13148,"Ġepis":13149,"Ġguidance":13150,"ä»°":13151,"Ġtan":13152,"olving":13153,"ÃŃs":13154,"âĺ":13155,"éªĹ":13156,"çĽ¸æ¯Ķ":13157,"ĠEnter":13158,"pload":13159,"æĻĭ":13160,"280":13161,"å°¤åħ¶æĺ¯":13162,"Ġexpansion":13163,"çĤ¹å¤´":13164,"à¹īà¸Ń":13165,"à¸Īà¸°":13166,"Ġbroken":13167,"idity":13168,"Ġconsumer":13169,"Ġsenior":13170,"ĠFour":13171,"throp":13172,"utter":13173,"iox":13174,"rade":13175,"Ġcompound":13176,"è½¨":13177,"ĠSche":13178,"Ð±Ð°":13179,"Ġmand":13180,"ĠHa":13181,"Ġbeauty":13182,"æĽ´å¥½":13183,"ĠÙħØª":13184,"èħº":13185,"Ġadvent":13186,"Ġgather":13187,"ÙĬÙĥ":13188,"æĶ¶çĽĬ":13189,"Ġlisted":13190,"onia":13191,"Rel":13192,"plicated":13193,"Ġinnovation":13194,"å¹½":13195,"Ġnums":13196,"åĽ½æ°ĳ":13197,"ĠktÃ³":13198,"è¿ĶåĽŀ":13199,"Ġgrid":13200,"istent":13201,"ãģ¨ãģĦ":13202,"Ðĵ":13203,"æĽ¹":13204,"angular":13205,"æľĢå¥½":13206,"ä¾ĿçĦ¶":13207,"ä¼ĺåĮĸ":13208,"OV":13209,"æ¶µ":13210,"Ġsuccessfully":13211,"é¦Ļæ¸¯":13212,"first":13213,"lementary":13214,"hus":13215,"ĠObserv":13216,"Exp":13217,"Ġplas":13218,"ifer":13219,"ĠÑģÐ²":13220,"ÙħØ§ÙĨ":13221,"Don":13222,"orption":13223,"ĠAz":13224,"ãĤ·":13225,"Ġconfirmed":13226,"Ġfeelings":13227,"Enter":13228,"Ġsport":13229,"çĽ´åĪ°":13230,"Ġkilomet":13231,"Ġawareness":13232,"rays":13233,"é½¿":13234,"iders":13235,"Ġestimate":13236,"Ġë¶":13237,"âĢĿâĢľ":13238,"Ġchoices":13239,"Ġclassification":13240,"eries":13241,"èĢģäºº":13242,"åħ¬å¼Ģ":13243,"ĠLo":13244,"eur":13245,"nych":13246,"æľŁçļĦ":13247,"ĠPC":13248,"Ġenzym":13249,"Ġchallenging":13250,"iri":13251,"Ġ('":13252,"ĠToday":13253,"Ġcarefully":13254,"æ»ļ":13255,"Ġcircle":13256,"Ġslowly":13257,"åĻ¨çļĦ":13258,"å¼¯":13259,"Ġsurvival":13260,"ÑĤÐ¾Ð²":13261,"ä¸ĢæĹ¦":13262,"Ġrenew":13263,"Ø¹ÙĦ":13264,"ilib":13265,"react":13266,"hl":13267,"ĠÙħØ±":13268,"åħ±äº§":13269,"×Ļ×ľ":13270,"Ġimproving":13271,"Ġrecover":13272,"Ġâĸ":13273,"éĽ¢":13274,"å¹´åīį":13275,"ç»ĦåĲĪ":13276,"Repository":13277,"ĠPac":13278,"aintiff":13279,"èĲ¬":13280,"Ġappeal":13281,"ç¬¬åįģ":13282,"çī©çĲĨ":13283,"éĦ":13284,"ÅŁ":13285,"ä»¤äºº":13286,"Ġmatters":13287,"çļĦå¥½":13288,"Ġdefense":13289,"antes":13290,"Ġengage":13291,"Ġtub":13292,"ĠSand":13293,"Ġforget":13294,"å¸¸è§ģ":13295,"èĴ¸":13296,"Ġwet":13297,"Start":13298,"åĴ¨è¯¢":13299,"adding":13300,"Ġrig":13301,"ãĤĪãģĨ":13302,"enz":13303,"ulating":13304,"#define":13305,"atial":13306,"à¹Ģà¸ģ":13307,"Ġdescribes":13308,"ruck":13309,"ä¸ŃéĹ´":13310,"Ġintegration":13311,"Ġdrink":13312,"Ġsupposed":13313,"bin":13314,"formance":13315,"wan":13316,"Ġoptimal":13317,"ĊĊĊĊ":13318,"Ġissued":13319,"äººçī©":13320,"åĽ½çļĦ":13321,"bag":13322,"Ġnegot":13323,"è»į":13324,"Ġourselves":13325,"ju":13326,"ĠConsider":13327,"æ¸¡":13328,"subscript":13329,"Ġbear":13330,"Ġemergency":13331,"æīĵéĢł":13332,"èĥ½éĩı":13333,"Ġhero":13334,"abul":13335,"cdot":13336,"MT":13337,"èİ±":13338,"rio":13339,"Ġconference":13340,"ustomer":13341,"ĠSS":13342,"ÏģÎ¿":13343,"ÙĬØ³":13344,"ĠëĮĢ":13345,"nia":13346,"æºª":13347,"ÑĥÑĢ":13348,"çŃĸçķ¥":13349,"Ġjur":13350,"é¢ľèī²":13351,"å·¥èµĦ":13352,"Ġses":13353,"idae":13354,"inates":13355,"ĠSem":13356,"ä¸Ĭåİ»":13357,"èª¿":13358,"Ġrevolution":13359,"Ġspiritual":13360,"................................................................":13361,"Ġëª":13362,"Atom":13363,"Ġuniform":13364,"å¥³åĦ¿":13365,"ÙĬÙģ":13366,"levision":13367,"ĠClick":13368,"ĠMedicine":13369,".net":13370,"æĻºæħ§":13371,"Ġtested":13372,"Ġaccum":13373,"Ġá¼":13374,"çªģçł´":13375,"Ġmixture":13376,"çĪ¸çĪ¸":13377,"ĠMedia":13378,"Ġresidents":13379,"å®Įæķ´":13380,"Ġrevenue":13381,"rance":13382,"æľīåĪ©":13383,"ç»Ļä½ł":13384,"Ġìĥ":13385,"Ġdivers":13386,"outs":13387,"ä¾¿æĺ¯":13388,"aud":13389,"Ġdefic":13390,"Ø±ÛĮ":13391,"anya":13392,"æģ°":13393,"Ġpotentially":13394,"çļĦä¸Ģç§į":13395,"Ġhaven":13396,"ools":13397,"éĵľ":13398,"ĠâĢĻ":13399,"beta":13400,"Ġintroduction":13401,"ì¹":13402,"Ġcrime":13403,"\".ĊĊ":13404,"Ġsubstr":13405,"Ø¹Ø©":13406,"011":13407,"Ġwatching":13408,"ĠFinally":13409,"é»İ":13410,"âĹı":13411,"ĠNav":13412,"Ġprepare":13413,"íĸ":13414,"Ġenviron":13415,"éŀĭ":13416,"dc":13417,"%Ċ":13418,"arks":13419,"ĠÂ©":13420,"Ġshock":13421,"ilarly":13422,"207":13423,"ĠÂ§":13424,"çĽ®åħī":13425,"ë©´":13426,"æµģç¨ĭ":13427,"FC":13428,"ĠLocal":13429,"è¿ĻæĹ¶":13430,"Comp":13431,"Ġdemonstrate":13432,"til":13433,"ĠTeam":13434,"Ġprofessionals":13435,"idential":13436,"forcement":13437,"ĠDivision":13438,"ĠAB":13439,"ĠLin":13440,"214":13441,"Ġencounter":13442,"ç¢º":13443,"Ġliv":13444,"Ġrational":13445,"Ð»ÐµÐ½Ð¸Ðµ":13446,"aron":13447,"outer":13448,"çĲ´":13449,"ç¬¬äºĶ":13450,"ä¿®æĶ¹":13451,"èįĴ":13452,"Ġmeasurements":13453,"åĬłå¿«":13454,"ACT":13455,"ÙĪØ§":13456,"Ġesp":13457,"æ°§åĮĸ":13458,"Ġdollars":13459,"×Ļ×ł":13460,">(":13461,"Su":13462,"ç¼´":13463,"Ġ×Ĵ":13464,"Ð±Ð¾ÑĤ":13465,"åĤħ":13466,"_M":13467,"ä¸īåįģ":13468,"Ġamounts":13469,"æĹ¢çĦ¶":13470,"-J":13471,"æĮĸ":13472,"Ġvelocity":13473,"Ġmarriage":13474,"ĠThree":13475,"206":13476,"ĠStrateg":13477,"Ġclin":13478,"æŁĲäºĽ":13479,"Ġfinish":13480,"ifferent":13481,"Ġthanks":13482,"emia":13483,"ican":13484,"æ²ŁéĢļ":13485,"hered":13486,"umes":13487,"è§ĤçĤ¹":13488,"208":13489,"amil":13490,"çļĦåŁºæľ¬":13491,"annels":13492,"ĠComments":13493,"ä»ĸåľ¨":13494,"ĠÑģÑĤÐ°Ð½Ð¾Ð²Ð½Ð¸ÑĪÑĤÐ²Ð¾":13495,"ĠFIG":13496,"è¡°":13497,"ribute":13498,"ostic":13499,"rij":13500,"ometimes":13501,"åĲ¯åĬ¨":13502,"AI":13503,"eps":13504,"imensional":13505,"339":13506,"Ġsitting":13507,"SO":13508,"éĽĨä½ĵ":13509,"**,":13510,"Dec":13511,"Ġspending":13512,"azine":13513,"ä¸Ģå£°":13514,"-res":13515,"Ġpy":13516,"Ġgift":13517,"å·®å¼Ĥ":13518,"Ġacts":13519,"ÑĺÐ°":13520,"ĠReal":13521,"èŀº":13522,"Ġexperts":13523,"hu":13524,"Ġmeters":13525,"Ġanxiety":13526,"Ġpresentation":13527,"Ġincreasingly":13528,"å¤§éĥ¨åĪĨ":13529,"van":13530,"¡°":13531,"aze":13532,"Ġdefinitely":13533,"IPT":13534,"åĲįç§°":13535,"Ġauthent":13536,"-qu":13537,"å¤©ä¸ĭ":13538,"Ġinflamm":13539,"Ġplanet":13540,"Ġdress":13541,"Fin":13542,"}=\\":13543,"åĪļåĪļ":13544,"unci":13545,"çµĦ":13546,"ĠHill":13547,"ĠInstead":13548,"Well":13549,"aki":13550,"æİ¥çĿĢ":13551,"æĥħåĨµä¸ĭ":13552,"Ġmoder":13553,"åıĺæĪĲ":13554,"260":13555,"Ġfashion":13556,"\\[\\":13557,"ĠAL":13558,"ĠFile":13559,"Integer":13560,"çŀ¬éĹ´":13561,"DO":13562,"Ġfest":13563,"Ġspaces":13564,"ailability":13565,"Ġroots":13566,"åľ¨æŃ¤":13567,"éĥİ":13568,"imp":13569,"æ¸ł":13570,"ĠRelated":13571,"riter":13572,"ekt":13573,"quir":13574,"ìĨ":13575,"ä»¶äºĭ":13576,"Ġwalked":13577,"åĪ°çļĦ":13578,"ĠChicago":13579,"/w":13580,"Ġsight":13581,"-V":13582,"Ġentirely":13583,"ĠÐŃ":13584,"Ġsuc":13585,"ĠCase":13586,"270":13587,"({":13588,"é©»":13589,"opp":13590,"ĠApplication":13591,"creen":13592,"enza":13593,"åħ¨ä½ĵ":13594,"Ø§Ø¶":13595,"Å¼y":13596,"åįıä¼ļ":13597,"Ġnach":13598,"Ġneighbor":13599,"èī¯å¥½çļĦ":13600,"ÅĤy":13601,"ĠFre":13602,"eper":13603,"é¦¬":13604,"ĠTerm":13605,"Ġimpossible":13606,"Ġquery":13607,"ĠRights":13608,"à¸«à¸Ļ":13609,"ĠOffic":13610,"Ġmir":13611,"âĪļ":13612,"Spec":13613,"ç¨Ģ":13614,"Ġstructural":13615,"Ġfert":13616,"onald":13617,"è¶ĭåĬ¿":13618,"ãĥŃ":13619,"éģĭ":13620,"Ġreligion":13621,"Ġtoler":13622,"å½¹":13623,"Ġadvoc":13624,"æīĢè¿°":13625,"lik":13626,"aset":13627,"upy":13628,"Ġremote":13629,"idos":13630,"Ġemployed":13631,"Ġjudgment":13632,"Ġdivide":13633,"eties":13634,"224":13635,"213":13636,"idents":13637,"(k":13638,"Ġya":13639,"iar":13640,"ëŁ":13641,"Ġjoy":13642,"ĠMov":13643,"normal":13644,"/M":13645,"Ġoccasion":13646,"åŁºå±Ĥ":13647,"real":13648,"Ġcontrols":13649,"æķ´çĲĨ":13650,"Ġabsence":13651,"plant":13652,"ä¸Ĭä¸ĭ":13653,"Ġwalls":13654,"arest":13655,"Ġstages":13656,"ĠCP":13657,"ĠAnswers":13658,"æĪĳåľ¨":13659,"è®ºæĸĩ":13660,"åı¯è§ģ":13661,".y":13662,"CN":13663,"Ġtalent":13664,"ajÄħ":13665,"à¸¹à¹ī":13666,"inu":13667,"æ¾³":13668,"ä¹Łè¦ģ":13669,"Hz":13670,"Ġvillage":13671,"Ġsummary":13672,"æµĻ":13673,"ĠVirgin":13674,"èĩĤ":13675,"èĤ¡ç¥¨":13676,"Ġmedicine":13677,"Ġcycl":13678,"bur":13679,"Ġscope":13680,"è½¦è¾Ĩ":13681,"æīįæĺ¯":13682,"Ġfulf":13683,"enta":13684,"ĠWal":13685,"Ġarrest":13686,"Ġwonderful":13687,"Ġintervention":13688,"Ġbehaviour":13689,"ĠFamily":13690,"Ġstake":13691,"(\"%":13692,"ship":13693,"Ġsurrounding":13694,"ahr":13695,"Ġmaintaining":13696,"-free":13697,"icken":13698,"Ġwird":13699,"ĠMur":13700,"åŃŁ":13701,"rowser":13702,"onom":13703,"Ġhur":13704,"Ġtradition":13705,"à¦¾à¦®":13706,"Ġcognitive":13707,"åĽĽä¸ª":13708,"åı¯èĥ½ä¼ļ":13709,"è£ħç½®":13710,"çŃĭ":13711,"Ġreviews":13712,"Ġcompounds":13713,"ĠÂł":13714,"ĠJohnson":13715,"Ġunderlying":13716,"Ġfan":13717,"Another":13718,"oin":13719,"ä¸»è¦ģæĺ¯":13720,"Ġarrived":13721,"è¿ĩçļĦ":13722,"221":13723,"ĠDoes":13724,"ç´łè´¨":13725,"è¡ĵ":13726,"aman":13727,"ĠJac":13728,"riers":13729,"æ¬¢è¿İ":13730,"ĠEX":13731,"Ġreasonable":13732,"ograf":13733,"Ġgran":13734,"Ġshares":13735,"ometer":13736,"ĠGeorg":13737,"Ġturns":13738,"ĠChange":13739,"apped":13740,"æ³¨åĨĮ":13741,"Ġconfirm":13742,"cosystem":13743,"Ġfabric":13744,"-cont":13745,"Ġsensor":13746,"\"]":13747,"Prov":13748,"amber":13749,"Ġsections":13750,"ogene":13751,"ÑĤÑģÑı":13752,"çķħ":13753,"Ġstone":13754,"ALL":13755,"zn":13756,"Ġdogs":13757,"Ð¾Ð±Ñĭ":13758,"Ġcategories":13759,"æĬ¥éģĵ":13760,"ãģ§ãģ¯":13761,"áĥĶáĥ":13762,"âĢ¦âĢ¦ĊĊ":13763,"çĲĨå¿µ":13764,"Ġfasc":13765,"åħ¬å®ī":13766,"çĽĳç®¡":13767,"ele":13768,"Ġbrown":13769,"ptr":13770,"Ġ['":13771,"entes":13772,"hematical":13773,"ĠRock":13774,"fit":13775,"å§¿":13776,"Ġny":13777,"Ġinterval":13778,"æĥ³æ³ķ":13779,"ê²Į":13780,"ĠLink":13781,"Ġguidelines":13782,"ä¸įæķ¢":13783,"liament":13784,"ĠÃ¼ber":13785,"è½ī":13786,"åĲ¸æĶ¶":13787,"ĠSoft":13788,"ç»¿èī²":13789,"Ð½ÑĭÐ¼Ð¸":13790,"Ġcomposite":13791,"Ġcommitted":13792,"Ġjun":13793,"cs":13794,"ĠCreative":13795,"Ġtwice":13796,"ëª":13797,"ä¸Ī":13798,"ĠHenry":13799,"Ġbuildings":13800,"Ġatmosphere":13801,"åĬ¨æľº":13802,"ĠÐ±Ð¾Ð»ÑĮ":13803,"ä¸Ģæĺ¯":13804,"ÑĩÐµÑĤ":13805,"Ġpump":13806,"ivated":13807,"ç³»ç»ŁçļĦ":13808,"Ġstands":13809,"ĠLabor":13810,"Ġbinding":13811,"Content":13812,"ä¹Ķ":13813,"Ø³ÛĮ":13814,"Ġfant":13815,"Ġadalah":13816,"ibli":13817,"Ġjoined":13818,"å®ħ":13819,"å¤§æ¦Ĥ":13820,"Ġhun":13821,"216":13822,"ĠWay":13823,"åħĦå¼Ł":13824,"åħģè®¸":13825,"ç¾İçļĦ":13826,"å²Ĺä½į":13827,"Ġnam":13828,"ĠFacebook":13829,"ãĢĭãĢĬ":13830,"Ġfootball":13831,"å±Ī":13832,"Ġtaught":13833,"Client":13834,"quad":13835,"AY":13836,"______":13837,"Ġvertical":13838,"ĠClub":13839,"Ġ?ĊĊ":13840,"Ġmarried":13841,"è´¯å½»":13842,"++;Ċ":13843,"åħ¬å¼ı":13844,"ĠFollow":13845,"Ġgrav":13846,"Rem":13847,"Ġtemperatures":13848,"è§£æŀĲ":13849,"æ·»åĬł":13850,"ĠLatin":13851,"Ġdiscrim":13852,"éĤĢ":13853,"å§ĭç»Ī":13854,"éĶ¦":13855,"ĠÙĩØ§ÛĮ":13856,"ĠChen":13857,"Ġsuit":13858,"Ġvehicles":13859,"ĠFlorida":13860,"Ġtod":13861,"Ð½Ð¸ÐºÐ°":13862,"Ð½Ð¸Ðº":13863,"ĠFort":13864,"Ġtur":13865,"ĠÙģÙī":13866,"MC":13867,"Ġofficer":13868,"éĢ¼":13869,"cie":13870,"utch":13871,"Ġeditor":13872,"ĠTax":13873,"Ġhex":13874,"å°ıç»Ħ":13875,"elen":13876,"ĠEmp":13877,"ucky":13878,"Ġradiation":13879,"æľºåĻ¨":13880,"æĸ¹ç¨ĭ":13881,"Ġvariation":13882,"Ø§Ùĭ":13883,"Ã¡r":13884,"Ġentertain":13885,"Ġpolitics":13886,"ĠProm":13887,"è¨±":13888,"çİ¯èĬĤ":13889,"ĠItalian":13890,"Ġmanifest":13891,"æ¯ıä¸Ģ":13892,"Ġaxis":13893,"apa":13894,"è®©ä»ĸ":13895,"ĠWords":13896,"å¹¿å¤§":13897,"/g":13898,"Ġspl":13899,"Ġlargely":13900,"Select":13901,"Pe":13902,"utely":13903,"ventions":13904,"åĸ®":13905,"ÙĪØ¬":13906,"çİ»":13907,"æĹ¥åŃĲ":13908,"NO":13909,"cipe":13910,"çĤī":13911,"*x":13912,"aga":13913,"ØªØ¨":13914,"Ġpicked":13915,"ĠWikipedia":13916,"çīµ":13917,"Chapter":13918,"Ġencourage":13919,"End":13920,"à¸ĭ":13921,"Ġcausing":13922,"215":13923,"ĠMuseum":13924,"Ġspin":13925,"RS":13926,"Ġenerg":13927,"ĠSup":13928,"Ġfro":13929,"hist":13930,"ĠMS":13931,"à¦ľ":13932,"select":13933,"rium":13934,"oro":13935,"ĠSar":13936,"é¡ŀ":13937,"è´§å¸ģ":13938,"Ġsister":13939,"ĠAnnual":13940,"ĠFactor":13941,"Since":13942,"ä¸īè§Ĵ":13943,"Ð¾Ð»Ð¾Ð³Ð¸":13944,"imeters":13945,"Ġnel":13946,"ipher":13947,"tery":13948,"ĉĉĉĉĉ":13949,"åģļäºĨ":13950,"ĠÏĦÎ¿Ïħ":13951,"çĤ®":13952,"ups":13953,"ç©·":13954,"ĠOxford":13955,"Ġlies":13956,"Ġdisorder":13957,"çľ¼åīį":13958,"209":13959,"Ġ'./":13960,"Ġsixty":13961,"%ãĢĤ":13962,"rapeut":13963,"çĨŁæĤī":13964,"Ġye":13965,"ĠOrder":13966,"irus":13967,"ï¼īãĢģ":13968,"KE":13969,"æĸ¤":13970,"rod":13971,"ĠAtl":13972,"Ġarchitecture":13973,"Ġstrategic":13974,"rary":13975,"Ġillness":13976,"Ġimmune":13977,"Expl":13978,"vertisement":13979,"Ġà¦Ĺ":13980,"Ġexception":13981,"tical":13982,"ĠRom":13983,"èĢĮä¸į":13984,"åĽŀå®¶":13985,"ç¼Ŀ":13986,"Ġflood":13987,"ande":13988,"<?":13989,"Ġlicens":13990,"çļĦçĶŁæ´»":13991,"éĻĦè¿ĳ":13992,"cias":13993,"ä¸Ĭå¸Ĥ":13994,"åħļå§Ķ":13995,"ulin":13996,"-ex":13997,"è®¼":13998,"ĠLevel":13999,"å´ĩ":14000,"Ġhonest":14001,"åľ¨ä¸Ģ":14002,"åĹİ":14003,"partial":14004,"Ġincred":14005,"Journal":14006,"íķĺëĬĶ":14007,".##":14008,"Ġmic":14009,"ede":14010,"Ġbattery":14011,"Ġisland":14012,"edge":14013,"ĠÐ»Ðµ":14014,"çļĦåīį":14015,"Ġpossibly":14016,"éĤª":14017,"omal":14018,"æĦĽ":14019,".</":14020,"Ġkinds":14021,"ä¸įæĥ³":14022,"Ġsigned":14023,"Ġtells":14024,"âĢ¦âĢ¦âĢĿĊĊ":14025,"zz":14026,"ĠØ§ÙĦØµ":14027,"arios":14028,"Â».":14029,"ĠAustralian":14030,"Ġreverse":14031,"ÏģÎ¹":14032,"ĠTake":14033,"ç±»ä¼¼":14034,"orted":14035,"ĠÐ¿Ð¾Ð²":14036,"Ġassigned":14037,"Ġproportion":14038,"ĠÐ½Ð¾":14039,"irection":14040,"éĢ»è¾ĳ":14041,"())":14042,"éĺ¶çº§":14043,"Ġhorm":14044,"uli":14045,"Ġmine":14046,"ÛĮØª":14047,"å¥½å¥½":14048,"ä¸»ä½ĵ":14049,"ĠPosts":14050,"Ġprogramming":14051,"Ġbah":14052,"VI":14053,"Ġtidak":14054,"(S":14055,"çĭ¼":14056,"Ġgrass":14057,"Ġconsideration":14058,"Ø§ÙĦÙħ":14059,"ĠArray":14060,"Ġintellect":14061,"mid":14062,"Ġdar":14063,"Ġsad":14064,"ä¸»å¸Ń":14065,"bu":14066,"Ġcontro":14067,"è¿ĽæŃ¥":14068,"Ġschedule":14069,"ĠØ§ÙĦØ±":14070,"Ġsensitive":14071,"å¹´é¾Ħ":14072,"Order":14073,"Ġnp":14074,"rates":14075,"inson":14076,"plot":14077,"Ġfeels":14078,"Ðĳ":14079,"éĤ»":14080,"Ġdiabetes":14081,"231":14082,"Ġdraft":14083,"Ð½Ð¸Ð¼Ð°":14084,"Ġhall":14085,"Ġhan":14086,"åİŁçĲĨ":14087,"Ġsmile":14088,"Ð»ÐµÐ¼":14089,"ĠTre":14090,"éĤ¦":14091,"Ġcentre":14092,"ĠEN":14093,"Override":14094,"Ġrural":14095,"Ġconsumers":14096,"Ġmere":14097,"âĢķ":14098,"Ġraw":14099,"ponents":14100,"page":14101,"åŃ¦ç§ĳ":14102,"endar":14103,"ĠØªØŃ":14104,"éĥ½æ²¡æľī":14105,"Ġembodiment":14106,"ĠDa":14107,"Ġpassage":14108,"Ã·":14109,"Ġmeat":14110,"Ġappar":14111,"Ġpresents":14112,"ĠÃ©s":14113,"Ġvisible":14114,"Ġtransformation":14115,"Ġtrends":14116,"Ġë¬":14117,"æŃ¤æ¬¡":14118,"æ¶Īå¤±":14119,"æĦŁè°¢":14120,"è¿ĺåľ¨":14121,"Ġrecognize":14122,"Ġtumor":14123,"eed":14124,"atre":14125,"omial":14126,"åĺĽ":14127,"(C":14128,"Ġworry":14129,"Ġnutri":14130,"sup":14131,"Ġaccident":14132,"Ġ×ł×":14133,"Ġcalling":14134,"eling":14135,"ĠExec":14136,"ukan":14137,"éĥ½èĥ½":14138,"Ġusual":14139,"uten":14140,"äºĴèģĶç½ĳ":14141,"ÐºÐ¾Ð½":14142,"Ġalbum":14143,"ALU":14144,"ãĥ³ãĥ":14145,"ĠJewish":14146,"isted":14147,"Ġabsolute":14148,"å®ŀéĻħä¸Ĭ":14149,"hm":14150,"Ġintegrated":14151,"Ġregulation":14152,"ĠUk":14153,"Ġcriminal":14154,"author":14155,"cientific":14156,"Ð£":14157,"ether":14158,"ĠWeek":14159,"Ġneither":14160,"\\).":14161,",-":14162,"Ġapproved":14163,"ï¼īãĢĤ":14164,"åģļçļĦ":14165,"oga":14166,"ITY":14167,"è®°å¾Ĺ":14168,"çħ§çīĩ":14169,".The":14170,"çĶŁæĪĲ":14171,"è¿ĩäºĨ":14172,"Ġnatur":14173,"ĠPlant":14174,"à¸Ħà¸£":14175,"è¿Ļå°±æĺ¯":14176,"Ġlayers":14177,"çĶµåİĭ":14178,"Ġphoto":14179,"ä¹īåĬ¡":14180,"(T":14181,"Ġfans":14182,"imo":14183,"ĠÑĩÐµ":14184,"ç¿¼":14185,"athy":14186,"ĠSon":14187,"Ġlogic":14188,"è¦ģæĺ¯":14189,"ä¼ĳæģ¯":14190,"Ġinvolving":14191,"Ġseat":14192,"ĠAT":14193,"Ġperiods":14194,"Ġdrawn":14195,"è¾©":14196,"ĠÑĦÐ¾ÑĢ":14197,"è·¯ä¸Ĭ":14198,"Ġmeter":14199,"circ":14200,"æĽ´å¤ļçļĦ":14201,"orical":14202,"ĠPay":14203,"ublishing":14204,"æĶ¹éĢł":14205,"å¾Īéļ¾":14206,"pg":14207,"ÅĽÄĩ":14208,"à¹īà¸ĩ":14209,"åĽŀåİ»":14210,"èİ·åıĸ":14211,"ç¾©":14212,"Ġ×ĸ":14213,"è°Ĳ":14214,"ç¸½":14215,"Ġauthorities":14216,"Ġital":14217,"ĠÐ¿ÐµÑĢ":14218,"ĠArchived":14219,"Ġpip":14220,"Ġlib":14221,"çľł":14222,"ä¾Ŀæ³ķ":14223,"×ķ×Ĳ":14224,".),":14225,"ÏĢÎ¿":14226,"Ġabund":14227,"å¨ľ":14228,"mathbb":14229,"çªģåĩº":14230,"Ġadm":14231,"ä»²":14232,"ĠField":14233,"itudes":14234,"_C":14235,"ä¹Łæ²¡":14236,"Ġà´":14237,"Red":14238,"_F":14239,"aved":14240,"Ġsplit":14241,"æıĲåīį":14242,"Ġpopulations":14243,"ĠMaster":14244,")]":14245,"Ġnob":14246,"idation":14247,"à¦¾à¦¤":14248,"ç»ĥä¹ł":14249,"ä»İäºĭ":14250,"ĠItaly":14251,"Ġbiological":14252,"iture":14253,"Ġrelief":14254,"udo":14255,"insert":14256,"Ġbrings":14257,".\"Ċ":14258,"å±ŀæĢ§":14259,"å¹³æĸ¹":14260,"Ġextension":14261,"é¸£":14262,"Ġfilms":14263,"ä¸īå¹´":14264,"BD":14265,"ĠSat":14266,"Ġmembrane":14267,"terior":14268,"Ġdisorders":14269,"Ġcomfortable":14270,"æĪĺæĸĹ":14271,"æĭħå¿ĥ":14272,"Ġcorrel":14273,"etal":14274,"Ã¥n":14275,"à°¾":14276,"Ġuniverse":14277,"tab":14278,"Ġgrad":14279,"Ġmessages":14280,"Ġupd":14281,"è¯¾åłĤ":14282,"Ac":14283,"Ġconstraint":14284,"life":14285,"íĬ":14286,"Ġbacteria":14287,"ĠCambridge":14288,"åľ°çļĦ":14289,"amine":14290,"é£İæł¼":14291,"ĠAccount":14292,"Ġpreparation":14293,"Ġmu":14294,"ĠSpace":14295,"å±ħçĦ¶":14296,"ĠLight":14297,"æįķ":14298,"Ġassign":14299,"cerning":14300,"ìŀ¥":14301,"stra":14302,"Ġcompetitive":14303,"ìĿ¼":14304,"çĤĴ":14305,"Ġreserv":14306,"Ġdepression":14307,"Ġsteel":14308,"à¦¾à¦ķ":14309,"itage":14310,"æľ¬æ¬¡":14311,"ilon":14312,"ĠÙħØµ":14313,"Ġdenomin":14314,"Ġimplemented":14315,"Ġtag":14316,"Ġobser":14317,"Ġcommission":14318,"Ġsubsequent":14319,"ĠĠĠĊ":14320,"aires":14321,"Ġstem":14322,"æīĢåľ¨":14323,"ï¬ģ":14324,"Ġextensive":14325,"æĤł":14326,"Ġpassing":14327,"Ġconvertion":14328,"åĽłçĤº":14329,"Ġexplo":14330,"èĤ¡ä»½":14331,"(B":14332,"è®°å¿Ĩ":14333,"è´¢äº§":14334,"à¹Ħà¸¡à¹Ī":14335,"æį·":14336,"é¼ĵåĬ±":14337,"Ġrealized":14338,"å°İ":14339,"Description":14340,"ëĮĢ":14341,"Ġturning":14342,"Ġkne":14343,"ĠØ°":14344,".Get":14345,"search":14346,"draw":14347,"Ġexposed":14348,"Ġflight":14349,"Ð¾Ð³ÑĢÐ°":14350,"Ġcircul":14351,"tn":14352,"Ġvous":14353,"Ġoptical":14354,"ĠNode":14355,"Ġcars":14356,"èĬ³":14357,"Ð±Ðµ":14358,"Ġputting":14359,"number":14360,".).":14361,"ĠInteg":14362,"ä¾¯":14363,"Ġflag":14364,"Ġdit":14365,"ĠDC":14366,"sten":14367,"Ġcubic":14368,"Public":14369,"clusions":14370,"yo":14371,"%.":14372,".to":14373,"Ġscientists":14374,"ĠPages":14375,"Ġgrown":14376,"ulo":14377,"okes":14378,"lets":14379,"Î»Î¿":14380,"Ġdedicated":14381,"æĮ¡":14382,"æĦıçļĦ":14383,"å¤ĸçļĦ":14384,"nero":14385,"ĠCivil":14386,"Ġmolecules":14387,"ĠMusic":14388,"Ġofficers":14389,"ĠYoung":14390,"gun":14391,"ãĢĭãĢģãĢĬ":14392,"Ps":14393,"Ġwine":14394,"ĠAssess":14395,"}^{\\":14396,"æ»¤":14397,"Ġadopted":14398,"ç¼ºä¹ı":14399,"ĠJob":14400,"ä¸¢":14401,"ĠYet":14402,"Ġworse":14403,"Ġbei":14404,"Ġimmediate":14405,"Ġconventional":14406,"acional":14407,"Ġtempor":14408,"Ġpandemic":14409,"Ġà¤ª":14410,"çµ±":14411,"ĠÐ¿Ð¾Ð¼":14412,"ç¾İä¸½":14413,"Ġhidden":14414,"odo":14415,"Ġattacks":14416,"Ġcort":14417,"è¦ª":14418,"}+":14419,"åįķåħĥ":14420,"ĠHor":14421,"Ġlect":14422,"UI":14423,"å§ĳå¨ĺ":14424,"Î½Î¿":14425,"Ġbirds":14426,"åĴ¬":14427,"was":14428,"Ġreactions":14429,"ĠBra":14430,"åħ¬éĩĮ":14431,"ĠFire":14432,"Ġfoundation":14433,"ĠDid":14434,"ideos":14435,"Ġscholars":14436,"æľīæĹ¶":14437,"ĠSea":14438,"GC":14439,"çĮľ":14440,"John":14441,"ÙĢ":14442,"äº«åıĹ":14443,"Ġshell":14444,"Ġattached":14445,"Cor":14446,"çļĦåħ³ç³»":14447,"ĠKind":14448,"Ġsupports":14449,"Ġmoments":14450,"ç¬¬ä¸Ģä¸ª":14451,"Ġyes":14452,"004":14453,"æľ¬æĿ¥":14454,"Ġserves":14455,"234":14456,"Ġemotions":14457,"Ġconnections":14458,"Ġcounsel":14459,"ĠKingdom":14460,"330":14461,"æ¯ıå¹´":14462,"rell":14463,"ä¸įå¦Ĥ":14464,"Ġê°Ģ":14465,"232":14466,"\"I":14467,"Ġboolean":14468,"Ġsick":14469,"Ġidentification":14470,"Ġincident":14471,"ĠPractice":14472,"Ġduration":14473,"ching":14474,"AF":14475,"è¯īè®¼":14476,"igin":14477,"ĠFunction":14478,"json":14479,"Ġboys":14480,"razil":14481,"otation":14482,"æĺ¯åĽłä¸º":14483,"fast":14484,"Ġnodes":14485,"'),Ċ":14486,"Ġlots":14487,"éĻµ":14488,"contain":14489,"ĠReact":14490,"ÑĢÐ¾Ñģ":14491,"herent":14492,"ĠNext":14493,"idades":14494,"ãĥ¬":14495,"Ġneur":14496,"åĳĨ":14497,"Ġcontribution":14498,"ĠEll":14499,"Ġscores":14500,"æħ°":14501,"Ġbio":14502,"åĽ¾ä¹¦":14503,"quis":14504,"Hel":14505,"mand":14506,"ĠBible":14507,"ĠâĦ":14508,"Ġpartnership":14509,"ĠHaw":14510,"ĠINTO":14511,"ĠÑĢÐ°Ñģ":14512,"rans":14513,".data":14514,"Ġhyd":14515,"acer":14516,"avel":14517,"Ġloan":14518,"ÏĥÏĦ":14519,"Ġdynamics":14520,"ĠIndones":14521,"Ġê¸°":14522,"Ġrail":14523,"çļĦåİŁåĽł":14524,"ÙĦÙģ":14525,"åĲ¦åĪĻ":14526,"åĮ¹":14527,"Ġstrict":14528,"åĽ¾çīĩ":14529,"IX":14530,"Ġbranch":14531,")ĊĊĊ":14532,"åĪºæ¿Ģ":14533,"Ġmassive":14534,".spring":14535,"è¯ģåĪ¸":14536,"åĮĢ":14537,"Ø§Ø®":14538,"ä½©":14539,"Open":14540,"Ġcontained":14541,"poon":14542,"ĠWall":14543,"Ġneck":14544,"ÙĩØ±":14545,"ä¸įèµ·":14546,"Ġlig":14547,"éĹ®éģĵ":14548,"æ¶Īè´¹èĢħ":14549,"Ġpartners":14550,"Ġsole":14551,"è¡Ģç®¡":14552,"ä»ĬæĹ¥":14553,"çĲĨçĶ±":14554,"è¾¨":14555,"æ£ĢéªĮ":14556,"å®¶äºº":14557,"Ġparte":14558,"ĠpH":14559,"Ġstorm":14560,"èĢĢ":14561,"èĩī":14562,"ĠMrs":14563,"Ġshel":14564,"æĶ»åĩ»":14565,"aba":14566,"ĠJoseph":14567,"_B":14568,"Ġeiner":14569,"ĠAC":14570,"çĪ±çļĦ":14571,"åĽ¾åĥı":14572,"];":14573,"=(":14574,"ĠHospital":14575,"ç²ĺ":14576,"åĬŀåħ¬å®¤":14577,"åģļåĩº":14578,"Ġposit":14579,"Ġconscious":14580,"ĠÏĦÎ¿":14581,"essions":14582,"ĠBooks":14583,"ĠFalse":14584,"ç¿Ĵ":14585,"Ġbread":14586,"çĶŁéķ¿":14587,"args":14588,"Ġpowers":14589,"æĹ¥æľŁ":14590,"Ġcomposed":14591,"åĪĽä½ľ":14592,"inh":14593,"Â±":14594,"Ġspoke":14595,"person":14596,"Î¼Î¿":14597,"à¤²":14598,"dev":14599,"ĠSpecies":14600,"roud":14601,"Ġongoing":14602,"çĶµæµģ":14603,"åŃ¦æľ¯":14604,"Ġobservations":14605,"cies":14606,"<T":14607,"sim":14608,"oston":14609,"Ø¨ÙĬ":14610,"Ġcolle":14611,"åĬ¨æĢģ":14612,"è½¬ç§»":14613,"ogram":14614,"(N":14615,"ĠWang":14616,"à§įà¦Ł":14617,"ĠÐ½Ð°Ð¿":14618,"ĠRen":14619,"Ġ/>":14620,"Ġgun":14621,"ĠÐ¾ÑĢ":14622,"Module":14623,"upyter":14624,"×Ļ×ĵ":14625,"Ġcandidate":14626,"Ġmga":14627,"Ġposts":14628,"Ġusage":14629,"ä»ĸè¯´":14630,"åľ¨äºĨ":14631,"217":14632,"éĴ»":14633,"tan":14634,"Ġimplications":14635,"Ġholid":14636,"chem":14637,"iko":14638,"252":14639,"ĠKen":14640,"ERE":14641,"ĠBritain":14642,"æµģåĬ¨":14643,"RNA":14644,"ĠStandard":14645,"holder":14646,"Ġrapidly":14647,"çļĦæĥħ":14648,"Ġvolunte":14649,"ĠWhether":14650,"aylor":14651,"åĲĮä¸Ģ":14652,"Ġorders":14653,"åĤ¬":14654,"ĠÐ²Ð¾":14655,"åıĺéĩı":14656,"Ġseventy":14657,"ĠCancer":14658,"Ġsono":14659,"vere":14660,"Ġmechanical":14661,"ãģ°":14662,"ìĥģ":14663,"Ġbanks":14664,"ĠLearn":14665,"310":14666,"ĠLicense":14667,"Link":14668,"Ġweekend":14669,"åĿĽ":14670,"OU":14671,"Ġcyt":14672,"ĠFac":14673,"Ġmurder":14674,"ĠHim":14675,"ĠRest":14676,"Ġassembly":14677,"éĢīé¡¹":14678,"æľ¬æĸĩ":14679,"udi":14680,"Ġdangerous":14681,"éĴ®":14682,"èĦ¾":14683,"æĪĴ":14684,"å¥³åŃ©":14685,"ologist":14686,"ighter":14687,"etics":14688,"ĠCurrent":14689,"éĨī":14690,"ellen":14691,"Ġflowers":14692,"éģĶ":14693,"Ġpulled":14694,"Ð»Ñĭ":14695,"yer":14696,"Ġfractions":14697,"à¦¶":14698,"æĢ¨":14699,"Ġquantity":14700,"Ġinvestors":14701,"ĠWorksheet":14702,"Ġinterpretation":14703,"ãĢĤ#":14704,"Ġmodified":14705,"\\in":14706,"base":14707,"è°ĥèĬĤ":14708,"ĠVe":14709,"war":14710,"Ġvor":14711,"Ġmoves":14712,"åĩ¯":14713,"esse":14714,"chron":14715,"conds":14716,"Ġdirected":14717,"éĢĻæ¨£":14718,"Ð·Ð¾Ð²Ð°":14719,"çĤ¹åĩ»":14720,"çļĦåĨħå®¹":14721,"ĠSep":14722,"ĠSeries":14723,"(v":14724,"Ġtall":14725,".'":14726,"å±Ĥæ¬¡":14727,"expected":14728,"Ġao":14729,"emos":14730,"rine":14731,"æ¯ģ":14732,"ĠComputer":14733,"lib":14734,"<j":14735,"æ·±åĪ»":14736,"Many":14737,"Ġexpensive":14738,"ĠTree":14739,"Ġunable":14740,"Ġdetermining":14741,"Ġgate":14742,"Ġpreferred":14743,"uid":14744,"Ġfault":14745,"ĠHot":14746,"Ġcharacterized":14747,"ĠNS":14748,"ĠUnit":14749,"æ»ĭ":14750,"ropical":14751,"GA":14752,"owing":14753,"´Ģ":14754,"ĠÑģÐ»Ñĥ":14755,"à¦¾à¦¬":14756,"Ġbless":14757,"ISBN":14758,"æĸ¹çļĦ":14759,"èĩªä¸»":14760,"Ġbij":14761,"åĮºåĪ«":14762,"éħĴåºĹ":14763,"à¹īà¸Ńà¸ĩ":14764,"github":14765,"Ġcollaboration":14766,"Ġbon":14767,"Ġexpectations":14768,"æ··åĲĪ":14769,"Ġcutting":14770,"ï¼ĳ":14771,"ensor":14772,"ĠAcademy":14773,"Ġdiscl":14774,"ĠDaniel":14775,"wing":14776,"Ġdelle":14777,"ÙĭØ§":14778,"éľį":14779,"mg":14780,"è½¬æį¢":14781,"ĠStudent":14782,"Min":14783,"æĮĩæķ°":14784,"è®©æĪĳä»¬":14785,"Ġhydrogen":14786,"sigma":14787,"adv":14788,"é¡ºåĪ©":14789,"Ġpartial":14790,"she":14791,"Ġicon":14792,"à³ģ":14793,"ĠLat":14794,"west":14795,"Ġmetabol":14796,"abulary":14797,"ĠÐ¡ÑĤÐ°Ð½Ð¾Ð²Ð½Ð¸ÑĪÑĤÐ²Ð¾":14798,"Ġdose":14799,"ĠLtd":14800,"ĠMD":14801,"Ġparticipation":14802,"Ġpapers":14803,"framework":14804,"Ġtrouble":14805,"har":14806,"aped":14807,"Ġboost":14808,"à®¤":14809,"Ġaims":14810,"FT":14811,"Ġmanip":14812,"Ø±Ùĩ":14813,"Ġreliable":14814,"ìķĦ":14815,"âĢĿ.ĊĊ":14816,"ĠBlue":14817,"Delete":14818,"Ġaccordance":14819,"ĠÐ¼Ð¾Ð¶ÐµÑĤ":14820,"Ġteeth":14821,"Ġpolar":14822,"íķĻ":14823,"Ġuit":14824,"ilipp":14825,"èµĦæł¼":14826,"Just":14827,"Ġobst":14828,"ÐĹ":14829,"ĠSpirit":14830,"Ġcoach":14831,"Ġbis":14832,"ĠHead":14833,"Ġdur":14834,"Ġultimately":14835,"çĽĨ":14836,"mond":14837,"Ġenjoyed":14838,"Ġjudge":14839,"]=":14840,"Ġpassword":14841,"Ġversus":14842,"235":14843,"ĠNature":14844,"Ġedition":14845,"Ġgel":14846,"Ġreporting":14847,"æĴ¤":14848,"è¿ĺèĥ½":14849,"ĠGi":14850,"option":14851,"Ġlessons":14852,"è¼ķ":14853,"rak":14854,"ihan":14855,"Ġbien":14856,"Ġengagement":14857,"ä¸Ģæ®µ":14858,"âĢĻ.":14859,"ĠOs":14860,"ĠÐŁÐ¾":14861,"rades":14862,"merican":14863,"-off":14864,"\";ĊĊ":14865,"/C":14866,"(input":14867,"±ä¹Ĳ":14868,"æ¡Ĥ":14869,"Ġfran":14870,"å¾Īæľī":14871,"åĤĻ":14872,"ÙĤØ§ÙĦ":14873,"asar":14874,"ĠBefore":14875,"Ġheter":14876,"Ð½ÐµÐ¹":14877,"å¤§å¤ļæķ°":14878,"ãĢĤãĢĬ":14879,"oder":14880,"Ġforma":14881,"301":14882,"imary":14883,"è¿Ļä½į":14884,"Use":14885,"rif":14886,"ä¸įåľ¨":14887,"height":14888,"Ġblocks":14889,".sub":14890,"Ġtranslation":14891,"å¼Ĥå¸¸":14892,"adt":14893,"Ġoral":14894,"ĠØ§ÙĦØªÙĬ":14895,"rowth":14896,"ĠpiÃ¹":14897,"Ġdependent":14898,"Ġintensity":14899,"Ġpin":14900,"Ġdefe":14901,"åħ¸åŀĭ":14902,"æ±º":14903,"Ġarguments":14904,"-five":14905,"Ġfly":14906,"Token":14907,"Ġanticip":14908,"ĠIran":14909,"Ġà¦ī":14910,"Ġcompos":14911,"éļıåĲİ":14912,"emon":14913,"Ġserving":14914,"ä¿Ĭ":14915,"à¦¿à¦²":14916,"219":14917,".âĢĻĊĊ":14918,"æĪ¿éĹ´":14919,"ĠLove":14920,"orem":14921,"fin":14922,"ĠØ¨Ø±Ø§ÛĮ":14923,"EA":14924,"ãĤ³":14925,"çģĮ":14926,"Ġath":14927,"è§Ĵèī²":14928,"lder":14929,"Ġtrigger":14930,"ĠGall":14931,"ynt":14932,"éĤ£æł·":14933,"Ġaudio":14934,"ĠLow":14935,"ØªÛĮ":14936,"Ġê²ĥ":14937,"Gen":14938,"?\"ĊĊ":14939,"rating":14940,"ç¥¥":14941,"ALUES":14942,"ĠJim":14943,"è¡Ĺéģĵ":14944,"çĨĬ":14945,"Ġbath":14946,"ĠHu":14947,"é¢Ħéĺ²":14948,"à¦¾à¦¦":14949,"/metric":14950,"Ġcel":14951,"Ġnutrition":14952,"Ġcorporate":14953,"à¯įà®¤":14954,"Ġquad":14955,"Mon":14956,"ĠRh":14957,"Ġbutter":14958,"Two":14959,"ç½¢":14960,"Ġcapture":14961,"æĪĳè¯´":14962,"}}{":14963,"à²¿à²":14964,"Find":14965,"Title":14966,"ãĢĤãĢĤ":14967,"Ġsyndrome":14968,"Ġdass":14969,".(":14970,"bles":14971,"245":14972,"ç«ĭåĪ»":14973,"åĲİéĿ¢":14974,"Ġstruggle":14975,"áĢºáĢ":14976,"ÏīÎ½":14977,"Intern":14978,"default":14979,"Ġadmin":14980,"ä¸įå¤ļ":14981,"Ġram":14982,"ĠCall":14983,"005":14984,"è¾ĸ":14985,"aws":14986,"è¯Ħè®º":14987,"indow":14988,"ä¿¡çĶ¨":14989,"det":14990,"INSERT":14991,"Ġsought":14992,"Ġthreshold":14993,"noon":14994,"èĢĥæł¸":14995,"Ġapplicable":14996,"ĠImage":14997,"èľľ":14998,"ĠChild":14999,"Ġhorse":15000,"è¦ĸ":15001,"ä¸ŃåŃ¦":15002,"èĢĮå·²":15003,"233":15004,"Ġparticipate":15005,"Ġduty":15006,"çº¢èī²":15007,"ocracy":15008,"çĸ«æĥħéĺ²æİ§":15009,"orney":15010,"Ġpeak":15011,"Ġcontainer":15012,"},\\":15013,"Ġps":15014,"Ġgru":15015,"ÑģÑĤÑĥ":15016,"èŃĺ":15017,"×ķ×ĳ":15018,"åŃĹç¬¦":15019,"Ġlaunch":15020,"Ġgrew":15021,"Ġlowest":15022,"æĪĸè®¸":15023,"ĠCrit":15024,"ĠMethods":15025,"Ġrealize":15026,"ãģĤãĤĬ":15027,"æĤ¬":15028,"occ":15029,"åŃĺåĤ¨":15030,"Ġthermal":15031,"big":15032,"Ġdebate":15033,",y":15034,"Ġaccommod":15035,"este":15036,"ĠTour":15037,"çº¿çļĦ":15038,"ĠÎ»":15039,"ĠDownload":15040,"èĤĥ":15041,"GE":15042,"Ġdys":15043,"è§Ĥå¿µ":15044,"ikk":15045,"Ġexcited":15046,"æīŃ":15047,"Ġmovements":15048,"andon":15049,"åĲĮåŃ¦ä»¬":15050,"Ġinfo":15051,"Ġdurch":15052,"Ġenvironments":15053,"Ġagencies":15054,"Gl":15055,"-being":15056,"å®ļä½į":15057,"/T":15058,"istant":15059,"ĠâĪĪ":15060,"ä½łæĺ¯":15061,"ĠPath":15062,"enger":15063,"æĮĳæĪĺ":15064,"Ġfi":15065,"çĪ¬":15066,"Ġmater":15067,"Although":15068,"åħ·å¤ĩ":15069,"Ġtelling":15070,"äºĮæĺ¯":15071,"à¸ģà¸£":15072,"\"><":15073,"Ġsubstance":15074,"Ġextreme":15075,"ottom":15076,"bro":15077,"åŃ©åŃĲä»¬":15078,"Group":15079,"Ġliver":15080,"è´Łè´£äºº":15081,"charge":15082,"çİ»çĴĥ":15083,"Ġnecessarily":15084,"äºı":15085,"æĤ¦":15086,"å¯¹è¯Ŀ":15087,"Ġtout":15088,"Ġabstract":15089,"Ġ...Ċ":15090,"ä¸ĵéĹ¨":15091,"Ġfing":15092,"_to":15093,"Ð¾ÑĢÐ¾":15094,"æĪĲçĨŁ":15095,"Ġlang":15096,"ĠStar":15097,"750":15098,"ĠSaint":15099,"Category":15100,".K":15101,"è¿ĲèĲ¥":15102,"ä¹¡æĿĳ":15103,"Ġgent":15104,"ä¸Ĭåįĩ":15105,"Ġwest":15106,"ĠÎ¿":15107,"nis":15108,"åĵ²åŃ¦":15109,"Ġwaves":15110,"Ġexamine":15111,"Ġfurn":15112,"idi":15113,"Ġclot":15114,".pro":15115,")/(":15116,"mediate":15117,"Ġëı":15118,"à¸ķà¸£":15119,"çŃīäºİ":15120,"çļĦæĥħåĨµä¸ĭ":15121,"undo":15122,"prene":15123,"ãĤ¸":15124,"Ang":15125,"ĠÐ´Ð¾Ð»":15126,"Ġgeb":15127,"ä»¿ä½Ľ":15128,"Ġartists":15129,"bed":15130,"Ġtea":15131,"Ġsuperior":15132,"éĥ¨ç½²":15133,"æĹ¨":15134,".js":15135,"_type":15136,"æĹ¶åĪ»":15137,"(y":15138,"ĠPak":15139,"azz":15140,"Ġecosystem":15141,"Ġchest":15142,"ĠBell":15143,"Ġsul":15144,"ÙĦØ§Ùħ":15145,"Ġthorough":15146,"å·ŀå¸Ĥ":15147,"({Ċ":15148,"è¡¥åħħ":15149,"æıĲç¤º":15150,"Ġowners":15151,"Ġpes":15152,"iatric":15153,"é¥±":15154,"Ġ×§":15155,"Ġurl":15156,"Ġspr":15157,"é¢Ħæµĭ":15158,"å±±ä¸ľ":15159,"åĩºåıĳ":15160,"èŀįåĲĪ":15161,"Ġtent":15162,"Ġdelivered":15163,"ÙĦØ©":15164,"unit":15165,"ä¸ĢåĲį":15166,"Est":15167,"ĠCup":15168,"ĠEt":15169,"Ġcreates":15170,"-two":15171,"Dep":15172,"ahl":15173,"Ġsentences":15174,"Ġbare":15175,"Ġlift":15176,"ĠAk":15177,"è¯´æĺ¯":15178,"Ġhung":15179,"Ġlung":15180,"è·ŁçĿĢ":15181,"å¯»æī¾":15182,"ãģ¨ãģĦãģĨ":15183,"ĠSource":15184,"ĠâĹ":15185,"éĽ¾":15186,"Ġstrongly":15187,"ĠPL":15188,"èĳī":15189,"<jupyter":15190,"241":15191,"ĠIre":15192,"ä¹ĭä¸ĭ":15193,"Ġaer":15194,"odium":15195,"è¢Ń":15196,"Ð´Ñĭ":15197,"ä¹¾":15198,"Ġfacing":15199,"Ġadvantages":15200,"ĠArmy":15201,"Ġmice":15202,"(this":15203,"cers":15204,"Check":15205,"åı¯èĥ½æĺ¯":15206,"card":15207,"Ġapparatus":15208,"Âµ":15209,"Stream":15210,"×ķ×ł":15211,"Ð¾Ð³Ð´Ð°":15212,"ĠÐ¶Ð¸":15213,"vision":15214,"Ġrub":15215,"uct":15216,"-al":15217,"ĠEin":15218,"çĶµèĦĳ":15219,".Col":15220,"å°¸":15221,"ä¸»æĮģ":15222,"lie":15223,"æĶ¯éĥ¨":15224,"ĠEarly":15225,"å¼ĢäºĨ":15226,"èĬĤçĤ¹":15227,"æ¬§æ´²":15228,"Pat":15229,"ĠResources":15230,"Ġreplacement":15231,"ĠÐ²ÑĢÐµÐ¼":15232,"ĠExamples":15233,"ÐµÐ½Ð°":15234,"è¾£":15235,".name":15236,"Ġjug":15237,"å¥³åŃĲ":15238,"ĠSummary":15239,"ĠFar":15240,"æĻ®éģį":15241,"ĠManager":15242,"à¤µ":15243,"missions":15244,"ĠÐ¸ÑģÐ¿Ð¾Ð»ÑĮ":15245,"-com":15246,"Ġjak":15247,"enti":15248,"Ġfinds":15249,"erk":15250,"ï»¿":15251,"åĳ¨æľŁ":15252,"è¡¨æĥħ":15253,"å«Į":15254,"ĠPython":15255,"ĠCanadian":15256,"çł´åĿı":15257,"agues":15258,"å¼ºçļĦ":15259,"è«ĭ":15260,"Ġsimult":15261,"ĠKim":15262,"Ġmathematics":15263,"èĦ¸ä¸Ĭ":15264,"æĬ¹":15265,"Ġniet":15266,"Ġengaging":15267,"ÑģÐºÐ¾Ð¹":15268,"Ð¾ÑĢÐ¸":15269,"Ġundert":15270,"Ġfu":15271,"ĠBul":15272,"à¦¿à¦°":15273,"Ġeighty":15274,"å¿ħçĦ¶":15275,"æĥ³è±¡":15276,"rep":15277,"åķ¥":15278,"ĠÎ¸":15279,"uen":15280,"Ġexplicit":15281,"Ð·Ð½Ð°":15282,"ĠSov":15283,"èİ²":15284,"å¥ĳ":15285,"Ġcomprising":15286,"çĶ¨æĿ¥":15287,"hn":15288,"Ø¯Ø©":15289,"ÓĻ":15290,"Ġarmy":15291,"Ġrepair":15292,"Ġsubstantial":15293,"gers":15294,"Ġcompliance":15295,"ä¸¾åĬŀ":15296,"Ġschedul":15297,"Ġrevers":15298,"Ġconserv":15299,"emble":15300,"ĠRoyal":15301,"ĠComment":15302,"pie":15303,"åľĸ":15304,"Ġabuse":15305,"éĢĤå½ĵ":15306,"Ġcoal":15307,"åŀĥ":15308,"æĬ¼":15309,"à¸§à¸´":15310,"-four":15311,"ÙĪØ¹":15312,"Ġvisited":15313,"Ġdinner":15314,"ĠHave":15315,"à¹Īà¸²":15316,"ractions":15317,"äººå®¶":15318,"ÙĪØ²":15319,"Ġordered":15320,"åİŁæľ¬":15321,"lights":15322,"é©¾é©¶":15323,"ulus":15324,"ä¸¾è¡Į":15325,"ĠAge":15326,"oren":15327,"åľ¾":15328,"response":15329,"ĠPlace":15330,"uits":15331,"æĲ¬":15332,"ç´Ħ":15333,"ë¶Ģ":15334,"Ġconfigure":15335,"ĠÐ»Ñİ":15336,".Add":15337,"èĲ¥éĶĢ":15338,"Ġexecutive":15339,"Ġforecast":15340,"æľŁå¾ħ":15341,"Ġalla":15342,"à¸«à¸£":15343,"apse":15344,"Ġestate":15345,"ployee":15346,"lymp":15347,"æĺ¯çĶ±":15348,"íĬ¸":15349,"Ġkitchen":15350,"æŁ¥çľĭ":15351,"oven":15352,"ĠChief":15353,"ASE":15354,"ĠestÃ¡":15355,"URL":15356,"eff":15357,"æ£Ĵ":15358,"Ã±os":15359,"Ġconcrete":15360,"ĠWrite":15361,
[...]
